{
  "version": "1.0",
  "truncation": null,
  "padding": null,
  "added_tokens": [
    {
      "id": 0,
      "content": "[PAD]",
      "single_word": false,
      "lstrip": false,
      "rstrip": false,
      "normalized": false,
      "special": true
    },
    {
      "id": 1,
      "content": "[CLS]",
      "single_word": false,
      "lstrip": false,
      "rstrip": false,
      "normalized": false,
      "special": true
    },
    {
      "id": 2,
      "content": "[SEP]",
      "single_word": false,
      "lstrip": false,
      "rstrip": false,
      "normalized": false,
      "special": true
    },
    {
      "id": 3,
      "content": "[MASK]",
      "single_word": false,
      "lstrip": false,
      "rstrip": false,
      "normalized": false,
      "special": true
    }
  ],
  "normalizer": {
    "type": "NFC"
  },
  "pre_tokenizer": {
    "type": "ByteLevel",
    "add_prefix_space": false,
    "trim_offsets": true,
    "use_regex": true
  },
  "post_processor": null,
  "decoder": {
    "type": "ByteLevel",
    "add_prefix_space": true,
    "trim_offsets": true,
    "use_regex": true
  },
  "model": {
    "type": "BPE",
    "dropout": null,
    "unk_token": null,
    "continuing_subword_prefix": null,
    "end_of_word_suffix": null,
    "fuse_unk": false,
    "byte_fallback": false,
    "ignore_merges": false,
    "vocab": {
      "[PAD]": 0,
      "[CLS]": 1,
      "[SEP]": 2,
      "[MASK]": 3,
      "!": 4,
      "\"": 5,
      "#": 6,
      "$": 7,
      "%": 8,
      "&": 9,
      "'": 10,
      "(": 11,
      ")": 12,
      "*": 13,
      "+": 14,
      ",": 15,
      "-": 16,
      ".": 17,
      "/": 18,
      "0": 19,
      "1": 20,
      "2": 21,
      "3": 22,
      "4": 23,
      "5": 24,
      "6": 25,
      "7": 26,
      "8": 27,
      "9": 28,
      ":": 29,
      ";": 30,
      "<": 31,
      "=": 32,
      ">": 33,
      "?": 34,
      "@": 35,
      "A": 36,
      "B": 37,
      "C": 38,
      "D": 39,
      "E": 40,
      "F": 41,
      "G": 42,
      "H": 43,
      "I": 44,
      "J": 45,
      "K": 46,
      "L": 47,
      "M": 48,
      "N": 49,
      "O": 50,
      "P": 51,
      "Q": 52,
      "R": 53,
      "S": 54,
      "T": 55,
      "U": 56,
      "V": 57,
      "W": 58,
      "X": 59,
      "Y": 60,
      "Z": 61,
      "[": 62,
      "\\": 63,
      "]": 64,
      "^": 65,
      "_": 66,
      "`": 67,
      "a": 68,
      "b": 69,
      "c": 70,
      "d": 71,
      "e": 72,
      "f": 73,
      "g": 74,
      "h": 75,
      "i": 76,
      "j": 77,
      "k": 78,
      "l": 79,
      "m": 80,
      "n": 81,
      "o": 82,
      "p": 83,
      "q": 84,
      "r": 85,
      "s": 86,
      "t": 87,
      "u": 88,
      "v": 89,
      "w": 90,
      "x": 91,
      "y": 92,
      "z": 93,
      "{": 94,
      "|": 95,
      "}": 96,
      "~": 97,
      "¡": 98,
      "¢": 99,
      "£": 100,
      "¤": 101,
      "¥": 102,
      "¦": 103,
      "§": 104,
      "¨": 105,
      "©": 106,
      "ª": 107,
      "«": 108,
      "¬": 109,
      "®": 110,
      "¯": 111,
      "°": 112,
      "±": 113,
      "²": 114,
      "³": 115,
      "´": 116,
      "µ": 117,
      "¶": 118,
      "·": 119,
      "¸": 120,
      "¹": 121,
      "º": 122,
      "»": 123,
      "¼": 124,
      "½": 125,
      "¾": 126,
      "¿": 127,
      "Â": 128,
      "Ã": 129,
      "Ä": 130,
      "Å": 131,
      "Æ": 132,
      "Ç": 133,
      "È": 134,
      "É": 135,
      "Ê": 136,
      "Ë": 137,
      "Ì": 138,
      "Í": 139,
      "Î": 140,
      "Ï": 141,
      "Ð": 142,
      "Ñ": 143,
      "Ò": 144,
      "Ó": 145,
      "Ô": 146,
      "Õ": 147,
      "Ö": 148,
      "×": 149,
      "Ø": 150,
      "Ù": 151,
      "Ú": 152,
      "Û": 153,
      "Ü": 154,
      "Ý": 155,
      "ß": 156,
      "à": 157,
      "á": 158,
      "â": 159,
      "ã": 160,
      "ä": 161,
      "å": 162,
      "æ": 163,
      "ç": 164,
      "è": 165,
      "é": 166,
      "ê": 167,
      "ë": 168,
      "ì": 169,
      "í": 170,
      "ï": 171,
      "ð": 172,
      "Ċ": 173,
      "Ġ": 174,
      "Ģ": 175,
      "ģ": 176,
      "Ĥ": 177,
      "ĥ": 178,
      "Ħ": 179,
      "ħ": 180,
      "Ĩ": 181,
      "ĩ": 182,
      "Ī": 183,
      "ī": 184,
      "Ĭ": 185,
      "ĭ": 186,
      "Į": 187,
      "į": 188,
      "İ": 189,
      "ı": 190,
      "Ĳ": 191,
      "ĳ": 192,
      "Ĵ": 193,
      "ĵ": 194,
      "Ķ": 195,
      "ķ": 196,
      "ĸ": 197,
      "Ĺ": 198,
      "ĺ": 199,
      "Ļ": 200,
      "ļ": 201,
      "Ľ": 202,
      "ľ": 203,
      "Ŀ": 204,
      "ŀ": 205,
      "Ł": 206,
      "ł": 207,
      "Ń": 208,
      "Ġt": 209,
      "Ġa": 210,
      "in": 211,
      "he": 212,
      "er": 213,
      "Ġo": 214,
      "Ġthe": 215,
      "on": 216,
      "an": 217,
      "re": 218,
      "á»": 219,
      "Ġs": 220,
      "á»į": 221,
      "ti": 222,
      "en": 223,
      "Ġw": 224,
      "ed": 225,
      "or": 226,
      "is": 227,
      "al": 228,
      "es": 229,
      "ar": 230,
      "áº": 231,
      "Ġc": 232,
      "áº¹": 233,
      "Ġb": 234,
      "Ġp": 235,
      "Ġof": 236,
      "Ġf": 237,
      "nd": 238,
      "Ġn": 239,
      "Ġin": 240,
      "at": 241,
      "it": 242,
      "ĠÃ": 243,
      "ĠA": 244,
      "Ġm": 245,
      "as": 246,
      "ÃŃ": 247,
      "Ġand": 248,
      "Ġl": 249,
      "ic": 250,
      "ing": 251,
      "ro": 252,
      "Ġd": 253,
      "Ġto": 254,
      "le": 255,
      "Ìģ": 256,
      "tion": 257,
      "un": 258,
      "ĠT": 259,
      "Ġh": 260,
      "us": 261,
      "il": 262,
      "ĠS": 263,
      "om": 264,
      "ĠC": 265,
      "Ġ1": 266,
      "ĠI": 267,
      "ĠB": 268,
      "Ã¬": 269,
      "ent": 270,
      "Ã¡": 271,
      "el": 272,
      "Ãł": 273,
      "st": 274,
      "ra": 275,
      "Ġe": 276,
      "Ġre": 277,
      "ol": 278,
      "gb": 279,
      "ur": 280,
      "Ġ(": 281,
      "ri": 282,
      "Ġk": 283,
      "Ġi": 284,
      "ÌĢ": 285,
      "Ġth": 286,
      "ĠM": 287,
      "á»įn": 288,
      "am": 289,
      "ec": 290,
      "Ã©": 291,
      "ad": 292,
      "ul": 293,
      "ut": 294,
      "et": 295,
      "ac": 296,
      "ly": 297,
      "ation": 298,
      "ĠThe": 299,
      "Ġg": 300,
      "ĠP": 301,
      "Ãº": 302,
      "Ġis": 303,
      "id": 304,
      "á¹": 305,
      "á¹£": 306,
      "ĠN": 307,
      "ver": 308,
      "ter": 309,
      "Ġas": 310,
      "wá»įn": 311,
      "ir": 312,
      "Ġ19": 313,
      "ot": 314,
      "Ġfor": 315,
      "Ġon": 316,
      "Ġni": 317,
      "ve": 318,
      "ay": 319,
      "ĠE": 320,
      "ch": 321,
      "Ġ2": 322,
      "Ġti": 323,
      "ĠR": 324,
      "ce": 325,
      "ĠO": 326,
      "ig": 327,
      "ow": 328,
      "ĠH": 329,
      "ĠF": 330,
      "os": 331,
      "ĠL": 332,
      "ith": 333,
      "ĠG": 334,
      "Ġwas": 335,
      "Ġal": 336,
      "ĠD": 337,
      "em": 338,
      "Ġbe": 339,
      "Ġá»į": 340,
      "ĠÃł": 341,
      "her": 342,
      "ĠnÃŃ": 343,
      "um": 344,
      "Ã³": 345,
      "Ġwith": 346,
      "Ġcon": 347,
      "Ġan": 348,
      "and": 349,
      "Ġst": 350,
      "ĠW": 351,
      "ĠÃ¬": 352,
      "Ġby": 353,
      "ist": 354,
      "op": 355,
      "âĢ": 356,
      "ag": 357,
      "od": 358,
      "Ġor": 359,
      "Ġj": 360,
      "ab": 361,
      "th": 362,
      "Ġthat": 363,
      "Ġ20": 364,
      "Ġwh": 365,
      "im": 366,
      "Ġr": 367,
      "ion": 368,
      "ers": 369,
      "Ġpro": 370,
      "'s": 371,
      "Ġ\"": 372,
      "ĠJ": 373,
      "tic": 374,
      "ok": 375,
      "Ã¨": 376,
      "ts": 377,
      "rom": 378,
      "Ġcom": 379,
      "Ġit": 380,
      "Ã²": 381,
      "Ġy": 382,
      "âĢĵ": 383,
      "res": 384,
      "ĠK": 385,
      "ain": 386,
      "Ġat": 387,
      "ia": 388,
      "ĠIn": 389,
      "ian": 390,
      "ity": 391,
      "ud": 392,
      "Ã¹": 393,
      "Ġare": 394,
      "uc": 395,
      "ate": 396,
      "ug": 397,
      "Ġv": 398,
      "ak": 399,
      "und": 400,
      "Ġfrom": 401,
      "est": 402,
      "Ġde": 403,
      "ap": 404,
      "oc": 405,
      "Ġex": 406,
      "up": 407,
      "ub": 408,
      "Ġpl": 409,
      "ĠÃĢ": 410,
      "if": 411,
      "qu": 412,
      "ĠU": 413,
      "Ġmo": 414,
      "ment": 415,
      "ere": 416,
      "og": 417,
      "ich": 418,
      "ess": 419,
      "ĠIt": 420,
      "Ġhe": 421,
      "all": 422,
      "Ãºn": 423,
      "rá»į": 424,
      "ew": 425,
      "ĠtÃŃ": 426,
      "ard": 427,
      "Ġáº¹": 428,
      "ber": 429,
      "se": 430,
      "ati": 431,
      "Ġá¹£": 432,
      "ct": 433,
      "ill": 434,
      "Ġgb": 435,
      "Ġco": 436,
      "ip": 437,
      "ort": 438,
      "ated": 439,
      "00": 440,
      "ran": 441,
      "bi": 442,
      "Ġse": 443,
      "Ġhis": 444,
      "mer": 445,
      "ies": 446,
      "já»į": 447,
      "ĠÃĢwá»įn": 448,
      "iv": 449,
      "láº¹": 450,
      "ĠâĢĵ": 451,
      "ure": 452,
      "Ġar": 453,
      "ally": 454,
      "ary": 455,
      "ge": 456,
      "Ġus": 457,
      "ear": 458,
      "Ġwhich": 459,
      "ĠCh": 460,
      "so": 461,
      "ous": 462,
      "end": 463,
      "ine": 464,
      "asi": 465,
      "Ġch": 466,
      "ell": 467,
      "dÃ¬": 468,
      "Ġsp": 469,
      "Ġwere": 470,
      "ĠÃ¡": 471,
      "ká»į": 472,
      "ong": 473,
      "av": 474,
      "Ġle": 475,
      "),": 476,
      "ĠAl": 477,
      "Ġsi": 478,
      "ther": 479,
      "ant": 480,
      "igh": 481,
      "ugh": 482,
      "ave": 483,
      "mp": 484,
      "out": 485,
      "ore": 486,
      "Ġac": 487,
      "ĠSt": 488,
      "ĠÃ³": 489,
      "ish": 490,
      "stáº¹": 491,
      "Ã¬dÃ¬": 492,
      "ĠÃ¡stáº¹": 493,
      "Ġpe": 494,
      "rin": 495,
      "Ġcomp": 496,
      "art": 497,
      "ast": 498,
      "ust": 499,
      "ome": 500,
      "ord": 501,
      "Ġawá»įn": 502,
      "Ġnot": 503,
      "ni": 504,
      "ep": 505,
      "Ġ201": 506,
      "Ġjáº¹": 507,
      "Ġun": 508,
      "ial": 509,
      "okasi": 510,
      "cl": 511,
      "pp": 512,
      "gbÃł": 513,
      "ry": 514,
      "ame": 515,
      "rÃŃ": 516,
      "our": 517,
      "Ġfi": 518,
      "aa": 519,
      "ican": 520,
      "má»į": 521,
      "ĠItokasi": 522,
      "Ġad": 523,
      "ĠÃłwá»įn": 524,
      "ff": 525,
      "Ġab": 526,
      "wo": 527,
      "ĠV": 528,
      "di": 529,
      "ted": 530,
      "Ġráº¹": 531,
      "Ġsh": 532,
      "Ġalso": 533,
      "Ãłn": 534,
      "red": 535,
      "to": 536,
      "Ã¡n": 537,
      "Ġhave": 538,
      "Ġen": 539,
      "Ġcont": 540,
      "ical": 541,
      "ass": 542,
      "ue": 543,
      "ence": 544,
      "ations": 545,
      "age": 546,
      "ang": 547,
      "ld": 548,
      "Ġdi": 549,
      "ign": 550,
      "ik": 551,
      "Ġhas": 552,
      "uch": 553,
      "unt": 554,
      "ack": 555,
      "tern": 556,
      "vel": 557,
      ").": 558,
      "erm": 559,
      "Ġ200": 560,
      "Ġhad": 561,
      "jáº¹": 562,
      "Ġwá»įn": 563,
      "fer": 564,
      "ĠAn": 565,
      "duc": 566,
      "iti": 567,
      "ory": 568,
      "ĠAmer": 569,
      "per": 570,
      "Ġ18": 571,
      "me": 572,
      "Ġá¹£e": 573,
      "Ġits": 574,
      "de": 575,
      "Ġil": 576,
      "lu": 577,
      "ĠTh": 578,
      "Ġá»įd": 579,
      "lo": 580,
      "ĠY": 581,
      "we": 582,
      "ib": 583,
      "erÃ©": 584,
      "Ġati": 585,
      "iz": 586,
      "sh": 587,
      "tions": 588,
      "hen": 589,
      "ren": 590,
      "Ġtheir": 591,
      "ater": 592,
      "irst": 593,
      "vers": 594,
      "ork": 595,
      "19": 596,
      "Ġcl": 597,
      "á¹£áº¹": 598,
      "ates": 599,
      "ey": 600,
      "Ġfun": 601,
      "ie": 602,
      "ĠÃĮ": 603,
      "Ġbut": 604,
      "aj": 605,
      "Ġother": 606,
      "ide": 607,
      "Ġres": 608,
      "ĠAr": 609,
      "any": 610,
      "ect": 611,
      "ond": 612,
      "uld": 613,
      "te": 614,
      "clud": 615,
      "ric": 616,
      "rit": 617,
      "Ġdis": 618,
      "land": 619,
      "Ġall": 620,
      "ĠÃłti": 621,
      "ĠlÃ¡": 622,
      "ree": 623,
      "les": 624,
      "Ġibi": 625,
      "ĠÃ¨": 626,
      "Ġlo": 627,
      "ces": 628,
      "ph": 629,
      "ach": 630,
      "ens": 631,
      "pe": 632,
      "ress": 633,
      "ĠsÃŃ": 634,
      "ound": 635,
      "ĠÃ²": 636,
      "aw": 637,
      "Ġfirst": 638,
      "jÃ¡": 639,
      "orm": 640,
      "tÃ¬": 641,
      "Ġlá»į": 642,
      "own": 643,
      "Ġthis": 644,
      "Ġcan": 645,
      "ult": 646,
      "ba": 647,
      "inu": 648,
      "ĠÃ¬gbÃł": 649,
      "hed": 650,
      "Ġ199": 651,
      "ational": 652,
      "Ġra": 653,
      "Ġbeen": 654,
      "Ġone": 655,
      "Ġnaa": 656,
      "Ġro": 657,
      "Ã©k": 658,
      "Ġapp": 659,
      "Ġpar": 660,
      "Ġcons": 661,
      "Ġ3": 662,
      "Ġkan": 663,
      "Ġinclud": 664,
      "ron": 665,
      "ÅĦ": 666,
      "ĠAmerican": 667,
      "Ġper": 668,
      "Ġbec": 669,
      "able": 670,
      "Ã¬n": 671,
      "fter": 672,
      "kan": 673,
      "over": 674,
      "rig": 675,
      "Ã¹n": 676,
      "ace": 677,
      "Ġcomm": 678,
      "ile": 679,
      "ited": 680,
      "ost": 681,
      "olog": 682,
      "ight": 683,
      "Ġag": 684,
      "amp": 685,
      "Ġte": 686,
      "ĠEn": 687,
      "ari": 688,
      "ade": 689,
      "ase": 690,
      "lÃº": 691,
      "lic": 692,
      "ĠkÃ©k": 693,
      "ance": 694,
      "ĠkÃ©kerÃ©": 695,
      "are": 696,
      "erv": 697,
      "á»Į": 698,
      "Ġwho": 699,
      "Ġwá»į": 700,
      "ji": 701,
      "Ã¡náº¹": 702,
      "ĠUn": 703,
      "ors": 704,
      "ĠÃ¬gbÃłjÃ¡": 705,
      "ĠplÃ¡náº¹": 706,
      "ĠÅĦ": 707,
      "Ġdes": 708,
      "Ġbi": 709,
      "Ġtra": 710,
      "Ġsy": 711,
      "Ġme": 712,
      "uring": 713,
      "Ġsc": 714,
      "Ġsuch": 715,
      "ath": 716,
      "ans": 717,
      "Ġrec": 718,
      "ely": 719,
      "ough": 720,
      "Ġcent": 721,
      "ĠHe": 722,
      "Ġform": 723,
      "ons": 724,
      "Ġyear": 725,
      "oll": 726,
      "Ġused": 727,
      "ite": 728,
      "Ġol": 729,
      "ven": 730,
      "Ã¡Ãł": 731,
      "ah": 732,
      "Ġele": 733,
      "ents": 734,
      "Ġlati": 735,
      "Ġ|": 736,
      "Ġá»Į": 737,
      "ai": 738,
      "Ġexp": 739,
      "Ġrep": 740,
      "ÃŃn": 741,
      "Ġmore": 742,
      "Ġ198": 743,
      "Ġmost": 744,
      "Ġtwo": 745,
      "uro": 746,
      "Ġwo": 747,
      "Ġsome": 748,
      "Ġplay": 749,
      "wá»į": 750,
      "ism": 751,
      "ĠAs": 752,
      "ose": 753,
      "Ġam": 754,
      "20": 755,
      "ks": 756,
      "ular": 757,
      "orld": 758,
      "Ġá»įmá»į": 759,
      "Ġinto": 760,
      "Ġimp": 761,
      "ris": 762,
      "ice": 763,
      "ori": 764,
      "Ġagb": 765,
      "cess": 766,
      "Ġthey": 767,
      "ury": 768,
      "Ġover": 769,
      "Ġlar": 770,
      "je": 771,
      "ll": 772,
      "lá»į": 773,
      "ten": 774,
      "Ġpre": 775,
      "Ġrel": 776,
      "aus": 777,
      "ov": 778,
      "als": 779,
      "ob": 780,
      "Ġwa": 781,
      "Ġne": 782,
      "ĠtÃ³": 783,
      "Ġ197": 784,
      "rib": 785,
      "Ġko": 786,
      "rans": 787,
      "Ġbet": 788,
      "enti": 789,
      "Ġgro": 790,
      "Ġá»įdÃºn": 791,
      "Ġso": 792,
      "Ġbo": 793,
      "Ġreg": 794,
      "Ġthan": 795,
      "ark": 796,
      "ener": 797,
      "ede": 798,
      "Ġ-": 799,
      "ral": 800,
      "ráº¹": 801,
      "wn": 802,
      "ail": 803,
      "gbáº¹": 804,
      "ind": 805,
      "orn": 806,
      "oh": 807,
      "Ġind": 808,
      "ive": 809,
      "ings": 810,
      "ĠCom": 811,
      "iss": 812,
      "ĠAf": 813,
      "Ġpol": 814,
      "tive": 815,
      "Ġafter": 816,
      "Ġ4": 817,
      "ĠRe": 818,
      "ĠAm": 819,
      "old": 820,
      "ĠOn": 821,
      "ĠEng": 822,
      "ased": 823,
      "pa": 824,
      "ĠfÃºn": 825,
      "ĠbÃŃ": 826,
      "Ġob": 827,
      "ft": 828,
      "ram": 829,
      "reat": 830,
      "oth": 831,
      "rough": 832,
      "gan": 833,
      "Ġnum": 834,
      "Ġund": 835,
      "Ġout": 836,
      "ĠnÃ¡Ãł": 837,
      "ys": 838,
      "pin": 839,
      "here": 840,
      "lish": 841,
      "one": 842,
      "form": 843,
      "Ġ196": 844,
      "bÃŃ": 845,
      "ween": 846,
      "Ġkn": 847,
      "gba": 848,
      "Ġwork": 849,
      "oun": 850,
      "pá»į": 851,
      "ĠAd": 852,
      "oin": 853,
      "Ġup": 854,
      "ĠThis": 855,
      "ech": 856,
      "Ġproduc": 857,
      "Ġsub": 858,
      "Ġph": 859,
      "ction": 860,
      "ina": 861,
      "Ġsá»į": 862,
      "ual": 863,
      "Ġá»įjá»į": 864,
      "pt": 865,
      "Ġsup": 866,
      "ara": 867,
      "ild": 868,
      "ied": 869,
      "Ġaw": 870,
      "Ġdec": 871,
      "\".": 872,
      "ĠSp": 873,
      "ern": 874,
      "fic": 875,
      "ta": 876,
      "dÃ¨": 877,
      "Ġonly": 878,
      "Ġbetween": 879,
      "stem": 880,
      "Ġear": 881,
      "Ġ5": 882,
      "tit": 883,
      "Ġtime": 884,
      "Ġ.": 885,
      "Ġatt": 886,
      "overn": 887,
      "ii": 888,
      "ĠMar": 889,
      "Ġwould": 890,
      "ruc": 891,
      "Ġunder": 892,
      "Ġmod": 893,
      "Ġnew": 894,
      "Ġno": 895,
      "ko": 896,
      "ĠAt": 897,
      "urn": 898,
      "Ġinter": 899,
      "Ġgba": 900,
      "ilm": 901,
      "ople": 902,
      "ju": 903,
      "Ġsec": 904,
      "Ġpop": 905,
      "Ġcol": 906,
      "ever": 907,
      "hes": 908,
      "ria": 909,
      "Ġpart": 910,
      "ĠlÃ¡ti": 911,
      "ĠAb": 912,
      "Ġwhen": 913,
      "ake": 914,
      "cc": 915,
      "ton": 916,
      "lÃ©": 917,
      "ye": 918,
      "ke": 919,
      "act": 920,
      "ions": 921,
      "Ġpáº¹": 922,
      "ved": 923,
      "Ġmay": 924,
      "ative": 925,
      "gbo": 926,
      "ĠNew": 927,
      "Ġninu": 928,
      "ĠLe": 929,
      "ire": 930,
      "Ġmá»į": 931,
      "Ġtrans": 932,
      "Ġcount": 933,
      "man": 934,
      "Ġinc": 935,
      "ced": 936,
      "ities": 937,
      "\",": 938,
      "Ġass": 939,
      "Ġthere": 940,
      "Ġev": 941,
      "nÃº": 942,
      "tical": 943,
      "port": 944,
      "Ġqu": 945,
      "ered": 946,
      "ters": 947,
      "ÃŃrÃŃ": 948,
      "ished": 949,
      "fin": 950,
      "velop": 951,
      "Ġwe": 952,
      "Ġmet": 953,
      "Ġdo": 954,
      "ĠIs": 955,
      "Ġpres": 956,
      "ember": 957,
      "Ġká»į": 958,
      "ution": 959,
      "Ġmany": 960,
      "bo": 961,
      "ale": 962,
      "ĠlÃ³": 963,
      "outh": 964,
      "ĠUnited": 965,
      "Ġacc": 966,
      "ition": 967,
      "dition": 968,
      "Ġspec": 969,
      "Ġpub": 970,
      "Ġsystem": 971,
      "tim": 972,
      "ru": 973,
      "ĠorÃŃ": 974,
      "ka": 975,
      "Ġfound": 976,
      "Ġhim": 977,
      "ward": 978,
      "tle": 979,
      "ood": 980,
      "iláº¹": 981,
      "jÃº": 982,
      "ins": 983,
      "con": 984,
      "angu": 985,
      "Ġduring": 986,
      "ating": 987,
      "Ġyears": 988,
      "ollow": 989,
      "rac": 990,
      "Ġuse": 991,
      "Ġthrough": 992,
      "ince": 993,
      "Ġdif": 994,
      "ific": 995,
      "Ġman": 996,
      "ments": 997,
      "Ġla": 998,
      "ÃłÃ¬": 999,
      "Ġher": 1000,
      "yp": 1001,
      "000": 1002,
      "Ġ6": 1003,
      "la": 1004,
      "Ġ17": 1005,
      "ines": 1006,
      "Ġile": 1007,
      "Ġthem": 1008,
      "ays": 1009,
      "Ġabout": 1010,
      "ium": 1011,
      "Ġif": 1012,
      "Ġrem": 1013,
      "ĠInd": 1014,
      "Ġoá¹£": 1015,
      "aye": 1016,
      "Ġcall": 1017,
      "Ġ194": 1018,
      "Ġset": 1019,
      "ower": 1020,
      "yin": 1021,
      "Ġpos": 1022,
      "ĠCon": 1023,
      "Ġwhere": 1024,
      "ĠnÃŃnÃº": 1025,
      "tish": 1026,
      "hun": 1027,
      "tain": 1028,
      "ool": 1029,
      "ves": 1030,
      "Ã¬ÃŃ": 1031,
      "orth": 1032,
      "uth": 1033,
      "ock": 1034,
      "Ġknown": 1035,
      "ĠZ": 1036,
      "ĠBri": 1037,
      ".\"": 1038,
      "jÃŃrÃŃ": 1039,
      "Ġ195": 1040,
      "Ġje": 1041,
      "Ġara": 1042,
      "ures": 1043,
      "jÃŃrÃŃÃł": 1044,
      "jo": 1045,
      "Ġpri": 1046,
      "ĠNÃłÃ¬": 1047,
      "very": 1048,
      "ife": 1049,
      "ily": 1050,
      "versity": 1051,
      "ĠSh": 1052,
      "Ġfilm": 1053,
      "ĠsÃ¬": 1054,
      "ci": 1055,
      "Ġgener": 1056,
      "ĠNÃłÃ¬jÃŃrÃŃÃł": 1057,
      "ou": 1058,
      "Ġdevelop": 1059,
      "tá»į": 1060,
      "li": 1061,
      "Ġcar": 1062,
      "ann": 1063,
      "ology": 1064,
      "oci": 1065,
      "hem": 1066,
      "Ġgovern": 1067,
      "ĠÃĵ": 1068,
      "ĠPro": 1069,
      "Ġchar": 1070,
      "ĠAust": 1071,
      "ĠWar": 1072,
      "ty": 1073,
      "ike": 1074,
      "ĠEuro": 1075,
      "Ġbu": 1076,
      "fore": 1077,
      "ĠSe": 1078,
      "ĠEnglish": 1079,
      "Ġwrit": 1080,
      "Ġ7": 1081,
      "Ġri": 1082,
      "cent": 1083,
      "ists": 1084,
      "eld": 1085,
      "owever": 1086,
      "az": 1087,
      "Ġmon": 1088,
      "inal": 1089,
      "lex": 1090,
      "ise": 1091,
      "ene": 1092,
      "ĠFor": 1093,
      "ause": 1094,
      "ĠAp": 1095,
      "uss": 1096,
      "round": 1097,
      "Ġáº¹gbáº¹": 1098,
      "mi": 1099,
      "ural": 1100,
      "ĠBo": 1101,
      "yáº¹": 1102,
      "ball": 1103,
      "Ġcentury": 1104,
      "vi": 1105,
      "ames": 1106,
      "ĠUni": 1107,
      "Ġinf": 1108,
      "ĠCol": 1109,
      "ĠGerm": 1110,
      "Ġfollow": 1111,
      "Ġfl": 1112,
      "Ġthese": 1113,
      "Ġhist": 1114,
      "Ġki": 1115,
      "Ġnumber": 1116,
      "Ġbáº¹": 1117,
      "ually": 1118,
      "emb": 1119,
      "ount": 1120,
      "ature": 1121,
      "Ġagain": 1122,
      "Ġpeople": 1123,
      "Ġá»įdun": 1124,
      "Ġ,": 1125,
      "Ġop": 1126,
      "Ġiláº¹": 1127,
      "Ġdist": 1128,
      "the": 1129,
      "ĠDe": 1130,
      "ĠEurope": 1131,
      "gbe": 1132,
      "raph": 1133,
      "oman": 1134,
      "til": 1135,
      "Ġact": 1136,
      "its": 1137,
      "Ġsur": 1138,
      "Ġlangu": 1139,
      "Ġwell": 1140,
      "Ġba": 1141,
      "ĠNai": 1142,
      "yÃłn": 1143,
      "ĠpÃ©": 1144,
      "Ġprov": 1145,
      "ros": 1146,
      "ision": 1147,
      "Ġincluding": 1148,
      "Ġcap": 1149,
      "Ġmade": 1150,
      "Ġoun": 1151,
      "Ġloc": 1152,
      "ick": 1153,
      "ences": 1154,
      "illion": 1155,
      "Ġstud": 1156,
      "Ġfe": 1157,
      "Ġend": 1158,
      "Ġbeing": 1159,
      "ank": 1160,
      "ove": 1161,
      "Ġmain": 1162,
      "ĠBritish": 1163,
      "ĠJoh": 1164,
      "ĠilÃ©": 1165,
      "Ġeff": 1166,
      "ages": 1167,
      "Ġext": 1168,
      "Ġsign": 1169,
      "Ġwhile": 1170,
      "Ġbl": 1171,
      "Ġlater": 1172,
      "Ġmáº¹": 1173,
      "tiv": 1174,
      "por": 1175,
      "cy": 1176,
      "gun": 1177,
      "Ġmus": 1178,
      "Ġserv": 1179,
      "io": 1180,
      "Ġins": 1181,
      "Ġid": 1182,
      "ĠFran": 1183,
      "righ": 1184,
      "Ġcre": 1185,
      "ash": 1186,
      "jiria": 1187,
      "Ġdep": 1188,
      "rect": 1189,
      "Ġthree": 1190,
      "ex": 1191,
      "ger": 1192,
      "Ġboth": 1193,
      "Ġthen": 1194,
      "Ġinv": 1195,
      "Ġint": 1196,
      "Ġ'": 1197,
      "inn": 1198,
      "Ġ16": 1199,
      "Ġcalled": 1200,
      "Ġgroup": 1201,
      "ĠNaijiria": 1202,
      "tics": 1203,
      "lished": 1204,
      "ather": 1205,
      "18": 1206,
      "Ġdiffer": 1207,
      "Ġhigh": 1208,
      "gáº¹": 1209,
      "Ġgbo": 1210,
      "Ġbecame": 1211,
      "other": 1212,
      "Ġ193": 1213,
      "Ġ15": 1214,
      "sÃŃ": 1215,
      "ĠStates": 1216,
      "Ġpoli": 1217,
      "ze": 1218,
      "Ġcity": 1219,
      "Ġláº¹": 1220,
      "ya": 1221,
      "ax": 1222,
      "ĠUniversity": 1223,
      "Ġ8": 1224,
      "Ġworld": 1225,
      "Ġser": 1226,
      "pl": 1227,
      "ajor": 1228,
      "ulation": 1229,
      "ful": 1230,
      "der": 1231,
      "jÃ¬": 1232,
      "elf": 1233,
      "Ġvari": 1234,
      "ics": 1235,
      "Ġany": 1236,
      "Ġ9": 1237,
      "ĠEx": 1238,
      "kÃł": 1239,
      "led": 1240,
      "Ġed": 1241,
      "Ġsim": 1242,
      "nÃ¬": 1243,
      "Ġkáº¹": 1244,
      "Ġiá¹£áº¹": 1245,
      "oo": 1246,
      "Ġterm": 1247,
      "son": 1248,
      "ĠCan": 1249,
      "ible": 1250,
      "ÌĢ-": 1251,
      "Ġearly": 1252,
      "ĠJohn": 1253,
      "yÃ©": 1254,
      "ĠRo": 1255,
      "Ġori": 1256,
      "Ġsm": 1257,
      "ne": 1258,
      "ting": 1259,
      "ĠPh": 1260,
      "arch": 1261,
      "ized": 1262,
      "chool": 1263,
      "min": 1264,
      "Ġmi": 1265,
      "Ġes": 1266,
      "já»įba": 1267,
      "Ġinst": 1268,
      "ada": 1269,
      "ians": 1270,
      "ects": 1271,
      "áº¸": 1272,
      "rop": 1273,
      "Ġair": 1274,
      "ars": 1275,
      "Ġbel": 1276,
      "rench": 1277,
      "Ġ10": 1278,
      "Ġsing": 1279,
      "ðŁ": 1280,
      "Ġstate": 1281,
      "ĠWorld": 1282,
      "Ġest": 1283,
      "Ġmin": 1284,
      "yan": 1285,
      "Ġorig": 1286,
      "ute": 1287,
      "Ġlead": 1288,
      "Ġim": 1289,
      "ility": 1290,
      "ĠBl": 1291,
      "Ġpartic": 1292,
      "oot": 1293,
      "ration": 1294,
      "wÃ©": 1295,
      "erson": 1296,
      "ĠðŁ": 1297,
      "Ġsever": 1298,
      "lÃ¡": 1299,
      "pÃŃn": 1300,
      "ties": 1301,
      "ital": 1302,
      "air": 1303,
      "han": 1304,
      "Ġ202": 1305,
      "ange": 1306,
      "els": 1307,
      "my": 1308,
      "kÃ³": 1309,
      "ley": 1310,
      "Ġsecond": 1311,
      "gest": 1312,
      "âĢĶ": 1313,
      "ternational": 1314,
      "yÃ¬n": 1315,
      "ĠFrench": 1316,
      "Ġelect": 1317,
      "Ġtáº¹": 1318,
      "ĠwÃł": 1319,
      "ĠOr": 1320,
      "ĠbÃ¡": 1321,
      "ĠkÃŃ": 1322,
      "Ġlong": 1323,
      "hern": 1324,
      "Ã¨dÃ¨": 1325,
      "Ġoften": 1326,
      "ae": 1327,
      "ĠorÃŃláº¹": 1328,
      "Ġexamp": 1329,
      "Ġmar": 1330,
      "urch": 1331,
      "sc": 1332,
      "Ġoper": 1333,
      "af": 1334,
      "Ġgovernment": 1335,
      "ĠComm": 1336,
      "rÃ²": 1337,
      "ived": 1338,
      "Ġwar": 1339,
      "Ġtele": 1340,
      "ĠII": 1341,
      "Ġcommon": 1342,
      "ĠmÃ¡": 1343,
      "Ġgbogbo": 1344,
      "yn": 1345,
      "Ġsuc": 1346,
      "báº¹": 1347,
      "Ġdisc": 1348,
      "ble": 1349,
      "ograph": 1350,
      "ĠCar": 1351,
      "run": 1352,
      "ues": 1353,
      "ĠBe": 1354,
      "Ġip": 1355,
      "Ġdesc": 1356,
      "Ġfam": 1357,
      "lin": 1358,
      "Ġmed": 1359,
      "bÃ¡": 1360,
      "Ġlaw": 1361,
      "elu": 1362,
      "ĠÃ¬lÃº": 1363,
      "ĠQ": 1364,
      "Ġwon": 1365,
      "Ġsame": 1366,
      "ording": 1367,
      "wa": 1368,
      "ĠarÃ¡": 1369,
      "Ġocc": 1370,
      "Ġgáº¹": 1371,
      "conom": 1372,
      "á¹£Ã¨": 1373,
      "sáº¹": 1374,
      "Ġdef": 1375,
      "Ġdirect": 1376,
      "Ġmajor": 1377,
      "ety": 1378,
      "Ġke": 1379,
      "Ġconsid": 1380,
      "ants": 1381,
      "osed": 1382,
      "ĠkÃ²": 1383,
      "Ġown": 1384,
      "ĠMus": 1385,
      "ani": 1386,
      "Ġagainst": 1387,
      "iod": 1388,
      "ĠSc": 1389,
      "ird": 1390,
      "Ġdesign": 1391,
      "though": 1392,
      "Ġsol": 1393,
      "Ġcountry": 1394,
      "yÃŃ": 1395,
      "yi": 1396,
      "Ġohun": 1397,
      "Ġbro": 1398,
      "Ġcould": 1399,
      "Ġresp": 1400,
      "ture": 1401,
      "á¹£e": 1402,
      "enn": 1403,
      "ries": 1404,
      "Ġincre": 1405,
      "mo": 1406,
      "Ġstr": 1407,
      "ja": 1408,
      "lect": 1409,
      "Ġáº¸": 1410,
      "acter": 1411,
      "ica": 1412,
      "Ġbefore": 1413,
      "Ġfour": 1414,
      "ĠWh": 1415,
      "iger": 1416,
      "ĠSouth": 1417,
      "pÃŃnláº¹": 1418,
      "Ġshe": 1419,
      "ement": 1420,
      "Ġsince": 1421,
      "ged": 1422,
      "Ġsmall": 1423,
      "ode": 1424,
      "ĠNÃŃ": 1425,
      "Ġprog": 1426,
      "Ġ192": 1427,
      "200": 1428,
      "Ġemp": 1429,
      "aking": 1430,
      "Ġap": 1431,
      "med": 1432,
      "ident": 1433,
      "Ġmat": 1434,
      "The": 1435,
      "Ġname": 1436,
      "gy": 1437,
      "ple": 1438,
      "Ġwill": 1439,
      "Ġoff": 1440,
      "risti": 1441,
      "oint": 1442,
      "kun": 1443,
      "ĠOl": 1444,
      "ilit": 1445,
      "rÃ©": 1446,
      "Ġremain": 1447,
      "ĠKing": 1448,
      "Ġmillion": 1449,
      "ason": 1450,
      "Ġawon": 1451,
      "au": 1452,
      "Ġauth": 1453,
      "Ġseveral": 1454,
      "Ġlori": 1455,
      "Ġeach": 1456,
      "ĠÃĴ": 1457,
      "Ġland": 1458,
      "Ġret": 1459,
      "que": 1460,
      "ĠAg": 1461,
      "Ġda": 1462,
      "ĠAustral": 1463,
      "par": 1464,
      "fáº¹": 1465,
      "ected": 1466,
      "Ġpo": 1467,
      "rÃ¹n": 1468,
      "Ġtun": 1469,
      "ero": 1470,
      "ĠyÃ¬ÃŃ": 1471,
      "Ġbecause": 1472,
      "Ġhum": 1473,
      "anu": 1474,
      "Ġpublic": 1475,
      "ĠHowever": 1476,
      "Ġexample": 1477,
      "tÃł": 1478,
      "ĠThere": 1479,
      "Ġcor": 1480,
      "ĠNi": 1481,
      "Ġinclude": 1482,
      "wÃ²": 1483,
      "ĠBar": 1484,
      "ided": 1485,
      "ets": 1486,
      "Ġlarge": 1487,
      "Ġuntil": 1488,
      "ĠNational": 1489,
      "ouse": 1490,
      "Ġcontro": 1491,
      "ject": 1492,
      "ĠAnd": 1493,
      "rent": 1494,
      "till": 1495,
      "ata": 1496,
      "anc": 1497,
      "ĠCl": 1498,
      "Ġestab": 1499,
      "be": 1500,
      "ides": 1501,
      "tor": 1502,
      "Ġpáº¹lu": 1503,
      "nÃ¬yÃłn": 1504,
      "16": 1505,
      "ĠGerman": 1506,
      "gbá»į": 1507,
      "Ġcommun": 1508,
      "omen": 1509,
      "Ġsupport": 1510,
      "du": 1511,
      "omin": 1512,
      "ission": 1513,
      "ization": 1514,
      "Ġperiod": 1515,
      "Ġvi": 1516,
      "ross": 1517,
      "ĠGe": 1518,
      "tis": 1519,
      "eng": 1520,
      "Ġequ": 1521,
      "Ġoffic": 1522,
      "Ġbook": 1523,
      "Ġbas": 1524,
      "Ġdid": 1525,
      "ĠCent": 1526,
      "Ġback": 1527,
      "ola": 1528,
      "ĠÃ¨nÃ¬yÃłn": 1529,
      "oph": 1530,
      "..": 1531,
      "gbÃ©": 1532,
      "ĠNiger": 1533,
      "Ġsuccess": 1534,
      "Ġorgan": 1535,
      "mb": 1536,
      "rid": 1537,
      "ĠPl": 1538,
      "Ġpa": 1539,
      "Ġlife": 1540,
      "10": 1541,
      "Ġdeath": 1542,
      "ony": 1543,
      "ese": 1544,
      "ically": 1545,
      "Ġsl": 1546,
      "Ġyoo": 1547,
      "iver": 1548,
      "ring": 1549,
      "ele": 1550,
      "ently": 1551,
      "Ġ12": 1552,
      "arm": 1553,
      "attle": 1554,
      "Ġcri": 1555,
      "Ġshow": 1556,
      "resent": 1557,
      "orts": 1558,
      "ator": 1559,
      "bin": 1560,
      "Ġgiv": 1561,
      "ull": 1562,
      "Ġdet": 1563,
      "tal": 1564,
      "yl": 1565,
      "ĠAra": 1566,
      "Ġval": 1567,
      "Ġleg": 1568,
      "Ġplayer": 1569,
      "Ġrefer": 1570,
      "Ġrecord": 1571,
      "Ġlanguage": 1572,
      "ane": 1573,
      "amb": 1574,
      "ĠPar": 1575,
      "dom": 1576,
      "eb": 1577,
      "atic": 1578,
      "ised": 1579,
      "ugust": 1580,
      "Ġimport": 1581,
      "Ġlin": 1582,
      "Ġ14": 1583,
      "ĠolÃ³": 1584,
      "xt": 1585,
      "fi": 1586,
      "Ġeconom": 1587,
      "kÃ²": 1588,
      "Ġcur": 1589,
      "yd": 1590,
      "ĠAlex": 1591,
      "Ġfin": 1592,
      "right": 1593,
      "ĠRep": 1594,
      "get": 1595,
      "aim": 1596,
      "Ġcult": 1597,
      "iá¹£áº¹": 1598,
      "lands": 1599,
      "ĠAng": 1600,
      "ister": 1601,
      "ox": 1602,
      "Ġpopulation": 1603,
      "Ġclass": 1604,
      "Ġaround": 1605,
      "com": 1606,
      "Ġauthor": 1607,
      "ĠChristi": 1608,
      "Ġmen": 1609,
      "17": 1610,
      "ship": 1611,
      "Ġsu": 1612,
      "Ġnear": 1613,
      "Ġfáº¹": 1614,
      "ck": 1615,
      "Ġrequ": 1616,
      "eth": 1617,
      "ept": 1618,
      "sÃ¬": 1619,
      "Ġpower": 1620,
      "Ġcontinu": 1621,
      "Ġallow": 1622,
      "Ġyii": 1623,
      "Ġref": 1624,
      "Ġidi": 1625,
      "Ġthough": 1626,
      "hip": 1627,
      "tÃŃ": 1628,
      "ĠÃ¬d": 1629,
      "ĠBC": 1630,
      "Ġdifferent": 1631,
      "ĠRoman": 1632,
      "Ġmusic": 1633,
      "Ġgu": 1634,
      "ilitary": 1635,
      "ĠHist": 1636,
      "ĠAugust": 1637,
      "ĠMay": 1638,
      "raft": 1639,
      "ĠAll": 1640,
      "Ġrele": 1641,
      "Ġigb": 1642,
      "Ġperson": 1643,
      "Ġoá¹£Ã¹": 1644,
      "amed": 1645,
      "Ġbased": 1646,
      "ĠRuss": 1647,
      "Ġprogram": 1648,
      "Ġarea": 1649,
      "ional": 1650,
      "Ġconst": 1651,
      "ĠUS": 1652,
      "yÃ¨": 1653,
      "ĠAfter": 1654,
      "ĠAc": 1655,
      "ham": 1656,
      "ases": 1657,
      "oss": 1658,
      "ĠRD": 1659,
      "rand": 1660,
      "ret": 1661,
      "ody": 1662,
      "Ġprocess": 1663,
      "Ġent": 1664,
      "Ġrece": 1665,
      "way": 1666,
      "ĠNorth": 1667,
      "ended": 1668,
      "ki": 1669,
      "pinle": 1670,
      "Ġdiv": 1671,
      "Ġorile": 1672,
      "Ġseries": 1673,
      "era": 1674,
      "Ġáº¹ni": 1675,
      "ption": 1676,
      "Ġappro": 1677,
      "Ġthose": 1678,
      "eder": 1679,
      "ĠAir": 1680,
      "Ġnon": 1681,
      "Ġlit": 1682,
      "row": 1683,
      "ĠThey": 1684,
      "ilar": 1685,
      "Ġadv": 1686,
      "ĠYor": 1687,
      "ĠGu": 1688,
      "dun": 1689,
      "ards": 1690,
      "ana": 1691,
      "ĠDec": 1692,
      "Ġteam": 1693,
      "nu": 1694,
      ".)": 1695,
      "ĠAwá»įn": 1696,
      "Ġanti": 1697,
      "ĠPol": 1698,
      "Ġamong": 1699,
      "Ġposs": 1700,
      "ĠtÃºn": 1701,
      "ternal": 1702,
      "ately": 1703,
      "ner": 1704,
      "ĠdÃ¡": 1705,
      "roduc": 1706,
      "á»įá»į": 1707,
      "estern": 1708,
      "Ġlike": 1709,
      "tÃ²": 1710,
      "rew": 1711,
      "epend": 1712,
      "Ġprin": 1713,
      "bert": 1714,
      "ior": 1715,
      "Ġeng": 1716,
      "Ġ13": 1717,
      "vely": 1718,
      "line": 1719,
      "ague": 1720,
      "Ġdescrib": 1721,
      "iam": 1722,
      "ier": 1723,
      "ried": 1724,
      "gen": 1725,
      "Ġrun": 1726,
      "Ġeven": 1727,
      "aced": 1728,
      "ander": 1729,
      "mes": 1730,
      "une": 1731,
      "ĠBy": 1732,
      "Ġbegan": 1733,
      "15": 1734,
      "embers": 1735,
      "ious": 1736,
      "val": 1737,
      "ĠEmp": 1738,
      "ĠAk": 1739,
      "arian": 1740,
      "Ġconf": 1741,
      "ĠkÃ³": 1742,
      "aid": 1743,
      "Ġmodern": 1744,
      "ĠÃĪ": 1745,
      "Ġinflu": 1746,
      "kas": 1747,
      "ĠwÃ¡": 1748,
      "ĠWill": 1749,
      "ared": 1750,
      "alth": 1751,
      "aving": 1752,
      "Ġwater": 1753,
      "echn": 1754,
      "Ġpat": 1755,
      "ĠJul": 1756,
      "ological": 1757,
      "Ġaká»į": 1758,
      "ĠâĢ": 1759,
      "Ġmark": 1760,
      "ublic": 1761,
      "ule": 1762,
      "eter": 1763,
      "Ġmuch": 1764,
      "Ġsci": 1765,
      "rican": 1766,
      "urther": 1767,
      "ĠÃ¨dÃ¨": 1768,
      "Ġak": 1769,
      "ĠAss": 1770,
      "ĠThese": 1771,
      "oko": 1772,
      "ootball": 1773,
      "ential": 1774,
      "ĠEar": 1775,
      "ril": 1776,
      "Ġpass": 1777,
      "Ġcharacter": 1778,
      "Ġann": 1779,
      "Ġwithin": 1780,
      "Ġperform": 1781,
      "ĠmÃ¡a": 1782,
      "Ġword": 1783,
      "abi": 1784,
      "hest": 1785,
      "Ġmaa": 1786,
      "ĠBra": 1787,
      "ĠerÃ©": 1788,
      "Ġprot": 1789,
      "Ġprop": 1790,
      "Ġstand": 1791,
      "yal": 1792,
      "ired": 1793,
      "Ġter": 1794,
      "Ġdue": 1795,
      "ats": 1796,
      "Ġtem": 1797,
      "Ġfollowing": 1798,
      "ĠEd": 1799,
      "ness": 1800,
      "ĠDav": 1801,
      "Ġib": 1802,
      "ges": 1803,
      "Ġhistor": 1804,
      "ĠYork": 1805,
      "12": 1806,
      "Ġusing": 1807,
      "ĠCal": 1808,
      "Ġtyp": 1809,
      "ĠChar": 1810,
      "Ġexper": 1811,
      "Ġspe": 1812,
      "rum": 1813,
      "rica": 1814,
      "Ġma": 1815,
      "ĠAcc": 1816,
      "sts": 1817,
      "adem": 1818,
      "wÃ¡": 1819,
      "read": 1820,
      "ÌĢ.": 1821,
      "Ã³n": 1822,
      "Ġvery": 1823,
      "Ġresult": 1824,
      "ĠSome": 1825,
      "Ġdem": 1826,
      "kasÃŃ": 1827,
      "ament": 1828,
      "Ġopp": 1829,
      "rÃŃkÃł": 1830,
      "Ġcomple": 1831,
      "lor": 1832,
      "urg": 1833,
      "ek": 1834,
      "ita": 1835,
      "ales": 1836,
      "Ġpopular": 1837,
      "Ġbelie": 1838,
      "ĠMin": 1839,
      "ĠGree": 1840,
      "ole": 1841,
      "Ġcomput": 1842,
      "pec": 1843,
      "Ġ190": 1844,
      "ÃłÃ¡": 1845,
      "ĠlÃ³rÃŃ": 1846,
      "ms": 1847,
      "idd": 1848,
      "Ġbus": 1849,
      "199": 1850,
      "Ġnow": 1851,
      "ality": 1852,
      "ĠItal": 1853,
      "pinláº¹": 1854,
      "uf": 1855,
      "apan": 1856,
      "ivil": 1857,
      "Ġrest": 1858,
      "ban": 1859,
      "Ġled": 1860,
      "ocial": 1861,
      "cept": 1862,
      "Ġ&": 1863,
      "Ġschool": 1864,
      "wÃ³": 1865,
      "ially": 1866,
      "Ġhistory": 1867,
      "day": 1868,
      "Ġstill": 1869,
      "Ġel": 1870,
      "Ġalong": 1871,
      "Ġadd": 1872,
      "ĠBer": 1873,
      "14": 1874,
      "lÃ³": 1875,
      "won": 1876,
      "ĠAfrica": 1877,
      "ung": 1878,
      "ains": 1879,
      "Ġgra": 1880,
      "Ġappear": 1881,
      "rÃłn": 1882,
      "Ġpresent": 1883,
      "su": 1884,
      "iet": 1885,
      "Ġnit": 1886,
      "ĠMon": 1887,
      "wards": 1888,
      "Ġnational": 1889,
      "uba": 1890,
      "ĠPri": 1891,
      "ories": 1892,
      "Ġprof": 1893,
      "Ġbuild": 1894,
      "Ġreturn": 1895,
      "co": 1896,
      "ĠBro": 1897,
      "ĠInternational": 1898,
      "ices": 1899,
      "Ġopen": 1900,
      "yÃł": 1901,
      "BC": 1902,
      "Ġorin": 1903,
      "ection": 1904,
      "13": 1905,
      "Ġgbe": 1906,
      "Ġconsidered": 1907,
      "Ġmembers": 1908,
      "eyan": 1909,
      "ĠPe": 1910,
      "Ġcour": 1911,
      "Ġgeneral": 1912,
      "ini": 1913,
      "Ġav": 1914,
      "ids": 1915,
      "Ġvers": 1916,
      "Ġread": 1917,
      "ĠHis": 1918,
      "Ġtak": 1919,
      "Ġstruc": 1920,
      "Ġarch": 1921,
      "ery": 1922,
      "ĠJapan": 1923,
      "Ġhand": 1924,
      "ogun": 1925,
      "ĠSw": 1926,
      "Ġhig": 1927,
      "Ġchild": 1928,
      "Ġlow": 1929,
      "jÃł": 1930,
      "Ġmu": 1931,
      "Ġparticular": 1932,
      "ense": 1933,
      "Ġá»įrá»į": 1934,
      "Ġsimilar": 1935,
      "by": 1936,
      "reen": 1937,
      "Ġold": 1938,
      "ĠAfrican": 1939,
      "ius": 1940,
      "ĠIpinle": 1941,
      "ditional": 1942,
      "ĠMo": 1943,
      "Ġlast": 1944,
      "omb": 1945,
      "put": 1946,
      "ĠEuropean": 1947,
      "ots": 1948,
      "Ġformer": 1949,
      "Ġhead": 1950,
      "Ġrepresent": 1951,
      "ĠCo": 1952,
      "Ġimportant": 1953,
      "ĠÃĮpÃŃnláº¹": 1954,
      "olution": 1955,
      "Ġmilitary": 1956,
      "ray": 1957,
      "uk": 1958,
      "Ġfore": 1959,
      "Ġhuman": 1960,
      "iness": 1961,
      "ÌĢ,": 1962,
      "ĠChristian": 1963,
      "aster": 1964,
      "astern": 1965,
      "bal": 1966,
      "ĠBal": 1967,
      "ĠOct": 1968,
      "Ġeeyan": 1969,
      ".,": 1970,
      "rist": 1971,
      "lÃ¹": 1972,
      "ĠÃ²á¹£Ã¨": 1973,
      "ĠtÃł": 1974,
      "Ġvis": 1975,
      "ĠChurch": 1976,
      "dá»į": 1977,
      "Ġfre": 1978,
      "aju": 1979,
      "ĠNob": 1980,
      "Ġless": 1981,
      "ĠGreek": 1982,
      "anuary": 1983,
      "Ġgreat": 1984,
      "ĠWest": 1985,
      "si": 1986,
      "Ġreac": 1987,
      "Ġvarious": 1988,
      "ga": 1989,
      "ilos": 1990,
      "Ġhome": 1991,
      "Ġgo": 1992,
      "Ġfield": 1993,
      "Ġmul": 1994,
      "ĠOther": 1995,
      "Ġattack": 1996,
      "gbÃ¨": 1997,
      "Ġplace": 1998,
      "Ġilu": 1999,
      "cip": 2000,
      "iber": 2001,
      "Ġaff": 2002,
      "Ġorder": 2003,
      "yle": 2004,
      "Ġspecies": 2005,
      "Ġdefin": 2006,
      "yá»į": 2007,
      "ilt": 2008,
      "Ġcolle": 2009,
      "Ġstart": 2010,
      "go": 2011,
      "mÃ¬": 2012,
      "Ġshort": 2013,
      "ĠBen": 2014,
      "Ġcer": 2015,
      "ĠSept": 2016,
      "Ġwhat": 2017,
      "ope": 2018,
      "ict": 2019,
      "Ġfamily": 2020,
      "Ġgame": 2021,
      "Ġanim": 2022,
      "aul": 2023,
      "Ġcountries": 2024,
      "mar": 2025,
      "ches": 2026,
      "gbÃ¡": 2027,
      "ps": 2028,
      "inc": 2029,
      "Ã³Ã²": 2030,
      "Ġsaid": 2031,
      "Ġpolitical": 2032,
      "mber": 2033,
      "ĠBel": 2034,
      "ĠMed": 2035,
      "ĠX": 2036,
      "Ġprac": 2037,
      "ĠSch": 2038,
      "Ġtit": 2039,
      "gbá»įn": 2040,
      "ĠArab": 2041,
      "ĠShe": 2042,
      "Ġlargest": 2043,
      "Ġphys": 2044,
      "ourn": 2045,
      "Ġfootball": 2046,
      "olic": 2047,
      "Ġmove": 2048,
      "ĠCor": 2049,
      "ferences": 2050,
      "Ġ0": 2051,
      "ites": 2052,
      "ĠJanuary": 2053,
      "ĠWilliam": 2054,
      "ober": 2055,
      "rian": 2056,
      "Ġ$": 2057,
      "app": 2058,
      "Ġfact": 2059,
      "aba": 2060,
      "ĠNobel": 2061,
      "Ġdevelopment": 2062,
      "ĠDavid": 2063,
      "50": 2064,
      "Ġanother": 2065,
      "ĠAmáº¹": 2066,
      "udd": 2067,
      "Ġclaim": 2068,
      "ĠGeor": 2069,
      "ography": 2070,
      "work": 2071,
      "ably": 2072,
      "Ġkill": 2073,
      "ĠHar": 2074,
      "ĠgbÃ©": 2075,
      "Ġindust": 2076,
      "Ġáº¹láº¹": 2077,
      "ones": 2078,
      "Ġsour": 2079,
      "Ġyi": 2080,
      "ondon": 2081,
      "ĠDuring": 2082,
      "gÃºn": 2083,
      "ither": 2084,
      "Ġmake": 2085,
      "Ġoccur": 2086,
      "ling": 2087,
      "ĠApril": 2088,
      "Ġorigin": 2089,
      "Ġactiv": 2090,
      "ĠalÃ¡": 2091,
      "Ġbase": 2092,
      "Ġconc": 2093,
      "Ġsug": 2094,
      "Ġbecome": 2095,
      "Ġevery": 2096,
      "Ġpublished": 2097,
      "Ġlim": 2098,
      "lear": 2099,
      "ha": 2100,
      "ĠSeptember": 2101,
      "Ġproper": 2102,
      "ving": 2103,
      "Ġanal": 2104,
      "Ġaá¹£": 2105,
      "Ġlate": 2106,
      "iving": 2107,
      "orthern": 2108,
      "Ġregion": 2109,
      "cil": 2110,
      "Ġgiven": 2111,
      "Ġdeveloped": 2112,
      "ĠAccording": 2113,
      "Ġfa": 2114,
      "vision": 2115,
      "Ġ[": 2116,
      "11": 2117,
      "for": 2118,
      "ctions": 2119,
      "less": 2120,
      "Ġdown": 2121,
      "vent": 2122,
      "Ġstates": 2123,
      "ificant": 2124,
      "Ġsingle": 2125,
      "rain": 2126,
      "Ġleft": 2127,
      "ĠCity": 2128,
      "Ġide": 2129,
      "Ġreport": 2130,
      "titution": 2131,
      "ĠOne": 2132,
      "alf": 2133,
      "Ġlevel": 2134,
      "Ġestablished": 2135,
      "Ġ=": 2136,
      "Ġ2010": 2137,
      "Ġlocal": 2138,
      "ĠDecember": 2139,
      "ering": 2140,
      "Ġ2020": 2141,
      "ĠHer": 2142,
      "ffic": 2143,
      "ĠOctober": 2144,
      "ĠMarch": 2145,
      "ĠSer": 2146,
      "ĠGod": 2147,
      "tice": 2148,
      "bon": 2149,
      "Ġmag": 2150,
      "ĠJune": 2151,
      "Ġfew": 2152,
      "ĠPart": 2153,
      "Ġ2014": 2154,
      "dÃ¡": 2155,
      "Ġtook": 2156,
      "Ġwithout": 2157,
      "Ġpoint": 2158,
      "Ġ189": 2159,
      "Ġcontrol": 2160,
      "ĠEngland": 2161,
      "ances": 2162,
      "ĠJuly": 2163,
      "anish": 2164,
      "ĠLondon": 2165,
      "Ġrelig": 2166,
      "of": 2167,
      "rote": 2168,
      "Ã¬bÃŃ": 2169,
      "ruction": 2170,
      "ract": 2171,
      "Ġstat": 2172,
      "kÃ¬": 2173,
      "ĠAmerica": 2174,
      "view": 2175,
      "ĠmÃ©": 2176,
      "Ġday": 2177,
      "men": 2178,
      "Ġhel": 2179,
      "ĠUnion": 2180,
      "lam": 2181,
      "Ġpolitic": 2182,
      "ified": 2183,
      "uted": 2184,
      "most": 2185,
      "Ġneed": 2186,
      "ĠMan": 2187,
      "Ġep": 2188,
      "ovember": 2189,
      "Ġindepend": 2190,
      "Ġcamp": 2191,
      "Ġ2011": 2192,
      "Ġevent": 2193,
      "ead": 2194,
      "Ġinvol": 2195,
      "Ġusually": 2196,
      "Ġheld": 2197,
      "Ġge": 2198,
      "Ġexist": 2199,
      "atter": 2200,
      "ĠWhen": 2201,
      "ops": 2202,
      "Ġ2007": 2203,
      "ape": 2204,
      "ency": 2205,
      "Ġbre": 2206,
      "ths": 2207,
      "Ġincluded": 2208,
      "Ġast": 2209,
      "Ġview": 2210,
      "Ġ2013": 2211,
      "Ġmean": 2212,
      "Äģ": 2213,
      "Ġcaus": 2214,
      "oro": 2215,
      "Ġsignificant": 2216,
      "hod": 2217,
      "rÃº": 2218,
      "atural": 2219,
      "Ġhowever": 2220,
      "istic": 2221,
      "Ġrul": 2222,
      "ĠÃ¨yÃŃ": 2223,
      "Ġfac": 2224,
      "ĠState": 2225,
      "ald": 2226,
      "ivid": 2227,
      "Ġradi": 2228,
      "bit": 2229,
      "ĠSec": 2230,
      "osp": 2231,
      "ĠBlack": 2232,
      "Ġ11": 2233,
      "ĠReferences": 2234,
      "Ġsk": 2235,
      "Ġuni": 2236,
      "lÃł": 2237,
      "udi": 2238,
      "century": 2239,
      "irc": 2240,
      "ĠrÃŃ": 2241,
      "Ġarg": 2242,
      "ĠPort": 2243,
      "Ġ2015": 2244,
      "ĠolÃ¹": 2245,
      "Ġsho": 2246,
      "Ġidenti": 2247,
      "ĠScot": 2248,
      "ĠSy": 2249,
      "ĠtÃłbÃŃ": 2250,
      "ured": 2251,
      "formation": 2252,
      "Ġchang": 2253,
      "ĠEmpire": 2254,
      "Ġbeh": 2255,
      "Ã¬nrin": 2256,
      "ĠonÃŃ": 2257,
      "side": 2258,
      "ala": 2259,
      "Ġgrow": 2260,
      "Ġiniti": 2261,
      "Ġeduc": 2262,
      "atin": 2263,
      "Ġway": 2264,
      "Ġobs": 2265,
      "cient": 2266,
      "ĠlÃ¨": 2267,
      "Ġlab": 2268,
      "ĠNigeria": 2269,
      "ma": 2270,
      "ĠÃ²un": 2271,
      "ĠHistory": 2272,
      "Ġnamed": 2273,
      "Ġareas": 2274,
      "Ġ2012": 2275,
      "ĠNe": 2276,
      "score": 2277,
      "sp": 2278,
      "iyan": 2279,
      "Ġking": 2280,
      "Ġintroduc": 2281,
      "Ġline": 2282,
      "Ġfunction": 2283,
      "dÃºn": 2284,
      "Ġrepl": 2285,
      "Ġproduction": 2286,
      "Ġlanguages": 2287,
      "Ġnorth": 2288,
      "ĠJew": 2289,
      "ĠNovember": 2290,
      "ika": 2291,
      "Ġdoc": 2292,
      "Ġtimes": 2293,
      "Ġ2019": 2294,
      "Ġâ": 2295,
      "ĠApp": 2296,
      "bers": 2297,
      "aterial": 2298,
      "Ġwrote": 2299,
      "Ġmer": 2300,
      "Ġcoun": 2301,
      "Ġtotal": 2302,
      "káº¹": 2303,
      "Ġassoci": 2304,
      "Ġbody": 2305,
      "idence": 2306,
      "sequ": 2307,
      "ama": 2308,
      "ĠChina": 2309,
      "ude": 2310,
      "Ġ2006": 2311,
      "ĠFrance": 2312,
      "craft": 2313,
      "ura": 2314,
      "ability": 2315,
      "Ġproble": 2316,
      "ĠBrit": 2317,
      "Ġalthough": 2318,
      "ĠCro": 2319,
      "aláº¹": 2320,
      "outhern": 2321,
      "mon": 2322,
      "ĠnÃŃgbÃł": 2323,
      "ote": 2324,
      "ras": 2325,
      "att": 2326,
      "Ġdel": 2327,
      "Ġproduced": 2328,
      "Ġtheory": 2329,
      "aur": 2330,
      "Ġband": 2331,
      "Ġcase": 2332,
      "Ġvol": 2333,
      "Ġfive": 2334,
      "times": 2335,
      "Ġmass": 2336,
      "Ġconn": 2337,
      "ĠIndia": 2338,
      ");": 2339,
      "Ġattem": 2340,
      "Ġpur": 2341,
      "ways": 2342,
      "Ġsepar": 2343,
      "ĠIf": 2344,
      "Ġz": 2345,
      "rated": 2346,
      "na": 2347,
      "Ġseason": 2348,
      "ĠmÃº": 2349,
      "ĠPres": 2350,
      "bum": 2351,
      "aki": 2352,
      "ef": 2353,
      "urk": 2354,
      "Ġtop": 2355,
      "Ġlinks": 2356,
      "uel": 2357,
      "á»įá»įlu": 2358,
      "ler": 2359,
      "Ã¶": 2360,
      "Ġ2008": 2361,
      "Ġgroups": 2362,
      "ĠEast": 2363,
      "ĠColle": 2364,
      "Ġoriginal": 2365,
      "Ġstrong": 2366,
      "ĠEl": 2367,
      "Ġtri": 2368,
      "Ġcal": 2369,
      "ĠSchool": 2370,
      "ij": 2371,
      "ained": 2372,
      "ously": 2373,
      "loy": 2374,
      "lan": 2375,
      "iction": 2376,
      "ĠJos": 2377,
      "Ġsong": 2378,
      "apá»į": 2379,
      "eum": 2380,
      "Ġgames": 2381,
      "Ġwritten": 2382,
      "bs": 2383,
      "ĠBu": 2384,
      "ĠÃłká»į": 2385,
      "inning": 2386,
      "ored": 2387,
      "ix": 2388,
      "Ġsix": 2389,
      "lá»įpá»į": 2390,
      "Ġ1990": 2391,
      "Ġsystems": 2392,
      "ociety": 2393,
      "Ġtabi": 2394,
      "Ġhaving": 2395,
      "ĠSup": 2396,
      "Ġbeg": 2397,
      "oms": 2398,
      "Ġmanag": 2399,
      "Ġ2016": 2400,
      "Ġreal": 2401,
      "ĠPer": 2402,
      "Ġ2017": 2403,
      "ware": 2404,
      "Ġ2009": 2405,
      "DP": 2406,
      "Ġsocial": 2407,
      "Ġigba": 2408,
      "Ġer": 2409,
      "Ġindivid": 2410,
      "Ġtre": 2411,
      "Ġblack": 2412,
      "Ġrese": 2413,
      "Ġstudy": 2414,
      "Ġpain": 2415,
      "ĠOá¹£": 2416,
      "Ġlet": 2417,
      "ĠIb": 2418,
      "ergy": 2419,
      "aries": 2420,
      "ĠTo": 2421,
      "ĠBas": 2422,
      "Ġá»įpá»į": 2423,
      "ĠTim": 2424,
      "Ġterrit": 2425,
      "Ġaut": 2426,
      "Ġdoes": 2427,
      "Ġeto": 2428,
      "Ġmaterial": 2429,
      "Ġdev": 2430,
      "Ġ30": 2431,
      "ental": 2432,
      "emi": 2433,
      "Ġrole": 2434,
      "ĠAustralian": 2435,
      "Ġturn": 2436,
      "ĠKingdom": 2437,
      "born": 2438,
      "ched": 2439,
      "Ġthird": 2440,
      "Ġmethod": 2441,
      "Ġrelations": 2442,
      "atis": 2443,
      "ĠjÃ¹": 2444,
      "king": 2445,
      "Ġarti": 2446,
      "atures": 2447,
      "Ġbuilt": 2448,
      "ĠLa": 2449,
      "Ġere": 2450,
      "mÃŃ": 2451,
      "writ": 2452,
      "Ġcompany": 2453,
      "Ġsouth": 2454,
      "Ġshould": 2455,
      "ĠCount": 2456,
      "ollo": 2457,
      "umb": 2458,
      "ruary": 2459,
      "Ġfar": 2460,
      "hers": 2461,
      "198": 2462,
      "Ç¹": 2463,
      "Ġsw": 2464,
      "isc": 2465,
      "nÃł": 2466,
      "Ġ186": 2467,
      "ĠWith": 2468,
      "Ġ188": 2469,
      "ĠSee": 2470,
      "ype": 2471,
      "zer": 2472,
      "ebruary": 2473,
      "ĠCons": 2474,
      "Ġmulti": 2475,
      "ster": 2476,
      "arin": 2477,
      "Ġlight": 2478,
      "ped": 2479,
      "Ġ2018": 2480,
      "mÃ¹": 2481,
      "eneral": 2482,
      "âĢĻ": 2483,
      "Ġship": 2484,
      "hel": 2485,
      "ille": 2486,
      "omes": 2487,
      "Ġprofess": 2488,
      "ective": 2489,
      "ĠRepublic": 2490,
      "reg": 2491,
      "Ġson": 2492,
      "ĠÃ¬já»įba": 2493,
      "Ġ2000": 2494,
      "iddle": 2495,
      "Ġwomen": 2496,
      "Ġservice": 2497,
      "Ġtake": 2498,
      "Ġworks": 2499,
      "Ġcame": 2500,
      "kÃ¹n": 2501,
      "Ġay": 2502,
      "adian": 2503,
      "Ġcell": 2504,
      "ĠHol": 2505,
      "Ġver": 2506,
      "ĠyÃ³Ã²": 2507,
      "Ġphilos": 2508,
      "Ġoriláº¹": 2509,
      "avy": 2510,
      "Ġreleased": 2511,
      "Ġtechn": 2512,
      "Ġpost": 2513,
      "ĠBook": 2514,
      "ĠCanada": 2515,
      "Ġder": 2516,
      "tÃłn": 2517,
      "ĠDes": 2518,
      "Ġothers": 2519,
      "Ġta": 2520,
      "ning": 2521,
      "Ġbusiness": 2522,
      "páº¹": 2523,
      "Ġipinláº¹": 2524,
      "kÃº": 2525,
      "Ġcare": 2526,
      "Ġofficial": 2527,
      "Ġengine": 2528,
      "Ġchem": 2529,
      "ming": 2530,
      "ĠBak": 2531,
      "ĠMe": 2532,
      "ĠComp": 2533,
      "Ġmy": 2534,
      "Ġijá»įba": 2535,
      "ades": 2536,
      "Ġdescribed": 2537,
      "ili": 2538,
      "Ġpolitician": 2539,
      "Ġplayed": 2540,
      "mit": 2541,
      "ief": 2542,
      "rÃ¬": 2543,
      "rap": 2544,
      "Ġ2005": 2545,
      "lÃ¨": 2546,
      "ĠExternal": 2547,
      "ĠfÃŃ": 2548,
      "Ġnitori": 2549,
      "bá»į": 2550,
      "ĠyÃŃ": 2551,
      "ĠParty": 2552,
      "pecially": 2553,
      "Ġearli": 2554,
      "Ġright": 2555,
      "197": 2556,
      "ku": 2557,
      "Ġeither": 2558,
      "Ġforces": 2559,
      "owo": 2560,
      "ĠApollo": 2561,
      "kÃ¨": 2562,
      "Ġ1980": 2563,
      "ĠKáº¹": 2564,
      "ĠFebruary": 2565,
      "ky": 2566,
      "bÃ¹n": 2567,
      "Ġ2021": 2568,
      "tt": 2569,
      "utions": 2570,
      "Ġfurther": 2571,
      "ula": 2572,
      "Ġtreat": 2573,
      "Ġart": 2574,
      "Ġtown": 2575,
      "face": 2576,
      "Ġdest": 2577,
      "Ġ25": 2578,
      "ĠâĢľ": 2579,
      "ino": 2580,
      "ends": 2581,
      "wh": 2582,
      "ĠPhil": 2583,
      "ogni": 2584,
      "Ġhalf": 2585,
      "Ġ187": 2586,
      "ĠMor": 2587,
      "cep": 2588,
      "ĠLeague": 2589,
      "ĠAlexander": 2590,
      "omina": 2591,
      "duce": 2592,
      "ĠKe": 2593,
      "Ġwid": 2594,
      "ĠSan": 2595,
      "ĠWá»į": 2596,
      "aces": 2597,
      "Ġcapital": 2598,
      "self": 2599,
      "ĠWestern": 2600,
      "ĠAlthough": 2601,
      "kÃłn": 2602,
      "ĠRes": 2603,
      "ĠAustralia": 2604,
      "ĠkÃº": 2605,
      "ĠnÃŃpa": 2606,
      "Ġord": 2607,
      "Ġ21": 2608,
      "Ġalbum": 2609,
      "Ġsum": 2610,
      "Ġcurrent": 2611,
      "rad": 2612,
      "Ġresul": 2613,
      "minist": 2614,
      "Ġju": 2615,
      "Ġposition": 2616,
      "ona": 2617,
      "dÃ©": 2618,
      "ydro": 2619,
      "oung": 2620,
      "inese": 2621,
      "Ġrange": 2622,
      "ĠWe": 2623,
      "ĠGermany": 2624,
      "Ġpred": 2625,
      "cer": 2626,
      "Ġtransl": 2627,
      "Ġmust": 2628,
      "Ġeyi": 2629,
      "ĠjÃ¡": 2630,
      "Ġá¹£áº¹": 2631,
      "Ġnigba": 2632,
      "ournal": 2633,
      "ĠAde": 2634,
      "Ġage": 2635,
      "Ġinternational": 2636,
      "ending": 2637,
      "cul": 2638,
      "ĠDay": 2639,
      "Ġcreated": 2640,
      "ĠCath": 2641,
      "iron": 2642,
      "used": 2643,
      "Ġos": 2644,
      "oso": 2645,
      "hi": 2646,
      "asing": 2647,
      "Ġrev": 2648,
      "enced": 2649,
      "Ġdri": 2650,
      "Ã¼": 2651,
      "Ġnipa": 2652,
      "ives": 2653,
      "Ġspecific": 2654,
      "ĠDem": 2655,
      "ĠRiver": 2656,
      "etwork": 2657,
      "ket": 2658,
      "ĠLatin": 2659,
      "Ġsometimes": 2660,
      "Ġspecial": 2661,
      "verage": 2662,
      "otes": 2663,
      "ector": 2664,
      "ĠArmy": 2665,
      "Ġmeas": 2666,
      "Ġgenerally": 2667,
      "Ġfail": 2668,
      "Ãłráº¹": 2669,
      "rag": 2670,
      "ĠReg": 2671,
      "osition": 2672,
      "ĠwÃŃ": 2673,
      "Ġcivil": 2674,
      "á¹¢": 2675,
      "oke": 2676,
      "rika": 2677,
      "Ġliter": 2678,
      "rus": 2679,
      "ĠMal": 2680,
      "ĠBudd": 2681,
      "Ġ24": 2682,
      "ditions": 2683,
      "imá»į": 2684,
      "Ġcombin": 2685,
      "Ġpap": 2686,
      "akes": 2687,
      "Ġappe": 2688,
      "ĠOs": 2689,
      "istan": 2690,
      "Ġnumbers": 2691,
      "aráº¹": 2692,
      "tire": 2693,
      "ĠÃ¬wÃ©": 2694,
      "Ġcirc": 2695,
      "ĠayÃ©": 2696,
      "ago": 2697,
      "omp": 2698,
      "ĠWhile": 2699,
      "ecti": 2700,
      "ĠÃ¨tÃ²": 2701,
      "vention": 2702,
      "Ġsal": 2703,
      "ĠChrist": 2704,
      "Ġleast": 2705,
      "cri": 2706,
      "dÃŃ": 2707,
      "ĠNo": 2708,
      "ĠRec": 2709,
      "Ġdiscover": 2710,
      "Ġversion": 2711,
      "ĠÃ¬tá»į": 2712,
      "Ġaddition": 2713,
      "ument": 2714,
      "ĠBab": 2715,
      "iran": 2716,
      "rict": 2717,
      "Ġsent": 2718,
      "Ġ1960": 2719,
      "ĠpÃ¨": 2720,
      "order": 2721,
      "Ġ1970": 2722,
      "ĠCentral": 2723,
      "Ġhow": 2724,
      "Ġlist": 2725,
      "Ġgood": 2726,
      "ĠArch": 2727,
      "Ġexpress": 2728,
      "ĠIndian": 2729,
      "II": 2730,
      "ford": 2731,
      "Ġsin": 2732,
      "ĠAct": 2733,
      "idi": 2734,
      "Ġaircraft": 2735,
      "raw": 2736,
      "ĠBBC": 2737,
      "Ġ(\"": 2738,
      "lood": 2739,
      "Ġobserv": 2740,
      "jects": 2741,
      "Ġpá»į": 2742,
      "AS": 2743,
      "mad": 2744,
      "Ġcontinued": 2745,
      "Ġkey": 2746,
      "á¹£Ãł": 2747,
      "Ġcomplex": 2748,
      "inrin": 2749,
      "Ġsch": 2750,
      "ĠIle": 2751,
      "Ġnatural": 2752,
      "ĠSov": 2753,
      "Ġpot": 2754,
      "ĠCoun": 2755,
      "ridge": 2756,
      "Ġpriv": 2757,
      "Ġbattle": 2758,
      "Ġhold": 2759,
      "Ġreceived": 2760,
      "kn": 2761,
      "Ġenc": 2762,
      "Ġomo": 2763,
      "Ġparts": 2764,
      "Ġespecially": 2765,
      "unic": 2766,
      "ĠEko": 2767,
      "ederal": 2768,
      "Ġside": 2769,
      "ĠBi": 2770,
      "Ġkm": 2771,
      "Ġbroad": 2772,
      "ĠSpanish": 2773,
      "Ġve": 2774,
      "sy": 2775,
      "stit": 2776,
      "xim": 2777,
      "time": 2778,
      "Ġdata": 2779,
      "Ġbar": 2780,
      "ĠPal": 2781,
      "fa": 2782,
      "Ã¹bÃ¡": 2783,
      "ĠCong": 2784,
      "ounced": 2785,
      "sÃłn": 2786,
      "ĠGreat": 2787,
      "Ġjust": 2788,
      "Ġiss": 2789,
      "ĠIlÃ©": 2790,
      "ensive": 2791,
      "ize": 2792,
      "Ġ100": 2793,
      "ĠBat": 2794,
      "ĠChinese": 2795,
      "ateg": 2796,
      "Ġstyle": 2797,
      "Ġformed": 2798,
      "Ġeconomic": 2799,
      "Ġrather": 2800,
      "25": 2801,
      "burg": 2802,
      "nÃŃ": 2803,
      "Ġbir": 2804,
      "Ġpossible": 2805,
      "ĠPre": 2806,
      "ights": 2807,
      "táº¹": 2808,
      "ĠMc": 2809,
      "ĠList": 2810,
      "Ġdied": 2811,
      "Ġchildren": 2812,
      "ĠMost": 2813,
      "ĠGovern": 2814,
      "Ġelements": 2815,
      "ators": 2816,
      "ows": 2817,
      "ĠPaul": 2818,
      "âĢĿ": 2819,
      "Ġprevi": 2820,
      "Ġdeb": 2821,
      "Ġ2003": 2822,
      "30": 2823,
      "icy": 2824,
      "Ġ2004": 2825,
      "Ġstar": 2826,
      "Ġspace": 2827,
      "Ġreduc": 2828,
      "Ġiá¹£": 2829,
      "Ġgen": 2830,
      "aves": 2831,
      "ination": 2832,
      "Ġgbá»į": 2833,
      "Ġ1999": 2834,
      "Ġtr": 2835,
      "utes": 2836,
      "Ġox": 2837,
      "Ġforms": 2838,
      "atal": 2839,
      "Ġka": 2840,
      "Ġfilms": 2841,
      "ĠPrin": 2842,
      "Ġabs": 2843,
      "rights": 2844,
      "viron": 2845,
      "Ġtemper": 2846,
      "Ġestim": 2847,
      "ĠCollege": 2848,
      "ĠMany": 2849,
      "bÃ²": 2850,
      "ĠPress": 2851,
      "ĠGeorge": 2852,
      "bÃł": 2853,
      "fied": 2854,
      "Ġtw": 2855,
      "rael": 2856,
      "acy": 2857,
      "ĠCharles": 2858,
      "ĠYoruba": 2859,
      "Ġavail": 2860,
      "let": 2861,
      "mary": 2862,
      "ĠGeneral": 2863,
      "Ġfree": 2864,
      "Ġmember": 2865,
      "Ġcop": 2866,
      "Ġomi": 2867,
      "ington": 2868,
      "tig": 2869,
      "Ġeth": 2870,
      "rÃ³": 2871,
      "Ġ/": 2872,
      "Ġfood": 2873,
      "ĠÃĮtá»į": 2874,
      "ours": 2875,
      "Ġá»įká»į": 2876,
      "gi": 2877,
      "Ġden": 2878,
      "ĠYorÃ¹bÃ¡": 2879,
      "Ġmodel": 2880,
      "Ġnovel": 2881,
      "''": 2882,
      "pÃ¡": 2883,
      "Ġlaun": 2884,
      "ĠPark": 2885,
      "Ġcomputer": 2886,
      "Ġterms": 2887,
      "Ġculture": 2888,
      "ĠÃ²á¹£Ã¨rÃ©": 2889,
      "ĠAj": 2890,
      "Ġexpl": 2891,
      "Ġcertain": 2892,
      "ĠRussian": 2893,
      "Ġwaye": 2894,
      "Ġmaking": 2895,
      "Ġarmy": 2896,
      "wood": 2897,
      "bu": 2898,
      "rÃ¡n": 2899,
      "Ġgáº¹gáº¹": 2900,
      "ĠHouse": 2901,
      "Ġá¹¢": 2902,
      "Ġfinal": 2903,
      "dÃº": 2904,
      "Ġtro": 2905,
      "ingu": 2906,
      "Ġdays": 2907,
      "ĠpÃł": 2908,
      "ĠSm": 2909,
      "Ġprincip": 2910,
      "bor": 2911,
      "rÃ¡": 2912,
      "Ġtelevision": 2913,
      "Ġyáº¹": 2914,
      "anti": 2915,
      "Ġ2001": 2916,
      "Ġnever": 2917,
      "itions": 2918,
      "lim": 2919,
      "ĠSci": 2920,
      "ĠJames": 2921,
      "ĠÃ¬dÃŃ": 2922,
      "Ġpress": 2923,
      "Ġcentral": 2924,
      "Ġolu": 2925,
      "ĠArt": 2926,
      "ĠQu": 2927,
      "Ġresearch": 2928,
      "asáº¹": 2929,
      "ĠSoviet": 2930,
      "wÃł": 2931,
      "berg": 2932,
      "zil": 2933,
      "Ġgbaj": 2934,
      "ourt": 2935,
      "PC": 2936,
      "Ġscienti": 2937,
      "Ġenergy": 2938,
      "ĠCalif": 2939,
      "ĠJe": 2940,
      "Ġtype": 2941,
      "Ġ2022": 2942,
      "ael": 2943,
      "Ġimpro": 2944,
      "ĠBay": 2945,
      "Ġhigher": 2946,
      "Ġindic": 2947,
      "ĠlÃ©": 2948,
      "ĠTra": 2949,
      "ests": 2950,
      "Ġcolon": 2951,
      "ĠÃģ": 2952,
      "Ġexec": 2953,
      "Ġfollowed": 2954,
      "ĠSam": 2955,
      "Ġeniyan": 2956,
      "Ġthroughout": 2957,
      "Ġisland": 2958,
      "ined": 2959,
      "Ġancient": 2960,
      "off": 2961,
      "ĠmÃ©jÃ¬": 2962,
      "Ġmem": 2963,
      "Ġabove": 2964,
      "ibr": 2965,
      "Ġmarket": 2966,
      "ert": 2967,
      "Ġnext": 2968,
      "Ġfig": 2969,
      "Ġsyn": 2970,
      "ying": 2971,
      "Ġten": 2972,
      "Ġexperi": 2973,
      "Ġbá»į": 2974,
      "ĠCanadian": 2975,
      "Ġfrequ": 2976,
      "Ġelectron": 2977,
      "Ġagre": 2978,
      "Ġport": 2979,
      "rest": 2980,
      "rÃ¨": 2981,
      "ideo": 2982,
      "tÃ³": 2983,
      "ornia": 2984,
      "ĠSince": 2985,
      "Ġseen": 2986,
      "Ġstandard": 2987,
      "Ġfather": 2988,
      "Ġlower": 2989,
      "Ġrights": 2990,
      "ĠHen": 2991,
      "Ġoffer": 2992,
      "Ġconsist": 2993,
      "ĠFl": 2994,
      "ume": 2995,
      "ĠEarth": 2996,
      "ĠPresident": 2997,
      "pi": 2998,
      "alk": 2999,
      "Ġhouse": 3000,
      "ison": 3001,
      "Ġprom": 3002,
      "Ġcy": 3003,
      "ulf": 3004,
      "esi": 3005,
      "ĠMart": 3006,
      "ceed": 3007,
      "Ġregard": 3008,
      "ĠTrans": 3009,
      "ĠMich": 3010,
      "Ġplayers": 3011,
      "Ġdefe": 3012,
      "Ġbest": 3013,
      "Ãºká»į": 3014,
      "chie": 3015,
      "Ġschol": 3016,
      "royin": 3017,
      "Ġhimself": 3018,
      "Ġforce": 3019,
      "Ġtrade": 3020,
      "Ġlocated": 3021,
      "pite": 3022,
      "ront": 3023,
      "ĠCatholic": 3024,
      "ĠCalifornia": 3025,
      "icro": 3026,
      "Ġhard": 3027,
      "Ġjoin": 3028,
      "ysis": 3029,
      "Ġvo": 3030,
      "ĠCouncil": 3031,
      "ival": 3032,
      "Ġstructure": 3033,
      "gbÃ²": 3034,
      "Ġ||": 3035,
      "Ġreported": 3036,
      "stand": 3037,
      "Ġwhe": 3038,
      "ĠMod": 3039,
      "utch": 3040,
      "istry": 3041,
      "teg": 3042,
      "ĠbÃŃi": 3043,
      "inary": 3044,
      "gh": 3045,
      "ĠTurk": 3046,
      "Ġhydro": 3047,
      "Ġláº¹yin": 3048,
      "leg": 3049,
      "Ġchange": 3050,
      "Ġabáº¹": 3051,
      "Ġsinger": 3052,
      "Ġthus": 3053,
      "play": 3054,
      "ĠlÃ¡ra": 3055,
      "waju": 3056,
      "Ġtest": 3057,
      "Ġactor": 3058,
      "rison": 3059,
      "Ġlik": 3060,
      "ĠHigh": 3061,
      "iter": 3062,
      "Ġplan": 3063,
      "Ġmeans": 3064,
      "like": 3065,
      "Ġtoget": 3066,
      "ĠÃ¬pÃŃnláº¹": 3067,
      "Ġavailable": 3068,
      "Ġground": 3069,
      "ĠmÃŃ": 3070,
      "Ġrate": 3071,
      "Ġtogether": 3072,
      "Ġacross": 3073,
      "Ġcompan": 3074,
      "Ġagbe": 3075,
      "ĠRich": 3076,
      "ply": 3077,
      "Ġsuccessful": 3078,
      "abor": 3079,
      "rug": 3080,
      "aria": 3081,
      "ece": 3082,
      "Ġevidence": 3083,
      "itect": 3084,
      "cial": 3085,
      "erous": 3086,
      "ĠCont": 3087,
      "atory": 3088,
      "Ġris": 3089,
      "ĠBrazil": 3090,
      "ĠPat": 3091,
      "Ġcontain": 3092,
      "ient": 3093,
      "ste": 3094,
      "ulg": 3095,
      "Ġaccording": 3096,
      "arc": 3097,
      "Ġ()": 3098,
      "ads": 3099,
      "ecess": 3100,
      "Ġalmost": 3101,
      "ĠAward": 3102,
      "Ġipo": 3103,
      "ĠItalian": 3104,
      "ĠCroati": 3105,
      "Ġfull": 3106,
      "Ġipa": 3107,
      "ĠBritain": 3108,
      "ream": 3109,
      "á»įna": 3110,
      "Ġparty": 3111,
      "ĠGre": 3112,
      "ĠPeople": 3113,
      "Ġcommand": 3114,
      "Ġtaken": 3115,
      "ĠMu": 3116,
      "lican": 3117,
      "ought": 3118,
      "ĠAsia": 3119,
      "aint": 3120,
      "Ġdeg": 3121,
      "Ġá¹£iá¹£áº¹": 3122,
      "vironment": 3123,
      "Ġá»įlá»į": 3124,
      "do": 3125,
      "ĠCamb": 3126,
      "ĠGáº¹": 3127,
      "Ġill": 3128,
      "Ġtour": 3129,
      "ĠBattle": 3130,
      "ĠRad": 3131,
      "zed": 3132,
      "Ġowo": 3133,
      "Ġestablish": 3134,
      "onst": 3135,
      "Ġmid": 3136,
      "Ġinformation": 3137,
      "Ġcoast": 3138,
      "Ġtá»į": 3139,
      "Ìģ,": 3140,
      "Ġhost": 3141,
      "Ġfem": 3142,
      "ĠRoyal": 3143,
      "Ġsay": 3144,
      "Ġwin": 3145,
      "Ġacid": 3146,
      "Ġball": 3147,
      "aya": 3148,
      "aff": 3149,
      "ano": 3150,
      "ampion": 3151,
      "ali": 3152,
      "Ġcontrib": 3153,
      "itive": 3154,
      "cle": 3155,
      "ĠFrom": 3156,
      "Ġmathem": 3157,
      "\")": 3158,
      "aign": 3159,
      "ĠSo": 3160,
      "ĠgbÃł": 3161,
      "Ġintroduced": 3162,
      "ĠdÃŃ": 3163,
      "iga": 3164,
      "sel": 3165,
      "ee": 3166,
      "Ġentire": 3167,
      "Ġupon": 3168,
      "Ġfeature": 3169,
      "Ġet": 3170,
      "Ġcover": 3171,
      "ĠConf": 3172,
      "Ġoju": 3173,
      "Ġmiss": 3174,
      "pÃ©": 3175,
      "iles": 3176,
      "Ġaverage": 3177,
      "Ġnuc": 3178,
      "Ġstory": 3179,
      "Ġfund": 3180,
      "ulture": 3181,
      "SO": 3182,
      "ĠUK": 3183,
      "atively": 3184,
      "Ġadop": 3185,
      "ĠÃĪkÃ³": 3186,
      "á¹£á»į": 3187,
      "Ġsee": 3188,
      "ĠAcadem": 3189,
      "Ġodun": 3190,
      "oted": 3191,
      "Ġpoin": 3192,
      "ott": 3193,
      "á¹£i": 3194,
      "ĠOb": 3195,
      "Ġlá»įwá»į": 3196,
      "echan": 3197,
      "Ġcommunity": 3198,
      "ua": 3199,
      "rial": 3200,
      "Ġsoft": 3201,
      "ols": 3202,
      "Ġrail": 3203,
      "Ġnkan": 3204,
      "Ġclub": 3205,
      "ĠagbÃ¡": 3206,
      "Ġey": 3207,
      "Ġá»Įjá»į": 3208,
      "ĠCap": 3209,
      "Ġ26": 3210,
      "ĠSim": 3211,
      "Ġstri": 3212,
      "Ġincludes": 3213,
      "Ġobinrin": 3214,
      "Ġsit": 3215,
      "rup": 3216,
      "Ġaccess": 3217,
      "isi": 3218,
      "ira": 3219,
      "Ġclim": 3220,
      "Ġ23": 3221,
      "Ġmeaning": 3222,
      "ĠBur": 3223,
      "Ġred": 3224,
      "Ġbuilding": 3225,
      "Ġpad": 3226,
      "ounds": 3227,
      "Ġitself": 3228,
      "Ġthought": 3229,
      "bra": 3230,
      "Ġfav": 3231,
      "196": 3232,
      "Ġindustry": 3233,
      "ĠLáº¹": 3234,
      "Ġrelated": 3235,
      "Ġsuggest": 3236,
      "Ġassociated": 3237,
      "Ġ2002": 3238,
      "ĠSea": 3239,
      "Ġ:": 3240,
      "Ġagbab": 3241,
      "Ġfounded": 3242,
      "estiv": 3243,
      "pasáº¹": 3244,
      "ĠSal": 3245,
      "Ġservices": 3246,
      "Ġinstead": 3247,
      "Ġdeterm": 3248,
      "writer": 3249,
      "ror": 3250,
      "Ġdoub": 3251,
      "Ġeffect": 3252,
      "lÃ²": 3253,
      "Ġinfluence": 3254,
      "omet": 3255,
      "Ġinterest": 3256,
      "Ġfind": 3257,
      "Ġcommer": 3258,
      "Ġacadem": 3259,
      "Ġlost": 3260,
      "ĠFirst": 3261,
      "Ġfire": 3262,
      "ĠIslam": 3263,
      "Ġincreased": 3264,
      "40": 3265,
      "Ġnetwork": 3266,
      "Ġperm": 3267,
      "ked": 3268,
      "Ġadminist": 3269,
      "Ġimm": 3270,
      "hib": 3271,
      "rel": 3272,
      "arÃŃ": 3273,
      "Ġfall": 3274,
      "yo": 3275,
      "awa": 3276,
      "Ġdomin": 3277,
      "ĠGro": 3278,
      "ĠMuseum": 3279,
      "Ġcritic": 3280,
      "Ġprob": 3281,
      "ĠSte": 3282,
      "fÃł": 3283,
      "reet": 3284,
      "Ġtraditional": 3285,
      "Ġpers": 3286,
      "ĠDel": 3287,
      "tained": 3288,
      "Ġrecogni": 3289,
      "Ġvalue": 3290,
      "verse": 3291,
      "ems": 3292,
      "Ġfoc": 3293,
      "ĠJapanese": 3294,
      "Ġ1991": 3295,
      "Ġeducation": 3296,
      "Ġtrib": 3297,
      "Ġclos": 3298,
      "Ġsurv": 3299,
      "Ġtradition": 3300,
      "joba": 3301,
      "Ġmovement": 3302,
      "Ġfri": 3303,
      "Ġcities": 3304,
      "uries": 3305,
      "Ġreligious": 3306,
      "Ġren": 3307,
      "akoso": 3308,
      "ĠÃĢÃłráº¹": 3309,
      "Ġwhose": 3310,
      "Ġsáº¹": 3311,
      "ership": 3312,
      "ĠAthen": 3313,
      "Ġbay": 3314,
      "rast": 3315,
      "ĠGold": 3316,
      "liament": 3317,
      "rÃł": 3318,
      "ques": 3319,
      "ĠdÃ©": 3320,
      "ĠFrank": 3321,
      "ĠKh": 3322,
      "Ġsize": 3323,
      "medi": 3324,
      "anda": 3325,
      "Ġapproxim": 3326,
      "omas": 3327,
      "ratic": 3328,
      "Ġcases": 3329,
      "Ġgl": 3330,
      "ĠRed": 3331,
      "aut": 3332,
      "Ġcourt": 3333,
      "Ġuses": 3334,
      "Ġcontin": 3335,
      "Ġsex": 3336,
      "Ġparticularly": 3337,
      "Ġcross": 3338,
      "ĠAD": 3339,
      "rÃŃn": 3340,
      "Ġwords": 3341,
      "oe": 3342,
      "Ġtext": 3343,
      "Ġmeji": 3344,
      "och": 3345,
      "ĠBell": 3346,
      "Ġevents": 3347,
      "orun": 3348,
      "Ġran": 3349,
      "Ġpercent": 3350,
      "Ġscience": 3351,
      "kÃ¡": 3352,
      "ÃĢ": 3353,
      "ĠDutch": 3354,
      "Ġ1998": 3355,
      "lected": 3356,
      "xed": 3357,
      "ophy": 3358,
      "Ġ22": 3359,
      "Ġborn": 3360,
      "Ġkilled": 3361,
      "eph": 3362,
      "Ġcompos": 3363,
      "ened": 3364,
      "ĠCam": 3365,
      "ĠFilm": 3366,
      "Ġrock": 3367,
      "rought": 3368,
      "Ġreferred": 3369,
      "Ġtar": 3370,
      "ĠLou": 3371,
      "aps": 3372,
      "ification": 3373,
      "sÃ¹": 3374,
      "ĠBank": 3375,
      "ĠojÃº": 3376,
      "ĠPers": 3377,
      "ĠAssoci": 3378,
      "Ġradio": 3379,
      "Ġur": 3380,
      "Ġnorm": 3381,
      "ĠQue": 3382,
      "ining": 3383,
      "ĠÃłrÃ¹n": 3384,
      "Ġcarbon": 3385,
      "asc": 3386,
      "Ġtransport": 3387,
      "Ġmale": 3388,
      "ĠMy": 3389,
      "Ġ50": 3390,
      "yÃ¡": 3391,
      "Amer": 3392,
      "Ġgave": 3393,
      "oses": 3394,
      "ĠVal": 3395,
      "sin": 3396,
      "ugbá»įn": 3397,
      "Ġgun": 3398,
      "itch": 3399,
      "Ġang": 3400,
      "ĠOp": 3401,
      "ĠRobert": 3402,
      "ears": 3403,
      "nel": 3404,
      "Ġaltern": 3405,
      "ĠInstit": 3406,
      "rick": 3407,
      "che": 3408,
      "iting": 3409,
      "Ġannounced": 3410,
      "Ġachie": 3411,
      "Ġremained": 3412,
      "Ġsite": 3413,
      "ĠAh": 3414,
      "Ġ1996": 3415,
      "sen": 3416,
      "ĠLaw": 3417,
      "Ġiw": 3418,
      "elling": 3419,
      "Ġonce": 3420,
      "hic": 3421,
      "eror": 3422,
      "Ġpresident": 3423,
      "Ġnorthern": 3424,
      "ĠAare": 3425,
      "Ġbillion": 3426,
      "ĠVic": 3427,
      "Ġdesigned": 3428,
      "Ġbooks": 3429,
      "artment": 3430,
      "ĠDo": 3431,
      "ĠIsland": 3432,
      "Ġput": 3433,
      "Ġhon": 3434,
      "za": 3435,
      "Ġconsider": 3436,
      "field": 3437,
      "Ġconcern": 3438,
      "ĠPeter": 3439,
      "Ġhealth": 3440,
      "Ġinstrum": 3441,
      "gá»į": 3442,
      "Ġcampaign": 3443,
      "Ġ1997": 3444,
      "adi": 3445,
      "atives": 3446,
      "lement": 3447,
      "Ġ27": 3448,
      "Ġdiffic": 3449,
      "Ġcompanies": 3450,
      "ĠDemoc": 3451,
      "gin": 3452,
      "Ġconduc": 3453,
      "uation": 3454,
      "Ġallowed": 3455,
      "Ġhelp": 3456,
      "untun": 3457,
      "ĠagbÃ¨": 3458,
      "rÃ²yÃ¬n": 3459,
      "ado": 3460,
      "Ġá»Įlá»į": 3461,
      "Ġrule": 3462,
      "Ġ1992": 3463,
      "Ġcoll": 3464,
      "ĠPortug": 3465,
      "sá»į": 3466,
      "Ġlack": 3467,
      "ulated": 3468,
      "Ġable": 3469,
      "Ġfootballer": 3470,
      "Ġpen": 3471,
      "Ġfeatures": 3472,
      "lÃ³gÃºn": 3473,
      "ĠFurther": 3474,
      "clus": 3475,
      "Ġmother": 3476,
      "ĠKar": 3477,
      "Ġastron": 3478,
      "Ġknow": 3479,
      "lÃŃ": 3480,
      "not": 3481,
      "Ġlara": 3482,
      "Ġbáº¹ráº¹": 3483,
      "22": 3484,
      "ush": 3485,
      "Ġdistrib": 3486,
      "Ġprofessional": 3487,
      "Ġogun": 3488,
      "Ġsource": 3489,
      "ĠMag": 3490,
      "Ġayáº¹": 3491,
      "Ġbur": 3492,
      "Ġmoved": 3493,
      "binrin": 3494,
      "Ġwent": 3495,
      "ĠDep": 3496,
      "Ġ28": 3497,
      "Ġagbegbe": 3498,
      "Ġsqu": 3499,
      "Ġ1993": 3500,
      "Ġaf": 3501,
      "Ġelection": 3502,
      "Ġviol": 3503,
      "ĠLÃ¡": 3504,
      "Ġarri": 3505,
      "ĠIsrael": 3506,
      "Ġjul": 3507,
      "ĠSpain": 3508,
      "Ġdirector": 3509,
      "rÃ¬n": 3510,
      "Ġmetal": 3511,
      "Ġsurface": 3512,
      "Ġprovide": 3513,
      "Ġarchitect": 3514,
      "Ġ1994": 3515,
      "Ġsun": 3516,
      "isl": 3517,
      "Ġapplic": 3518,
      "Ġlarger": 3519,
      "ĠjÃ¡de": 3520,
      "da": 3521,
      "ĠJack": 3522,
      "Ġserved": 3523,
      "Ġincreasing": 3524,
      "Ġrespons": 3525,
      "Ġsuff": 3526,
      "23": 3527,
      "Ìģ.": 3528,
      "Ã¹gbá»į": 3529,
      "Ġbank": 3530,
      "Ġgre": 3531,
      "Ġarm": 3532,
      "ĠColumb": 3533,
      "orin": 3534,
      "ĠIr": 3535,
      "Ġtax": 3536,
      "Ġleading": 3537,
      "ania": 3538,
      "acters": 3539,
      "istance": 3540,
      "Ġmeet": 3541,
      "Ġaccount": 3542,
      "Ġlaarin": 3543,
      "echni": 3544,
      "Ġsubst": 3545,
      "21": 3546,
      "reme": 3547,
      "Ġmach": 3548,
      "ills": 3549,
      "American": 3550,
      "Ġjade": 3551,
      "Ġelement": 3552,
      "Ġforeign": 3553,
      "gÃ¹n": 3554,
      "hin": 3555,
      "use": 3556,
      "ston": 3557,
      "ĠMac": 3558,
      "enc": 3559,
      "aching": 3560,
      "ĠÃłwon": 3561,
      "ĠRev": 3562,
      "racy": 3563,
      "ĠIII": 3564,
      "Ġtitle": 3565,
      "Ġprovided": 3566,
      "Ġtuntun": 3567,
      "Ġstarted": 3568,
      "ĠagbÃ¨gbÃ¨": 3569,
      "Ġbii": 3570,
      "lobal": 3571,
      "ico": 3572,
      "Ġeconomy": 3573,
      "based": 3574,
      "Ġ)": 3575,
      "Ġemer": 3576,
      "Ġjournal": 3577,
      "Ġ1950": 3578,
      "Ġgrowth": 3579,
      "Ġiwe": 3580,
      "Ġjá»į": 3581,
      "ufact": 3582,
      "roy": 3583,
      "Ġwhite": 3584,
      "Ġinteg": 3585,
      "Ġmor": 3586,
      "ranch": 3587,
      "Ġ+": 3588,
      "ĠCourt": 3589,
      "Ġinterp": 3590,
      "ength": 3591,
      "ĠAcademy": 3592,
      "ishop": 3593,
      "Ġsouthern": 3594,
      "Ġeffects": 3595,
      "ĠÂ": 3596,
      "Ġsymb": 3597,
      "Ġ40": 3598,
      "Ġrequired": 3599,
      "Ġeventually": 3600,
      "ilu": 3601,
      "Ġnibi": 3602,
      "Ġpoet": 3603,
      "ĠCongress": 3604,
      "Ġrá»į": 3605,
      "Ġclose": 3606,
      "rama": 3607,
      "ĠVol": 3608,
      "Ġmanufact": 3609,
      "Ġindividual": 3610,
      "Ġtypically": 3611,
      "Ġ1995": 3612,
      "Ġsaw": 3613,
      "pro": 3614,
      "Ġsoldi": 3615,
      "Ġmechan": 3616,
      "una": 3617,
      "ĠMex": 3618,
      "Ġ185": 3619,
      "Ġgod": 3620,
      "ĠBulg": 3621,
      "Ġjud": 3622,
      "ghan": 3623,
      "ÃĮ": 3624,
      "47": 3625,
      "ued": 3626,
      "Ġcommonly": 3627,
      "ibrary": 3628,
      "Ġ2023": 3629,
      "Ġidije": 3630,
      "ym": 3631,
      "Ġwest": 3632,
      "Ġnames": 3633,
      "oid": 3634,
      "rate": 3635,
      "ĠÃłmÃ¬": 3636,
      "tition": 3637,
      "ett": 3638,
      "Ġsources": 3639,
      "Ġbelieved": 3640,
      "ĠItaly": 3641,
      "Ġpast": 3642,
      "Ġhighest": 3643,
      "ete": 3644,
      "ference": 3645,
      "ectively": 3646,
      "Ġprivate": 3647,
      "ÃłgbÃł": 3648,
      "ĠsÃŃláº¹": 3649,
      "Ġmission": 3650,
      "Ġmonths": 3651,
      "Ġste": 3652,
      "Ġactress": 3653,
      "Ġoil": 3654,
      "Ġoá¹£u": 3655,
      "Ġincrease": 3656,
      "):": 3657,
      "Ġeast": 3658,
      "Ġaway": 3659,
      "cast": 3660,
      "Ġmight": 3661,
      "onds": 3662,
      "kunrin": 3663,
      "igned": 3664,
      "nder": 3665,
      "Ġrecorded": 3666,
      "int": 3667,
      "resp": 3668,
      "ords": 3669,
      "Ġterritory": 3670,
      "ney": 3671,
      "uture": 3672,
      "ands": 3673,
      "Ġexperim": 3674,
      "Ġsiláº¹": 3675,
      "ĠLiber": 3676,
      "ned": 3677,
      "ĠIslands": 3678,
      "lar": 3679,
      "Ġvideo": 3680,
      "ĠRichard": 3681,
      "ĠÎ": 3682,
      "bile": 3683,
      "Ġmajority": 3684,
      "Ġcaused": 3685,
      "Ġwidely": 3686,
      "ĠHenry": 3687,
      "Ġnature": 3688,
      "Ġagbabá»įá»įlu": 3689,
      "bun": 3690,
      "Ġbrought": 3691,
      "Ġlive": 3692,
      "ilo": 3693,
      "Ġmount": 3694,
      "las": 3695,
      "ena": 3696,
      "itar": 3697,
      "lymp": 3698,
      "sych": 3699,
      "selves": 3700,
      "Ġtypes": 3701,
      "Ġbrother": 3702,
      "Ġoru": 3703,
      "Ġchurch": 3704,
      "ĠorÃºká»į": 3705,
      "NA": 3706,
      "now": 3707,
      "aval": 3708,
      "uals": 3709,
      "Ġlog": 3710,
      "ĠSociety": 3711,
      "Ġarun": 3712,
      "Ġcrew": 3713,
      "Ġna": 3714,
      "Ġcharacters": 3715,
      "ĠEm": 3716,
      "Ġdise": 3717,
      "Ġagba": 3718,
      "ato": 3719,
      "Ġidibo": 3720,
      "24": 3721,
      "zo": 3722,
      "irus": 3723,
      "Ġremains": 3724,
      "ĠMinister": 3725,
      "agos": 3726,
      "Ġacademic": 3727,
      "Ġaye": 3728,
      "Ġijá»į": 3729,
      "Ġresults": 3730,
      "uke": 3731,
      "eles": 3732,
      "odes": 3733,
      "itiz": 3734,
      "ĠGrand": 3735,
      "anta": 3736,
      "Ġoutside": 3737,
      "ĠMichael": 3738,
      "Ġconditions": 3739,
      "Ġreturned": 3740,
      "Ġlikely": 3741,
      "ila": 3742,
      "atch": 3743,
      "Ġdyn": 3744,
      "ĠThomas": 3745,
      "ĠIts": 3746,
      "ĠkejÃ¬": 3747,
      "lav": 3748,
      "Ġsubsequ": 3749,
      "Ġrelationship": 3750,
      "ĠInstitute": 3751,
      "onic": 3752,
      "ĠEastern": 3753,
      "ĠOld": 3754,
      "wu": 3755,
      "Ġparticip": 3756,
      "ĠAC": 3757,
      "ĠMount": 3758,
      "Ġess": 3759,
      "01": 3760,
      "Ġprimary": 3761,
      "torÃŃ": 3762,
      "ĠRussia": 3763,
      "Ġyan": 3764,
      "sour": 3765,
      "Ġconstruction": 3766,
      "ĠIre": 3767,
      "Ġself": 3768,
      "throp": 3769,
      "jÃ²": 3770,
      "Ġliving": 3771,
      "airs": 3772,
      "Ġaká»įká»į": 3773,
      "Ġartic": 3774,
      "known": 3775,
      "Ġcode": 3776,
      "ĠTe": 3777,
      "Ġconcent": 3778,
      "Ġques": 3779,
      "ĠApple": 3780,
      "omy": 3781,
      "ĠnÃŃbi": 3782,
      "Ġregions": 3783,
      "ĠJewish": 3784,
      "urity": 3785,
      "Ġlittle": 3786,
      "ĠAmerika": 3787,
      "Ġproducer": 3788,
      "Ġreplaced": 3789,
      "log": 3790,
      "Ġiká»į": 3791,
      "Ġmostly": 3792,
      "Ġku": 3793,
      "ĠHall": 3794,
      "umá»į": 3795,
      "Ġscreen": 3796,
      "Ġbehav": 3797,
      "Ġbirth": 3798,
      "Ġsea": 3799,
      "Ġoccup": 3800,
      "Ġchanges": 3801,
      "ĠSol": 3802,
      "Ġasp": 3803,
      "Ġstation": 3804,
      "Ġcompe": 3805,
      "Ġlonger": 3806,
      "ĠSecond": 3807,
      "Ġsoftware": 3808,
      "Ġgas": 3809,
      "ĠAlf": 3810,
      "irit": 3811,
      "ĠInter": 3812,
      "Ġatom": 3813,
      "ĠEarly": 3814,
      "Ġappeared": 3815,
      "des": 3816,
      "alled": 3817,
      "ground": 3818,
      "Ġcause": 3819,
      "Ġá»įwá»į": 3820,
      "Ġregular": 3821,
      "Ġindependent": 3822,
      "Ġaaráº¹": 3823,
      "ression": 3824,
      "Ġaward": 3825,
      "ĠAssociation": 3826,
      "ĠOlymp": 3827,
      "ĠHistor": 3828,
      "Ġtechni": 3829,
      "Ġdam": 3830,
      "ĠTer": 3831,
      "Ġtoo": 3832,
      "ĠBut": 3833,
      "ĠNorthern": 3834,
      "Ġproducts": 3835,
      "Ġbaseball": 3836,
      "year": 3837,
      "Ġthemselves": 3838,
      "Ġadded": 3839,
      "Ġwriting": 3840,
      "itor": 3841,
      "ĠlÃ¡Ãł": 3842,
      "ink": 3843,
      "ĠMiddle": 3844,
      "ĠSwed": 3845,
      "Ġsil": 3846,
      "Ġclear": 3847,
      "ĠIgb": 3848,
      "eleb": 3849,
      "hÃ¹n": 3850,
      "Ġgold": 3851,
      "Ġoá¹£elu": 3852,
      "Ġproblem": 3853,
      "ĠÃģf": 3854,
      "ĠAlexand": 3855,
      "Ġfle": 3856,
      "asion": 3857,
      "Ġadap": 3858,
      "cis": 3859,
      "Ġsound": 3860,
      "Ġblood": 3861,
      "abit": 3862,
      "ĠCz": 3863,
      "Ã¬mÃ¹": 3864,
      "Ġaction": 3865,
      "Ġenvironment": 3866,
      "ĠLouis": 3867,
      "ĠwÃ³n": 3868,
      "oming": 3869,
      "porary": 3870,
      "Ġem": 3871,
      "Ġgomina": 3872,
      "Ġcho": 3873,
      "gypt": 3874,
      "Ġcommunic": 3875,
      "ĠjÃ¹lá»į": 3876,
      "Ġdial": 3877,
      "Ã²rÃ¹n": 3878,
      "Ġnecess": 3879,
      "ilities": 3880,
      "Ġ1986": 3881,
      "ĠAbu": 3882,
      "pÃ²": 3883,
      "isions": 3884,
      "Ġpurp": 3885,
      "inct": 3886,
      "Ġtoday": 3887,
      "Ġyoung": 3888,
      "elled": 3889,
      "Ġproduce": 3890,
      "Ġ1989": 3891,
      "ĠAfghan": 3892,
      "Ġearlier": 3893,
      "agun": 3894,
      "Ã³m": 3895,
      "ĠrÃ¨": 3896,
      "aja": 3897,
      "Ġlegal": 3898,
      "Ġhit": 3899,
      "Ġlines": 3900,
      "ĠDi": 3901,
      "He": 3902,
      "ĠAle": 3903,
      "estival": 3904,
      "utive": 3905,
      "Ġlay": 3906,
      "iding": 3907,
      "ĠJer": 3908,
      "ĠParis": 3909,
      "Ġspeak": 3910,
      "asty": 3911,
      "Ġpada": 3912,
      "ultural": 3913,
      "Ġattempt": 3914,
      "po": 3915,
      "west": 3916,
      "omm": 3917,
      "aged": 3918,
      "Ġitá»į": 3919,
      "ĠAri": 3920,
      "Ġtowards": 3921,
      "Ġwhether": 3922,
      "va": 3923,
      "Ġalc": 3924,
      "Ġpractice": 3925,
      "ĠMer": 3926,
      "iki": 3927,
      "ĠCommun": 3928,
      "ĠZe": 3929,
      "Ġemploy": 3930,
      "ID": 3931,
      "Ġfight": 3932,
      "ĠMad": 3933,
      "ĠEgypt": 3934,
      "ĠOrgan": 3935,
      "Ġschools": 3936,
      "Ġ29": 3937,
      "ughter": 3938,
      "Ġadj": 3939,
      "Ġpersonal": 3940,
      "ĠkÃ³pa": 3941,
      "'t": 3942,
      "sÃ¬n": 3943,
      "ĠFore": 3944,
      "ĠÃłÃ¬": 3945,
      "Ġbelow": 3946,
      "axim": 3947,
      "ĠFM": 3948,
      "Ġchemical": 3949,
      "Ġproblems": 3950,
      "80": 3951,
      "Ġpup": 3952,
      "Ġmedia": 3953,
      "Ġ1988": 3954,
      "Ch": 3955,
      "owers": 3956,
      "Ġhistorical": 3957,
      "Ġlimited": 3958,
      "Ġcommercial": 3959,
      "ĠCa": 3960,
      "Ġconver": 3961,
      "Ġcultural": 3962,
      "SC": 3963,
      "ĠGra": 3964,
      "Ġphot": 3965,
      "ĠBatman": 3966,
      "ĠPhilip": 3967,
      "onse": 3968,
      "Ġattemp": 3969,
      "Ġbor": 3970,
      "Ġacqu": 3971,
      "Ġdefined": 3972,
      "ĠNor": 3973,
      "ĠOgun": 3974,
      "ĠBr": 3975,
      "Ġriver": 3976,
      "Ġbeginning": 3977,
      "ĠAbd": 3978,
      "ether": 3979,
      "Ġsuper": 3980,
      "bre": 3981,
      "oy": 3982,
      "Ġfif": 3983,
      "Ġstated": 3984,
      "ĠobÃ¬nrin": 3985,
      "Ġreading": 3986,
      "ĠpadÃł": 3987,
      "ĠCivil": 3988,
      "Ġcenturies": 3989,
      "ubu": 3990,
      "ĠLeg": 3991,
      "Ġcareer": 3992,
      "ux": 3993,
      "ĠVir": 3994,
      "Ġvehic": 3995,
      "Ġdifficult": 3996,
      "Ġvariety": 3997,
      "Ġpoints": 3998,
      "Ġche": 3999,
      "rative": 4000,
      "Ġloss": 4001,
      "Ġiye": 4002,
      "cel": 4003,
      "ĠAnother": 4004,
      "ĠÃ¬má»į": 4005,
      "Ġsequ": 4006,
      "Ġax": 4007,
      "Ġalways": 4008,
      "Ġcost": 4009,
      "ĠArabic": 4010,
      "Ġsubject": 4011,
      "nic": 4012,
      "ĠMusic": 4013,
      "ĠCzech": 4014,
      "Ġsold": 4015,
      "opa": 4016,
      "ĠProt": 4017,
      "lit": 4018,
      "Ġdig": 4019,
      "Ġstudies": 4020,
      "ĠMa": 4021,
      "oju": 4022,
      "ancial": 4023,
      "Ġcome": 4024,
      "uda": 4025,
      "Ġsett": 4026,
      "Ġsom": 4027,
      "ela": 4028,
      "Ġanalysis": 4029,
      "Ġestimated": 4030,
      "ampionship": 4031,
      "Ġjulá»į": 4032,
      "war": 4033,
      "ĠIá¹£áº¹": 4034,
      "Ġislands": 4035,
      "ĠÃ¬bÃŃ": 4036,
      "Ġ1983": 4037,
      "Ġakoko": 4038,
      "eg": 4039,
      "ĠBos": 4040,
      "ĠWash": 4041,
      "ĠRadio": 4042,
      "ĠArmen": 4043,
      "27": 4044,
      "ĠÃŃ": 4045,
      "Ġnipasáº¹": 4046,
      "Ġworking": 4047,
      "Ġbáº¹áº¹": 4048,
      "Ġdiscovered": 4049,
      "Ġyou": 4050,
      "Ġsmaller": 4051,
      "ĠgbajÃº": 4052,
      "Ġrequire": 4053,
      "tian": 4054,
      "Ġdip": 4055,
      "ented": 4056,
      "Ġtravel": 4057,
      "wÃ¡jÃº": 4058,
      "Ġtroops": 4059,
      "oni": 4060,
      "enes": 4061,
      "ĠTex": 4062,
      "urs": 4063,
      "ida": 4064,
      "ĠMat": 4065,
      "iff": 4066,
      "ĠIreland": 4067,
      "ception": 4068,
      "Ġpolicy": 4069,
      "Ġphysical": 4070,
      "isation": 4071,
      "tention": 4072,
      "Ġdirectly": 4073,
      "anded": 4074,
      "met": 4075,
      "ÌŁ": 4076,
      "ĠMary": 4077,
      "...": 4078,
      "hold": 4079,
      "omer": 4080,
      "Ġ1985": 4081,
      "ĠCup": 4082,
      "Ġcommit": 4083,
      "Ġproperties": 4084,
      "gor": 4085,
      "ÃłÃł": 4086,
      "SA": 4087,
      "Ġemb": 4088,
      "Ġtan": 4089,
      "lec": 4090,
      "Ġlear": 4091,
      "Ġcomb": 4092,
      "Ġvia": 4093,
      "Ġoffice": 4094,
      "onia": 4095,
      "Ġwi": 4096,
      "Ġunits": 4097,
      "Ġremov": 4098,
      "aka": 4099,
      "kÃ¹nrin": 4100,
      "ĠowÃ³": 4101,
      "Ġrecent": 4102,
      "||": 4103,
      "Ġ1984": 4104,
      "ledge": 4105,
      "change": 4106,
      "Ġreached": 4107,
      "ĠHung": 4108,
      "Ġconstitution": 4109,
      "Ġcapture": 4110,
      "Ġseven": 4111,
      "ĠClass": 4112,
      "gely": 4113,
      "idents": 4114,
      "ĠMore": 4115,
      "ĠOd": 4116,
      "ĠBelg": 4117,
      "ĠSun": 4118,
      "ĠStud": 4119,
      "Ġseparate": 4120,
      "ĠVictor": 4121,
      "60": 4122,
      "ville": 4123,
      "anced": 4124,
      "Ġ1976": 4125,
      "Ġminor": 4126,
      "with": 4127,
      "eds": 4128,
      "Ġdeal": 4129,
      "Ġdu": 4130,
      "Ġgran": 4131,
      "ibility": 4132,
      "Ġproposed": 4133,
      "Ġstruct": 4134,
      "ĠGovernment": 4135,
      "Ġban": 4136,
      "ĠÃłÃł": 4137,
      "Ġtemperature": 4138,
      "ĠWashington": 4139,
      "ĠBre": 4140,
      "Ã¬nÃł": 4141,
      "embly": 4142,
      "ĠOá¹£u": 4143,
      "Ġpi": 4144,
      "ĠTele": 4145,
      "ables": 4146,
      "Ġ183": 4147,
      "orial": 4148,
      "Ġcard": 4149,
      "Ġproject": 4150,
      "isms": 4151,
      "ls": 4152,
      "ĠOrÃŃ": 4153,
      "Ġanimals": 4154,
      "back": 4155,
      "Ġojo": 4156,
      "isan": 4157,
      "Ġá»įkan": 4158,
      "ont": 4159,
      "Ġplant": 4160,
      "Ġneg": 4161,
      "Ġcorresp": 4162,
      "ĠBerlin": 4163,
      "Ġinvolved": 4164,
      "ĠConst": 4165,
      "ĠSmith": 4166,
      "Ġyá»į": 4167,
      "anned": 4168,
      "Ġlength": 4169,
      "ĠBill": 4170,
      "asiko": 4171,
      "Ġrap": 4172,
      "ĠAtlan": 4173,
      "ĠForce": 4174,
      "Ġelected": 4175,
      "Ġguitar": 4176,
      "Ġreason": 4177,
      "ĠOtt": 4178,
      "oper": 4179,
      "Ġstudents": 4180,
      "03": 4181,
      "ĠEg": 4182,
      "ising": 4183,
      "ĠAwards": 4184,
      "ellow": 4185,
      "ĠNigerian": 4186,
      "vin": 4187,
      "Ġhous": 4188,
      "olk": 4189,
      "Ġkii": 4190,
      "yer": 4191,
      "Ġpay": 4192,
      "ements": 4193,
      "Ġheav": 4194,
      "ipe": 4195,
      "stein": 4196,
      "kÃŃ": 4197,
      "Ġreb": 4198,
      "Ġleader": 4199,
      "Ġoperations": 4200,
      "Ġgreater": 4201,
      "Ġera": 4202,
      "fun": 4203,
      "Ġceleb": 4204,
      "Ġ1969": 4205,
      "Ġcomplete": 4206,
      "Ġfuture": 4207,
      "Ġcut": 4208,
      "Ġnar": 4209,
      "ĠinÃº": 4210,
      "Ġiya": 4211,
      "Ġagric": 4212,
      "ĠsÃ¡": 4213,
      "ready": 4214,
      "Ġtechnology": 4215,
      "Ġtreatment": 4216,
      "Ġbene": 4217,
      "ĠEs": 4218,
      "Ġconcept": 4219,
      "ĠMuslim": 4220,
      "ĠðŁİ": 4221,
      "Ġ;": 4222,
      "Ġeight": 4223,
      "olu": 4224,
      "ĠOk": 4225,
      "Ġnumerous": 4226,
      "ĠCyp": 4227,
      "ĠBec": 4228,
      "Ġgive": 4229,
      "ĠWil": 4230,
      "Ġrank": 4231,
      "ĠJoseph": 4232,
      "ĠGroup": 4233,
      "ĠFin": 4234,
      "Ġ|-": 4235,
      "Ġ1987": 4236,
      "Ġifáº¹": 4237,
      "Ġapproximately": 4238,
      "oles": 4239,
      "Ġlargely": 4240,
      "Ġ''": 4241,
      "irds": 4242,
      "ojÃº": 4243,
      "ĠBig": 4244,
      "Ġoni": 4245,
      "ĠnÃŃtorÃŃ": 4246,
      "Ġboard": 4247,
      "ĠRel": 4248,
      "Ġwhom": 4249,
      "rich": 4250,
      "Ġbound": 4251,
      "Ġ184": 4252,
      "Ġperformed": 4253,
      "abo": 4254,
      "mu": 4255,
      "ĠMark": 4256,
      "hood": 4257,
      "Ã§": 4258,
      "rection": 4259,
      "ĠMartin": 4260,
      "lying": 4261,
      "rane": 4262,
      "Ġcompar": 4263,
      "Ġ1979": 4264,
      "Ġfá»į": 4265,
      "Ġplaced": 4266,
      "ĠTV": 4267,
      "Ġvill": 4268,
      "Ġdiss": 4269,
      "Ġbetter": 4270,
      "Ġdivided": 4271,
      ",\"": 4272,
      "erial": 4273,
      "Ġfish": 4274,
      "Ġlatter": 4275,
      "ĠPan": 4276,
      "uck": 4277,
      "ension": 4278,
      "Ġod": 4279,
      "ĠHum": 4280,
      "apti": 4281,
      "ressed": 4282,
      "Ġrelatively": 4283,
      "Ġflight": 4284,
      "ĠmÃ¬ÃŃ": 4285,
      "Ġunit": 4286,
      "Ġprevent": 4287,
      "ĠIrish": 4288,
      "zy": 4289,
      "ĠÃ²á¹£": 4290,
      "Ġsupported": 4291,
      "ĠÃłgbÃł": 4292,
      "ĠÃ¬p": 4293,
      "Ġwriters": 4294,
      "Ġoriginally": 4295,
      "ĠCompany": 4296,
      "ĠPop": 4297,
      "ĠLagos": 4298,
      "ift": 4299,
      "Ġ1982": 4300,
      "logun": 4301,
      "ĠSen": 4302,
      "Ġinstit": 4303,
      "uge": 4304,
      "Ġdisp": 4305,
      "Ġround": 4306,
      "asons": 4307,
      "Ġ1981": 4308,
      "ĠDon": 4309,
      "Ġnearly": 4310,
      "Ġindependence": 4311,
      "standing": 4312,
      "Ġadopted": 4313,
      "sÃ¡": 4314,
      "ĠJes": 4315,
      "Ġsurround": 4316,
      "Ġli": 4317,
      "Ġhor": 4318,
      "ĠBa": 4319,
      "Ġmultiple": 4320,
      "Ġmention": 4321,
      "ĠbÃł": 4322,
      "ĠAlban": 4323,
      "Ġcollection": 4324,
      "ictory": 4325,
      "Ġ1975": 4326,
      "Ġdiscuss": 4327,
      "ĠBuddh": 4328,
      "ript": 4329,
      "iko": 4330,
      "Ġproduct": 4331,
      "Ġpataki": 4332,
      "Ġamp": 4333,
      "itz": 4334,
      "Ġiroyin": 4335,
      "ĠfÃŃÃ¬mÃ¹": 4336,
      "Ġsubs": 4337,
      "Ġdocument": 4338,
      "Ġprevious": 4339,
      "Ġá»įna": 4340,
      "ĠSu": 4341,
      "ĠBest": 4342,
      "ocal": 4343,
      "Ġinu": 4344,
      "Ġreview": 4345,
      "aga": 4346,
      "Ġ1972": 4347,
      "Ġhighly": 4348,
      "ibi": 4349,
      "wide": 4350,
      "Ġwife": 4351,
      "ĠBron": 4352,
      "head": 4353,
      "ĠWomen": 4354,
      "edy": 4355,
      "ketball": 4356,
      "ĠKn": 4357,
      "iance": 4358,
      "02": 4359,
      "ĠAPC": 4360,
      "ĠTin": 4361,
      "ĠJews": 4362,
      "ĠServ": 4363,
      "ami": 4364,
      "Ġgene": 4365,
      "Ġsaf": 4366,
      "ĠBÃŃ": 4367,
      "Ġappl": 4368,
      "Ġ1930": 4369,
      "Ġidea": 4370,
      "Ġoriláº¹ede": 4371,
      "Ġá»įhun": 4372,
      "Ġcenter": 4373,
      "AC": 4374,
      "IC": 4375,
      "ĠImp": 4376,
      "osis": 4377,
      "Ġneigh": 4378,
      "Ġunivers": 4379,
      "unicip": 4380,
      "Ġalready": 4381,
      "Ġbomb": 4382,
      "Ġofin": 4383,
      "Ġfunctions": 4384,
      "Ġmarried": 4385,
      "ĠSouthern": 4386,
      "Ġresponse": 4387,
      "dáº¹": 4388,
      "Ġpsych": 4389,
      "Ġever": 4390,
      "cont": 4391,
      "Ġletter": 4392,
      "Ã³mÃ¬nÃł": 4393,
      "ĠDis": 4394,
      "cher": 4395,
      "alu": 4396,
      "olved": 4397,
      "Ġsá»įrá»į": 4398,
      "raction": 4399,
      "ĠCounty": 4400,
      "ĠwÃŃpÃ©": 4401,
      "An": 4402,
      "ĠTwo": 4403,
      "Ġstep": 4404,
      "Ġá¹£i": 4405,
      "Ġenter": 4406,
      "eto": 4407,
      "Ġstatus": 4408,
      "omo": 4409,
      "ĠmÃ¬ÃŃrÃłn": 4410,
      "Ġamá»į": 4411,
      "Ġwestern": 4412,
      "Ġcateg": 4413,
      "Ġadditional": 4414,
      "ĠCommon": 4415,
      "sÃ¬kÃ²": 4416,
      "Ġsociety": 4417,
      "Ġáº¹já»į": 4418,
      "ging": 4419,
      "ĠgÃŃ": 4420,
      "osan": 4421,
      "Ġsettle": 4422,
      "ĠBrown": 4423,
      "AM": 4424,
      "OS": 4425,
      "Ġu": 4426,
      "oselu": 4427,
      "hari": 4428,
      "Ã¤": 4429,
      "ĠMil": 4430,
      "ensus": 4431,
      "á¹£Ã¨lÃº": 4432,
      "ires": 4433,
      "Ġ1920": 4434,
      "Ġ1974": 4435,
      "Ġ...": 4436,
      "Ġthous": 4437,
      "Ġconflic": 4438,
      "ĠSaint": 4439,
      "ĠAmericans": 4440,
      "Ġmainly": 4441,
      "adan": 4442,
      "Ġá¹£ugbá»įn": 4443,
      "Ġrelease": 4444,
      "umin": 4445,
      "ounts": 4446,
      "gn": 4447,
      "ĠDen": 4448,
      "ĠÃłkÃ³": 4449,
      "Ġstage": 4450,
      "ternet": 4451,
      "Ġbreak": 4452,
      "ĠSystem": 4453,
      "ĠOf": 4454,
      "ferred": 4455,
      "Ġaj": 4456,
      "ump": 4457,
      "Ġcolor": 4458,
      "arun": 4459,
      "Ġmagn": 4460,
      "ĠCroatia": 4461,
      "--": 4462,
      "aran": 4463,
      "ĠISO": 4464,
      "gebra": 4465,
      "Ġspect": 4466,
      "Ġlook": 4467,
      "Ġconstit": 4468,
      "win": 4469,
      "ĠÃ¬tÃłn": 4470,
      "reng": 4471,
      "Ġperformance": 4472,
      "marily": 4473,
      "ĠPo": 4474,
      "ĠOri": 4475,
      "ĠLife": 4476,
      "ield": 4477,
      "oto": 4478,
      "Ġ1966": 4479,
      "bed": 4480,
      "ĠEv": 4481,
      "ĠSuper": 4482,
      "ĠCard": 4483,
      "Ġ1940": 4484,
      "Ġepis": 4485,
      "ĠOá¹£Ã¹": 4486,
      "lines": 4487,
      "Ġcust": 4488,
      "ĠBah": 4489,
      "gbon": 4490,
      "Ġimplement": 4491,
      "ores": 4492,
      "Ġbod": 4493,
      "ĠMet": 4494,
      "ĠÃ¬gbÃ©": 4495,
      "ĪĴ": 4496,
      "Ġpun": 4497,
      "cean": 4498,
      "Ġcontains": 4499,
      "ĠElect": 4500,
      "Ġcontem": 4501,
      "04": 4502,
      "Ġships": 4503,
      "Ġcast": 4504,
      "unif": 4505,
      "Ġ1971": 4506,
      "Ġ1945": 4507,
      "rÃ¹": 4508,
      "zz": 4509,
      "alo": 4510,
      "ĠkÃ©": 4511,
      "vey": 4512,
      "Ġcompon": 4513,
      "Ġtherefore": 4514,
      "Ġdestroy": 4515,
      "amin": 4516,
      "Ġ1978": 4517,
      "ĠMuham": 4518,
      "ght": 4519,
      "ĠDiv": 4520,
      "Ġalph": 4521,
      "Ġwind": 4522,
      "Ġcentre": 4523,
      "In": 4524,
      "sun": 4525,
      "Ġconqu": 4526,
      "ĠWall": 4527,
      "Ġ1973": 4528,
      "Ġcreate": 4529,
      "dÃł": 4530,
      "mark": 4531,
      "wer": 4532,
      "Ġfarm": 4533,
      "Ġthreat": 4534,
      "ĠFre": 4535,
      "ĠAlbert": 4536,
      "Ġactive": 4537,
      "ĠAdam": 4538,
      "Ġcreat": 4539,
      "Ġinh": 4540,
      "Ġdar": 4541,
      "ĠMass": 4542,
      "ĠRom": 4543,
      "Ġplants": 4544,
      "Ġá¹£ÃŃ": 4545,
      "Ġmaintain": 4546,
      "osing": 4547,
      "ested": 4548,
      "board": 4549,
      "ca": 4550,
      "ĠNations": 4551,
      "28": 4552,
      "tional": 4553,
      "Ġweek": 4554,
      "ĠJohnson": 4555,
      "ĠAsh": 4556,
      "otor": 4557,
      "Ġinj": 4558,
      "Ġlasiko": 4559,
      "ella": 4560,
      "ologist": 4561,
      "ointed": 4562,
      "Ġopened": 4563,
      "Ġdegree": 4564,
      "Ġget": 4565,
      "ube": 4566,
      "Ġrare": 4567,
      "Ġshows": 4568,
      "kÃ¹": 4569,
      "Ġdraw": 4570,
      "ĠRob": 4571,
      "Ġconsum": 4572,
      "Ġmethods": 4573,
      "lom": 4574,
      "heast": 4575,
      "ĠSar": 4576,
      "Ġbayii": 4577,
      "BA": 4578,
      "lywood": 4579,
      "Ġprote": 4580,
      "Ġsan": 4581,
      "Ġcitiz": 4582,
      "Ġimmedi": 4583,
      "ĠipÃ²": 4584,
      "aled": 4585,
      "Ġoloselu": 4586,
      "Ġ1967": 4587,
      "ĠScottish": 4588,
      "enh": 4589,
      "rie": 4590,
      "ansion": 4591,
      "rying": 4592,
      "Ġlevels": 4593,
      "EC": 4594,
      "ny": 4595,
      "ĠjÃ©": 4596,
      "Ġopo": 4597,
      "bour": 4598,
      "chest": 4599,
      "Ġnation": 4600,
      "ĠAzer": 4601,
      "earch": 4602,
      "Ġwriter": 4603,
      "Ġwant": 4604,
      "Ġ1977": 4605,
      "ĠModern": 4606,
      "Ġwide": 4607,
      "Ġdetail": 4608,
      "Ġmeasure": 4609,
      "itation": 4610,
      "Ġhyp": 4611,
      "Ġdeep": 4612,
      "Ġij": 4613,
      "ayÃ©": 4614,
      "ĠRail": 4615,
      "Ġtex": 4616,
      "hy": 4617,
      "Ġdrug": 4618,
      "Ġrules": 4619,
      "ively": 4620,
      "erve": 4621,
      "Ġwall": 4622,
      "ĠCur": 4623,
      "amá»į": 4624,
      "ulations": 4625,
      "Ġcannot": 4626,
      "Ġfocus": 4627,
      "Ġwor": 4628,
      "azine": 4629,
      "gorith": 4630,
      "Ġincor": 4631,
      "imu": 4632,
      "baij": 4633,
      "Ġfinancial": 4634,
      "owe": 4635,
      "ĠAlÃ¡": 4636,
      "Ġmatter": 4637,
      "Ġpath": 4638,
      "ĠLab": 4639,
      "Ġdisplay": 4640,
      "Ġprior": 4641,
      "unar": 4642,
      "opher": 4643,
      "ender": 4644,
      "Ġsoon": 4645,
      "hesis": 4646,
      "Ġcounter": 4647,
      "ĠFollow": 4648,
      "Ġwood": 4649,
      "Ġquick": 4650,
      "ĠWhite": 4651,
      "Ġajá»į": 4652,
      "riage": 4653,
      "Ġá¹£Ãł": 4654,
      "book": 4655,
      "ext": 4656,
      "Ġmedic": 4657,
      "Ġissue": 4658,
      "uru": 4659,
      "Ġcompared": 4660,
      "Ġpoor": 4661,
      "atre": 4662,
      "astic": 4663,
      "ĠInt": 4664,
      "Ġnoted": 4665,
      "olf": 4666,
      "ĠLo": 4667,
      "ĠCenter": 4668,
      "Ġappears": 4669,
      "Ġclaimed": 4670,
      "ĠScience": 4671,
      "ĠâĢĶ": 4672,
      "izations": 4673,
      "Ġá»Įba": 4674,
      "Ġprimarily": 4675,
      "rical": 4676,
      "sÃ¨": 4677,
      "ĠAst": 4678,
      "usu": 4679,
      "uls": 4680,
      "Ġshown": 4681,
      "Ġequip": 4682,
      "Ġcompleted": 4683,
      "Ġayáº¹yáº¹": 4684,
      "bÃ¬nrin": 4685,
      "Ġkind": 4686,
      "ĠArg": 4687,
      "Ġwhole": 4688,
      "ĠDef": 4689,
      "Ġdivision": 4690,
      "Ġinfluenced": 4691,
      "Ġmathema": 4692,
      "rd": 4693,
      "ĠSing": 4694,
      "TA": 4695,
      "rete": 4696,
      "uments": 4697,
      "Ġclimate": 4698,
      "nia": 4699,
      "Ġfer": 4700,
      "Ġissues": 4701,
      "29": 4702,
      "well": 4703,
      "Ġtraining": 4704,
      "Ġ1968": 4705,
      "Ġconstruc": 4706,
      "Ġá»įpá»įlá»įpá»į": 4707,
      "Ġscientific": 4708,
      "het": 4709,
      "onso": 4710,
      "Ġfront": 4711,
      "Ġmakes": 4712,
      "ĠOx": 4713,
      "ĠChile": 4714,
      "Ġchanged": 4715,
      "cing": 4716,
      "fl": 4717,
      "ĠnÃ¬": 4718,
      "ĠAM": 4719,
      "ĠKore": 4720,
      "Ġactivity": 4721,
      "Ġfriend": 4722,
      "iro": 4723,
      "edic": 4724,
      "ĠSub": 4725,
      "irt": 4726,
      "ĠÃ¬gb": 4727,
      "Ġliterature": 4728,
      "arter": 4729,
      "rown": 4730,
      "ĠPet": 4731,
      "ĠPDP": 4732,
      "ĠBern": 4733,
      "Ġeastern": 4734,
      "Ġspread": 4735,
      "Ġaccomp": 4736,
      "Ġjoined": 4737,
      "Ġsports": 4738,
      "ĠAzerbaij": 4739,
      "Ġmiran": 4740,
      "Ġfamous": 4741,
      "Ġbasis": 4742,
      "ĠRevolution": 4743,
      "Ġtable": 4744,
      "Ġdate": 4745,
      "Ġá»įba": 4746,
      "Ġ31": 4747,
      "Ġhom": 4748,
      "Ġpromin": 4749,
      "Ġcarried": 4750,
      "Ġkeep": 4751,
      "Ġcells": 4752,
      "Ġpressure": 4753,
      "ĠMah": 4754,
      "195": 4755,
      "ĠSpec": 4756,
      "Ġpotential": 4757,
      "ĠCO": 4758,
      "Ġenough": 4759,
      "Ġesc": 4760,
      "Ġrepresented": 4761,
      "Ġprobably": 4762,
      "Ġtarget": 4763,
      "Ã´": 4764,
      "ĠOlu": 4765,
      "Ġartists": 4766,
      "Ġsuggested": 4767,
      "eni": 4768,
      "lled": 4769,
      "ĠProg": 4770,
      "sÃŃláº¹": 4771,
      "ĠBet": 4772,
      "imo": 4773,
      "ĠFollowing": 4774,
      "ortion": 4775,
      "Ġpric": 4776,
      "Ġmemory": 4777,
      "Ġfemale": 4778,
      "ĠStreet": 4779,
      "ĠdÃº": 4780,
      "oli": 4781,
      "ĠUN": 4782,
      "Ġborder": 4783,
      "Ġhar": 4784,
      "umn": 4785,
      "ĠUnder": 4786,
      "Ġproperty": 4787,
      "ĠOpen": 4788,
      "Ġlor": 4789,
      "tee": 4790,
      "ĠFrancis": 4791,
      "07": 4792,
      "alle": 4793,
      "Ġfederal": 4794,
      "Ġlegisl": 4795,
      "Ġbuildings": 4796,
      "dÃŃn": 4797,
      "mÃº": 4798,
      "orph": 4799,
      "Ġkopa": 4800,
      "ĠMont": 4801,
      "Ġsinim": 4802,
      "itan": 4803,
      "ĠAgba": 4804,
      "ĠEbun": 4805,
      "ĠRome": 4806,
      "Ġcoup": 4807,
      "Ġamount": 4808,
      "Ġcred": 4809,
      "ĠkÃ¡": 4810,
      "Ġá¹£Ã¹gbá»į": 4811,
      "izing": 4812,
      "Ġdaughter": 4813,
      "ĠNavy": 4814,
      "Ġforced": 4815,
      "Ġheavy": 4816,
      "ĠAlakoso": 4817,
      "ĠCambridge": 4818,
      "kasi": 4819,
      "Ġdone": 4820,
      "ĠWal": 4821,
      "Ġexc": 4822,
      "ĠStand": 4823,
      "jected": 4824,
      "ĠEconom": 4825,
      "Ġstreng": 4826,
      "ĠÃ¬á¹£áº¹": 4827,
      "vestig": 4828,
      "Ġdara": 4829,
      "ĠDist": 4830,
      "Ġlocation": 4831,
      "Ġtheore": 4832,
      "Ġaccep": 4833,
      "Ġresulting": 4834,
      "dÃ³": 4835,
      "uan": 4836,
      "Ġbehind": 4837,
      "Ġcry": 4838,
      "tÃłkÃ¬": 4839,
      "ĠBuhari": 4840,
      "FA": 4841,
      "ĠTechn": 4842,
      "ĠInst": 4843,
      "Ġrad": 4844,
      "Ġinitial": 4845,
      "ĠSund": 4846,
      "enth": 4847,
      "Ġearliest": 4848,
      "Ġscholars": 4849,
      "ĠMur": 4850,
      "ĠGo": 4851,
      "Ġbaba": 4852,
      "Ġ177": 4853,
      "Ġosere": 4854,
      "Ġcorrespond": 4855,
      "opp": 4856,
      "ĠAnn": 4857,
      "Ġsus": 4858,
      "Ġworked": 4859,
      "Ġbelief": 4860,
      "Ġpractic": 4861,
      "It": 4862,
      "ĠOlÃ³": 4863,
      "Ġleague": 4864,
      "antine": 4865,
      "ding": 4866,
      "áº¹ráº¹": 4867,
      "lem": 4868,
      "Ġeas": 4869,
      "Ġami": 4870,
      "Ġpeace": 4871,
      "Ġquestion": 4872,
      "06": 4873,
      "ĠAber": 4874,
      "ĠEr": 4875,
      "Ġja": 4876,
      "ĠAli": 4877,
      "Ġá»Įmá»į": 4878,
      "ĠMuhammad": 4879,
      "ndÃŃn": 4880,
      "urches": 4881,
      "ĠFederal": 4882,
      "ora": 4883,
      "ĠBob": 4884,
      "Ġiru": 4885,
      "undred": 4886,
      "ĠUs": 4887,
      "ips": 4888,
      "ĠTinubu": 4889,
      "rust": 4890,
      "rem": 4891,
      "Ġsac": 4892,
      "icted": 4893,
      "Ġagbaye": 4894,
      "Th": 4895,
      "ĠChap": 4896,
      "ĠAnton": 4897,
      "Ġkáº¹ta": 4898,
      "Ġderived": 4899,
      "Ġsens": 4900,
      "Ġmoney": 4901,
      "ĠScotland": 4902,
      "05": 4903,
      "Ġpresence": 4904,
      "Ġlaws": 4905,
      "Ġreform": 4906,
      "pped": 4907,
      "Ġalcoh": 4908,
      "itors": 4909,
      "ĠAwon": 4910,
      "ĠPublic": 4911,
      "Ġregional": 4912,
      "can": 4913,
      "aters": 4914,
      "Ġcreation": 4915,
      "Ġsoldiers": 4916,
      "otic": 4917,
      "ellig": 4918,
      "ught": 4919,
      "Ġ1965": 4920,
      "26": 4921,
      "imal": 4922,
      "tism": 4923,
      "ygen": 4924,
      "ĠBol": 4925,
      "Ġplaces": 4926,
      "Ġobjects": 4927,
      "ennis": 4928,
      "Ġour": 4929,
      "alÃ¡": 4930,
      "Ġala": 4931,
      "ĠPrince": 4932,
      "Ġcoach": 4933,
      "Ġrapid": 4934,
      "ĠFer": 4935,
      "aaju": 4936,
      "Ġrisk": 4937,
      "ĠTw": 4938,
      "Ġweap": 4939,
      "ĠDespite": 4940,
      "ĠDemocratic": 4941,
      "ĠSur": 4942,
      "ĠCri": 4943,
      "ĠLibrary": 4944,
      "Ġmeje": 4945,
      "sÃł": 4946,
      "ĠAfrika": 4947,
      "Ġweak": 4948,
      "ongo": 4949,
      "ĠAnti": 4950,
      "Ġbox": 4951,
      "annel": 4952,
      "ĠapÃ¡": 4953,
      "eck": 4954,
      "Ġ1964": 4955,
      "Ġsupp": 4956,
      "Ġida": 4957,
      "yÃłwÃ³": 4958,
      "08": 4959,
      "ĠBase": 4960,
      "Ġdemonst": 4961,
      "Ġdisease": 4962,
      "ĠÃ¬bÃŃláº¹": 4963,
      "Ġcand": 4964,
      "ĠEth": 4965,
      "Ġx": 4966,
      "Ġtree": 4967,
      "ĠLove": 4968,
      "ĠColomb": 4969,
      "Ġalternative": 4970,
      "ĠAtlantic": 4971,
      "Ġflu": 4972,
      "Ġmom": 4973,
      "ĠNot": 4974,
      "anguage": 4975,
      "ĠÃ¬dÃ¡": 4976,
      "Ġmaterials": 4977,
      "ĠOttoman": 4978,
      "water": 4979,
      "Ġtiti": 4980,
      "Ġkankan": 4981,
      "Ġobject": 4982,
      "Ġaccept": 4983,
      "ajo": 4984,
      "Ġsymp": 4985,
      "Ġprovides": 4986,
      "Ġneeded": 4987,
      "ĠColumbia": 4988,
      "ÃłÃłyÃ¨": 4989,
      "Ġmur": 4990,
      "Ġhours": 4991,
      "ĠBon": 4992,
      "Ġdecre": 4993,
      "Ġcomposer": 4994,
      "Ġens": 4995,
      "mitted": 4996,
      "ĠVirgin": 4997,
      "edom": 4998,
      "oken": 4999,
      "Ġglobal": 5000,
      "ĠLord": 5001,
      "ĠGreece": 5002,
      "Ġurban": 5003,
      "ĠVer": 5004,
      "cluding": 5005,
      "Ġbecoming": 5006,
      "Ġblock": 5007,
      "Ġindividuals": 5008,
      "ĠCas": 5009,
      "ĠBan": 5010,
      "Ġbal": 5011,
      "ĠUr": 5012,
      "Ġresour": 5013,
      "ĠPac": 5014,
      "ĠHill": 5015,
      "ĠWork": 5016,
      "AR": 5017,
      "Ġvictory": 5018,
      "Ġsigned": 5019,
      "ĠPrime": 5020,
      "uis": 5021,
      "Ġmig": 5022,
      "ĠalÃłÃłyÃ¨": 5023,
      "Ġdecla": 5024,
      "mir": 5025,
      "Ġinn": 5026,
      "ĠSum": 5027,
      "see": 5028,
      "Ġdiáº¹": 5029,
      "193": 5030,
      "Ġblue": 5031,
      "iwe": 5032,
      "ĠNotes": 5033,
      "Ġalgorith": 5034,
      "aper": 5035,
      "ockey": 5036,
      "Ġphilosophy": 5037,
      "Ġede": 5038,
      "Ġgraph": 5039,
      "odox": 5040,
      "ĠKÃ²": 5041,
      "Ġannual": 5042,
      "song": 5043,
      "Ġsamp": 5044,
      "avirus": 5045,
      "ĠpÃłtÃłkÃ¬": 5046,
      "Ġstars": 5047,
      "Ġletters": 5048,
      "Ġtaking": 5049,
      "ĠCop": 5050,
      "irm": 5051,
      "lues": 5052,
      "ultan": 5053,
      "Ġpaper": 5054,
      "ĠSa": 5055,
      "ĠEp": 5056,
      "Ġcomposed": 5057,
      "ensity": 5058,
      "Ġattrib": 5059,
      "Ġmanager": 5060,
      "bÃº": 5061,
      "Ġintended": 5062,
      "Ġtrue": 5063,
      "tial": 5064,
      "ĠBoth": 5065,
      "ĠVi": 5066,
      "Ġshare": 5067,
      "Ġdecided": 5068,
      "Ġoá¹£ere": 5069,
      "Ġ1963": 5070,
      "166": 5071,
      "ĠIran": 5072,
      "ĠOper": 5073,
      "uese": 5074,
      "ĠParliament": 5075,
      "Ġphysic": 5076,
      "ĠCost": 5077,
      "ĠBor": 5078,
      "ĠWales": 5079,
      "Ġya": 5080,
      "Ġscript": 5081,
      "Ġteams": 5082,
      "Ġindustrial": 5083,
      "Ġsense": 5084,
      "ĠBang": 5085,
      "Ġru": 5086,
      "Ġreligion": 5087,
      "Ġidentified": 5088,
      "col": 5089,
      "ĠOff": 5090,
      "Ġalgebra": 5091,
      "Ġreduced": 5092,
      "hu": 5093,
      "gÃ©": 5094,
      "ections": 5095,
      "Ġcontrast": 5096,
      "ronic": 5097,
      "Ġpassed": 5098,
      "Ġexperience": 5099,
      "ĠQueen": 5100,
      "Ġbehavior": 5101,
      "nam": 5102,
      "Ġliber": 5103,
      "ider": 5104,
      "igen": 5105,
      "ĠHam": 5106,
      "rant": 5107,
      "rine": 5108,
      "san": 5109,
      "ĠCorn": 5110,
      "ĠGl": 5111,
      "Ġexpansion": 5112,
      "Ġ179": 5113,
      "ĠÃģfrÃŃkÃł": 5114,
      "wÃ¹": 5115,
      "ulo": 5116,
      "Ġheart": 5117,
      "Ġbasketball": 5118,
      "Ġcombined": 5119,
      "ĠIm": 5120,
      "osaur": 5121,
      "ibly": 5122,
      "Ġconstant": 5123,
      "Ġimprove": 5124,
      "Ġyet": 5125,
      "apa": 5126,
      "Ġáº¹yáº¹": 5127,
      "ĠMel": 5128,
      "ĠThat": 5129,
      "Ġrise": 5130,
      "Ġroad": 5131,
      "ĠSeries": 5132,
      "Ġdouble": 5133,
      "cest": 5134,
      "pele": 5135,
      "ĠChe": 5136,
      "Ġcompounds": 5137,
      "asan": 5138,
      "ils": 5139,
      "ĠÃ¬f": 5140,
      "Ġcontract": 5141,
      "Ġaccepted": 5142,
      "ng": 5143,
      "aling": 5144,
      "iform": 5145,
      "Ġspirit": 5146,
      "Ġ60": 5147,
      "ĠDepartment": 5148,
      "ĠwÃ¡yÃ©": 5149,
      "Ġcalcul": 5150,
      "which": 5151,
      "rations": 5152,
      "aches": 5153,
      "seed": 5154,
      "team": 5155,
      "Ġended": 5156,
      "Ġgiga": 5157,
      "Ġpari": 5158,
      "Ġolo": 5159,
      "alaye": 5160,
      "Ġvalues": 5161,
      "Ġfailed": 5162,
      "ken": 5163,
      "Ġkede": 5164,
      "ĠPak": 5165,
      "ĠÃ¬wá»į": 5166,
      "Ġca": 5167,
      "Ġbri": 5168,
      "ĠTem": 5169,
      "Ġemph": 5170,
      "Ġlaunched": 5171,
      "rog": 5172,
      "ĠFound": 5173,
      "Ġstatis": 5174,
      "erman": 5175,
      "Ġrace": 5176,
      "Ġreaction": 5177,
      "\"),": 5178,
      "istics": 5179,
      "ĠLater": 5180,
      "ĠÃłp": 5181,
      "Ġ1962": 5182,
      "Ġrespectively": 5183,
      "sued": 5184,
      "Ġice": 5185,
      "Ġonline": 5186,
      "odi": 5187,
      "Ġarran": 5188,
      "oura": 5189,
      "onavirus": 5190,
      "ĠMajor": 5191,
      "Ġprograms": 5192,
      "Ġpattern": 5193,
      "Ġpreviously": 5194,
      "Ġjournalist": 5195,
      "ĠgbajÃºmá»į": 5196,
      "ĠNinu": 5197,
      "Ġappointed": 5198,
      "Ġmachine": 5199,
      "ĠRi": 5200,
      "ĠDevelop": 5201,
      "ofin": 5202,
      "Ġnative": 5203,
      "ĠOut": 5204,
      "Ġremaining": 5205,
      "ĠBarb": 5206,
      "Ġbasic": 5207,
      "ĠBÃ¡": 5208,
      "ĠMas": 5209,
      "ĠOver": 5210,
      "oston": 5211,
      "dam": 5212,
      "Ġsummer": 5213,
      "ĠBecause": 5214,
      "rass": 5215,
      "inem": 5216,
      "thodox": 5217,
      "gbÃ¡yÃ©": 5218,
      "Ġolder": 5219,
      "Ġargued": 5220,
      "ĠAre": 5221,
      "ĠBib": 5222,
      "Ġrepe": 5223,
      "ĠolÃ³rin": 5224,
      "Ġclassical": 5225,
      "Ç¹kan": 5226,
      "45": 5227,
      "ustice": 5228,
      "idential": 5229,
      "Ġconsists": 5230,
      "Al": 5231,
      "wáº¹": 5232,
      "lection": 5233,
      "ĠId": 5234,
      "Ġspeed": 5235,
      "ĠFred": 5236,
      "Ġability": 5237,
      "Ġpil": 5238,
      "ressive": 5239,
      "ova": 5240,
      "ĠBakan": 5241,
      "jara": 5242,
      "ĠNews": 5243,
      "Ġuniversity": 5244,
      "ulpt": 5245,
      "Ġhumans": 5246,
      "Ġauthority": 5247,
      "bl": 5248,
      "Ġgan": 5249,
      "ĠGomina": 5250,
      "Ġdistinct": 5251,
      "Ġcommunities": 5252,
      "Ġhistorian": 5253,
      "Ġsongs": 5254,
      "oon": 5255,
      "yÃ¬ÃŃ": 5256,
      "ographic": 5257,
      "Ġmedical": 5258,
      "ĠdÃ¡ra": 5259,
      "lÃ¬": 5260,
      "Ġinvestig": 5261,
      "Ġcontrovers": 5262,
      "ĠMoon": 5263,
      "ograp": 5264,
      "ĠTexas": 5265,
      "Ġpelu": 5266,
      "Ġvic": 5267,
      "AN": 5268,
      "aland": 5269,
      "ĠStep": 5270,
      "Ġdeaths": 5271,
      "Ġdefeated": 5272,
      "FL": 5273,
      "Ġlived": 5274,
      "ĠBall": 5275,
      "ime": 5276,
      "Ġkáº¹rin": 5277,
      "ĠEdward": 5278,
      "Ġga": 5279,
      "ĠPrize": 5280,
      "Ġvarian": 5281,
      "aph": 5282,
      "ĠðŁĴ": 5283,
      "ilies": 5284,
      "Ġir": 5285,
      "Ġiy": 5286,
      "Ġatáº¹": 5287,
      "iah": 5288,
      "ĠBuddha": 5289,
      "Ġethnic": 5290,
      "09": 5291,
      "Ġbá»įá»įlu": 5292,
      "Ġslow": 5293,
      "ĠCamp": 5294,
      "Ġdecision": 5295,
      "ĠgÃŃga": 5296,
      "Ġmiddle": 5297,
      "Ġnight": 5298,
      "apo": 5299,
      "ession": 5300,
      "Ġchief": 5301,
      "ĠAge": 5302,
      "lif": 5303,
      "rm": 5304,
      "oran": 5305,
      "Ġstop": 5306,
      "Ġinitially": 5307,
      "ĠPortuguese": 5308,
      "arn": 5309,
      "Ġlat": 5310,
      "ĠSever": 5311,
      "jÃ¡de": 5312,
      "rone": 5313,
      "Ġmonarch": 5314,
      "Ġrecords": 5315,
      "Ġincorpor": 5316,
      "67": 5317,
      "band": 5318,
      "Ġosu": 5319,
      "asts": 5320,
      "Ġdon": 5321,
      "Ġformation": 5322,
      "Ġá»Įlá»įrun": 5323,
      "Ġburn": 5324,
      "Ġfiction": 5325,
      "ota": 5326,
      "ĠLand": 5327,
      "illa": 5328,
      "Ġattacks": 5329,
      "fy": 5330,
      "Ġlu": 5331,
      "iring": 5332,
      "ĠThus": 5333,
      "ieties": 5334,
      "gra": 5335,
      "jade": 5336,
      "ĠkÃ¬": 5337,
      "ully": 5338,
      "ieval": 5339,
      "Ġlaunch": 5340,
      "ises": 5341,
      "ĠÃ¬l": 5342,
      "Ġinvest": 5343,
      "St": 5344,
      "Ġvary": 5345,
      "Ġeffective": 5346,
      "omestic": 5347,
      "Ġpp": 5348,
      "Ġijoba": 5349,
      "ĠNic": 5350,
      "cles": 5351,
      "ĠComput": 5352,
      "Ġhop": 5353,
      "osi": 5354,
      "odia": 5355,
      "Ġsugges": 5356,
      "bro": 5357,
      "oj": 5358,
      "ĠAut": 5359,
      "ĠTheir": 5360,
      "Ġformal": 5361,
      "Ġmodels": 5362,
      "iled": 5363,
      "ĠÃłjá»į": 5364,
      "fit": 5365,
      "ĠlÃ²": 5366,
      "ĠInternet": 5367,
      "dÃºgbÃ²": 5368,
      "Ġfrequently": 5369,
      "Ġsexual": 5370,
      "Ġprison": 5371,
      "omon": 5372,
      "orders": 5373,
      "Ġequal": 5374,
      "Ġobserved": 5375,
      "itage": 5376,
      "ĠBoston": 5377,
      "lov": 5378,
      "Ġedition": 5379,
      "ĠSk": 5380,
      "ĠJo": 5381,
      "Ġneut": 5382,
      "Ġ1961": 5383,
      "elujara": 5384,
      "Ã¬wÃ©": 5385,
      "Ġrain": 5386,
      "Ġbacter": 5387,
      "ĠHa": 5388,
      "Ġplaying": 5389,
      "Ġakáº¹": 5390,
      "Ġfeatured": 5391,
      "rents": 5392,
      "ĠAthens": 5393,
      "ĠEgyp": 5394,
      "ĠAch": 5395,
      "ĠAnt": 5396,
      "Ġá»įdá»į": 5397,
      "Ġmáº¹ta": 5398,
      "tific": 5399,
      "oral": 5400,
      "ĠMos": 5401,
      "acity": 5402,
      "Ġdistrict": 5403,
      "Ġdirected": 5404,
      "ĠResearch": 5405,
      "Ġpal": 5406,
      "fficient": 5407,
      "ĠBus": 5408,
      "rip": 5409,
      "ached": 5410,
      "ĠEk": 5411,
      "ĠCarl": 5412,
      "Ġfourth": 5413,
      "igu": 5414,
      "Ġapproach": 5415,
      "ĠByz": 5416,
      "ĠAfghanistan": 5417,
      "ĠolÃº": 5418,
      "ette": 5419,
      "mas": 5420,
      "ĠSocial": 5421,
      "Ġparties": 5422,
      "Ġ1944": 5423,
      "Ġ1958": 5424,
      "eá¹£áº¹": 5425,
      "Ġero": 5426,
      "Ġorbit": 5427,
      "Ġelectric": 5428,
      "ĠGeorg": 5429,
      "',": 5430,
      "Ġtiláº¹": 5431,
      "ĠSat": 5432,
      "ĠMill": 5433,
      "Ġlawyer": 5434,
      "ĠAnglican": 5435,
      "Ġapplied": 5436,
      "Ġbring": 5437,
      "ĠSil": 5438,
      "elt": 5439,
      "okan": 5440,
      "Ġsection": 5441,
      "=\"": 5442,
      "wan": 5443,
      "Ġtend": 5444,
      "ĠEduc": 5445,
      "ĠRock": 5446,
      "aily": 5447,
      "Ġtakes": 5448,
      "Ġsusp": 5449,
      "48": 5450,
      "sÃ³": 5451,
      "Ġaim": 5452,
      "ĠCy": 5453,
      "Ġá¹£alaye": 5454,
      "Ġentered": 5455,
      "ĠHuman": 5456,
      "tÃº": 5457,
      "ĠTor": 5458,
      "Ġsimple": 5459,
      "ĠâĢĺ": 5460,
      "aring": 5461,
      "Ġkaláº¹": 5462,
      "Ġmunicip": 5463,
      "ĠChampionship": 5464,
      "Ġexamples": 5465,
      "Ġresulted": 5466,
      "ĠAlfred": 5467,
      "emic": 5468,
      "ublican": 5469,
      "Ġactivities": 5470,
      "Ġayelujara": 5471,
      "Ġpurch": 5472,
      "Ġmicro": 5473,
      "ĠLos": 5474,
      "Ġstra": 5475,
      "ĠÃ¬rÃ²yÃ¬n": 5476,
      "akh": 5477,
      "Ġappearance": 5478,
      "Ġphen": 5479,
      "ĠBir": 5480,
      "Ġ1948": 5481,
      "Ġdistance": 5482,
      "Ġprovince": 5483,
      "wÃ²rÃ¡n": 5484,
      "ĠClub": 5485,
      "TV": 5486,
      "ĠLim": 5487,
      "Ġquickly": 5488,
      "awá»įn": 5489,
      "dis": 5490,
      "eral": 5491,
      "Ġconserv": 5492,
      "Ġoxygen": 5493,
      "Ġhydrogen": 5494,
      "Ar": 5495,
      "rates": 5496,
      "Ġinternal": 5497,
      "Ġalk": 5498,
      "Ġchall": 5499,
      "ĠYoung": 5500,
      "ĠPoli": 5501,
      "Ġideas": 5502,
      "rÃºn": 5503,
      "Ġisáº¹": 5504,
      "ructure": 5505,
      "ege": 5506,
      "Ġbig": 5507,
      "Ġspoken": 5508,
      "Ġenem": 5509,
      "Ġhundred": 5510,
      "Ġdespite": 5511,
      "anna": 5512,
      "ospital": 5513,
      "AF": 5514,
      "ojo": 5515,
      "Ġmix": 5516,
      "Ġoccurred": 5517,
      "Ġinstitutions": 5518,
      "hol": 5519,
      "onian": 5520,
      "Ġsector": 5521,
      "Ġancest": 5522,
      "ĠCarol": 5523,
      "ĠMexico": 5524,
      "Ä«": 5525,
      "ĠAgb": 5526,
      "Ġharm": 5527,
      "ĠNap": 5528,
      "vertis": 5529,
      "aji": 5530,
      "Ġ3166": 5531,
      "Ġupper": 5532,
      "Ġmusical": 5533,
      "Ġdistribution": 5534,
      "ĠpÃ¡": 5535,
      "omi": 5536,
      "Ġkuro": 5537,
      "ĠGreen": 5538,
      "Ġextended": 5539,
      "Ġoffered": 5540,
      "Ġcat": 5541,
      "Ġreve": 5542,
      "ĠInc": 5543,
      "Ġmov": 5544,
      "Ġmonth": 5545,
      "Ġaddress": 5546,
      "ĠJud": 5547,
      "Ġbecomes": 5548,
      "cious": 5549,
      "Ġdefinition": 5550,
      "ĠSir": 5551,
      "Ġ(),": 5552,
      "ĠDan": 5553,
      "Ġrecover": 5554,
      "Ġtáº¹láº¹": 5555,
      "Ġfigures": 5556,
      "ault": 5557,
      "Ġcomment": 5558,
      "Ġfigure": 5559,
      "ĠPacific": 5560,
      "Ġgrand": 5561,
      "Ġ1942": 5562,
      "Ġpositive": 5563,
      "Ġoperating": 5564,
      "ĠCommission": 5565,
      "wana": 5566,
      "ĠCast": 5567,
      "ederation": 5568,
      "Ġknowledge": 5569,
      "Ġdeclared": 5570,
      "Ġearth": 5571,
      "Ġcandid": 5572,
      "Ġhapp": 5573,
      "Ġorganization": 5574,
      "Ġavoid": 5575,
      "Ġnuclear": 5576,
      "den": 5577,
      "Ġfavor": 5578,
      "Ġresponsible": 5579,
      "99": 5580,
      "arily": 5581,
      "ĠAmá»į": 5582,
      "umi": 5583,
      "Ġadministration": 5584,
      "vity": 5585,
      "ĠFestival": 5586,
      "ĠLad": 5587,
      "ĠAmaz": 5588,
      "Ġ1947": 5589,
      "azz": 5590,
      "Ġmatch": 5591,
      "ĠUp": 5592,
      "Ġcontinue": 5593,
      "unifÃ¡": 5594,
      "nÃ¹": 5595,
      "ĠFun": 5596,
      "illed": 5597,
      "Ġsculpt": 5598,
      "Ġ178": 5599,
      "ĠBCE": 5600,
      "ĠWilliams": 5601,
      "ĠSerb": 5602,
      "Ġbroadcast": 5603,
      "35": 5604,
      "cons": 5605,
      "edia": 5606,
      "aded": 5607,
      "Ġanthrop": 5608,
      "aging": 5609,
      "lis": 5610,
      "Ġiran": 5611,
      "ĠnÃŃnu": 5612,
      "Ġdead": 5613,
      "Ġuns": 5614,
      "ĠHealth": 5615,
      "Ġinterpret": 5616,
      "ĠBaba": 5617,
      "Ã¬sÃŃ": 5618,
      "Ġconsequ": 5619,
      "Ġinsp": 5620,
      "Ġdepend": 5621,
      "Ġdynasty": 5622,
      "Ġtechniques": 5623,
      "arent": 5624,
      "ĠCross": 5625,
      "Ġnewsp": 5626,
      "Ġweight": 5627,
      "imens": 5628,
      "ĠAlso": 5629,
      "Ġassum": 5630,
      "ĠShah": 5631,
      "force": 5632,
      "Ġallowing": 5633,
      "acing": 5634,
      "Ġresistance": 5635,
      "Ġsucceed": 5636,
      "ĠNÃŃgbÃł": 5637,
      "udije": 5638,
      "Ġturned": 5639,
      "Ġmountain": 5640,
      "no": 5641,
      "Ġul": 5642,
      "ĠTom": 5643,
      "ĠBible": 5644,
      "rier": 5645,
      "anning": 5646,
      "Ġdistingu": 5647,
      "Ġoperation": 5648,
      "ĠOrganization": 5649,
      "ĠDevelopment": 5650,
      "oples": 5651,
      "Ġsets": 5652,
      "ĠPlay": 5653,
      "Ġordered": 5654,
      "Ġnecessary": 5655,
      "oln": 5656,
      "ĠLake": 5657,
      "Ġáº¹ká»į": 5658,
      "Ġroyal": 5659,
      "usal": 5660,
      "Ġirin": 5661,
      "ĠGb": 5662,
      "Ġkeji": 5663,
      "ĠBenin": 5664,
      "Ġcurrently": 5665,
      "Ġnucle": 5666,
      "ĠBeng": 5667,
      "ĠMilitary": 5668,
      "ĠWá»įn": 5669,
      "Ġdirection": 5670,
      "Ġ35": 5671,
      "Ġimpact": 5672,
      "Ġmoment": 5673,
      "Ġbat": 5674,
      "Ġbrain": 5675,
      "iverse": 5676,
      "Ġpresented": 5677,
      "Is": 5678,
      "gu": 5679,
      "emis": 5680,
      "ÃŃnÃŃ": 5681,
      "ĠtÃŃtÃŃ": 5682,
      "Ġ1959": 5683,
      "ĠEmperor": 5684,
      "Ġstructures": 5685,
      "Ã«": 5686,
      "Ġruns": 5687,
      "attles": 5688,
      "Ġrang": 5689,
      "hess": 5690,
      "ĠOxford": 5691,
      "ÃŃÃł": 5692,
      "Ġec": 5693,
      "wá»įnsáº¹": 5694,
      "Ġexcept": 5695,
      "ĠJackson": 5696,
      "isted": 5697,
      "ugg": 5698,
      "Ġclaims": 5699,
      "Ġsymbol": 5700,
      "Â°": 5701,
      "Ġibáº¹": 5702,
      "ĠOba": 5703,
      "ĠArts": 5704,
      "Ġmáº¹rin": 5705,
      "ĠTimes": 5706,
      "igenous": 5707,
      "tile": 5708,
      "ĠTest": 5709,
      "Ġiron": 5710,
      "Ġsearch": 5711,
      "Ġexpected": 5712,
      "ports": 5713,
      "Ġspent": 5714,
      "aniel": 5715,
      "Ġrestric": 5716,
      "Ġartist": 5717,
      "Ġscholar": 5718,
      "Ġcontaining": 5719,
      "songwriter": 5720,
      "ĠÃ²á¹£Ã¨lÃº": 5721,
      "incoln": 5722,
      "Ġfully": 5723,
      "ĠBrun": 5724,
      "wise": 5725,
      "Ġchurches": 5726,
      "ĠArist": 5727,
      "inner": 5728,
      "Ġmarriage": 5729,
      "AT": 5730,
      "ĠTre": 5731,
      "ĠTod": 5732,
      "ĠChic": 5733,
      "ĠYear": 5734,
      "Ġrati": 5735,
      "Ġreference": 5736,
      "Ġá¹£áº¹láº¹": 5737,
      "70": 5738,
      "Ġopin": 5739,
      "ĠAy": 5740,
      "ĠPost": 5741,
      "Ġelections": 5742,
      "Ġanimal": 5743,
      "Ġcouncil": 5744,
      "ĠJean": 5745,
      "Ġagreement": 5746,
      "ĠTurkish": 5747,
      "encies": 5748,
      "ares": 5749,
      "ĠCat": 5750,
      "gbegbe": 5751,
      "BS": 5752,
      "ho": 5753,
      "Ġaudi": 5754,
      "ĠÃ©": 5755,
      "ĠKen": 5756,
      "ĠAlas": 5757,
      "ĠOrthodox": 5758,
      "eta": 5759,
      "ecting": 5760,
      "ĠCamero": 5761,
      "Ġhy": 5762,
      "umo": 5763,
      "Ġwithd": 5764,
      "Ġbelong": 5765,
      "Ġslight": 5766,
      "more": 5767,
      "ĠÃłgbÃ©": 5768,
      "Ġnotable": 5769,
      "Ġoccurs": 5770,
      "Ġillust": 5771,
      "Ġant": 5772,
      "Ġuniverse": 5773,
      "ĠViet": 5774,
      "Ġsecret": 5775,
      "Ġimage": 5776,
      "inlogun": 5777,
      "Ġmis": 5778,
      "Ġdedic": 5779,
      "ĠLit": 5780,
      "ĠLincoln": 5781,
      "Ġá»įgá»į": 5782,
      "ĠJim": 5783,
      "ĠAustria": 5784,
      "Ġmyth": 5785,
      "ĠFar": 5786,
      "Ġtrack": 5787,
      "SM": 5788,
      "hat": 5789,
      "Ġcul": 5790,
      "ĠDuke": 5791,
      "Ġcondition": 5792,
      "Ġmarked": 5793,
      "Ġsites": 5794,
      "orage": 5795,
      "ĠLew": 5796,
      "ortun": 5797,
      "ĠStar": 5798,
      "Ġbrief": 5799,
      "ĠMiss": 5800,
      "ĠNether": 5801,
      "ĠHaw": 5802,
      "teen": 5803,
      "Ġcharge": 5804,
      "Ġmuseum": 5805,
      "ĠZealand": 5806,
      "65": 5807,
      "ĠTreat": 5808,
      "ĠCE": 5809,
      "Ġreign": 5810,
      "á¹£u": 5811,
      "opes": 5812,
      "hana": 5813,
      "Ġmanagement": 5814,
      "Ġwoman": 5815,
      "Ġmess": 5816,
      "Ġise": 5817,
      "Ġconvention": 5818,
      "Ġáº¹ran": 5819,
      "Ġlá»įdun": 5820,
      "Ġallows": 5821,
      "Ġspeech": 5822,
      "Ġetc": 5823,
      "ĠIslamic": 5824,
      "Ġconflict": 5825,
      "dÃłn": 5826,
      "rol": 5827,
      "ĠIlu": 5828,
      "ĠJac": 5829,
      "ĠPolish": 5830,
      "Ġoldest": 5831,
      "Ġexistence": 5832,
      "Ġalcohol": 5833,
      "AD": 5834,
      "Ġdomestic": 5835,
      "osa": 5836,
      "Ġrot": 5837,
      "Ġsimply": 5838,
      "Ġhot": 5839,
      "ache": 5840,
      "ĠÃ¬á¹£": 5841,
      "Ġvan": 5842,
      "Ġ1955": 5843,
      "Ġexpressed": 5844,
      "Ġapa": 5845,
      "isters": 5846,
      "Ġmaxim": 5847,
      "ĠGDP": 5848,
      "ĠBroad": 5849,
      "Ġdiplom": 5850,
      "ĠService": 5851,
      "loye": 5852,
      "hester": 5853,
      "Ġawarded": 5854,
      "Ġnla": 5855,
      "itable": 5856,
      "adium": 5857,
      "agon": 5858,
      "Ġshot": 5859,
      "ĠRod": 5860,
      "ĠyÃł": 5861,
      "ordin": 5862,
      "ĠAtari": 5863,
      "ĠAirport": 5864,
      "arus": 5865,
      "Ġple": 5866,
      "oting": 5867,
      "Ġvow": 5868,
      "Ġclosed": 5869,
      "Ġ1957": 5870,
      "ĠOrder": 5871,
      "Ġdark": 5872,
      "Ġleaving": 5873,
      "Ġlá»įjá»į": 5874,
      "ropol": 5875,
      "Ġequival": 5876,
      "iri": 5877,
      "enz": 5878,
      "Ġlunar": 5879,
      "ĠLuc": 5880,
      "ĠInf": 5881,
      "Ġevolution": 5882,
      "tivity": 5883,
      "Ġrefers": 5884,
      "Ġcontemporary": 5885,
      "Ġtexts": 5886,
      "ÃºsÃ¹": 5887,
      "ĠLá»į": 5888,
      "ĠKo": 5889,
      "ĠAzerbaijan": 5890,
      "500": 5891,
      "rong": 5892,
      "such": 5893,
      "Ġpron": 5894,
      "Ġface": 5895,
      "Ġmel": 5896,
      "ĠFour": 5897,
      "Ġloju": 5898,
      "Ġgovernor": 5899,
      "Ġleaders": 5900,
      "Ġnine": 5901,
      "Ġaká»įrin": 5902,
      "Ġkingdom": 5903,
      "Ġterritories": 5904,
      "ĠBulgaria": 5905,
      "%,": 5906,
      "Ġpowers": 5907,
      "usion": 5908,
      "ĠLee": 5909,
      "Ġ1943": 5910,
      "hibi": 5911,
      "Ġnilu": 5912,
      "Ġinde": 5913,
      "aker": 5914,
      "cription": 5915,
      "Ġresources": 5916,
      "BM": 5917,
      "Ġbranch": 5918,
      "Ġchlor": 5919,
      "ĠBlue": 5920,
      "Ġgiving": 5921,
      "ĠCoast": 5922,
      "ĠChristianity": 5923,
      "Ġarchitecture": 5924,
      "light": 5925,
      "wÃłÃ¡": 5926,
      "asia": 5927,
      "osm": 5928,
      "Ã¨rÃ¨": 5929,
      "formed": 5930,
      "Ġflow": 5931,
      "Ġfamilies": 5932,
      "ĠSecret": 5933,
      "ĠConstitution": 5934,
      "Ġequipment": 5935,
      "ĠArgent": 5936,
      "ĠSeveral": 5937,
      "fect": 5938,
      "ĠMem": 5939,
      "Ġexchange": 5940,
      "antage": 5941,
      "Ġfinally": 5942,
      "Ġlabor": 5943,
      "Ġprominent": 5944,
      "vo": 5945,
      "Ġnomin": 5946,
      "ĠkÃł": 5947,
      "ecraft": 5948,
      "ĠHel": 5949,
      "ĠDip": 5950,
      "ĠDire": 5951,
      "Ġconclud": 5952,
      "Ġcomes": 5953,
      "ogen": 5954,
      "rence": 5955,
      "jÃ³": 5956,
      "ĠHon": 5957,
      "Ġplays": 5958,
      "Ġsita": 5959,
      "oka": 5960,
      "Ġfollows": 5961,
      "ĠIbadan": 5962,
      "pass": 5963,
      "ening": 5964,
      "ndo": 5965,
      "itude": 5966,
      "itzer": 5967,
      "ĠAbb": 5968,
      "poration": 5969,
      "Ġopposed": 5970,
      "Ġapplications": 5971,
      "Ġfolk": 5972,
      "tered": 5973,
      "ĠWay": 5974,
      "Ġatoms": 5975,
      "Ġinterac": 5976,
      "ĠDivision": 5977,
      "Ġaisan": 5978,
      "rey": 5979,
      "ĠNetherlands": 5980,
      "33": 5981,
      "spe": 5982,
      "ĠAv": 5983,
      "Ġstories": 5984,
      "Ġapparent": 5985,
      "ĠHeb": 5986,
      "Ġquality": 5987,
      "Ġserious": 5988,
      "Ġofficially": 5989,
      "Ġengineering": 5990,
      "Ġagreed": 5991,
      "Ġpurpose": 5992,
      "Ġmentioned": 5993,
      "Ġbit": 5994,
      "Ġrein": 5995,
      "olar": 5996,
      "ĠDar": 5997,
      "agn": 5998,
      "iment": 5999,
      "tically": 6000,
      "ĠyÃłn": 6001,
      "Ġ1952": 6002,
      "ĠÅ": 6003,
      "ĠBorn": 6004,
      "ĠÃ²fin": 6005,
      "Ġ1956": 6006,
      "Ġcomplet": 6007,
      "ĠCountry": 6008,
      "Ġimmig": 6009,
      "mÃ²": 6010,
      "onom": 6011,
      "Ġtold": 6012,
      "ĠTal": 6013,
      "ĠSqu": 6014,
      "ĠlÃ¡báº¹": 6015,
      "esáº¹": 6016,
      "Ġgives": 6017,
      "hÃłn": 6018,
      "life": 6019,
      "ĠBad": 6020,
      "ĠWell": 6021,
      "thing": 6022,
      "Ġsupply": 6023,
      "ĠColor": 6024,
      "Ġeffic": 6025,
      "49": 6026,
      "Ġvirt": 6027,
      "Ġdecades": 6028,
      "Ġinterview": 6029,
      "bus": 6030,
      "gÃ¡": 6031,
      "rat": 6032,
      "ĠAP": 6033,
      "Ġmill": 6034,
      "ĠRam": 6035,
      "Ġáº¹nu": 6036,
      "ĠAncient": 6037,
      "Ġefforts": 6038,
      "Ġnegative": 6039,
      "Ġways": 6040,
      "ĠKá»į": 6041,
      "kans": 6042,
      "Ġbirds": 6043,
      "ĠMoh": 6044,
      "á»įnu": 6045,
      "ĠKw": 6046,
      "ĠDeath": 6047,
      "ething": 6048,
      "ĠAssembly": 6049,
      "Ġversions": 6050,
      "Ġregarded": 6051,
      "jÃ¹": 6052,
      "claim": 6053,
      "Ġ80": 6054,
      "Ġreach": 6055,
      "ĠirÃº": 6056,
      "Ġvon": 6057,
      "Ġcritical": 6058,
      "ĠÃĮgbÃ©": 6059,
      "Ġcourse": 6060,
      "ĠTime": 6061,
      "ĠStandard": 6062,
      "ĠSunday": 6063,
      "\").": 6064,
      "eks": 6065,
      "ulate": 6066,
      "ĠNAS": 6067,
      "Ġexact": 6068,
      "ĠUk": 6069,
      "Ġwebs": 6070,
      "Ġarticle": 6071,
      "pris": 6072,
      "Ġpan": 6073,
      "ĠRuth": 6074,
      "osen": 6075,
      "Ġactually": 6076,
      "Ġminister": 6077,
      "Ġachieve": 6078,
      "Ġsquare": 6079,
      "ayo": 6080,
      "range": 6081,
      "ĠClin": 6082,
      "ĠAdÃ©": 6083,
      "Ġsignificantly": 6084,
      "ĠOlÃº": 6085,
      "ĠOrig": 6086,
      "Ġrough": 6087,
      "ĠÃĴun": 6088,
      "ĠAngeles": 6089,
      "ĠChicago": 6090,
      "ancy": 6091,
      "ĠDam": 6092,
      "Ġparticles": 6093,
      "ĠAndrew": 6094,
      "ĠEducation": 6095,
      "ilá»į": 6096,
      "Ġ(;": 6097,
      "ĠAdrian": 6098,
      "Ġopposition": 6099,
      "Ġultim": 6100,
      "kh": 6101,
      "omers": 6102,
      "ĠForm": 6103,
      "ĠGÃ³mÃ¬nÃł": 6104,
      "ĠKad": 6105,
      "dÃ¬bÃ²": 6106,
      "Ġsecondary": 6107,
      "Ġfaith": 6108,
      "Ġwild": 6109,
      "Ġdra": 6110,
      "ĠTri": 6111,
      "Ġpoly": 6112,
      "Ġsecurity": 6113,
      "Ġinstance": 6114,
      "ĠAS": 6115,
      "ĠSultan": 6116,
      "Ġipinle": 6117,
      "ĠJon": 6118,
      "antum": 6119,
      "ĠAbuja": 6120,
      "43": 6121,
      "amine": 6122,
      "tun": 6123,
      "Ġmil": 6124,
      "Ġthings": 6125,
      "ĠFÃ¡": 6126,
      "abin": 6127,
      "Ġcoal": 6128,
      "90": 6129,
      "rill": 6130,
      "ĠÐ": 6131,
      "ĠAth": 6132,
      "Ġdro": 6133,
      "level": 6134,
      "Ġalle": 6135,
      "Ġreserv": 6136,
      "Ġrunning": 6137,
      "Ġfell": 6138,
      "Ġnob": 6139,
      "utation": 6140,
      "Ġimmediately": 6141,
      "mosp": 6142,
      "Ġari": 6143,
      "Ġsen": 6144,
      "ask": 6145,
      "Ã¬má»į": 6146,
      "Ġfiimu": 6147,
      "entially": 6148,
      "Ġserve": 6149,
      "ĠPhilos": 6150,
      "Ġdoct": 6151,
      "ĠkÃºrÃ²": 6152,
      "cks": 6153,
      "Ġlic": 6154,
      "Ġhan": 6155,
      "Ġnews": 6156,
      "Ġ1946": 6157,
      "ĠolÃ³á¹£Ã¨lÃº": 6158,
      "%.": 6159,
      "oti": 6160,
      "Ġgrew": 6161,
      "Ġsolution": 6162,
      "bÃłdÃłn": 6163,
      "Ġrailway": 6164,
      "Ġrecognized": 6165,
      "Ġnormal": 6166,
      "Ġfleet": 6167,
      "Ġremoved": 6168,
      "Ġegbe": 6169,
      "alt": 6170,
      "arters": 6171,
      "Ġpati": 6172,
      "agram": 6173,
      "rants": 6174,
      "Ġoko": 6175,
      "Ġbinary": 6176,
      "oly": 6177,
      "ĠÃĢgbÃł": 6178,
      "ĠAlger": 6179,
      "ĠAustrian": 6180,
      "Ġ1939": 6181,
      "Ġcommunication": 6182,
      "FC": 6183,
      "nes": 6184,
      "ĠFlor": 6185,
      "ĠLong": 6186,
      "Ġprogramming": 6187,
      "Ġvote": 6188,
      "ruce": 6189,
      "Ġshowed": 6190,
      "ĠCyprus": 6191,
      "ĠJesus": 6192,
      "75": 6193,
      "Ġpositions": 6194,
      "Ġbelieve": 6195,
      "Ġinstruments": 6196,
      "Ġfast": 6197,
      "Ġasked": 6198,
      "ĠEach": 6199,
      "Ġbey": 6200,
      "agen": 6201,
      "Ġplanned": 6202,
      "ĠAtl": 6203,
      "ĠProf": 6204,
      "Ġcomputers": 6205,
      "Ġpair": 6206,
      "ĠMr": 6207,
      "ĠLabor": 6208,
      "Ġchap": 6209,
      "Ġnotes": 6210,
      "Ġ1949": 6211,
      "Ġ1954": 6212,
      "ĠHoly": 6213,
      "ĠÄ": 6214,
      "agle": 6215,
      "ĠChad": 6216,
      "ĠSpace": 6217,
      "enna": 6218,
      "Ġimportance": 6219,
      "tÃ¡": 6220,
      "eding": 6221,
      "ĠfÃ¬": 6222,
      "ĠCatal": 6223,
      "ĠGall": 6224,
      "Ġpreserv": 6225,
      "tainment": 6226,
      "Ġdevice": 6227,
      "ĠsinimÃ¡": 6228,
      "kins": 6229,
      "Ġflo": 6230,
      "amm": 6231,
      "ĠHow": 6232,
      "ĠJournal": 6233,
      "venue": 6234,
      "Ġgrowing": 6235,
      "ĠLewis": 6236,
      "¸ı": 6237,
      "opá»į": 6238,
      "Ġvac": 6239,
      "ĠAsian": 6240,
      "kejÃ¬": 6241,
      "Ġextensive": 6242,
      "Ġinside": 6243,
      "Ġminutes": 6244,
      "Ġhelped": 6245,
      "crip": 6246,
      "Ġbeyond": 6247,
      "enger": 6248,
      "ĠOm": 6249,
      "okita": 6250,
      "uruf": 6251,
      "Ġimá»į": 6252,
      "shire": 6253,
      "Ġcompletely": 6254,
      "Ġhockey": 6255,
      "ĠDNA": 6256,
      "Ġmixed": 6257,
      "car": 6258,
      "pÃłÃ¡": 6259,
      "oration": 6260,
      "Ġreti": 6261,
      "ify": 6262,
      "Ġmotion": 6263,
      "ĠgbÃ¡": 6264,
      "ÃŃnÃº": 6265,
      "Ġ1941": 6266,
      "ĠProv": 6267,
      "ĠTurkey": 6268,
      "64": 6269,
      "kÃ©": 6270,
      "Ġako": 6271,
      "uri": 6272,
      "ĠÃłÃ¡": 6273,
      "ĠArsen": 6274,
      "Ġoruká»į": 6275,
      "irin": 6276,
      "Ġdevices": 6277,
      "85": 6278,
      "hÃ¬n": 6279,
      "ss": 6280,
      "thur": 6281,
      "Ġfixed": 6282,
      "onym": 6283,
      "comm": 6284,
      "Ġcombination": 6285,
      "Ġsubsequently": 6286,
      "tÃºn": 6287,
      "xi": 6288,
      "ĠIv": 6289,
      "Ġiku": 6290,
      "ĠPope": 6291,
      "Ġfactors": 6292,
      "ĠÃ¬dÃŃje": 6293,
      "Ġifáº¹sáº¹": 6294,
      "bÃ©": 6295,
      "fe": 6296,
      "iling": 6297,
      "stone": 6298,
      "ĠMicro": 6299,
      "Ġones": 6300,
      "emp": 6301,
      "abet": 6302,
      "haps": 6303,
      "Ġgained": 6304,
      "iant": 6305,
      "Ġtranslation": 6306,
      "Ġprinciple": 6307,
      "ĠSwedish": 6308,
      "ns": 6309,
      "ĠAbra": 6310,
      "Ġprime": 6311,
      "Ġtrees": 6312,
      "Ġwinter": 6313,
      "Ġhypot": 6314,
      "ï¸ı": 6315,
      "Ġconv": 6316,
      "Ġmagazine": 6317,
      "Ġsat": 6318,
      "Ġbear": 6319,
      "Ã¡nÃ¬": 6320,
      "Ġcommission": 6321,
      "kÃ³so": 6322,
      "ojoibi": 6323,
      "jÃŃ": 6324,
      "imb": 6325,
      "Ġsport": 6326,
      "ĠAmong": 6327,
      "Ġgreatest": 6328,
      "Ġfighting": 6329,
      "Ġcaptured": 6330,
      "nce": 6331,
      "paa": 6332,
      "Ġpin": 6333,
      "ĠAI": 6334,
      "ĠRon": 6335,
      "Ġhere": 6336,
      "Ġgbi": 6337,
      "Ġseem": 6338,
      "ologists": 6339,
      "eda": 6340,
      "ĠTi": 6341,
      "ĠCla": 6342,
      "ĠCuba": 6343,
      "ĠKhan": 6344,
      "Ġadvertis": 6345,
      "opo": 6346,
      "Ġsynt": 6347,
      "ios": 6348,
      "Ġbra": 6349,
      "fficial": 6350,
      "Ġidentity": 6351,
      "Ġwinning": 6352,
      "Ġina": 6353,
      "ĠFam": 6354,
      "ĠÃłgbÃ¡yÃ©": 6355,
      "Ġsplit": 6356,
      "Ġrecently": 6357,
      "Ġá»ĮdÃºn": 6358,
      "Ġcompetition": 6359,
      "ĠBosnia": 6360,
      "ĠColombia": 6361,
      "etary": 6362,
      "resh": 6363,
      "Ġdescribe": 6364,
      "ĠbÃłbÃ¡": 6365,
      "road": 6366,
      "ĠAlber": 6367,
      "ĠYou": 6368,
      "Ġdiscip": 6369,
      "bury": 6370,
      "mond": 6371,
      "including": 6372,
      "ĠCape": 6373,
      "ĠPen": 6374,
      "ĠEst": 6375,
      "Ġcapacity": 6376,
      "zes": 6377,
      "Ġdrin": 6378,
      "ĠBapti": 6379,
      "ĠHind": 6380,
      "Ġconvers": 6381,
      "risis": 6382,
      "Ġarrived": 6383,
      "oned": 6384,
      "Ġfid": 6385,
      "ĠLy": 6386,
      "uku": 6387,
      "Ġmathematic": 6388,
      "Ġclosely": 6389,
      "ĠPersian": 6390,
      "ĠCameroon": 6391,
      "aped": 6392,
      "Ġagbara": 6393,
      "Ġdeliver": 6394,
      "ĠDistrict": 6395,
      "ĠEgyptian": 6396,
      "Ġpit": 6397,
      "ĠPas": 6398,
      "ĠFootball": 6399,
      "Ġstations": 6400,
      "Ġstable": 6401,
      "ĠWrit": 6402,
      "ĠÃ¬yÃ¡": 6403,
      "ĠJr": 6404,
      "ĠUl": 6405,
      "antry": 6406,
      "Ġanaly": 6407,
      "Ġbul": 6408,
      "ĠEle": 6409,
      "Ġattention": 6410,
      "Ġconnected": 6411,
      "Ġsubsequent": 6412,
      "39": 6413,
      "ĠSpe": 6414,
      "olid": 6415,
      "irÃŃ": 6416,
      "ĠKenn": 6417,
      "eyá»į": 6418,
      "Ġmej": 6419,
      "bean": 6420,
      "inter": 6421,
      "iana": 6422,
      "ĠÃ¨Ã¨": 6423,
      "ĠIndepend": 6424,
      "ĠExp": 6425,
      "ĠRoad": 6426,
      "Ġemperor": 6427,
      "Ġfoot": 6428,
      "Ġphase": 6429,
      "Ġká»įká»į": 6430,
      "Ġprotection": 6431,
      "ĠSupreme": 6432,
      "ĠAlc": 6433,
      "Ġweeks": 6434,
      "tillery": 6435,
      "Ġopening": 6436,
      "uit": 6437,
      "Ġ#": 6438,
      "Ġproced": 6439,
      "Ġpowerful": 6440,
      "Ġmeeting": 6441,
      "mission": 6442,
      "Ġmotor": 6443,
      "Ġissued": 6444,
      "ĠRay": 6445,
      "ĠGar": 6446,
      "Ã³p": 6447,
      "ogo": 6448,
      "Ġlove": 6449,
      "ensi": 6450,
      "Ġoverall": 6451,
      "Ġqual": 6452,
      "siwaju": 6453,
      "ĠSamuel": 6454,
      "Ġdetermined": 6455,
      "Ġkun": 6456,
      "ĠMak": 6457,
      "ĠDoc": 6458,
      "Ġstaff": 6459,
      "Ġrecomm": 6460,
      "86": 6461,
      "Ġtheories": 6462,
      "Ìģ-": 6463,
      "Ġik": 6464,
      "Ġstudied": 6465,
      "Ġdifference": 6466,
      "ao": 6467,
      "sm": 6468,
      "ĠTour": 6469,
      "Ġunknown": 6470,
      "Ġexpanded": 6471,
      "Ġsurrounding": 6472,
      "Ġepisode": 6473,
      "áº¹já»į": 6474,
      "Ġiwa": 6475,
      "Ġraised": 6476,
      "lation": 6477,
      "itt": 6478,
      "Ġtii": 6479,
      "udo": 6480,
      "ĠConserv": 6481,
      "Ġcitizens": 6482,
      "elligence": 6483,
      "usalem": 6484,
      "Ġitan": 6485,
      "Ġseek": 6486,
      "ĠChristians": 6487,
      "Ġloriláº¹": 6488,
      "inde": 6489,
      "ĠCre": 6490,
      "urb": 6491,
      "Ãºpá»į": 6492,
      "Ġtiata": 6493,
      "ĠGames": 6494,
      "Ġstay": 6495,
      "agan": 6496,
      "ipo": 6497,
      "Ġparliament": 6498,
      "Ġpolice": 6499,
      "ĠCarib": 6500,
      "Ġempire": 6501,
      "100": 6502,
      "ĠAz": 6503,
      "Ġdram": 6504,
      "Ġtoward": 6505,
      "Ġdisorder": 6506,
      "Ġwrite": 6507,
      "otswana": 6508,
      "ĠHebrew": 6509,
      "set": 6510,
      "abul": 6511,
      "ione": 6512,
      "Ġunique": 6513,
      "ĠRecords": 6514,
      "ĠDelta": 6515,
      "ĠVictoria": 6516,
      "equ": 6517,
      "Ġbattles": 6518,
      "ĠCroatian": 6519,
      "Ġcatal": 6520,
      "ĠRet": 6521,
      "agh": 6522,
      "Ġgoal": 6523,
      "Ġvolume": 6524,
      "akiri": 6525,
      "Ġbishop": 6526,
      "itá»į": 6527,
      "ĠFI": 6528,
      "Ġprec": 6529,
      "Ġ70": 6530,
      "ĠProtest": 6531,
      "ĠAlaska": 6532,
      "78": 6533,
      "ez": 6534,
      "áº¹ká»į": 6535,
      "Ġmind": 6536,
      "ĠOyo": 6537,
      "Ġcond": 6538,
      "Ġji": 6539,
      "ocks": 6540,
      "Ġnotably": 6541,
      "Ġwanted": 6542,
      "Ġly": 6543,
      "ĠFort": 6544,
      "oda": 6545,
      "Ġcontent": 6546,
      "Ġago": 6547,
      "Ġamb": 6548,
      "bogbo": 6549,
      "oolu": 6550,
      "Ġ1953": 6551,
      "Ġabsor": 6552,
      "Ġattempted": 6553,
      "Ġinhabit": 6554,
      "Ġdedicated": 6555,
      "32": 6556,
      "Ãª": 6557,
      "rod": 6558,
      "ounded": 6559,
      "Ġcolonies": 6560,
      "55": 6561,
      "ĠAar": 6562,
      "ĠIra": 6563,
      "ĠNaz": 6564,
      "ĠDaniel": 6565,
      "Ġprocesses": 6566,
      "nkan": 6567,
      "Ã±": 6568,
      "enni": 6569,
      "oma": 6570,
      "ÃºÃºsÃ¹": 6571,
      "Ġrelative": 6572,
      "Ġwealth": 6573,
      "Ġstudent": 6574,
      "ĠEliz": 6575,
      "Ġpupá»į": 6576,
      "Ġdestroyed": 6577,
      "ĠPakistan": 6578,
      "ĠDirect": 6579,
      "Ġsought": 6580,
      "uther": 6581,
      "ilding": 6582,
      "Ġworldwide": 6583,
      "Ġigbimá»į": 6584,
      "Ġstarting": 6585,
      "Ġdefeat": 6586,
      "Ġsequence": 6587,
      "Ġifáº¹sáº¹wá»įnsáº¹": 6588,
      "hua": 6589,
      "ĠÃº": 6590,
      "uty": 6591,
      "ĠGhana": 6592,
      "Ġ1938": 6593,
      "Ġfields": 6594,
      "ĠagbÃ¡bá»į": 6595,
      "Ġachieved": 6596,
      "Ġvehicles": 6597,
      "omial": 6598,
      "ĠMen": 6599,
      "eces": 6600,
      "ĠLes": 6601,
      "Ġshared": 6602,
      "Ġorganizations": 6603,
      "ĠRepublican": 6604,
      "Ġgrad": 6605,
      "Ġbodies": 6606,
      "Ġstrength": 6607,
      "ĠNASA": 6608,
      "VID": 6609,
      "present": 6610,
      "ĠtÃº": 6611,
      "Ġcas": 6612,
      "ĠWind": 6613,
      "Ġoludije": 6614,
      "goti": 6615,
      "Ġsettlement": 6616,
      "Ġmedicine": 6617,
      "ST": 6618,
      "tives": 6619,
      "Ġ(,": 6620,
      "Ġkept": 6621,
      "ĠTheatre": 6622,
      "ĠEnd": 6623,
      "Ġjur": 6624,
      "Ġlands": 6625,
      "Ġarchae": 6626,
      "rupt": 6627,
      "ker": 6628,
      "minal": 6629,
      "org": 6630,
      "Ġpack": 6631,
      "Ġnom": 6632,
      "ĠLar": 6633,
      "Ġá»įkunrin": 6634,
      "ogue": 6635,
      "outheast": 6636,
      "amental": 6637,
      "Ġsituation": 6638,
      "ĠFoundation": 6639,
      "atform": 6640,
      "ĠIV": 6641,
      "Ġgreen": 6642,
      "ĠÃ²kÃ¨": 6643,
      "akeji": 6644,
      "ĠBelarus": 6645,
      "Ð°": 6646,
      "ĠAT": 6647,
      "Ġisot": 6648,
      "Ġpropor": 6649,
      "Ġexecutive": 6650,
      "ĠOrÃŃláº¹": 6651,
      "roph": 6652,
      "Ġ1918": 6653,
      "ĠLu": 6654,
      "ĠÃĮlÃº": 6655,
      "Ġhands": 6656,
      "Ġcopy": 6657,
      "Ġeasily": 6658,
      "ĠAtlanta": 6659,
      "ĠIl": 6660,
      "Ġcontext": 6661,
      "Ġcerem": 6662,
      "ĠRivers": 6663,
      "OM": 6664,
      "hus": 6665,
      "Ġtell": 6666,
      "instein": 6667,
      "ĠPenn": 6668,
      "Ġparalle": 6669,
      "Ġolud": 6670,
      "ĠBefore": 6671,
      "ĠValley": 6672,
      "greg": 6673,
      "Ġaid": 6674,
      "Ġsays": 6675,
      "irmed": 6676,
      "imin": 6677,
      "sea": 6678,
      "ĠEngine": 6679,
      "Ġrefused": 6680,
      "ĠBooks": 6681,
      "ĠTreaty": 6682,
      "IV": 6683,
      "Ġlingu": 6684,
      "amo": 6685,
      "ĠFree": 6686,
      "Ġproved": 6687,
      "Ġmoving": 6688,
      "Ġcircum": 6689,
      "ĠOhun": 6690,
      "ĠDick": 6691,
      "abeth": 6692,
      "ako": 6693,
      "Ġexclus": 6694,
      "Ġactions": 6695,
      "Ġunion": 6696,
      "Ġsaying": 6697,
      "ĠlÃ¡Ãłrin": 6698,
      "vation": 6699,
      "Ġnor": 6700,
      "Ġgain": 6701,
      "ĠOcean": 6702,
      "ĠgbÃ³": 6703,
      "Ġdiam": 6704,
      "Ġscale": 6705,
      "ĠPortugal": 6706,
      "lovak": 6707,
      "Ġcle": 6708,
      "Ġaband": 6709,
      "Ġworkers": 6710,
      "Ġincome": 6711,
      "alÃ¡Ã¬sÃŃ": 6712,
      "ĠByzantine": 6713,
      "ĠColorado": 6714,
      "pread": 6715,
      "Ġbrand": 6716,
      "Ġstorage": 6717,
      "Ġilera": 6718,
      "Ġpossibly": 6719,
      "ĠStephen": 6720,
      "obi": 6721,
      "ĠBotswana": 6722,
      "eler": 6723,
      "lÃ©wÃ²": 6724,
      "Ġliqu": 6725,
      "chestra": 6726,
      "darÃŃ": 6727,
      "Ġbond": 6728,
      "ĠCP": 6729,
      "Ġnile": 6730,
      "Ġarbit": 6731,
      "Ġdepart": 6732,
      "idespread": 6733,
      "Ġtranslated": 6734,
      "ĠAlexandria": 6735,
      "ĠLi": 6736,
      "ogn": 6737,
      "ĠArm": 6738,
      "Ġmeant": 6739,
      "ĠCommit": 6740,
      "lined": 6741,
      "Ġcorrect": 6742,
      "Ġforest": 6743,
      "Ġbirths": 6744,
      "Ġcolonial": 6745,
      "Ġslightly": 6746,
      "ĠsÃ³": 6747,
      "Ġjoint": 6748,
      "Ġpros": 6749,
      "nira": 6750,
      "Ġdemoc": 6751,
      "Ġpopularity": 6752,
      "Ġperman": 6753,
      "Ġsomething": 6754,
      "ĠTown": 6755,
      "Ġreduce": 6756,
      "ĠPr": 6757,
      "Ġisol": 6758,
      "mier": 6759,
      "Ġlanding": 6760,
      "Ġá»įlá»įpaa": 6761,
      "Ġcovered": 6762,
      "ĠÂ£": 6763,
      "Ġdarapá»į": 6764,
      "Ġwebsite": 6765,
      "Ġyoun": 6766,
      "Ġabol": 6767,
      "ensis": 6768,
      "Ġformula": 6769,
      "Ġdifferences": 6770,
      "ĠChief": 6771,
      "Ġwhereas": 6772,
      "ĠForces": 6773,
      "Ġkilling": 6774,
      "Ġchoice": 6775,
      "ĠCOVID": 6776,
      "Ġinspired": 6777,
      "95": 6778,
      "ĠAbi": 6779,
      "Ġduro": 6780,
      "odo": 6781,
      "Ġatmosp": 6782,
      "ĠYunifÃ¡": 6783,
      "ĠolÃ¹ká»į": 6784,
      "Ġincreasingly": 6785,
      "ĠTechnology": 6786,
      "atus": 6787,
      "ĠÃ¬bÃ¡": 6788,
      "istant": 6789,
      "Ġrates": 6790,
      "ĠÃĮbÃłdÃłn": 6791,
      "Ġ500": 6792,
      "sÃŃtÃ¬": 6793,
      "ĠMinistry": 6794,
      "Ġlimit": 6795,
      "Ġatomic": 6796,
      "ĠJerusalem": 6797,
      "Ġheavily": 6798,
      "Ġsuggests": 6799,
      "roll": 6800,
      "ĠSong": 6801,
      "acher": 6802,
      "Ġarts": 6803,
      "Ġileeá¹£áº¹": 6804,
      "Ġreceive": 6805,
      "ĠArmenia": 6806,
      "ranean": 6807,
      "ictions": 6808,
      "gbÃ³": 6809,
      "antin": 6810,
      "lishing": 6811,
      "Ġ1951": 6812,
      "Ġleadership": 6813,
      "44": 6814,
      "alus": 6815,
      "oking": 6816,
      "Ġsignal": 6817,
      "Ġcauses": 6818,
      "ĠGovernor": 6819,
      "Ġapplication": 6820,
      "tively": 6821,
      "Ġheat": 6822,
      "Ġcontact": 6823,
      "viation": 6824,
      "Ġviews": 6825,
      "Ġgbá»įdá»į": 6826,
      "Ġattempts": 6827,
      "Ġcompris": 6828,
      "Ġquantum": 6829,
      "point": 6830,
      "á»įrá»į": 6831,
      "ĠWood": 6832,
      "agne": 6833,
      "ighter": 6834,
      "deen": 6835,
      "ĠPoland": 6836,
      "ĠHungarian": 6837,
      "ĠOffice": 6838,
      "ois": 6839,
      "Åį": 6840,
      "Ġtherap": 6841,
      "gby": 6842,
      "ĠRog": 6843,
      "ĠGood": 6844,
      "uble": 6845,
      "Ġtransition": 6846,
      "cules": 6847,
      "ĠÃ²á¹£erÃ©": 6848,
      "Ġphenomen": 6849,
      "ĠCaribbean": 6850,
      "also": 6851,
      "ador": 6852,
      "aptism": 6853,
      "Ġentit": 6854,
      "ĠAustin": 6855,
      "ĠdÃ¬": 6856,
      "enty": 6857,
      "Ġkar": 6858,
      "sterdam": 6859,
      "Ġvillage": 6860,
      "46": 6861,
      "atá»į": 6862,
      "Ġnikan": 6863,
      "Ġexception": 6864,
      "Ġseat": 6865,
      "ĠChild": 6866,
      "Ġopportun": 6867,
      "%)": 6868,
      "tra": 6869,
      "ĠTar": 6870,
      "Ġplans": 6871,
      "Ġextrem": 6872,
      "ĠAnglo": 6873,
      "ĠAbraham": 6874,
      "Ġsoci": 6875,
      "asis": 6876,
      "ĠWel": 6877,
      "abe": 6878,
      "Ġarc": 6879,
      "Ġpolitics": 6880,
      "Ġbass": 6881,
      "ĠTop": 6882,
      "rah": 6883,
      "ante": 6884,
      "ario": 6885,
      "Ġeffort": 6886,
      "non": 6887,
      "Ġwidespread": 6888,
      "ĠWater": 6889,
      "Ġjob": 6890,
      "Ġmarun": 6891,
      "Ġruled": 6892,
      "Ġfailure": 6893,
      "Ġcombat": 6894,
      "Ġmagnitude": 6895,
      "ĠBaseball": 6896,
      "Ä±": 6897,
      "Ġwave": 6898,
      "áº¹n": 6899,
      "ĠGri": 6900,
      "Ġshell": 6901,
      "Ġbackground": 6902,
      "áº¹ni": 6903,
      "Ġshape": 6904,
      "Ġ32": 6905,
      "aire": 6906,
      "ĠRussell": 6907,
      "wÃ¹já»į": 6908,
      "OL": 6909,
      "RD": 6910,
      "Ġtried": 6911,
      "aly": 6912,
      "add": 6913,
      "eman": 6914,
      "Ġanarch": 6915,
      "istered": 6916,
      "Ġdescribes": 6917,
      "Ġgáº¹gáº¹bi": 6918,
      "36": 6919,
      "kes": 6920,
      "vis": 6921,
      "ĠAaráº¹": 6922,
      "agu": 6923,
      "Ġarmed": 6924,
      "ĠThree": 6925,
      "achus": 6926,
      "Ġsuppl": 6927,
      "Ġunderstanding": 6928,
      "Ġcarry": 6929,
      "ĠCharl": 6930,
      "Ġdemand": 6931,
      "ĠMediter": 6932,
      "ĠScott": 6933,
      "Ġafáº¹": 6934,
      "Ġwear": 6935,
      "Ġfuel": 6936,
      "ipp": 6937,
      "Ġacids": 6938,
      "Ġactors": 6939,
      "Ġ90": 6940,
      "Ġcourts": 6941,
      "Ġvoice": 6942,
      "ĠBelgium": 6943,
      "ĠAristot": 6944,
      "Ġmii": 6945,
      "ĠMi": 6946,
      "Ġhero": 6947,
      "Ġ1933": 6948,
      "Ġpainter": 6949,
      "ĠSweden": 6950,
      "Ġsettled": 6951,
      "Ġequivalent": 6952,
      ".âĢĿ": 6953,
      "88": 6954,
      "ĠSab": 6955,
      "ĠÃ¬dÃ¬bÃ²": 6956,
      "Ġolorin": 6957,
      "Ġ1937": 6958,
      "Ġstandards": 6959,
      "Ġconducted": 6960,
      "ĠdÃºrÃ³": 6961,
      "âĪĴ": 6962,
      "Ġdin": 6963,
      "ava": 6964,
      "ĠÃ¨rÃ²": 6965,
      "ĠCommunity": 6966,
      "ĠÃłÃ¬sÃłn": 6967,
      "Ġbott": 6968,
      "Ġ1914": 6969,
      "Ġpeak": 6970,
      "Ġuseful": 6971,
      "ographer": 6972,
      "Ġalone": 6973,
      "akan": 6974,
      "Ġmolec": 6975,
      "Ġgbáº¹": 6976,
      "Ġscene": 6977,
      "ĠAfi": 6978,
      "ĠAssy": 6979,
      "Ġintroduction": 6980,
      "lers": 6981,
      "Ġmut": 6982,
      "ĠEyi": 6983,
      "ĠFe": 6984,
      "Ġring": 6985,
      "Ġoutput": 6986,
      "Ġauthors": 6987,
      "ĠelÃ©": 6988,
      "Ġcomponents": 6989,
      "ĠLittle": 6990,
      "yr": 6991,
      "ĠFa": 6992,
      "Ġlee": 6993,
      "wÃ²sÃłn": 6994,
      "Ġpaint": 6995,
      "dÃ²": 6996,
      "eji": 6997,
      "ners": 6998,
      "Ġbatter": 6999,
      "Ġdensity": 7000,
      "ription": 7001,
      "Ġuniform": 7002,
      "titude": 7003,
      "ĠTransport": 7004,
      "crib": 7005,
      "fall": 7006,
      "Ġtor": 7007,
      "Ġcensus": 7008,
      "Ġfit": 7009,
      "ĠSel": 7010,
      "urÃº": 7011,
      "Ġoppon": 7012,
      "Ġengineer": 7013,
      "ĠVirginia": 7014,
      "ĠArsenal": 7015,
      "erc": 7016,
      "ĠCel": 7017,
      "ĠÃłá¹£Ãł": 7018,
      "ugu": 7019,
      "ĠStan": 7020,
      "Ġpeoples": 7021,
      "ĠAnth": 7022,
      "pared": 7023,
      "Ġmetals": 7024,
      "ĠProduc": 7025,
      "Ġspecifically": 7026,
      "ĠdÃŃáº¹": 7027,
      "Ġdamage": 7028,
      "Ġvehicle": 7029,
      "Ġá¹£ÃŃá¹£e": 7030,
      "Ġalgorithm": 7031,
      "Ġdom": 7032,
      "ĠPub": 7033,
      "ĠEven": 7034,
      "ĠAmsterdam": 7035,
      "Ġinfluential": 7036,
      "Ġcollege": 7037,
      "Ġorders": 7038,
      "ĠConfeder": 7039,
      "ĠGolden": 7040,
      "Ġinstrument": 7041,
      "Ġacquired": 7042,
      "sÃ¡n": 7043,
      "Ġdog": 7044,
      "Ġeye": 7045,
      "Ġipin": 7046,
      "ishing": 7047,
      "Ġminim": 7048,
      "Ġutil": 7049,
      "ĠField": 7050,
      "ĠDyn": 7051,
      "Ġchrom": 7052,
      "Ġobtained": 7053,
      "ĠBoard": 7054,
      "Ġsolid": 7055,
      "Ġcausing": 7056,
      "ĠOsun": 7057,
      "ading": 7058,
      "acement": 7059,
      "ĠArthur": 7060,
      "mann": 7061,
      "ĠProject": 7062,
      "Ġ1927": 7063,
      "Ġadvantage": 7064,
      "racted": 7065,
      "Ġautom": 7066,
      "Ġsubstanti": 7067,
      "Ġadapt": 7068,
      "Ġcreating": 7069,
      "ĠCommittee": 7070,
      "Ġbip": 7071,
      "Ġplane": 7072,
      "Ġarrest": 7073,
      "ĠÃĮt": 7074,
      "Ġadvanced": 7075,
      "ĠAberdeen": 7076,
      "Ab": 7077,
      "Ġpra": 7078,
      "ĠSl": 7079,
      "eli": 7080,
      "ĠWo": 7081,
      "ficial": 7082,
      "Ġtransfer": 7083,
      "Ġinstruc": 7084,
      "Ġoccasion": 7085,
      "Ġáº¸gbáº¹": 7086,
      "ĠNigba": 7087,
      "Ġtemple": 7088,
      "kÃłnlÃ¡": 7089,
      "Ġtemperatures": 7090,
      "Ġcycl": 7091,
      "ĠProgram": 7092,
      "ĠCosta": 7093,
      "BT": 7094,
      "mÃ¡": 7095,
      "isa": 7096,
      "Ġcart": 7097,
      "Ġnations": 7098,
      "char": 7099,
      "agles": 7100,
      "udu": 7101,
      "rics": 7102,
      "Ġobj": 7103,
      "ashion": 7104,
      "Ġgeomet": 7105,
      "Ġadministrative": 7106,
      "Ġgranted": 7107,
      "38": 7108,
      "Ġpian": 7109,
      "stream": 7110,
      "ĠGal": 7111,
      "ĠDr": 7112,
      "umber": 7113,
      "Ġolori": 7114,
      "Ġstrateg": 7115,
      "Ġcontrolled": 7116,
      "ĠFranklin": 7117,
      "ĠTerrit": 7118,
      "Ġpractices": 7119,
      "ĠMediterranean": 7120,
      "'.": 7121,
      "LU": 7122,
      "Ġsales": 7123,
      "Ġbad": 7124,
      "Ġpure": 7125,
      "ĠhÃłn": 7126,
      "ĠJones": 7127,
      "ĠArc": 7128,
      "Ġnegoti": 7129,
      "ĠWars": 7130,
      "ĠolÃ³rÃŃ": 7131,
      "Ġmanufactur": 7132,
      "ĠMexican": 7133,
      "ĠForeign": 7134,
      "Ġranked": 7135,
      "Ġweapons": 7136,
      "Ġspiritual": 7137,
      "31": 7138,
      "oir": 7139,
      "part": 7140,
      "itter": 7141,
      "uta": 7142,
      "Ġnipinláº¹": 7143,
      "Ġdeveloping": 7144,
      "Ġ1935": 7145,
      "Ġlabáº¹": 7146,
      "Ġitá»įkasi": 7147,
      "bÃ³": 7148,
      "dess": 7149,
      "wing": 7150,
      "Ġaud": 7151,
      "Ġsail": 7152,
      "ecutive": 7153,
      "etts": 7154,
      "ĠOndo": 7155,
      "ĠJáº¹": 7156,
      "aux": 7157,
      "ĠAleuro": 7158,
      "Ġneighbor": 7159,
      "Äĩ": 7160,
      "ĠCov": 7161,
      "Ã¡jÃº": 7162,
      "Ġife": 7163,
      "Ġkeje": 7164,
      "Ġhonor": 7165,
      "37": 7166,
      "ĠnÇ¹kan": 7167,
      "Ġresidents": 7168,
      "ĠðŁį": 7169,
      "oxide": 7170,
      "Ġliterary": 7171,
      "Ġagricultural": 7172,
      "IA": 7173,
      "ĠtÃ¬": 7174,
      "ellect": 7175,
      "ĠNorm": 7176,
      "Ġ1917": 7177,
      "Ġleave": 7178,
      "Ġproviding": 7179,
      "ĠBulgarian": 7180,
      "orter": 7181,
      "ĠGh": 7182,
      "ĠVen": 7183,
      "Ġdescent": 7184,
      "Ġ45": 7185,
      "ĠBrid": 7186,
      "Ġmiiran": 7187,
      "300": 7188,
      "42": 7189,
      "hing": 7190,
      "kin": 7191,
      "Ġrejected": 7192,
      "rency": 7193,
      "ditionally": 7194,
      "Ġinvasion": 7195,
      "ographical": 7196,
      "2007": 7197,
      "ĠBuff": 7198,
      "Ġentirely": 7199,
      "Ġsteel": 7200,
      "ĠStudies": 7201,
      "Å¡": 7202,
      "Ã²wÃ²": 7203,
      "sey": 7204,
      "Ġlisted": 7205,
      "Ġemployed": 7206,
      "Ġsides": 7207,
      "mph": 7208,
      "Ġreports": 7209,
      "Ġrival": 7210,
      "Ġofficer": 7211,
      "Ġvisited": 7212,
      "bes": 7213,
      "ĠTun": 7214,
      "ĠIll": 7215,
      "ĠMaced": 7216,
      "Ġ1928": 7217,
      "ĠCentre": 7218,
      "Ġmunicipal": 7219,
      "Ġnnkan": 7220,
      "ĠlÃŃ": 7221,
      "utu": 7222,
      "ĠHous": 7223,
      "Ġexisting": 7224,
      "Ġscientists": 7225,
      "Ġagriculture": 7226,
      "ĠClinton": 7227,
      "iser": 7228,
      "ĠBruce": 7229,
      "ĠManc": 7230,
      "ologies": 7231,
      "Ġká»įja": 7232,
      "dÃ¹": 7233,
      "Ġfrag": 7234,
      "ĠHo": 7235,
      "Ġdispl": 7236,
      "Ġ1922": 7237,
      "Ġgoing": 7238,
      "ĠCorporation": 7239,
      "Ġfactor": 7240,
      "Ġoxid": 7241,
      "ĠOlympic": 7242,
      "ĠLabour": 7243,
      "ĠIraq": 7244,
      "ĠSour": 7245,
      "amu": 7246,
      "ĠAlab": 7247,
      "Ġdepending": 7248,
      "Ġglass": 7249,
      "Ġenvironmental": 7250,
      "ĠÃ¨Ã¨yÃłn": 7251,
      "bell": 7252,
      "gal": 7253,
      "Ġtherm": 7254,
      "ĠpÃłÃ¡": 7255,
      "ĠThrough": 7256,
      "Ġfeel": 7257,
      "Ġmedieval": 7258,
      "tes": 7259,
      "inction": 7260,
      "state": 7261,
      "Ġreasons": 7262,
      "amic": 7263,
      "agement": 7264,
      "Ġcool": 7265,
      "Ġenjo": 7266,
      "wealth": 7267,
      "Ġrelation": 7268,
      "Ġpolic": 7269,
      "Ġmanus": 7270,
      "Ġoperated": 7271,
      "Ġpossess": 7272,
      "mÃ¬nira": 7273,
      "Ġtowns": 7274,
      "related": 7275,
      "Ġenemy": 7276,
      "bar": 7277,
      "ĠÃłdÃºgbÃ²": 7278,
      "ophers": 7279,
      "Ġprojects": 7280,
      "Ã²Ã³": 7281,
      "Ġowned": 7282,
      "ĠAges": 7283,
      "Ġinvolve": 7284,
      "ĠConfuc": 7285,
      "Ġinhabitants": 7286,
      "olute": 7287,
      "class": 7288,
      "Ġdefense": 7289,
      "rator": 7290,
      "gbara": 7291,
      "Ġsty": 7292,
      "athan": 7293,
      "issance": 7294,
      "Ġdecay": 7295,
      "ussels": 7296,
      "Ġconstructed": 7297,
      "cop": 7298,
      "Ġcosm": 7299,
      "Ġfair": 7300,
      "Ġthin": 7301,
      "ĠÃ¬já»į": 7302,
      "Ġexped": 7303,
      "Ġdigital": 7304,
      "vard": 7305,
      "heim": 7306,
      "ĠÃĮdÃŃ": 7307,
      "ĠEnter": 7308,
      "ropri": 7309,
      "2005": 7310,
      "Ġgoods": 7311,
      "ĠSpecial": 7312,
      "Ġsister": 7313,
      "Ġcr": 7314,
      "Ġdance": 7315,
      "ĠIj": 7316,
      "amber": 7317,
      "Ġvess": 7318,
      "Ġrequires": 7319,
      "Ġtheorem": 7320,
      "ei": 7321,
      "ĠMes": 7322,
      "ĠGreg": 7323,
      "ĠDig": 7324,
      "ateau": 7325,
      "Ġplatform": 7326,
      "aeus": 7327,
      "Ġ1926": 7328,
      "rayer": 7329,
      "ĠBrazilian": 7330,
      "ĠFrancisco": 7331,
      "from": 7332,
      "iop": 7333,
      "xic": 7334,
      "Ġpoll": 7335,
      "Ġfelt": 7336,
      "ĠABC": 7337,
      "ĠIpinláº¹": 7338,
      "Ġfinished": 7339,
      "Ã¼r": 7340,
      "Ġsitu": 7341,
      "Ġaspects": 7342,
      "down": 7343,
      "Ġportion": 7344,
      "Ġdup": 7345,
      "Ġhabit": 7346,
      "gbaja": 7347,
      "ĠMand": 7348,
      "ĠNative": 7349,
      "aved": 7350,
      "Ġacts": 7351,
      "Ġcontained": 7352,
      "Ġ1929": 7353,
      "ĠVietnam": 7354,
      "máº¹": 7355,
      "ĠAff": 7356,
      "Ġnigb": 7357,
      "Ġchosen": 7358,
      "ĠAlph": 7359,
      "Ġextra": 7360,
      "ĠBarcel": 7361,
      "Ġofficers": 7362,
      "Ġadvoc": 7363,
      "ĠFas": 7364,
      "ĠGer": 7365,
      "Ġ75": 7366,
      "Ġ1936": 7367,
      "Ġlinear": 7368,
      "Ġanalog": 7369,
      "Ġsuffered": 7370,
      "Ġspeakers": 7371,
      "ĠBetween": 7372,
      "ĠAfirika": 7373,
      "BN": 7374,
      "ev": 7375,
      "Ġtu": 7376,
      "ĠTai": 7377,
      "Ġforward": 7378,
      "ĠJoshua": 7379,
      "Ġrevolution": 7380,
      "Ġastronaut": 7381,
      "As": 7382,
      "Ġsa": 7383,
      "alty": 7384,
      "olowo": 7385,
      "Ġkoko": 7386,
      "ĠNa": 7387,
      "ĠHor": 7388,
      "Ġ1931": 7389,
      "Ġiá¹£áº¹láº¹": 7390,
      "Ġtypical": 7391,
      "Ġprincipal": 7392,
      "ipel": 7393,
      "Ġilana": 7394,
      "Ġdisput": 7395,
      "lá»įwá»į": 7396,
      "inson": 7397,
      "ashi": 7398,
      "ĠJeff": 7399,
      "ĠSenate": 7400,
      "house": 7401,
      "urt": 7402,
      "Ġnewly": 7403,
      "Ġphilosopher": 7404,
      "ĠBuddhist": 7405,
      "Ġmaximum": 7406,
      "41": 7407,
      "ĠDÃŃ": 7408,
      "Ġflag": 7409,
      "inners": 7410,
      "Ġpoem": 7411,
      "ylv": 7412,
      "Ġtribes": 7413,
      "ĠCub": 7414,
      "Ġ1900": 7415,
      "ĠHell": 7416,
      "ĠGbogbo": 7417,
      "ĠDue": 7418,
      "Ġstone": 7419,
      "quarters": 7420,
      "Ġroute": 7421,
      "ĠSports": 7422,
      "Ġexpression": 7423,
      "ito": 7424,
      "Ġibo": 7425,
      "Ġ1919": 7426,
      "ĠHan": 7427,
      "ĠFried": 7428,
      "ĠMaria": 7429,
      "Ġ1901": 7430,
      "Ġinterpre": 7431,
      "Ġhouses": 7432,
      "Ġthousand": 7433,
      "ĠElizabeth": 7434,
      "sa": 7435,
      "ĠLiter": 7436,
      "andom": 7437,
      "ĠjÃŃ": 7438,
      "Ġexplor": 7439,
      "Ġcolumn": 7440,
      "Ġaccounts": 7441,
      "Ġfeat": 7442,
      "ropical": 7443,
      "jÃ¨": 7444,
      "Ġdang": 7445,
      "ĠCay": 7446,
      "ĠGram": 7447,
      "Ġusage": 7448,
      "Ġ1932": 7449,
      "ĠPhys": 7450,
      "Ġyield": 7451,
      "ĠBasque": 7452,
      "Ġfidio": 7453,
      "Af": 7454,
      "sit": 7455,
      "ĠEll": 7456,
      "ectors": 7457,
      "Ġemerged": 7458,
      "osaurus": 7459,
      "irÃŃá¹£i": 7460,
      "gov": 7461,
      "his": 7462,
      "Ġcrop": 7463,
      "Ġroom": 7464,
      "Ġapapá»į": 7465,
      "Ġdominant": 7466,
      "Ġsympt": 7467,
      "Ġmovie": 7468,
      "ĠKaduna": 7469,
      "66": 7470,
      "Ġtal": 7471,
      "organ": 7472,
      "ĠAw": 7473,
      "Ã¬yÃłn": 7474,
      "term": 7475,
      "ĠGame": 7476,
      "ĠDanish": 7477,
      "aine": 7478,
      "insula": 7479,
      "CC": 7480,
      "rees": 7481,
      "Ġmort": 7482,
      "uto": 7483,
      "irl": 7484,
      "ĠRights": 7485,
      "Ġchain": 7486,
      "phone": 7487,
      "Ġwá»įle": 7488,
      "Ġ1925": 7489,
      "2006": 7490,
      "Ġcontinuous": 7491,
      "Ġconcrete": 7492,
      "cript": 7493,
      "Ġoruko": 7494,
      "ĠToday": 7495,
      "Ġretired": 7496,
      "achusetts": 7497,
      "miss": 7498,
      "pan": 7499,
      "ĠJan": 7500,
      "Ġmole": 7501,
      "pper": 7502,
      "Ġtrain": 7503,
      "Ġ1934": 7504,
      "Ġrespond": 7505,
      "Ġ1923": 7506,
      "Ġadvance": 7507,
      "Ġgradu": 7508,
      "Ġsomew": 7509,
      "Ġultimately": 7510,
      "Ġmaster": 7511,
      "ĠNon": 7512,
      "Ġheight": 7513,
      "ĠSimilar": 7514,
      "ĠComputer": 7515,
      "ER": 7516,
      "gon": 7517,
      "Ġbridge": 7518,
      "olt": 7519,
      "Ã²fin": 7520,
      "arden": 7521,
      "Ġstudio": 7522,
      "Ġhardware": 7523,
      "olo": 7524,
      "uting": 7525,
      "Ġgram": 7526,
      "emin": 7527,
      "Ãºnjáº¹": 7528,
      "Ġcomposition": 7529,
      "licit": 7530,
      "Ġbiological": 7531,
      "Ġrivers": 7532,
      "ĠAugustine": 7533,
      "Ġfifth": 7534,
      "ĠÃłgbÃ©lÃ©wÃ²": 7535,
      "AP": 7536,
      "ishes": 7537,
      "rix": 7538,
      "Ġproceed": 7539,
      "unting": 7540,
      "Ġattend": 7541,
      "Ġextreme": 7542,
      "Ġalongside": 7543,
      "Ġcalc": 7544,
      "dÃ¬ÃŃ": 7545,
      "nie": 7546,
      "ĠMarc": 7547,
      "Ġpopulations": 7548,
      "Ġnearby": 7549,
      "Ġaá¹£á»į": 7550,
      "rastructure": 7551,
      "bility": 7552,
      "vant": 7553,
      "tified": 7554,
      "Ġlif": 7555,
      "ĠColl": 7556,
      "ĠHal": 7557,
      "andy": 7558,
      "Ġrich": 7559,
      "Ġáº¹sun": 7560,
      "Ġcars": 7561,
      "ĠgboyÃ¨": 7562,
      "ophical": 7563,
      "Ġloriláº¹ede": 7564,
      "Ġinduc": 7565,
      "ĠIjoba": 7566,
      "ĠMic": 7567,
      "Ġcompet": 7568,
      "Ġactual": 7569,
      "Ġstrugg": 7570,
      "Ġparents": 7571,
      "Ġofficials": 7572,
      "ĠÃºn": 7573,
      "ĠManchester": 7574,
      "law": 7575,
      "pet": 7576,
      "ĠGi": 7577,
      "ishops": 7578,
      "Ġconson": 7579,
      "Ġcommander": 7580,
      "uthor": 7581,
      "ĠKejÃ¬": 7582,
      "Ġveget": 7583,
      "ĠCommonwealth": 7584,
      "ĠAlabama": 7585,
      "gÃ³": 7586,
      "ĠTro": 7587,
      "ĠHot": 7588,
      "ĠFal": 7589,
      "ĠLike": 7590,
      "Ġexists": 7591,
      "Ġseems": 7592,
      "Ġphr": 7593,
      "ĠExamp": 7594,
      "Ġmedium": 7595,
      "Ġorganized": 7596,
      "Ġzone": 7597,
      "Ġdrive": 7598,
      "Ġexperienced": 7599,
      "Ġeyiti": 7600,
      "Ġthousands": 7601,
      "ĠMassachusetts": 7602,
      "Ġconcluded": 7603,
      "lades": 7604,
      "ww": 7605,
      "Ġsla": 7606,
      "rack": 7607,
      "Ġpaid": 7608,
      "Ġholds": 7609,
      "called": 7610,
      "mod": 7611,
      "á¸": 7612,
      "ĠoyÃ¨": 7613,
      "Ġformat": 7614,
      "ĠIndust": 7615,
      "Ġgeneration": 7616,
      "Ġroughly": 7617,
      "Ġigi": 7618,
      "rÃŃwÃ¡": 7619,
      "Ġtraditions": 7620,
      "hemical": 7621,
      "Ġdeploy": 7622,
      "neg": 7623,
      "ĠmÃŃrÃłn": 7624,
      "Ġattributed": 7625,
      "ĠNapole": 7626,
      "isd": 7627,
      "ĠMul": 7628,
      "Ġvast": 7629,
      "ĠsÃŃnÃº": 7630,
      "Ġwritings": 7631,
      "Ġdefend": 7632,
      "Ġencoura": 7633,
      "gers": 7634,
      "Ġ*": 7635,
      "Ġcards": 7636,
      "Ġlilo": 7637,
      "Ġigbe": 7638,
      "ĠEc": 7639,
      "ceived": 7640,
      "Ġusers": 7641,
      "Ġshoot": 7642,
      "Ġindigenous": 7643,
      "Ġquite": 7644,
      "Ġfreedom": 7645,
      "Ġtaught": 7646,
      "ĠKorea": 7647,
      "98": 7648,
      "Ġigbesáº¹": 7649,
      "III": 7650,
      "unications": 7651,
      "Ġdun": 7652,
      "stood": 7653,
      "owl": 7654,
      "Ġradiation": 7655,
      "Ġregarding": 7656,
      "Ġexperiment": 7657,
      "Ġwalls": 7658,
      "Ġprice": 7659,
      "Ġsucceeded": 7660,
      "Ġsemi": 7661,
      "Ġbib": 7662,
      "ĠTur": 7663,
      "ĠBav": 7664,
      "Ġstress": 7665,
      "udes": 7666,
      "Ġexternal": 7667,
      "Ġarms": 7668,
      "Ġ37": 7669,
      "Ġ65": 7670,
      "ĠAkin": 7671,
      "Ġgoddess": 7672,
      "ĠAlberta": 7673,
      "uer": 7674,
      "uff": 7675,
      "Ġipele": 7676,
      "ĠRound": 7677,
      "osure": 7678,
      "ĠVene": 7679,
      "izon": 7680,
      "ĠÃĮtÃłn": 7681,
      "hedral": 7682,
      "Ġsetting": 7683,
      "ĠÃĴá¹£": 7684,
      "Ġchemistry": 7685,
      "Ġoccupied": 7686,
      "ĠBrussels": 7687,
      "NP": 7688,
      "wÃº": 7689,
      "Ġcam": 7690,
      "Ġcorn": 7691,
      "acts": 7692,
      "acecraft": 7693,
      "ĠWeb": 7694,
      "Ġsile": 7695,
      "ancing": 7696,
      "Ġconcentration": 7697,
      "Ġconverted": 7698,
      "ĠArmenian": 7699,
      "Ġwaters": 7700,
      "atur": 7701,
      "ulus": 7702,
      "Ġalumin": 7703,
      "udget": 7704,
      "Ġseats": 7705,
      "ĠÃĮjÃł": 7706,
      "Ġtraffic": 7707,
      "Ġproducing": 7708,
      "Ġtechnique": 7709,
      "ĠGeorgia": 7710,
      "otics": 7711,
      "ÃĴ": 7712,
      "Ġsons": 7713,
      "Ġsulf": 7714,
      "uten": 7715,
      "Ġroll": 7716,
      "Ġflat": 7717,
      "Ġvalid": 7718,
      "Ġauthorities": 7719,
      "Ġprotect": 7720,
      "Ġiyawo": 7721,
      "Ġgenetic": 7722,
      "Itokasi": 7723,
      "SI": 7724,
      "ĠLanguage": 7725,
      "Ġextent": 7726,
      "Ġstring": 7727,
      "ĠolÃ³Ã²": 7728,
      "ĠBabyl": 7729,
      "Ġsilver": 7730,
      "ĠTelevision": 7731,
      "á»įkan": 7732,
      "Ġthink": 7733,
      "adel": 7734,
      "ĠÃĮjá»įba": 7735,
      "Ġ38": 7736,
      "Ġlawá»įn": 7737,
      "Ġzero": 7738,
      "Ġworship": 7739,
      "ĠEkiti": 7740,
      "ds": 7741,
      "Ġaarun": 7742,
      "Ġnin": 7743,
      "Ġnibáº¹": 7744,
      "ĠLet": 7745,
      "ĠGen": 7746,
      "uma": 7747,
      "fihÃłn": 7748,
      "ramaic": 7749,
      "ĠBanglades": 7750,
      "ĠIy": 7751,
      "ĠkÃłn": 7752,
      "á¹£irÃŃá¹£i": 7753,
      "ĠlÃ¡ÃłÃ¡": 7754,
      "Ġibile": 7755,
      "Ġcrime": 7756,
      "Ġantibi": 7757,
      "ajugbaja": 7758,
      "Ġfriends": 7759,
      "Ġscreenwriter": 7760,
      "Ġpieces": 7761,
      "sÃ¡ra": 7762,
      "zing": 7763,
      "rogen": 7764,
      "ĠBod": 7765,
      "Ġmouth": 7766,
      "Ġ36": 7767,
      "Ġsched": 7768,
      "Ġmoder": 7769,
      "Ġaffected": 7770,
      "ĠLiberal": 7771,
      "Ġpurposes": 7772,
      "ĠConstantin": 7773,
      "%),": 7774,
      "Ġsinu": 7775,
      "Ġbind": 7776,
      "Ġotherwise": 7777,
      "Ġimproved": 7778,
      "Ġtraditionally": 7779,
      "ĠAhmed": 7780,
      "Ġcollabor": 7781,
      "Ġprotein": 7782,
      "ĠAristotle": 7783,
      "gs": 7784,
      "har": 7785,
      "ĠAN": 7786,
      "Ġdry": 7787,
      "unde": 7788,
      "ĠAdminist": 7789,
      "Ġtermin": 7790,
      "Ġ1921": 7791,
      "Ġconnection": 7792,
      "Ġoselu": 7793,
      "ĠBusiness": 7794,
      "ĠSud": 7795,
      "ĠPC": 7796,
      "ĠLate": 7797,
      "ersey": 7798,
      "liography": 7799,
      "Ġelectrons": 7800,
      "ĠFlight": 7801,
      "Ġliquid": 7802,
      "Ġblues": 7803,
      "elve": 7804,
      "Ġyin": 7805,
      "2018": 7806,
      "Ġcolony": 7807,
      "Ġconfirmed": 7808,
      "Ġvisit": 7809,
      "Ġstatement": 7810,
      "ĠChristmas": 7811,
      "ĠHungary": 7812,
      "Ġcomparison": 7813,
      "uisine": 7814,
      "Ġalleged": 7815,
      "ĠProfess": 7816,
      "tÃ©": 7817,
      "ĠBrand": 7818,
      "Ġexhib": 7819,
      "Ġscore": 7820,
      "Ġopagun": 7821,
      "theless": 7822,
      "Ġsevere": 7823,
      "Ġ1924": 7824,
      "Ġpublication": 7825,
      "atically": 7826,
      "ĠBrook": 7827,
      "Ġgege": 7828,
      "active": 7829,
      "Ġbears": 7830,
      "rons": 7831,
      "Ġdecline": 7832,
      "Ġmathematical": 7833,
      "ĠFreder": 7834,
      "nyÃŃ": 7835,
      "sw": 7836,
      "top": 7837,
      "Ġhus": 7838,
      "ĠkÃ¡Ãł": 7839,
      "tery": 7840,
      "Ġalum": 7841,
      "Ġcoming": 7842,
      "Ġartillery": 7843,
      "Ġnumer": 7844,
      "tym": 7845,
      "ĠÃĪyÃŃ": 7846,
      "ĠMedia": 7847,
      "hibition": 7848,
      "eign": 7849,
      "fá»į": 7850,
      "gar": 7851,
      "araya": 7852,
      "ĠOy": 7853,
      "abil": 7854,
      "ĠKer": 7855,
      "Ġquarter": 7856,
      "Ġdialects": 7857,
      "ĠTak": 7858,
      "Ġthrone": 7859,
      "Ġperhaps": 7860,
      "Ġáº¹nikáº¹": 7861,
      "Ġconsisting": 7862,
      "Ġcycle": 7863,
      "Ġnarrow": 7864,
      "ĠFlorida": 7865,
      "din": 7866,
      "icture": 7867,
      "ĠBras": 7868,
      "Ġabst": 7869,
      "Ġprepar": 7870,
      "ĠCovid": 7871,
      "Mo": 7872,
      "jamin": 7873,
      "western": 7874,
      "Ġ1910": 7875,
      "iph": 7876,
      "Ġrecording": 7877,
      "ĠCorps": 7878,
      "Ġkaakiri": 7879,
      "Ġextremely": 7880,
      "Ġsoc": 7881,
      "ĠIk": 7882,
      "ĠHy": 7883,
      "ticles": 7884,
      "Ġawu": 7885,
      "Ġsupporting": 7886,
      "Ġpropos": 7887,
      "Ġhistorians": 7888,
      "Ġactivist": 7889,
      "Ġskin": 7890,
      "Ġiwosan": 7891,
      "bec": 7892,
      "Ġtons": 7893,
      "iráº¹": 7894,
      "ĠÃ¬jÃł": 7895,
      "uccess": 7896,
      "Ġvoc": 7897,
      "lÃ©lÃ³gÃºn": 7898,
      "Ġdescend": 7899,
      "Ġclassified": 7900,
      "roduction": 7901,
      "Ġexplain": 7902,
      "Ġfrequency": 7903,
      "Ġcoastal": 7904,
      "Ġviolence": 7905,
      "Ġguitarist": 7906,
      "ĠBengal": 7907,
      "Ġbran": 7908,
      "Ġinfin": 7909,
      "itness": 7910,
      "ĠBack": 7911,
      "aming": 7912,
      "ulumi": 7913,
      "ĠJustice": 7914,
      "Ġcore": 7915,
      "Ġspring": 7916,
      "ĠÅĦlÃ¡": 7917,
      "Ġmaintained": 7918,
      "Ġbegin": 7919,
      "ĠBarcelona": 7920,
      "34": 7921,
      "97": 7922,
      "Ġtennis": 7923,
      "oring": 7924,
      "Ġinput": 7925,
      "ĠSav": 7926,
      "aints": 7927,
      "inea": 7928,
      "Ġmodified": 7929,
      "Ġdescription": 7930,
      "Ġfundamental": 7931,
      "Ġmoral": 7932,
      "Ġnewspaper": 7933,
      "ĠAlgeria": 7934,
      "ON": 7935,
      "ients": 7936,
      "Ġcinem": 7937,
      "inger": 7938,
      "ĠTÃŃ": 7939,
      "ĠLt": 7940,
      "Ġalleg": 7941,
      "ĠStra": 7942,
      "ÃłnÃł": 7943,
      "Ġresemb": 7944,
      "cycl": 7945,
      "Ġimages": 7946,
      "know": 7947,
      "ĠACLU": 7948,
      "Ġuniversities": 7949,
      "Ġmathematics": 7950,
      "nt": 7951,
      "aro": 7952,
      "Ġstock": 7953,
      "ager": 7954,
      "2015": 7955,
      "Ġimperial": 7956,
      "fully": 7957,
      "Ġbegins": 7958,
      "Ġpermit": 7959,
      "Ġsle": 7960,
      "Ġbron": 7961,
      "ĠÃ¬t": 7962,
      "jáº¹sÃ¡ra": 7963,
      "Ġteach": 7964,
      "Ġincreases": 7965,
      "Ġslaves": 7966,
      "Ġtesting": 7967,
      "Ġmurder": 7968,
      "inces": 7969,
      "align": 7970,
      "Ġbin": 7971,
      "Ġfans": 7972,
      "ĠAph": 7973,
      "ĠSon": 7974,
      "ĠMike": 7975,
      "Ġ1913": 7976,
      "igan": 7977,
      "ĠFame": 7978,
      "ima": 7979,
      "resents": 7980,
      "Ġá»Įdun": 7981,
      "harm": 7982,
      "mate": 7983,
      "Ġ),": 7984,
      "ĠbÃ³": 7985,
      "Ġlai": 7986,
      "Ġáº¹sáº¹": 7987,
      "Ġdie": 7988,
      "Ġdepos": 7989,
      "Ġresearc": 7990,
      "cepts": 7991,
      "ĠArtemis": 7992,
      "Ġchallen": 7993,
      "Ġratio": 7994,
      "87": 7995,
      "then": 7996,
      "Ġsust": 7997,
      "Ġlives": 7998,
      "Ġdates": 7999,
      "ĠÃ¬yÃłwÃ³": 8000,
      "ĠKu": 8001,
      "Ġsii": 8002,
      "Ġconscious": 8003,
      "Ġexplo": 8004,
      "Ġdesigns": 8005,
      "Ġgreatly": 8006,
      "Ġbusinessman": 8007,
      "ĠAhmad": 8008,
      "Ġparallel": 8009,
      "OR": 8010,
      "ĠPower": 8011,
      "Ġselected": 8012,
      "keley": 8013,
      "Ġprovinces": 8014,
      "Ġclasses": 8015,
      "Ġcontinues": 8016,
      "Ġpersonnel": 8017,
      "Ġjurisd": 8018,
      "zi": 8019,
      "Ġtac": 8020,
      "atab": 8021,
      "eless": 8022,
      "Ġkil": 8023,
      "ĠFol": 8024,
      "láº¹yin": 8025,
      "Ġ300": 8026,
      "Ġteaching": 8027,
      "Ġrespect": 8028,
      "Ġphysics": 8029,
      "lÃłyÃ©": 8030,
      "Ġburied": 8031,
      "Ġtub": 8032,
      "Ġfought": 8033,
      "Ġmas": 8034,
      "tica": 8035,
      "2016": 8036,
      "ĠUnivers": 8037,
      "Ġmanaged": 8038,
      "Ġprinciples": 8039,
      "Å«": 8040,
      "Ð¾": 8041,
      "ĠFle": 8042,
      "Ġattacked": 8043,
      "Ġindicate": 8044,
      "ĠAlexandra": 8045,
      "ĠEconomic": 8046,
      "ĠWelsh": 8047,
      "rÃ©k": 8048,
      "Ġcrisis": 8049,
      "Ġdáº¹": 8050,
      "stan": 8051,
      "ĠDa": 8052,
      "ĠWat": 8053,
      "oked": 8054,
      "ipher": 8055,
      "Ġassass": 8056,
      "auti": 8057,
      "Ġpolicies": 8058,
      "oker": 8059,
      "aká»į": 8060,
      "Ġparticle": 8061,
      "ĠbÃ¡yÃ¬ÃŃ": 8062,
      "Ġinvolves": 8063,
      "Ġdiscovery": 8064,
      "Ġabsolute": 8065,
      "//": 8066,
      "ĠKÃ¡": 8067,
      "apse": 8068,
      "aven": 8069,
      "avig": 8070,
      "Ġrepresents": 8071,
      "Ġboy": 8072,
      "Ġevolved": 8073,
      "ĠDev": 8074,
      "Ġprogress": 8075,
      "ĠSwiss": 8076,
      "Ġcontributed": 8077,
      "ĠÂ°": 8078,
      "Ġsnow": 8079,
      "olia": 8080,
      "ĠMid": 8081,
      "ĠEinstein": 8082,
      "apers": 8083,
      "Ġuser": 8084,
      "Ġabo": 8085,
      "Ġpreced": 8086,
      "Ġsurre": 8087,
      "Ġstrongly": 8088,
      "town": 8089,
      "anz": 8090,
      "ader": 8091,
      "ĠDomin": 8092,
      "Ġexam": 8093,
      "ĠThough": 8094,
      "Ġinterpretation": 8095,
      "Ġaudience": 8096,
      "Ġsymptoms": 8097,
      "ĠConstantinople": 8098,
      "long": 8099,
      "Î±": 8100,
      "Ġdaily": 8101,
      "ĠBM": 8102,
      "ĠAnat": 8103,
      "Ġcancer": 8104,
      "Ġtitles": 8105,
      "Ġrevealed": 8106,
      "Ġenjoy": 8107,
      "gment": 8108,
      "ĠRem": 8109,
      "Ġcompil": 8110,
      "ĠAtt": 8111,
      "zegov": 8112,
      "Ġcritics": 8113,
      "Ġvisual": 8114,
      "ĠolÃ¹darÃŃ": 8115,
      "Ġaxi": 8116,
      "ĠClassical": 8117,
      "xiety": 8118,
      "Ã£": 8119,
      "tif": 8120,
      "Ġce": 8121,
      "ĠAL": 8122,
      "ĠAramaic": 8123,
      "irls": 8124,
      "ĠGlobal": 8125,
      "ĠDie": 8126,
      "umes": 8127,
      "ĠArkans": 8128,
      "ĠGuard": 8129,
      "Ġfacilities": 8130,
      "Ġguns": 8131,
      "ĠOlympics": 8132,
      "Ġinnov": 8133,
      "omorph": 8134,
      "ĠPass": 8135,
      "ĠKano": 8136,
      "ikh": 8137,
      "yáº¹n": 8138,
      "ĠColon": 8139,
      "Ġintellect": 8140,
      "Ġcharacteristics": 8141,
      "Ġideal": 8142,
      "ĠHollywood": 8143,
      "auty": 8144,
      "Ġnormally": 8145,
      "Ġconsiderable": 8146,
      "96": 8147,
      "Ġfil": 8148,
      "ricts": 8149,
      "Ġforming": 8150,
      "2017": 8151,
      "ÃŃrÃŃkÃł": 8152,
      "ĠConvention": 8153,
      "Ġvariable": 8154,
      "Ġbroke": 8155,
      "dÃ¡ra": 8156,
      "Ġneeds": 8157,
      "Ġtechnical": 8158,
      "Ġoluk": 8159,
      "ĠRelig": 8160,
      "ĠDenmark": 8161,
      "ĠÃĮgbÃ©sÃŃ": 8162,
      "ules": 8163,
      "Ġsuppor": 8164,
      "ruit": 8165,
      "ĠðŁĺ": 8166,
      "Ġcorpor": 8167,
      "kiri": 8168,
      "ĠGáº¹gáº¹": 8169,
      "Ġfocused": 8170,
      "bÃ¬": 8171,
      "Ġtank": 8172,
      "Ġsatis": 8173,
      "Ġtourn": 8174,
      "Ġasiko": 8175,
      "Ġonto": 8176,
      "text": 8177,
      "burgh": 8178,
      "Ġclubs": 8179,
      "Ġcompeti": 8180,
      "Ġdialect": 8181,
      "Ġpilot": 8182,
      "kÃºn": 8183,
      "oru": 8184,
      "ĠBurg": 8185,
      "ĠMov": 8186,
      "igi": 8187,
      "ĠHome": 8188,
      "ĠadarÃŃ": 8189,
      "overeign": 8190,
      "ohun": 8191,
      "Ġinstitution": 8192,
      "Ġdriver": 8193,
      "ĠColumbus": 8194,
      "Ġrapidly": 8195,
      "Ġrepeated": 8196,
      "ĠBerkeley": 8197,
      "Ġlowest": 8198,
      "Ġseparated": 8199,
      "ĠBaptist": 8200,
      "zegovina": 8201,
      "ĠArkansas": 8202,
      "Ġtiss": 8203,
      "roc": 8204,
      "ĠIdi": 8205,
      "Ġ1916": 8206,
      "ĠDet": 8207,
      "eller": 8208,
      "Ġunp": 8209,
      "ĠShow": 8210,
      "mers": 8211,
      "ĠpÃŃn": 8212,
      "Ġmic": 8213,
      "ĠMir": 8214,
      "illes": 8215,
      "Ġunderstood": 8216,
      "Ġsimpl": 8217,
      "Ġapproved": 8218,
      "ĠEdo": 8219,
      "Ġencoun": 8220,
      "Ġwithdraw": 8221,
      "ĠHindu": 8222,
      "Ì£": 8223,
      "Ġsed": 8224,
      "ĠwÃ²": 8225,
      "ĠSi": 8226,
      "osph": 8227,
      "ogene": 8228,
      "Ġunable": 8229,
      "kÃ²Ã³": 8230,
      "Ġholding": 8231,
      "Ġsuccessfully": 8232,
      "Ġestablishment": 8233,
      "Ġconcerns": 8234,
      "Ġcryst": 8235,
      "lon": 8236,
      "sup": 8237,
      "Ġnick": 8238,
      "Ġhal": 8239,
      "Ġonimo": 8240,
      "ĠGulf": 8241,
      "angel": 8242,
      "Ã¹nrin": 8243,
      "Ġcalls": 8244,
      "ĠBoys": 8245,
      "Ġsurvey": 8246,
      "2008": 8247,
      "venth": 8248,
      "CD": 8249,
      "Eng": 8250,
      "iny": 8251,
      "Ġfirm": 8252,
      "ĠAqu": 8253,
      "asy": 8254,
      "entomon": 8255,
      "ĠMax": 8256,
      "ĠNetwork": 8257,
      "Ġstream": 8258,
      "Ġcomic": 8259,
      "soft": 8260,
      "ĠparÃŃ": 8261,
      "Ġhistoric": 8262,
      "Ġassociation": 8263,
      "ĠCaes": 8264,
      "Ġbanks": 8265,
      "ĠBernard": 8266,
      "ĠMiller": 8267,
      "gement": 8268,
      "ĠIbile": 8269,
      "ĠIBM": 8270,
      "Ġbeer": 8271,
      "ifying": 8272,
      "Ġdije": 8273,
      "aceae": 8274,
      "Ġobtain": 8275,
      "2003": 8276,
      "Ġtwice": 8277,
      "ĠÃ¬dÃŃlÃ©": 8278,
      "ĠDoug": 8279,
      "ĠMountains": 8280,
      "\";": 8281,
      "body": 8282,
      "rating": 8283,
      "hetic": 8284,
      "Ġokun": 8285,
      "Ġfashion": 8286,
      "ĠBerm": 8287,
      "ĠMove": 8288,
      "ĠRh": 8289,
      "ĠRos": 8290,
      "under": 8291,
      "Ġaccord": 8292,
      "Ġlearning": 8293,
      "PS": 8294,
      "cap": 8295,
      "gian": 8296,
      "pÃ¨": 8297,
      "sal": 8298,
      "Ġom": 8299,
      "esh": 8300,
      "Ġfra": 8301,
      "unch": 8302,
      "Ġgar": 8303,
      "hens": 8304,
      "Ġcapable": 8305,
      "Ġdetermine": 8306,
      "Ġessential": 8307,
      "Ġcorresponding": 8308,
      "Ġinvestment": 8309,
      "key": 8310,
      "Ġcod": 8311,
      "ĠBlu": 8312,
      "ĠHear": 8313,
      "ĠÃłÃłráº¹": 8314,
      "Ġconven": 8315,
      "Ġque": 8316,
      "Ġeffectively": 8317,
      "ĠAmazon": 8318,
      "Ġáº¹ranko": 8319,
      "ĠSecretary": 8320,
      "zep": 8321,
      "Ġfo": 8322,
      "Ġnaval": 8323,
      "adii": 8324,
      "ĠDer": 8325,
      "ubble": 8326,
      "ĠReal": 8327,
      "ĠAmb": 8328,
      "Ġsuccessor": 8329,
      "ĠBenjamin": 8330,
      "Ġangle": 8331,
      "ropolitan": 8332,
      "ĠAnthony": 8333,
      "IN": 8334,
      "Ġcrown": 8335,
      "ĠBurk": 8336,
      "Ġion": 8337,
      "Ġign": 8338,
      "Ġye": 8339,
      "nÃ¬s": 8340,
      "Ġtreated": 8341,
      "Ġportray": 8342,
      "itzerland": 8343,
      "Man": 8344,
      "ĠpÃºpá»į": 8345,
      "ĠOjo": 8346,
      "estab": 8347,
      "ĠâĪĴ": 8348,
      "ĠBronx": 8349,
      "ĠFamily": 8350,
      "ĠTot": 8351,
      "ĠMeth": 8352,
      "ĠPier": 8353,
      "ĠJust": 8354,
      "Ġchannel": 8355,
      "ĠAlÃłgbÃł": 8356,
      "Ġassault": 8357,
      "ĠPalest": 8358,
      "operation": 8359,
      "Ġgradually": 8360,
      "ĠBuffalo": 8361,
      "54": 8362,
      "fare": 8363,
      "Ðµ": 8364,
      "inus": 8365,
      "inian": 8366,
      "ĠLuther": 8367,
      "Ġcomedy": 8368,
      "akers": 8369,
      "Ġadul": 8370,
      "Ġdiverse": 8371,
      "ariaye": 8372,
      "Ġending": 8373,
      "Ġreflect": 8374,
      "gbÃ¨gbÃ¨": 8375,
      "Ġinvolving": 8376,
      "Ġsoldier": 8377,
      "Ġsafety": 8378,
      "Ġcomponent": 8379,
      "Ġaccompan": 8380,
      "eing": 8381,
      "oque": 8382,
      "Ġajáº¹": 8383,
      "ĠWoman": 8384,
      "epá»į": 8385,
      "Ġ33": 8386,
      "obe": 8387,
      "ĠBrother": 8388,
      "Ġstyles": 8389,
      "Ġmolecules": 8390,
      "plic": 8391,
      "Ġoke": 8392,
      "Ġ1912": 8393,
      "oslav": 8394,
      "Ġstre": 8395,
      "Ġvel": 8396,
      "Ġunc": 8397,
      "ĠVan": 8398,
      "ĠVari": 8399,
      "Ġmovements": 8400,
      "Ġcategory": 8401,
      "Ġdrugs": 8402,
      "orus": 8403,
      "Ġcold": 8404,
      "Ã¡Ã¡jÃº": 8405,
      "ĠOg": 8406,
      "Ġleaves": 8407,
      "Ġsoul": 8408,
      "ĠCommand": 8409,
      "tÃłgÃ©": 8410,
      "ĠCoronavirus": 8411,
      "ĠWilson": 8412,
      "ĠWallace": 8413,
      "Ġaro": 8414,
      "ĠAti": 8415,
      "ĠTr": 8416,
      "Ġikan": 8417,
      "ido": 8418,
      "Ġorb": 8419,
      "ipada": 8420,
      "Ġeni": 8421,
      "ĠShar": 8422,
      "afáº¹": 8423,
      "Ġapart": 8424,
      "ĠHerzegovina": 8425,
      "Ġcampus": 8426,
      "Ġhousehold": 8427,
      "Ġcheck": 8428,
      "Ġfram": 8429,
      "ĠÃłsÃ¬kÃ²": 8430,
      "ĠÃ¬pÃŃn": 8431,
      "Ġáº¹mi": 8432,
      "ĠÃĮbáº¹": 8433,
      "Ġformally": 8434,
      "ĠJohann": 8435,
      "Ġdesignated": 8436,
      "ĠPremier": 8437,
      "Ġcopper": 8438,
      "ĠTrade": 8439,
      "Ġestablishments": 8440,
      "Ġmissions": 8441,
      "eyá»įri": 8442,
      "ylvania": 8443,
      "Ġcited": 8444,
      "Ġcru": 8445,
      "raf": 8446,
      "Ġyouth": 8447,
      "ĠKent": 8448,
      "ĠYan": 8449,
      "ĠOnly": 8450,
      "Ġdirectors": 8451,
      "ĠSciences": 8452,
      "ĠHistorical": 8453,
      "Ġpermanent": 8454,
      "Ġbone": 8455,
      "Ġfestival": 8456,
      "ĠAá¹£": 8457,
      "ĠdÃł": 8458,
      "Ġjourn": 8459,
      "ĠIns": 8460,
      "Ġáº¹rá»į": 8461,
      "overty": 8462,
      "Ġpresidential": 8463,
      "ĠProp": 8464,
      "Ġacting": 8465,
      "Ġprocessing": 8466,
      "Ġderiv": 8467,
      "olufáº¹": 8468,
      "Ġmejeeji": 8469,
      "Ġhusband": 8470,
      "tar": 8471,
      "ĠAso": 8472,
      "ĠCer": 8473,
      "raine": 8474,
      "olas": 8475,
      "ĠFederation": 8476,
      "ĠVis": 8477,
      "ĠAdv": 8478,
      "Ġassemb": 8479,
      "Ġounjáº¹": 8480,
      "2009": 8481,
      "ĠlÃ¡ÃłÃ¡rÃŃn": 8482,
      "68": 8483,
      "77": 8484,
      "kere": 8485,
      "Ø§": 8486,
      "Ġtail": 8487,
      "itarian": 8488,
      "Ġlies": 8489,
      "Ġkings": 8490,
      "ĠMembers": 8491,
      "Ġilleg": 8492,
      "ĠSpears": 8493,
      "ĠorÃŃlÃ¨": 8494,
      "Ġrepresentation": 8495,
      "ĠKnight": 8496,
      "Ġrugby": 8497,
      "ĠCPU": 8498,
      "ĠTs": 8499,
      "agi": 8500,
      "ĠgbÃŃ": 8501,
      "ighth": 8502,
      "rene": 8503,
      "Ġroles": 8504,
      "62": 8505,
      "Ġinform": 8506,
      "Ã¬á¹£áº¹": 8507,
      "ĠHit": 8508,
      "ĠGoth": 8509,
      "apes": 8510,
      "antly": 8511,
      "Ġexport": 8512,
      "Ġassigned": 8513,
      "ĠAgric": 8514,
      "ĠAngola": 8515,
      "ĠGuinea": 8516,
      "ĠSwitzerland": 8517,
      "Ġpiece": 8518,
      "Ġbranches": 8519,
      "58": 8520,
      "jan": 8521,
      "ĠCrow": 8522,
      "ĠOh": 8523,
      "Ġanch": 8524,
      "Ġleads": 8525,
      "Ġimag": 8526,
      "ĠolÃ³gun": 8527,
      "ĠPalace": 8528,
      "elaide": 8529,
      "ĠEthiop": 8530,
      "Ġincorporated": 8531,
      "Ġfeaturing": 8532,
      "sÃ¹n": 8533,
      "Ġsn": 8534,
      "Ġwipe": 8535,
      "Ġfresh": 8536,
      "Ġniláº¹": 8537,
      "Ã¬lÃº": 8538,
      "owned": 8539,
      "Ġneuro": 8540,
      "ĠAda": 8541,
      "Ġcultures": 8542,
      "Ġdebate": 8543,
      "Ġbalance": 8544,
      "Ġsomewhat": 8545,
      "ÃĪ": 8546,
      "erg": 8547,
      "ĠMain": 8548,
      "ĠPot": 8549,
      "ĠNÃŃnÃº": 8550,
      "ĠKey": 8551,
      "rance": 8552,
      "Ġseasons": 8553,
      "anga": 8554,
      "Ġroot": 8555,
      "Ġololufáº¹": 8556,
      "ĠAmiga": 8557,
      "Ġtáº¹siwaju": 8558,
      "ĠlÃ³rÃŃláº¹": 8559,
      "avalry": 8560,
      "Ġproteins": 8561,
      "ĠBÃ¡kan": 8562,
      "RA": 8563,
      "Ġeld": 8564,
      "Ġdoll": 8565,
      "ĠSuch": 8566,
      "omical": 8567,
      "gbas": 8568,
      "ĠkÃºn": 8569,
      "Ġija": 8570,
      "ĠDun": 8571,
      "emen": 8572,
      "ĠJoe": 8573,
      "awi": 8574,
      "fined": 8575,
      "ĠOrchestra": 8576,
      "Ġcharacterized": 8577,
      "Ġadapted": 8578,
      "ĠAlbania": 8579,
      "enhagen": 8580,
      "Ġtherapy": 8581,
      "Ġath": 8582,
      "erted": 8583,
      "ĠSand": 8584,
      "ĠkÃ¬ÃŃ": 8585,
      "ajÃł": 8586,
      "2019": 8587,
      "ĠIndones": 8588,
      "Ġinfantry": 8589,
      "Ġalphabet": 8590,
      "Ġbacteria": 8591,
      "ĠPolitical": 8592,
      "Ġabandoned": 8593,
      "Ġbronze": 8594,
      "92": 8595,
      "come": 8596,
      "cock": 8597,
      "Ġchess": 8598,
      "ipáº¹": 8599,
      "nivers": 8600,
      "ĠIsa": 8601,
      "ĠAndre": 8602,
      "Ġtawá»įn": 8603,
      "while": 8604,
      "ĠÃ¬gbÃ¬má»į": 8605,
      "Ġmathematician": 8606,
      "hist": 8607,
      "arat": 8608,
      "áº¹si": 8609,
      "Ġfoss": 8610,
      "Ġmist": 8611,
      "Ġlie": 8612,
      "Ġhun": 8613,
      "ĠikÃº": 8614,
      "Ġgot": 8615,
      "ĠFis": 8616,
      "Ġvar": 8617,
      "awá»į": 8618,
      "Ġbrown": 8619,
      "Ġbands": 8620,
      "Ġtrial": 8621,
      "ĠArgentina": 8622,
      "ded": 8623,
      "inental": 8624,
      "ĠSpin": 8625,
      "Ġ().": 8626,
      "ĠHop": 8627,
      "Ġnote": 8628,
      "Ġdocuments": 8629,
      "kÃ¡láº¹": 8630,
      "speaking": 8631,
      "claimed": 8632,
      "sk": 8633,
      "Ġnort": 8634,
      "ĠTy": 8635,
      "Ã©e": 8636,
      "ĠNep": 8637,
      "ĠlÃ¡sÃ¬kÃ²": 8638,
      "Ġdecade": 8639,
      "ĠmÃ¡rÃ¹n": 8640,
      "ĠAirlines": 8641,
      "ĠKwara": 8642,
      "sitÃ¬": 8643,
      "gro": 8644,
      "ĠBAS": 8645,
      "ĠMess": 8646,
      "Ġexplan": 8647,
      "Ġgovernments": 8648,
      "ambig": 8649,
      "Ġmusicians": 8650,
      "ĠAjax": 8651,
      "Ġbottom": 8652,
      "ĠCayman": 8653,
      "://": 8654,
      "rolog": 8655,
      "Ġ1911": 8656,
      "osite": 8657,
      "emale": 8658,
      "umÃ²": 8659,
      "ĠÃ¬wÃł": 8660,
      "izz": 8661,
      "Ġprey": 8662,
      "Ġ400": 8663,
      "Ġdeclar": 8664,
      "Ġperiods": 8665,
      "Ġrenamed": 8666,
      "Ġmountains": 8667,
      "Ġarticles": 8668,
      "ĠBelgian": 8669,
      "Ġpunish": 8670,
      "Ġstatistics": 8671,
      "ĠBangladesh": 8672,
      "ambiguation": 8673,
      "Ġpione": 8674,
      "Ġmap": 8675,
      "ĠEU": 8676,
      "abilities": 8677,
      "Ġá¹£Ã¨": 8678,
      "Ġcompl": 8679,
      "Ġadari": 8680,
      "Ġammon": 8681,
      "ĠApost": 8682,
      "Ġequation": 8683,
      "kÃ²rÃ²": 8684,
      "ĠMcC": 8685,
      "ĠPatri": 8686,
      "ĠLáº¹yin": 8687,
      "Ġrebell": 8688,
      "ĠCarolina": 8689,
      "Ġcandidate": 8690,
      "Ġyounger": 8691,
      "cribed": 8692,
      "wall": 8693,
      "tier": 8694,
      "Ġlibrary": 8695,
      "unct": 8696,
      "ĠCulture": 8697,
      "ĠLM": 8698,
      "ĠGran": 8699,
      "ĠAlan": 8700,
      "uchi": 8701,
      "Ġappropri": 8702,
      "Ġcollect": 8703,
      "inna": 8704,
      "Ġtáº¹lif": 8705,
      "ĠCardiff": 8706,
      "ĠExamples": 8707,
      "SP": 8708,
      "Ð¸": 8709,
      "Ġrandom": 8710,
      "ĠJam": 8711,
      "okun": 8712,
      "ĠAdditionally": 8713,
      "Ġpublis": 8714,
      "Ġipade": 8715,
      "2004": 8716,
      "ĠPlan": 8717,
      "ĠPeace": 8718,
      "ĠBaltic": 8719,
      "ĠMoroc": 8720,
      "clusion": 8721,
      "hyth": 8722,
      "ĠBibliography": 8723,
      "Ġmomentum": 8724,
      "ĠÃĮjÃłpÃ¡": 8725,
      "Agbegbe": 8726,
      "CA": 8727,
      "ĠmÃ³": 8728,
      "icide": 8729,
      "ĠChel": 8730,
      "riers": 8731,
      "ĠFÃŃ": 8732,
      "ticism": 8733,
      "Ġvotes": 8734,
      "endar": 8735,
      "Ġexpand": 8736,
      "Ġcriminal": 8737,
      "Ġmeasures": 8738,
      "Ġexperiments": 8739,
      "ĠBahÃ¡": 8740,
      "Ġsis": 8741,
      "alism": 8742,
      "Ġbudget": 8743,
      "Ġpitch": 8744,
      "Ġgidi": 8745,
      "Ġfort": 8746,
      "Ġimpl": 8747,
      "Ġlegend": 8748,
      "Ġforests": 8749,
      "ĠAbdul": 8750,
      "zona": 8751,
      "Ġbaptism": 8752,
      "Ġáº¹ya": 8753,
      "asiti": 8754,
      "enses": 8755,
      "Ġamounts": 8756,
      "Ġquanti": 8757,
      "engers": 8758,
      "Ġreactions": 8759,
      "Ġsacri": 8760,
      "ĠSummer": 8761,
      "rÃ©kÃ¹nrin": 8762,
      "Am": 8763,
      "olongo": 8764,
      "ĠAdelaide": 8765,
      "ĠLeon": 8766,
      "Ġfounder": 8767,
      "Ġstrate": 8768,
      "Ġadding": 8769,
      "Ġidentify": 8770,
      "Ġvolunt": 8771,
      "Ġhosted": 8772,
      "Ġdominated": 8773,
      "ĠImperial": 8774,
      "2000": 8775,
      "bishop": 8776,
      "ĠEqu": 8777,
      "Ġvector": 8778,
      "Ġprepared": 8779,
      "Ġaccur": 8780,
      "ĠArchae": 8781,
      "Ġsymbols": 8782,
      "Ġbenef": 8783,
      "Ġpatients": 8784,
      "ĠAphrod": 8785,
      "93": 8786,
      "Ġcuisine": 8787,
      "asiláº¹": 8788,
      "ĠKong": 8789,
      "Ġcoordin": 8790,
      "Ġslave": 8791,
      "Ġreferences": 8792,
      "rows": 8793,
      "gency": 8794,
      "Ġformerly": 8795,
      "Ġstrategy": 8796,
      "Ġinner": 8797,
      "Ġdating": 8798,
      "Ġspacecraft": 8799,
      "sÃŃwÃ¡jÃº": 8800,
      "Ġdivisions": 8801,
      "going": 8802,
      "raeli": 8803,
      "Ġfavour": 8804,
      "ĠÃłkÃ³kÃ²": 8805,
      "ĠRailway": 8806,
      "ĠWalter": 8807,
      "52": 8808,
      "lets": 8809,
      "ĠIláº¹": 8810,
      "Ġreact": 8811,
      "ĠOt": 8812,
      "Ġrit": 8813,
      "Ġnothing": 8814,
      "direct": 8815,
      "Ġ34": 8816,
      "ĠBrian": 8817,
      "Ġemploye": 8818,
      "ĠMedal": 8819,
      "Ġargument": 8820,
      "53": 8821,
      "61": 8822,
      "pad": 8823,
      "uin": 8824,
      "zen": 8825,
      "ĠGab": 8826,
      "ĠÃĮgbÃł": 8827,
      "Ġsole": 8828,
      "Ġattended": 8829,
      "Ġmode": 8830,
      "Ġmeta": 8831,
      "Ġpredomin": 8832,
      "Ġmeasured": 8833,
      "Ġpersons": 8834,
      "ĠForest": 8835,
      "Ġconstitu": 8836,
      "63": 8837,
      "ias": 8838,
      "Ġtheme": 8839,
      "Ġbow": 8840,
      "Ġfranch": 8841,
      "illy": 8842,
      "ĠIw": 8843,
      "ĠBáº¹": 8844,
      "Ġretain": 8845,
      "ĠNatural": 8846,
      "ĠRun": 8847,
      "ĠHun": 8848,
      "Ġarsen": 8849,
      "ĠChican": 8850,
      "die": 8851,
      "Ġkáº¹já»į": 8852,
      "ĠonÃŃmá»į": 8853,
      "certain": 8854,
      "----": 8855,
      "ĠAntarc": 8856,
      "ĠPenns": 8857,
      "Ã£o": 8858,
      "nest": 8859,
      "Ê¼": 8860,
      "ĠMun": 8861,
      "Ġwhy": 8862,
      "2011": 8863,
      "Ġorganic": 8864,
      "Ġlabel": 8865,
      "Ġexplained": 8866,
      "Ġmissile": 8867,
      "Ġrecognition": 8868,
      "ĠBrasil": 8869,
      "bÃ¹": 8870,
      "Ã¿": 8871,
      "Ġpet": 8872,
      "Ġnut": 8873,
      "ÃŃa": 8874,
      "ĠTrin": 8875,
      "ĠManu": 8876,
      "á¹£Ã¹": 8877,
      "ĠNever": 8878,
      "Ġtransferred": 8879,
      "Ġorigins": 8880,
      "Ġkej": 8881,
      "Ġhistorically": 8882,
      "Ġtitled": 8883,
      "ĠHarvard": 8884,
      "Ġdegrees": 8885,
      "Ġconstitutional": 8886,
      "IT": 8887,
      "pine": 8888,
      "Ġdrum": 8889,
      "Ġjo": 8890,
      "ĠKa": 8891,
      "ĠKal": 8892,
      "Ġá»įmá»įde": 8893,
      "ĠMarsh": 8894,
      "Ġcolour": 8895,
      "ĠShort": 8896,
      "ĠOlÃ¹": 8897,
      "Ġlinked": 8898,
      "ĠRegion": 8899,
      "Ġstraight": 8900,
      "disambiguation": 8901,
      "ĠRoger": 8902,
      "ĠBridge": 8903,
      "ĠNapoleon": 8904,
      "gbasoke": 8905,
      "ĠSin": 8906,
      "ĠBrig": 8907,
      "ĠMach": 8908,
      "aman": 8909,
      "adá»į": 8910,
      "Ġ1915": 8911,
      "ĠRoll": 8912,
      "Ġá¹£á»į": 8913,
      "ĠÃ¡n": 8914,
      "Ġadult": 8915,
      "ÃłnÃŃ": 8916,
      "Ġdistricts": 8917,
      "Ġeditor": 8918,
      "Ġbases": 8919,
      "ĠHeritage": 8920,
      "Ġtourism": 8921,
      "ĠkÃ©de": 8922,
      "ĠKorean": 8923,
      "Ġaya": 8924,
      "ĠSanta": 8925,
      "olis": 8926,
      "ĠOfficial": 8927,
      "ĠDu": 8928,
      "Ġrural": 8929,
      "Ġassembly": 8930,
      "enness": 8931,
      "ĠBened": 8932,
      "Ġmerch": 8933,
      "páº¹áº¹ráº¹": 8934,
      "Ġgods": 8935,
      "Ġvictim": 8936,
      "Ġatáº¹jade": 8937,
      "sky": 8938,
      "Ġawo": 8939,
      "Ġayá»į": 8940,
      "icas": 8941,
      "ĠTa": 8942,
      "ĠHay": 8943,
      "ĠLan": 8944,
      "ĠDisc": 8945,
      "assi": 8946,
      "Ġclin": 8947,
      "ampions": 8948,
      "ounted": 8949,
      "ĠRober": 8950,
      "ĠCambodia": 8951,
      "Ġdropped": 8952,
      "ĠCeltic": 8953,
      "tÃ¹": 8954,
      "xual": 8955,
      "onomy": 8956,
      "Ġeagle": 8957,
      "Ġisin": 8958,
      "Ġvocal": 8959,
      "ĠChris": 8960,
      "ĠThird": 8961,
      "2010": 8962,
      "Ġkoju": 8963,
      "ĠBeach": 8964,
      "Ġpromoted": 8965,
      "gom": 8966,
      "gÃ¬": 8967,
      "hum": 8968,
      "ĠoÃºnjáº¹": 8969,
      "Ġpage": 8970,
      "action": 8971,
      "Ġacknow": 8972,
      "ĠStadium": 8973,
      "ĠOnline": 8974,
      "Ġoperate": 8975,
      "Ġshowing": 8976,
      "Ġtransportation": 8977,
      "ĠCopenhagen": 8978,
      "ĠProtestant": 8979,
      "lig": 8980,
      "Ġsovereign": 8981,
      "urance": 8982,
      "Ġanxiety": 8983,
      "ĠAlh": 8984,
      "ĠÃ²bÃŃ": 8985,
      "Ġplayw": 8986,
      "Ġpolar": 8987,
      "ĠNewton": 8988,
      "ĠPhill": 8989,
      "ĠFilms": 8990,
      "ĠPruss": 8991,
      "Euro": 8992,
      "ders": 8993,
      "Ġbill": 8994,
      "lete": 8995,
      "á¹£epá»į": 8996,
      "ayan": 8997,
      "Ġmobile": 8998,
      "Ġspaces": 8999,
      "ĠAnne": 9000,
      "Ġpriest": 9001,
      "Ġinfrastructure": 9002,
      "Ġserving": 9003,
      "Ġpapa": 9004,
      "rÃ¡nsÃ¬": 9005,
      "Ġdetails": 9006,
      "Ġadvertising": 9007,
      "HO": 9008,
      "Ġmand": 9009,
      "rium": 9010,
      "ĠFather": 9011,
      "izes": 9012,
      "eye": 9013,
      "ĠÃĮjáº¹": 9014,
      "Ġagent": 9015,
      "2012": 9016,
      "Ġdeclined": 9017,
      "Ġrepresenting": 9018,
      "Ġtreaty": 9019,
      "ruption": 9020,
      "ĠAlfonso": 9021,
      "ĠMethod": 9022,
      "ĠPennsylvania": 9023,
      "worth": 9024,
      "Ġrub": 9025,
      "ateur": 9026,
      "Ġunderstand": 9027,
      "Ġlocations": 9028,
      "Ġelectrical": 9029,
      "1999": 9030,
      "Ġcelebrated": 9031,
      "ndÃŃnlÃ³gÃºn": 9032,
      "ĠTemple": 9033,
      "bage": 9034,
      "ping": 9035,
      "Ġaer": 9036,
      "ĠÃī": 9037,
      "ulu": 9038,
      "Ġstrict": 9039,
      "Ġchair": 9040,
      "Ġsuccession": 9041,
      "ĠAugustus": 9042,
      "Ġexisted": 9043,
      "ĠCongo": 9044,
      "Ġtwenty": 9045,
      "Ġsubstance": 9046,
      "Un": 9047,
      "asure": 9048,
      "Ġdrop": 9049,
      "ĠFrÃ¡nsÃ¬": 9050,
      "ĠÃ¬wÃ¡": 9051,
      "odium": 9052,
      "abled": 9053,
      "Ġáº¹sin": 9054,
      "Ġsoil": 9055,
      "Ġorganisms": 9056,
      "Ġclassification": 9057,
      "Ġruler": 9058,
      "Ġnovels": 9059,
      "ĠÃ²á¹£Ã¨rÃ©bÃ¬nrin": 9060,
      "Ġcriticism": 9061,
      "Ġarmies": 9062,
      "Ġatmosphere": 9063,
      "57": 9064,
      "ES": 9065,
      "inity": 9066,
      "Ġintern": 9067,
      "ĠAyÃ©": 9068,
      "uran": 9069,
      "Ġthir": 9070,
      "ĠKel": 9071,
      "ĠConn": 9072,
      "Ġcharged": 9073,
      "place": 9074,
      "Ġ1908": 9075,
      "Ġviewed": 9076,
      "Ġmassive": 9077,
      "Ġswim": 9078,
      "Ġitá»įju": 9079,
      "utenant": 9080,
      "uj": 9081,
      "ĠAudi": 9082,
      "Ġhospital": 9083,
      "ĠST": 9084,
      "Ġcanon": 9085,
      "ĠEnvironment": 9086,
      "Ġrecogn": 9087,
      "Ġpreferred": 9088,
      "Ġproduces": 9089,
      "ĠAbout": 9090,
      "Ġ64": 9091,
      "Ġfeed": 9092,
      "ĠBeg": 9093,
      "Ġheadquarters": 9094,
      "Ġelectronic": 9095,
      "ymn": 9096,
      "ĠAlbanian": 9097,
      "Ġfear": 9098,
      "Ġemo": 9099,
      "ĠRena": 9100,
      "ĠGene": 9101,
      "Ġroads": 9102,
      "boye": 9103,
      "Ġaccused": 9104,
      "exp": 9105,
      "scape": 9106,
      "Ġmarkets": 9107,
      "Ġelimin": 9108,
      "Ġcollec": 9109,
      "ĠAmáº¹rika": 9110,
      "Ġdiseases": 9111,
      "Ġdoctrine": 9112,
      "ĠYunifÃ¡sÃŃtÃ¬": 9113,
      "Ġaluminium": 9114,
      "ĠSudan": 9115,
      "59": 9116,
      "after": 9117,
      "ien": 9118,
      "iency": 9119,
      "Ġcavalry": 9120,
      "Ġshall": 9121,
      "Ġweather": 9122,
      "Ġprotected": 9123,
      "Ġpractical": 9124,
      "Ġastero": 9125,
      "Ġsurviving": 9126,
      "but": 9127,
      "rary": 9128,
      "where": 9129,
      "Ġtools": 9130,
      "Ġiwá»į": 9131,
      "ĠPra": 9132,
      "ĠRica": 9133,
      "rome": 9134,
      "ĠYug": 9135,
      "Ġexpect": 9136,
      "Ġdecor": 9137,
      "ĠÃ²á¹£Ã¨rÃ©kÃ¹nrin": 9138,
      "yá»įkÃł": 9139,
      "ĠChaplin": 9140,
      "Ġassumed": 9141,
      "Ġexpedition": 9142,
      "ĠMovement": 9143,
      "lical": 9144,
      "mmet": 9145,
      "ĠAal": 9146,
      "ĠSom": 9147,
      "Ġeg": 9148,
      "ĠGord": 9149,
      "Ġstreet": 9150,
      "Ġplot": 9151,
      "seud": 9152,
      "ourse": 9153,
      "Ġprim": 9154,
      "Ġreducing": 9155,
      "ĠArizona": 9156,
      "Ġdrawn": 9157,
      "English": 9158,
      "cell": 9159,
      "oÃ²rÃ¹n": 9160,
      "rings": 9161,
      "Ġtab": 9162,
      "Ġwing": 9163,
      "Ġbes": 9164,
      "Ġgang": 9165,
      "ÃºlÃ©": 9166,
      "chang": 9167,
      "andin": 9168,
      "Ġfoundation": 9169,
      "Ġcontroll": 9170,
      "Ġsayensi": 9171,
      "Ġslavery": 9172,
      "Ad": 9173,
      "oen": 9174,
      "onu": 9175,
      "Ġbori": 9176,
      "Ġreaching": 9177,
      "ĠNight": 9178,
      "hemistry": 9179,
      "Ġconstell": 9180,
      "ĠSecurity": 9181,
      "Ġ{": 9182,
      "Ġoogun": 9183,
      "rec": 9184,
      "Ġflood": 9185,
      "ĠMit": 9186,
      "Ġatawá»įn": 9187,
      "Ġexceed": 9188,
      "Ġroots": 9189,
      "orning": 9190,
      "Ġcarrier": 9191,
      "Ġlink": 9192,
      "Ġcommitted": 9193,
      "Ġrarely": 9194,
      "ĠFrederick": 9195,
      "51": 9196,
      "IP": 9197,
      "gence": 9198,
      "alysis": 9199,
      "ĠTony": 9200,
      "Ġhall": 9201,
      "ĠÃłwÃ¹já»į": 9202,
      "ĠÃłjáº¹sÃ¡ra": 9203,
      "avel": 9204,
      "Ġcounty": 9205,
      "Ġvisible": 9206,
      "Ġdestruction": 9207,
      "ĠCapital": 9208,
      "ĠSerbia": 9209,
      "ĠBermuda": 9210,
      "ĠsÃ¬n": 9211,
      "Ġcave": 9212,
      "Ġinhib": 9213,
      "ĠSlav": 9214,
      "agre": 9215,
      "ĠKÃŃ": 9216,
      "Ġplate": 9217,
      "aret": 9218,
      "ĠPlateau": 9219,
      "Ġappeal": 9220,
      "Ġmorph": 9221,
      "Ġcustom": 9222,
      "Ġconquest": 9223,
      "Ġalgebraic": 9224,
      "CS": 9225,
      "Ġfal": 9226,
      "ĠDur": 9227,
      "avian": 9228,
      "Ġabund": 9229,
      "Ġdisk": 9230,
      "Ġrob": 9231,
      "Ġagents": 9232,
      "Ġawa": 9233,
      "ĠBoy": 9234,
      "Ġintelligence": 9235,
      "Ġshortly": 9236,
      "Ġescape": 9237,
      "Ġdomain": 9238,
      "ĠDynasty": 9239,
      "ĠÃĮtumÃ²": 9240,
      "ĠSources": 9241,
      "ĠoÃ²rÃ¹n": 9242,
      "ĠAuthor": 9243,
      "ĠIbi": 9244,
      "ĠLara": 9245,
      "ĠGa": 9246,
      "Ġexcess": 9247,
      "Ġartis": 9248,
      "ĠChannel": 9249,
      "ĠÃ³á¹£u": 9250,
      "Ġpark": 9251,
      "Ġidaraya": 9252,
      "ossible": 9253,
      "Ġphilosophers": 9254,
      "ĠLÃ¡ti": 9255,
      "Ġuniversal": 9256,
      "imensional": 9257,
      "gÃŃ": 9258,
      "vest": 9259,
      "Ġocean": 9260,
      "ĠAmp": 9261,
      "ĠSyn": 9262,
      "ĠDub": 9263,
      "umen": 9264,
      "Ġconcepts": 9265,
      "Ġstret": 9266,
      "agues": 9267,
      "Ġunus": 9268,
      "eya": 9269,
      "Ġpremi": 9270,
      "Ġdoing": 9271,
      "ĠConference": 9272,
      "hema": 9273,
      "ĠMuslims": 9274,
      "ĠWorks": 9275,
      "New": 9276,
      "rehens": 9277,
      "ĠSax": 9278,
      "Ġiá¹£e": 9279,
      "ĠMP": 9280,
      "ĠMis": 9281,
      "uter": 9282,
      "ĠDor": 9283,
      "ocol": 9284,
      "Ġ--": 9285,
      "ĠPoly": 9286,
      "Ġdebt": 9287,
      "Ġreduction": 9288,
      "Ġconsisted": 9289,
      "ĠGáº¹áº¹si": 9290,
      "Ġpercentage": 9291,
      "Ġbehavi": 9292,
      "adelph": 9293,
      "tymology": 9294,
      "sch": 9295,
      "antit": 9296,
      "Ġclo": 9297,
      "Ġlosing": 9298,
      "amics": 9299,
      "Ġconj": 9300,
      "Ġvs": 9301,
      "akar": 9302,
      "Ġcosts": 9303,
      "Ġexplicit": 9304,
      "Ġ48": 9305,
      "Ġmodule": 9306,
      "Ġmanner": 9307,
      "Ġ747": 9308,
      "Ġinflation": 9309,
      "Ġcategories": 9310,
      "Ġresearchers": 9311,
      "94": 9312,
      "ook": 9313,
      "Ġwalk": 9314,
      "Ġbright": 9315,
      "Ġmamm": 9316,
      "Ġgal": 9317,
      "ricket": 9318,
      "Ġroutes": 9319,
      "Ġfled": 9320,
      "Ġdepicted": 9321,
      "Ġairport": 9322,
      "Ġsolar": 9323,
      "Ġopposite": 9324,
      "ĠScienti": 9325,
      "piracy": 9326,
      "Ġeyes": 9327,
      "ĠSteve": 9328,
      "ĠDefence": 9329,
      "ĠChelsea": 9330,
      "We": 9331,
      "lik": 9332,
      "Ã¸": 9333,
      "Î¿": 9334,
      "Ġster": 9335,
      "Ġpoverty": 9336,
      "itations": 9337,
      "ĠAB": 9338,
      "ĠBart": 9339,
      "ĠPa": 9340,
      "ĠOmo": 9341,
      "uct": 9342,
      "aken": 9343,
      "ĠAla": 9344,
      "Ġcompound": 9345,
      "ĠVill": 9346,
      "Ġtrav": 9347,
      "ĠOnce": 9348,
      "Ġpartner": 9349,
      "Ġsigns": 9350,
      "Ġdepartment": 9351,
      "Ġexecuted": 9352,
      "Ġrenew": 9353,
      "Ġcredited": 9354,
      "ĠJonathan": 9355,
      "Ġastronauts": 9356,
      "Cl": 9357,
      "SR": 9358,
      "nÃ¡": 9359,
      "Ġyour": 9360,
      "akoko": 9361,
      "Ġracing": 9362,
      "Ġsolutions": 9363,
      "ĠAllen": 9364,
      "Ġprint": 9365,
      "Ġibn": 9366,
      "ĠSchwar": 9367,
      "Ġdenomin": 9368,
      "ĠArea": 9369,
      "ĠDigital": 9370,
      "Ġvarieties": 9371,
[...]
