{
  "version": "1.0",
  "truncation": null,
  "padding": null,
  "added_tokens": [
    {
      "id": 0,
      "content": "[PAD]",
      "single_word": false,
      "lstrip": false,
      "rstrip": false,
      "normalized": false,
      "special": true
    },
    {
      "id": 1,
      "content": "[CLS]",
      "single_word": false,
      "lstrip": false,
      "rstrip": false,
      "normalized": false,
      "special": true
    },
    {
      "id": 2,
      "content": "[SEP]",
      "single_word": false,
      "lstrip": false,
      "rstrip": false,
      "normalized": false,
      "special": true
    },
    {
      "id": 3,
      "content": "[MASK]",
      "single_word": false,
      "lstrip": false,
      "rstrip": false,
      "normalized": false,
      "special": true
    }
  ],
  "normalizer": {
    "type": "NFC"
  },
  "pre_tokenizer": {
    "type": "ByteLevel",
    "add_prefix_space": false,
    "trim_offsets": true,
    "use_regex": true
  },
  "post_processor": null,
  "decoder": {
    "type": "ByteLevel",
    "add_prefix_space": true,
    "trim_offsets": true,
    "use_regex": true
  },
  "model": {
    "type": "BPE",
    "dropout": null,
    "unk_token": null,
    "continuing_subword_prefix": null,
    "end_of_word_suffix": null,
    "fuse_unk": false,
    "byte_fallback": false,
    "ignore_merges": false,
    "vocab": {
      "[PAD]": 0,
      "[CLS]": 1,
      "[SEP]": 2,
      "[MASK]": 3,
      "!": 4,
      "\"": 5,
      "#": 6,
      "$": 7,
      "%": 8,
      "&": 9,
      "'": 10,
      "(": 11,
      ")": 12,
      "*": 13,
      "+": 14,
      ",": 15,
      "-": 16,
      ".": 17,
      "/": 18,
      "0": 19,
      "1": 20,
      "2": 21,
      "3": 22,
      "4": 23,
      "5": 24,
      "6": 25,
      "7": 26,
      "8": 27,
      "9": 28,
      ":": 29,
      ";": 30,
      "<": 31,
      "=": 32,
      ">": 33,
      "?": 34,
      "@": 35,
      "A": 36,
      "B": 37,
      "C": 38,
      "D": 39,
      "E": 40,
      "F": 41,
      "G": 42,
      "H": 43,
      "I": 44,
      "J": 45,
      "K": 46,
      "L": 47,
      "M": 48,
      "N": 49,
      "O": 50,
      "P": 51,
      "Q": 52,
      "R": 53,
      "S": 54,
      "T": 55,
      "U": 56,
      "V": 57,
      "W": 58,
      "X": 59,
      "Y": 60,
      "Z": 61,
      "[": 62,
      "\\": 63,
      "]": 64,
      "^": 65,
      "_": 66,
      "`": 67,
      "a": 68,
      "b": 69,
      "c": 70,
      "d": 71,
      "e": 72,
      "f": 73,
      "g": 74,
      "h": 75,
      "i": 76,
      "j": 77,
      "k": 78,
      "l": 79,
      "m": 80,
      "n": 81,
      "o": 82,
      "p": 83,
      "q": 84,
      "r": 85,
      "s": 86,
      "t": 87,
      "u": 88,
      "v": 89,
      "w": 90,
      "x": 91,
      "y": 92,
      "z": 93,
      "{": 94,
      "|": 95,
      "}": 96,
      "~": 97,
      "¡": 98,
      "¢": 99,
      "£": 100,
      "¤": 101,
      "¥": 102,
      "¦": 103,
      "§": 104,
      "¨": 105,
      "©": 106,
      "ª": 107,
      "«": 108,
      "¬": 109,
      "®": 110,
      "¯": 111,
      "°": 112,
      "±": 113,
      "²": 114,
      "³": 115,
      "´": 116,
      "µ": 117,
      "¶": 118,
      "·": 119,
      "¸": 120,
      "¹": 121,
      "º": 122,
      "»": 123,
      "¼": 124,
      "½": 125,
      "¾": 126,
      "¿": 127,
      "Â": 128,
      "Ã": 129,
      "Ä": 130,
      "Å": 131,
      "Æ": 132,
      "Ç": 133,
      "È": 134,
      "É": 135,
      "Ê": 136,
      "Ë": 137,
      "Ì": 138,
      "Í": 139,
      "Î": 140,
      "Ï": 141,
      "Ð": 142,
      "Ñ": 143,
      "Ò": 144,
      "Ó": 145,
      "Ô": 146,
      "Õ": 147,
      "Ö": 148,
      "×": 149,
      "Ø": 150,
      "Ù": 151,
      "Ú": 152,
      "Û": 153,
      "Ü": 154,
      "Ý": 155,
      "Þ": 156,
      "ß": 157,
      "à": 158,
      "á": 159,
      "â": 160,
      "ã": 161,
      "ä": 162,
      "å": 163,
      "æ": 164,
      "ç": 165,
      "è": 166,
      "é": 167,
      "ê": 168,
      "ë": 169,
      "ì": 170,
      "í": 171,
      "î": 172,
      "ï": 173,
      "ð": 174,
      "Ċ": 175,
      "Ġ": 176,
      "Ģ": 177,
      "ģ": 178,
      "Ĥ": 179,
      "ĥ": 180,
      "Ħ": 181,
      "ħ": 182,
      "Ĩ": 183,
      "ĩ": 184,
      "Ī": 185,
      "ī": 186,
      "Ĭ": 187,
      "ĭ": 188,
      "Į": 189,
      "į": 190,
      "İ": 191,
      "ı": 192,
      "Ĳ": 193,
      "ĳ": 194,
      "Ĵ": 195,
      "ĵ": 196,
      "Ķ": 197,
      "ķ": 198,
      "ĸ": 199,
      "Ĺ": 200,
      "ĺ": 201,
      "Ļ": 202,
      "ļ": 203,
      "Ľ": 204,
      "ľ": 205,
      "Ŀ": 206,
      "ŀ": 207,
      "Ł": 208,
      "ł": 209,
      "Ń": 210,
      "an": 211,
      "ar": 212,
      "in": 213,
      "Ġt": 214,
      "Ġd": 215,
      "Ġa": 216,
      "Ġs": 217,
      "he": 218,
      "Ġda": 219,
      "Ġk": 220,
      "ma": 221,
      "on": 222,
      "wa": 223,
      "er": 224,
      "ya": 225,
      "Ġb": 226,
      "Ġc": 227,
      "Ġn": 228,
      "en": 229,
      "at": 230,
      "Ġthe": 231,
      "un": 232,
      "al": 233,
      "ĠA": 234,
      "as": 235,
      "or": 236,
      "is": 237,
      "es": 238,
      "Ġf": 239,
      "it": 240,
      "ed": 241,
      "and": 242,
      "Ġg": 243,
      "Ġh": 244,
      "Ġo": 245,
      "Ġma": 246,
      "am": 247,
      "Ġw": 248,
      "Ġr": 249,
      "Ġta": 250,
      "ur": 251,
      "Ġof": 252,
      "Ġya": 253,
      "Ġna": 254,
      "ic": 255,
      "Ġm": 256,
      "Ġin": 257,
      "ka": 258,
      "ir": 259,
      "ĠM": 260,
      "ĠS": 261,
      "Ġwa": 262,
      "ab": 263,
      "ik": 264,
      "Ġp": 265,
      "ay": 266,
      "Ġ1": 267,
      "ĠT": 268,
      "ĠB": 269,
      "Ġl": 270,
      "il": 271,
      "Ġand": 272,
      "us": 273,
      "ion": 274,
      "ing": 275,
      "ta": 276,
      "Ġy": 277,
      "om": 278,
      "ĠC": 279,
      "ÆĻ": 280,
      "ut": 281,
      "el": 282,
      "Ġ(": 283,
      "Ġ2": 284,
      "Ġsh": 285,
      "ad": 286,
      "id": 287,
      "Ġz": 288,
      "Ġto": 289,
      "iya": 290,
      "ana": 291,
      "ol": 292,
      "Ġku": 293,
      "ĠK": 294,
      "iy": 295,
      "kar": 296,
      "ce": 297,
      "ent": 298,
      "ĠI": 299,
      "ai": 300,
      "ĠD": 301,
      "ul": 302,
      "ĠH": 303,
      "ĠN": 304,
      "Ġ20": 305,
      "ikin": 306,
      "ec": 307,
      "ro": 308,
      "ga": 309,
      "sa": 310,
      "im": 311,
      "ĠÆĻ": 312,
      "Ġ19": 313,
      "et": 314,
      "Ġsu": 315,
      "ĠG": 316,
      "Ġba": 317,
      "Ġj": 318,
      "are": 319,
      "ÉĹ": 320,
      "Ġkuma": 321,
      "ĠP": 322,
      "re": 323,
      "um": 324,
      "ĠF": 325,
      "ĠR": 326,
      "Ġwas": 327,
      "le": 328,
      "ĠL": 329,
      "ot": 330,
      "Ġcikin": 331,
      "af": 332,
      "ig": 333,
      "Ġne": 334,
      "ĠJ": 335,
      "os": 336,
      "ts": 337,
      "ci": 338,
      "ani": 339,
      "Ġth": 340,
      "uk": 341,
      "ann": 342,
      "Ġal": 343,
      "ara": 344,
      "uwa": 345,
      "Ġshe": 346,
      "ation": 347,
      "ch": 348,
      "ud": 349,
      "ĠW": 350,
      "iv": 351,
      "ter": 352,
      "war": 353,
      "Ġshekar": 354,
      "em": 355,
      "ly": 356,
      "Ġkas": 357,
      "Ġas": 358,
      "ĠE": 359,
      "âĢ": 360,
      "ĠThe": 361,
      "Ġis": 362,
      "ĠY": 363,
      "Ġan": 364,
      "ke": 365,
      "Ġe": 366,
      "Ġsa": 367,
      "Ġha": 368,
      "ĠO": 369,
      "cin": 370,
      "anda": 371,
      "od": 372,
      "Ġga": 373,
      "Ġfor": 374,
      "tr": 375,
      "Ġsun": 376,
      "la": 377,
      "Ġshi": 378,
      "ow": 379,
      "tan": 380,
      "Ġ\"": 381,
      "ub": 382,
      "iyar": 383,
      "ag": 384,
      "ers": 385,
      "ari": 386,
      "su": 387,
      "kin": 388,
      "hi": 389,
      "ug": 390,
      "Ġdaga": 391,
      "Ġon": 392,
      "Ġyi": 393,
      "Ġ201": 394,
      "ith": 395,
      "Ġmai": 396,
      "ĠAn": 397,
      "ra": 398,
      "ĠIn": 399,
      "Ġce": 400,
      "wan": 401,
      "her": 402,
      "ark": 403,
      "Ġko": 404,
      "op": 405,
      "Ġre": 406,
      "Ġam": 407,
      "Ġbe": 408,
      "ib": 409,
      "da": 410,
      "Ġke": 411,
      "Ġwith": 412,
      "Ġcon": 413,
      "anar": 414,
      "st": 415,
      "ver": 416,
      "ct": 417,
      "Ġza": 418,
      "Ġsam": 419,
      "00": 420,
      "ia": 421,
      "Ġby": 422,
      "ĠU": 423,
      "aj": 424,
      "if": 425,
      "th": 426,
      "ĠÉĹ": 427,
      "any": 428,
      "hin": 429,
      "Ġts": 430,
      "Ġit": 431,
      "ang": 432,
      "ist": 433,
      "Ġwanda": 434,
      "ayin": 435,
      "Ġyan": 436,
      "Ġthat": 437,
      "est": 438,
      "ess": 439,
      "arin": 440,
      "all": 441,
      "ant": 442,
      "ayan": 443,
      "Ġaka": 444,
      "Ġwh": 445,
      "und": 446,
      "'s": 447,
      "og": 448,
      "ine": 449,
      "âĢĵ": 450,
      "annan": 451,
      "Ġdon": 452,
      "Ġab": 453,
      "Ġkan": 454,
      "ĠAl": 455,
      "kan": 456,
      "ung": 457,
      "Ġkar": 458,
      "ian": 459,
      "Ġ.": 460,
      "rom": 461,
      "Ġst": 462,
      "ba": 463,
      "ect": 464,
      "ha": 465,
      "Ġmats": 466,
      "Ġzuwa": 467,
      "Ġpro": 468,
      "Ġare": 469,
      "oy": 470,
      "Ġv": 471,
      "har": 472,
      "Ġor": 473,
      "ity": 474,
      "Ġcom": 475,
      "ane": 476,
      "Ġlo": 477,
      "art": 478,
      "ance": 479,
      "Ġ200": 480,
      "),": 481,
      "Ġat": 482,
      "ies": 483,
      "ĠAm": 484,
      "iki": 485,
      "asar": 486,
      "asa": 487,
      "ki": 488,
      "hen": 489,
      "Ġde": 490,
      "ll": 491,
      "man": 492,
      "aba": 493,
      "aif": 494,
      "una": 495,
      "Ġmut": 496,
      "qu": 497,
      "Ġyana": 498,
      "ata": 499,
      "Ġka": 500,
      "Ġfrom": 501,
      "ate": 502,
      "ban": 503,
      "Ġ'": 504,
      "pp": 505,
      "Ġshekarar": 506,
      "ve": 507,
      "ĠAf": 508,
      "Ġsuka": 509,
      "ill": 510,
      "Ġmasu": 511,
      "Ġmatsayin": 512,
      "Ġex": 513,
      "so": 514,
      "ri": 515,
      "Ġshekara": 516,
      "Ġtare": 517,
      "afa": 518,
      "ck": 519,
      "eriya": 520,
      "fin": 521,
      "ob": 522,
      "ish": 523,
      "Ġkwa": 524,
      "Ġhe": 525,
      "Ġwatan": 526,
      "yar": 527,
      "ical": 528,
      "Ġkam": 529,
      "Ġwasan": 530,
      "ich": 531,
      "ĠYa": 532,
      "Ġad": 533,
      "Éĵ": 534,
      "igh": 535,
      "ive": 536,
      "Ġso": 537,
      "ge": 538,
      "arko": 539,
      "Ġloka": 540,
      "ars": 541,
      "ĠV": 542,
      ").": 543,
      "cc": 544,
      "ok": 545,
      "ort": 546,
      "ak": 547,
      "ere": 548,
      "Ġranar": 549,
      "Ġ199": 550,
      "ong": 551,
      "ell": 552,
      "ida": 553,
      "uwan": 554,
      "ĠNaj": 555,
      "Ġci": 556,
      "Ġiya": 557,
      "Ġco": 558,
      "ĠâĢĵ": 559,
      "ass": 560,
      "ment": 561,
      "ew": 562,
      "ous": 563,
      "Ġwani": 564,
      "ary": 565,
      "ap": 566,
      "end": 567,
      "ĠNajeriya": 568,
      "to": 569,
      "fi": 570,
      "ore": 571,
      "ure": 572,
      "aya": 573,
      "up": 574,
      "Ġhad": 575,
      "aban": 576,
      "Ġ3": 577,
      "fani": 578,
      "du": 579,
      "Ġbayan": 580,
      "ial": 581,
      "Ġhis": 582,
      "Ġcewa": 583,
      "Ġtsa": 584,
      "ans": 585,
      "ame": 586,
      "se": 587,
      "yan": 588,
      "ated": 589,
      "ama": 590,
      "ĠAr": 591,
      "iz": 592,
      "wo": 593,
      "Ġbiy": 594,
      "Ġfarko": 595,
      "ashin": 596,
      "Ġar": 597,
      "ard": 598,
      "ami": 599,
      "Ġus": 600,
      "anin": 601,
      "ah": 602,
      "Ġsuna": 603,
      "ast": 604,
      "Ġamfani": 605,
      "Ġwhich": 606,
      "19": 607,
      "uka": 608,
      "ber": 609,
      "ungiyar": 610,
      "ĠZ": 611,
      "ions": 612,
      "uwar": 613,
      "uniya": 614,
      "ord": 615,
      "Ġmata": 616,
      "Ġ18": 617,
      "ima": 618,
      "Ġhaif": 619,
      "Ġgud": 620,
      "ost": 621,
      "ep": 622,
      "ĠSt": 623,
      "Ġkasance": 624,
      "ĠCh": 625,
      "rit": 626,
      "ina": 627,
      "ugh": 628,
      "Ġlokacin": 629,
      "wam": 630,
      "eg": 631,
      "Ġsp": 632,
      "arta": 633,
      "Ġbu": 634,
      "Ġwere": 635,
      "ov": 636,
      "20": 637,
      "ther": 638,
      "our": 639,
      "Ġpr": 640,
      "anta": 641,
      "jin": 642,
      "out": 643,
      "Ġbiyu": 644,
      "ĠAb": 645,
      "Ġ-": 646,
      "ĠMa": 647,
      "Ġwannan": 648,
      "oyin": 649,
      "Ġcomp": 650,
      "ev": 651,
      "ĠSh": 652,
      "atar": 653,
      "yy": 654,
      "âĢĻ": 655,
      "Ġnot": 656,
      "ue": 657,
      "amb": 658,
      "ye": 659,
      "Ġji": 660,
      "ĠÆ": 661,
      "je": 662,
      "Ġhar": 663,
      "ĠMana": 664,
      "ĠUn": 665,
      "oh": 666,
      "irin": 667,
      "Ġ198": 668,
      "Ġbay": 669,
      "cl": 670,
      "ĠÉĹan": 671,
      "Ġcan": 672,
      "Ġbab": 673,
      "per": 674,
      "Ġsab": 675,
      "ali": 676,
      "Ġsha": 677,
      "arr": 678,
      "pt": 679,
      "uh": 680,
      "Ġun": 681,
      "att": 682,
      "Ġch": 683,
      "ome": 684,
      "ĠhaÉĹ": 685,
      "alin": 686,
      "kwa": 687,
      "ada": 688,
      "zarta": 689,
      "Ġtr": 690,
      "Ġzama": 691,
      "Ġhas": 692,
      "ĠAs": 693,
      "ence": 694,
      "ef": 695,
      "Ġmus": 696,
      "Ġ4": 697,
      "ĠManazarta": 698,
      "ac": 699,
      "ations": 700,
      "wamn": 701,
      "ide": 702,
      "Ġres": 703,
      "Ġaiki": 704,
      "ji": 705,
      "ican": 706,
      "tern": 707,
      "Ġkasa": 708,
      "alis": 709,
      "ld": 710,
      "oll": 711,
      "ĠDa": 712,
      "oma": 713,
      "Ġpl": 714,
      "Ġalso": 715,
      "ff": 716,
      "ayi": 717,
      "Ġfir": 718,
      "Ġse": 719,
      "Ġhave": 720,
      "Ġ197": 721,
      "au": 722,
      "Ġfara": 723,
      "Ġhany": 724,
      "Ġra": 725,
      "ank": 726,
      "irka": 727,
      "ight": 728,
      "ork": 729,
      "Ġgaba": 730,
      "ory": 731,
      "umar": 732,
      "ond": 733,
      "ational": 734,
      "Ġmutane": 735,
      "idan": 736,
      "ice": 737,
      "Ġdis": 738,
      "oc": 739,
      "Ġ5": 740,
      "ign": 741,
      "ult": 742,
      "uran": 743,
      "Ġwasu": 744,
      "ita": 745,
      "Ġmas": 746,
      "ira": 747,
      "way": 748,
      "Ġinda": 749,
      "ph": 750,
      "ound": 751,
      "age": 752,
      "uta": 753,
      "ĠTh": 754,
      "Ġyawan": 755,
      "ĠAfirka": 756,
      "Ġkai": 757,
      "land": 758,
      "utar": 759,
      "ukan": 760,
      "Ġsan": 761,
      "les": 762,
      "ces": 763,
      "iri": 764,
      "ition": 765,
      "mar": 766,
      "Ġits": 767,
      "int": 768,
      "Ġla": 769,
      "ĠAd": 770,
      "ens": 771,
      "llon": 772,
      "Ġall": 773,
      "za": 774,
      "gin": 775,
      "Ġduk": 776,
      "ĠÆĻar": 777,
      "uri": 778,
      "ear": 779,
      "Ġ196": 780,
      "Ġyin": 781,
      "ip": 782,
      "ugaban": 783,
      "ĠTa": 784,
      "ely": 785,
      "te": 786,
      "Ġake": 787,
      "Ġdo": 788,
      "Ġcl": 789,
      "Ġkasar": 790,
      "yin": 791,
      "Ġgasar": 792,
      "ons": 793,
      "ual": 794,
      "we": 795,
      "Ġtheir": 796,
      "zu": 797,
      "omin": 798,
      "ree": 799,
      "Ġbut": 800,
      "ĠAmer": 801,
      "ile": 802,
      "Ġkafa": 803,
      "oun": 804,
      "Ġmany": 805,
      "Ġdan": 806,
      "Ġhuk": 807,
      "antar": 808,
      "pr": 809,
      "afin": 810,
      "ĠFr": 811,
      "ited": 812,
      "Ġkamar": 813,
      "ike": 814,
      "Ġyawa": 815,
      "Ġduniya": 816,
      "Ġother": 817,
      "uld": 818,
      "own": 819,
      "amar": 820,
      "ĠEn": 821,
      "Ġmat": 822,
      "ĠMar": 823,
      "ĠHa": 824,
      "Ġgwamn": 825,
      "Ġ6": 826,
      "fer": 827,
      "Ã©": 828,
      "Ġim": 829,
      "ates": 830,
      "olog": 831,
      "Ġbaya": 832,
      "anci": 833,
      "ins": 834,
      "ents": 835,
      "ni": 836,
      "Ġaikin": 837,
      "clud": 838,
      "Ġzam": 839,
      "Ġhanyar": 840,
      "ced": 841,
      "ĠwaÉĹ": 842,
      "jen": 843,
      "ics": 844,
      "amp": 845,
      "ĠÆĻasa": 846,
      "ime": 847,
      "ura": 848,
      "Ġcons": 849,
      "Ġbir": 850,
      "Ġper": 851,
      "Ġtana": 852,
      "ĠMus": 853,
      "de": 854,
      "uba": 855,
      "ĠIt": 856,
      "Ġshiga": 857,
      "Ġen": 858,
      "ij": 859,
      "urka": 860,
      "Ġmag": 861,
      "aye": 862,
      "Ġana": 863,
      "Ġjihar": 864,
      "Ġpart": 865,
      "Ġfirst": 866,
      "Ġcomm": 867,
      "uma": 868,
      "av": 869,
      "Ġbabban": 870,
      "unan": 871,
      "oda": 872,
      "dda": 873,
      "hed": 874,
      "Ġthis": 875,
      "ction": 876,
      "eb": 877,
      "Ġshekaru": 878,
      "abar": 879,
      "uf": 880,
      "Ġhaka": 881,
      "Ġrel": 882,
      "Ġabin": 883,
      "Ġhal": 884,
      "din": 885,
      "Ġtas": 886,
      "ne": 887,
      "Ġmaj": 888,
      "ace": 889,
      "ors": 890,
      "Ġbeen": 891,
      "\".": 892,
      "Ġone": 893,
      "000": 894,
      "Ġfit": 895,
      "ms": 896,
      "Ġapp": 897,
      "ire": 898,
      "Ġbin": 899,
      "alisar": 900,
      "urin": 901,
      "ĠÆĻasar": 902,
      "Ġfar": 903,
      "ĠAmurka": 904,
      "Ġinclud": 905,
      "Ġkya": 906,
      "over": 907,
      "li": 908,
      "Ġsamu": 909,
      "ular": 910,
      "Ġfil": 911,
      "tar": 912,
      "ince": 913,
      "ict": 914,
      "Ġbec": 915,
      "erv": 916,
      "Ġel": 917,
      "Ġil": 918,
      "Ġ202": 919,
      "ĠIs": 920,
      "Ġamma": 921,
      "Ġkus": 922,
      "ĠNew": 923,
      "won": 924,
      "Ġcin": 925,
      "ubl": 926,
      "Ġbuga": 927,
      "ite": 928,
      "Ġjama": 929,
      "Ġdes": 930,
      "kwai": 931,
      "Ġ7": 932,
      "afi": 933,
      "ath": 934,
      "ust": 935,
      "ĠÆĺ": 936,
      "Ġfi": 937,
      "annin": 938,
      "ashe": 939,
      "Ġyankin": 940,
      "one": 941,
      "ĠSa": 942,
      "kanin": 943,
      "able": 944,
      "Ġhaife": 945,
      "Ġtun": 946,
      "ys": 947,
      "ĠCom": 948,
      "Ġzai": 949,
      "Ġruwa": 950,
      "Ġgab": 951,
      "pl": 952,
      "ĠAmerican": 953,
      "Ġgir": 954,
      "bo": 955,
      "ko": 956,
      "Ġbas": 957,
      "old": 958,
      "eral": 959,
      "ĠLe": 960,
      "iyyar": 961,
      "uku": 962,
      "ĠPr": 963,
      "Ġbayy": 964,
      "ĠÆĻwa": 965,
      "for": 966,
      "ja": 967,
      "ĠHe": 968,
      "Ġwata": 969,
      "Ġsy": 970,
      "Ġrec": 971,
      "aren": 972,
      "ough": 973,
      "Ġshine": 974,
      "Ġac": 975,
      "Ġ195": 976,
      "Ġmafi": 977,
      "uring": 978,
      "ĠInd": 979,
      "med": 980,
      "ĠSp": 981,
      "Ġsuch": 982,
      "reat": 983,
      "atin": 984,
      "Ġgame": 985,
      "Ġstr": 986,
      "Ġle": 987,
      "ie": 988,
      "Ġshugaban": 989,
      "Ġcent": 990,
      "Ġsamun": 991,
      "act": 992,
      "atun": 993,
      "ach": 994,
      "ou": 995,
      "Ġnuna": 996,
      "uni": 997,
      "Ġman": 998,
      "Ġtar": 999,
      "ancin": 1000,
      "iyya": 1001,
      "Ġmem": 1002,
      "ĠJami": 1003,
      "Ġte": 1004,
      "Ġmore": 1005,
      "Ġsaboda": 1006,
      "orld": 1007,
      "ry": 1008,
      "ĠâĢ": 1009,
      "Ġ17": 1010,
      "adi": 1011,
      "Ġused": 1012,
      "inis": 1013,
      "ric": 1014,
      "mat": 1015,
      "Ġakan": 1016,
      "Ġwho": 1017,
      "udu": 1018,
      "ano": 1019,
      "Ġ8": 1020,
      "Ġyanzu": 1021,
      "ila": 1022,
      "Ġita": 1023,
      "Ġuku": 1024,
      "hes": 1025,
      "Ġbayyana": 1026,
      "iss": 1027,
      "ustr": 1028,
      "ivers": 1029,
      "ose": 1030,
      "orn": 1031,
      "bin": 1032,
      "abi": 1033,
      "ury": 1034,
      "Ġmost": 1035,
      "anen": 1036,
      "Ġ9": 1037,
      "Ġtwo": 1038,
      "Ġdaya": 1039,
      "Ġyadda": 1040,
      "Ġtsakanin": 1041,
      "uc": 1042,
      "Ġsauran": 1043,
      "ĠAt": 1044,
      "ech": 1045,
      "ĠBr": 1046,
      "Ġev": 1047,
      "wn": 1048,
      "ood": 1049,
      "ould": 1050,
      "ĠAg": 1051,
      "yi": 1052,
      ".\"": 1053,
      "ern": 1054,
      "Ġnan": 1055,
      "Ġhann": 1056,
      "Ġkungiyar": 1057,
      "Ġ10": 1058,
      "Ġmul": 1059,
      "\",": 1060,
      "ward": 1061,
      "ĠBab": 1062,
      "ings": 1063,
      "Ġmar": 1064,
      "amma": 1065,
      "ĠBayan": 1066,
      "Ġaf": 1067,
      "Ġinto": 1068,
      "Ġplay": 1069,
      "ole": 1070,
      "tain": 1071,
      "Ġthey": 1072,
      "anan": 1073,
      "ashen": 1074,
      "ĠMas": 1075,
      "Ġ194": 1076,
      "nin": 1077,
      "Ġsama": 1078,
      "ÆĻin": 1079,
      "ĠwaÉĹanda": 1080,
      "Ġind": 1081,
      "bar": 1082,
      "Ġsiya": 1083,
      "ĠÉĹaya": 1084,
      "Ġgida": 1085,
      "ĠJam": 1086,
      "ton": 1087,
      "ase": 1088,
      "Ġwasa": 1089,
      "Ġyayin": 1090,
      "Ġtsarin": 1091,
      "Ġover": 1092,
      "Ġmah": 1093,
      "Ġyake": 1094,
      "alla": 1095,
      "Ġprodu": 1096,
      "Ġwaje": 1097,
      "Ġ15": 1098,
      "aka": 1099,
      "Ġayy": 1100,
      "cr": 1101,
      "Ġgro": 1102,
      "Ġmal": 1103,
      "Ġcoun": 1104,
      "Ġmu": 1105,
      "kon": 1106,
      "Ġguda": 1107,
      "ĠMaj": 1108,
      "oth": 1109,
      "Ġme": 1110,
      "Ġsamar": 1111,
      "Ġnum": 1112,
      "ĠÆĻwallon": 1113,
      "Ġbet": 1114,
      "Ġpol": 1115,
      "Ġreg": 1116,
      "Ġsau": 1117,
      "ati": 1118,
      "por": 1119,
      "Ġsai": 1120,
      "shi": 1121,
      "ĠEng": 1122,
      "ĠFar": 1123,
      "Ġthan": 1124,
      "kama": 1125,
      "der": 1126,
      "unin": 1127,
      "Ġgudanar": 1128,
      "ism": 1129,
      "Ġsake": 1130,
      "Ġyar": 1131,
      "Ġwad": 1132,
      "Ġilim": 1133,
      "oyi": 1134,
      "Ġafter": 1135,
      "Ġsami": 1136,
      "adar": 1137,
      "Ġlar": 1138,
      "anc": 1139,
      "Ġsanya": 1140,
      "ĠDuniya": 1141,
      "Ġmil": 1142,
      "itt": 1143,
      "here": 1144,
      "Ġund": 1145,
      "rough": 1146,
      "ats": 1147,
      "erm": 1148,
      "Ġray": 1149,
      "vel": 1150,
      "anni": 1151,
      "di": 1152,
      "Ġkoma": 1153,
      "eop": 1154,
      "inal": 1155,
      "mer": 1156,
      "ĠUnited": 1157,
      "ears": 1158,
      "urn": 1159,
      "ative": 1160,
      "Ġout": 1161,
      "Ġgen": 1162,
      "ĠBa": 1163,
      "eth": 1164,
      "Ġdin": 1165,
      "ten": 1166,
      "Ġ16": 1167,
      "Ġtari": 1168,
      "adin": 1169,
      "aus": 1170,
      "Ġnau": 1171,
      "sh": 1172,
      "ĠÆĻungiyar": 1173,
      "ken": 1174,
      "ween": 1175,
      "Ġwajen": 1176,
      "Ġsome": 1177,
      "Ġsub": 1178,
      "Ġwork": 1179,
      "ala": 1180,
      "ĠThis": 1181,
      "Ġgidan": 1182,
      "Ġtrans": 1183,
      "ĠPro": 1184,
      "ansa": 1185,
      "Ġkn": 1186,
      "Ġacc": 1187,
      "amman": 1188,
      "ĠÆĻafa": 1189,
      "Ġact": 1190,
      "ĠJi": 1191,
      "Ġph": 1192,
      "tin": 1193,
      "Ġ,": 1194,
      "ement": 1195,
      "ĠAna": 1196,
      "mi": 1197,
      "Ġjam": 1198,
      "ild": 1199,
      "ope": 1200,
      "ĠTur": 1201,
      "Ġzab": 1202,
      "ĠGh": 1203,
      "ific": 1204,
      "Ġfa": 1205,
      "uth": 1206,
      "Ġmakar": 1207,
      "az": 1208,
      "ters": 1209,
      "ĠFor": 1210,
      "Ġrub": 1211,
      "Ġabub": 1212,
      "iyoyin": 1213,
      "gr": 1214,
      "ater": 1215,
      "vi": 1216,
      "ÉĹa": 1217,
      "18": 1218,
      "amin": 1219,
      "overn": 1220,
      "bb": 1221,
      "ade": 1222,
      "Ġpre": 1223,
      "Ġshir": 1224,
      "jo": 1225,
      "Ġsc": 1226,
      "Ġmanyan": 1227,
      "Ġonly": 1228,
      "ÆĻa": 1229,
      "ĠOn": 1230,
      "ĠMay": 1231,
      "Ġbetween": 1232,
      "Ġdec": 1233,
      "ĠSo": 1234,
      "Ġ2019": 1235,
      "ities": 1236,
      "Ġjir": 1237,
      "Ġmod": 1238,
      "Ġtime": 1239,
      "yp": 1240,
      "stem": 1241,
      "itin": 1242,
      "Ġtaka": 1243,
      "Ġear": 1244,
      "Ġwould": 1245,
      "ind": 1246,
      "ick": 1247,
      "ever": 1248,
      "Ġnew": 1249,
      "ĠzaÉĵ": 1250,
      "lish": 1251,
      "kil": 1252,
      "Ġkayan": 1253,
      "oko": 1254,
      "Ġfim": 1255,
      "ool": 1256,
      "Ġdai": 1257,
      "une": 1258,
      "isa": 1259,
      "Ġdang": 1260,
      "ĠhaÉĹa": 1261,
      "Ġup": 1262,
      "Ġmot": 1263,
      "Ġem": 1264,
      "na": 1265,
      "Ġciki": 1266,
      "Ġ|": 1267,
      "ĠJoh": 1268,
      "ied": 1269,
      "ĠCon": 1270,
      "fanin": 1271,
      "ayar": 1272,
      "ĠShe": 1273,
      "Ġinter": 1274,
      "200": 1275,
      "ash": 1276,
      "Ġpop": 1277,
      "Ġtakar": 1278,
      "ock": 1279,
      "iyan": 1280,
      "ĠTs": 1281,
      "Ġgirma": 1282,
      "eople": 1283,
      "try": 1284,
      "ĠBrit": 1285,
      "ĠOr": 1286,
      "Ġdomin": 1287,
      "Ġwhen": 1288,
      "gar": 1289,
      "erin": 1290,
      "Ġspec": 1291,
      "Ġoff": 1292,
      "ĠRaya": 1293,
      "Ġdif": 1294,
      "ower": 1295,
      "ology": 1296,
      "Ġkashi": 1297,
      "Ġmay": 1298,
      "ection": 1299,
      "ution": 1300,
      "ily": 1301,
      "Ġmuh": 1302,
      "fl": 1303,
      "son": 1304,
      "Ġwakil": 1305,
      "Ġmutum": 1306,
      "agor": 1307,
      "amba": 1308,
      "ĠGhana": 1309,
      "ini": 1310,
      "Ġ2016": 1311,
      "yyun": 1312,
      "ident": 1313,
      "Ġqu": 1314,
      "ĠAfr": 1315,
      "ists": 1316,
      "port": 1317,
      "Ġ14": 1318,
      "Ġinc": 1319,
      "Ġthere": 1320,
      "Ġbai": 1321,
      "Ġlamb": 1322,
      "Ġkula": 1323,
      "Ġ193": 1324,
      "iru": 1325,
      "Ġlaf": 1326,
      "Ġ2018": 1327,
      "Ġ12": 1328,
      "ĠCol": 1329,
      "aik": 1330,
      "ĠRayayyun": 1331,
      "ĠMut": 1332,
      "awa": 1333,
      "Ġhim": 1334,
      "cy": 1335,
      "yen": 1336,
      "Ġbo": 1337,
      "ĠQ": 1338,
      "orth": 1339,
      "Ġsannan": 1340,
      "Ġyanayi": 1341,
      "Ġ2020": 1342,
      "Ġrashin": 1343,
      "ĠMajalisar": 1344,
      "Ġhaifar": 1345,
      "ĠHar": 1346,
      "ĠDaga": 1347,
      "io": 1348,
      "fa": 1349,
      "Ġher": 1350,
      "add": 1351,
      "she": 1352,
      "hip": 1353,
      "Ġhank": 1354,
      "ublic": 1355,
      "atu": 1356,
      "Ġ2015": 1357,
      "Ġbinc": 1358,
      "ĠKo": 1359,
      "Ġsec": 1360,
      "Ġpo": 1361,
      "lob": 1362,
      "Ġpres": 1363,
      "Ġdama": 1364,
      "Ġpos": 1365,
      "ected": 1366,
      "ĠDis": 1367,
      "Ġdamar": 1368,
      "Ġkafin": 1369,
      "Ġlokaci": 1370,
      "red": 1371,
      "itta": 1372,
      "ain": 1373,
      "Ġmusamman": 1374,
      "raph": 1375,
      "Ġfound": 1376,
      "Ġunder": 1377,
      "ĠMuh": 1378,
      "Ġbirnin": 1379,
      "kiya": 1380,
      "lex": 1381,
      "ĠPh": 1382,
      "ĠBur": 1383,
      "mp": 1384,
      "Ġ2011": 1385,
      "Ġduring": 1386,
      "unci": 1387,
      "angu": 1388,
      "Ġsiyasa": 1389,
      "ĠTr": 1390,
      "ĠJohn": 1391,
      "Ġins": 1392,
      "ĠBo": 1393,
      "Ġyears": 1394,
      "ollow": 1395,
      "ty": 1396,
      "ona": 1397,
      "Ġthrough": 1398,
      "ĠChr": 1399,
      "Ġfl": 1400,
      "ĠLa": 1401,
      "ee": 1402,
      "Ġcontr": 1403,
      "alli": 1404,
      "Ġsystem": 1405,
      "ayya": 1406,
      "Ġgur": 1407,
      "atta": 1408,
      "ĠMal": 1409,
      "ika": 1410,
      "ilar": 1411,
      "Ġirin": 1412,
      "Ġakwai": 1413,
      "ĠÉĹin": 1414,
      "ula": 1415,
      "Ġjami": 1416,
      "Ġabout": 1417,
      "Ġkir": 1418,
      "onom": 1419,
      "ural": 1420,
      "ures": 1421,
      "gan": 1422,
      "ished": 1423,
      "ibiyar": 1424,
      "Ġ11": 1425,
      "ĠEur": 1426,
      "arki": 1427,
      "ger": 1428,
      "uss": 1429,
      "Ġtsoh": 1430,
      "Ġcall": 1431,
      "Ġaga": 1432,
      "ĠNij": 1433,
      "eld": 1434,
      "Ġint": 1435,
      "Ġ2014": 1436,
      "iye": 1437,
      "ĠHany": 1438,
      "era": 1439,
      "ating": 1440,
      "Ġgarin": 1441,
      "ĠBen": 1442,
      "ros": 1443,
      "Ġwhere": 1444,
      "Ġnas": 1445,
      "ternational": 1446,
      "orin": 1447,
      "istan": 1448,
      "ĠJihar": 1449,
      "Ġdaban": 1450,
      "els": 1451,
      "Ġ)": 1452,
      "Ġ2017": 1453,
      "Ġ13": 1454,
      "Ġinv": 1455,
      "Ġled": 1456,
      "oman": 1457,
      "ife": 1458,
      "ĠSch": 1459,
      "201": 1460,
      "ĠEl": 1461,
      "ĠCl": 1462,
      "Ġsupp": 1463,
      "Ġcutar": 1464,
      "ise": 1465,
      "Ġknown": 1466,
      "ĠÉĹa": 1467,
      "Ġwar": 1468,
      "Ġ2021": 1469,
      "ĠAustr": 1470,
      "uce": 1471,
      "ix": 1472,
      "Ġfito": 1473,
      "Ġmulkin": 1474,
      "oot": 1475,
      "ikway": 1476,
      "ĠWannan": 1477,
      "ese": 1478,
      "Ġ2010": 1479,
      "ert": 1480,
      "ĠIb": 1481,
      "its": 1482,
      "Ġdig": 1483,
      "stit": 1484,
      "ĠDe": 1485,
      "arshen": 1486,
      "Ġkwaikway": 1487,
      "Ġjagor": 1488,
      "ho": 1489,
      "Ġvari": 1490,
      "Ġhot": 1491,
      "ĠTari": 1492,
      "Ġset": 1493,
      "velop": 1494,
      "Ġest": 1495,
      "Ġprov": 1496,
      "Ġban": 1497,
      "Ġob": 1498,
      "ks": 1499,
      "Ġuse": 1500,
      "ĠIng": 1501,
      "ĠWar": 1502,
      "tem": 1503,
      "mma": 1504,
      "wai": 1505,
      "Ġdevelop": 1506,
      "Ġfe": 1507,
      "ĠBabban": 1508,
      "Ġmaza": 1509,
      "Ġkama": 1510,
      "bi": 1511,
      "Ġkaratun": 1512,
      "Ġbar": 1513,
      "Ġabo": 1514,
      "ale": 1515,
      "ĠOk": 1516,
      "Ġtatt": 1517,
      "ĠRay": 1518,
      "Ġtaima": 1519,
      "Ġabubuwan": 1520,
      "Ġgovern": 1521,
      "Ġsur": 1522,
      "ex": 1523,
      "very": 1524,
      "Ġyau": 1525,
      "Ġ2013": 1526,
      "ĠYan": 1527,
      "outh": 1528,
      "Ġhannu": 1529,
      "als": 1530,
      "lin": 1531,
      "ĠCan": 1532,
      "Ġ:": 1533,
      "aro": 1534,
      "ision": 1535,
      "Ġcol": 1536,
      "ayen": 1537,
      "Ġexp": 1538,
      "ĠMusul": 1539,
      "cce": 1540,
      "Ġayyukan": 1541,
      "Ġhukumar": 1542,
      "Ġ2012": 1543,
      "ĠII": 1544,
      "ĠCo": 1545,
      "ered": 1546,
      "ĠNational": 1547,
      "owever": 1548,
      "Ġgar": 1549,
      "ĠBir": 1550,
      "ĠEnglish": 1551,
      "Ġag": 1552,
      "cent": 1553,
      "iversity": 1554,
      "ĠMat": 1555,
      "Ġwrit": 1556,
      "Ġhist": 1557,
      "Ġtaf": 1558,
      "Ġcar": 1559,
      "imes": 1560,
      "Ġed": 1561,
      "Ġgas": 1562,
      "ange": 1563,
      "Ġhada": 1564,
      "ĠIr": 1565,
      "Ġbi": 1566,
      "wararr": 1567,
      "be": 1568,
      "Ġthem": 1569,
      "idd": 1570,
      "eren": 1571,
      "ĠAre": 1572,
      "ĠKwa": 1573,
      "Ġkira": 1574,
      "ĠComm": 1575,
      "ÆĻi": 1576,
      "Ġkim": 1577,
      "the": 1578,
      "Ġmasana": 1579,
      "ically": 1580,
      "ola": 1581,
      "Ġcentury": 1582,
      "arkon": 1583,
      "Ġzaman": 1584,
      "ĠGu": 1585,
      "Ġmutanen": 1586,
      "Ġno": 1587,
      "ived": 1588,
      "Ġthese": 1589,
      "Ġing": 1590,
      "iwa": 1591,
      "Ġkusan": 1592,
      "ather": 1593,
      "ica": 1594,
      "ause": 1595,
      "Ġart": 1596,
      "yn": 1597,
      "Ġtake": 1598,
      "ague": 1599,
      "ĠGr": 1600,
      "ium": 1601,
      "Ġfollow": 1602,
      "Ġmajalisar": 1603,
      "uke": 1604,
      "Ġ2007": 1605,
      "ĠHanyoyin": 1606,
      "ased": 1607,
      "ĠHuk": 1608,
      "Ġstud": 1609,
      "ĠEx": 1610,
      "Ġnumber": 1611,
      "Ġwurin": 1612,
      "ually": 1613,
      "Ġagain": 1614,
      "aff": 1615,
      "ull": 1616,
      "Ġkwallon": 1617,
      "Ġwadanda": 1618,
      "alib": 1619,
      "ĠGe": 1620,
      "mal": 1621,
      "ĠChrist": 1622,
      "mala": 1623,
      "ĠJana": 1624,
      "Ġdir": 1625,
      "Ġend": 1626,
      "Ġyanayin": 1627,
      "Ġadd": 1628,
      "ÉĹi": 1629,
      "arar": 1630,
      "ĠBritish": 1631,
      "ible": 1632,
      "Ġkwaikwayo": 1633,
      "Ġlashe": 1634,
      "Ġpeople": 1635,
      "Ġ192": 1636,
      "Ġ2009": 1637,
      "Ġloc": 1638,
      "Ġhankali": 1639,
      "ĠBar": 1640,
      "iver": 1641,
      "Ġ2008": 1642,
      "tant": 1643,
      "Ġidan": 1644,
      "Ġkare": 1645,
      "Ġwell": 1646,
      "Ġincluding": 1647,
      "Ġpla": 1648,
      "ukar": 1649,
      "aman": 1650,
      "ĠAng": 1651,
      "Ġlambar": 1652,
      "ted": 1653,
      "rop": 1654,
      "ley": 1655,
      "ubu": 1656,
      "umma": 1657,
      "ĠWas": 1658,
      "ĠKudu": 1659,
      "ĠWorld": 1660,
      "Ġmade": 1661,
      "ĠDo": 1662,
      "ware": 1663,
      "Ġkofin": 1664,
      "Ġcap": 1665,
      "ĠBe": 1666,
      "ĠSat": 1667,
      "Ġkara": 1668,
      "Ġbeing": 1669,
      "lim": 1670,
      "Ġmalla": 1671,
      "ĠMan": 1672,
      "Ġtra": 1673,
      "ĠÉĵ": 1674,
      "ĠEurope": 1675,
      "yya": 1676,
      "Ġkawai": 1677,
      "Ġsign": 1678,
      "Ġjar": 1679,
      "Ġnasara": 1680,
      "Ġsuke": 1681,
      "Ġeff": 1682,
      "Ġpar": 1683,
      "ku": 1684,
      "ench": 1685,
      "Ġkammala": 1686,
      "Ġwhile": 1687,
      "gy": 1688,
      "ional": 1689,
      "ĠSc": 1690,
      "let": 1691,
      "Ġserv": 1692,
      "ams": 1693,
      "ants": 1694,
      "Ġform": 1695,
      "bers": 1696,
      "ograph": 1697,
      "ont": 1698,
      "Ġlafiya": 1699,
      "Ġkasuwan": 1700,
      "ene": 1701,
      "cial": 1702,
      "Ġki": 1703,
      "ĠTurai": 1704,
      "iger": 1705,
      "Ġfasa": 1706,
      "owane": 1707,
      "Ġtabb": 1708,
      "Ġlangu": 1709,
      "ĠChin": 1710,
      "ĠTar": 1711,
      "ĠÆ´": 1712,
      "Ġkusa": 1713,
      "ĠâĢĺ": 1714,
      "cept": 1715,
      "Ġthree": 1716,
      "aih": 1717,
      "Ġarz": 1718,
      "Ġlater": 1719,
      "ians": 1720,
      "ÉĹin": 1721,
      "icin": 1722,
      "Ġboth": 1723,
      "Ġson": 1724,
      "Ġthen": 1725,
      "que": 1726,
      "esp": 1727,
      "Ġarewa": 1728,
      "Ġaddin": 1729,
      "Ġgabatar": 1730,
      "fore": 1731,
      "ility": 1732,
      "Ġcalled": 1733,
      "tic": 1734,
      "Ġmon": 1735,
      "Ġmahaif": 1736,
      "daban": 1737,
      "uki": 1738,
      "Ġgwamnatin": 1739,
      "Ġgroup": 1740,
      "enn": 1741,
      "Ġent": 1742,
      "urr": 1743,
      "Ġhigh": 1744,
      "igar": 1745,
      "uct": 1746,
      "Ġmain": 1747,
      "Ġdaji": 1748,
      "Ġdiffer": 1749,
      "Ġsim": 1750,
      "Ġkowa": 1751,
      "lah": 1752,
      "fan": 1753,
      "ĠTun": 1754,
      "Ġpolit": 1755,
      "Ġrik": 1756,
      "Ġkwam": 1757,
      "elf": 1758,
      "Ġbl": 1759,
      "arak": 1760,
      "ĠAbd": 1761,
      "Ġbecame": 1762,
      "ature": 1763,
      "Ġkwan": 1764,
      "ects": 1765,
      "Ġser": 1766,
      "Ġsani": 1767,
      "ĠYork": 1768,
      "Ġ100": 1769,
      "my": 1770,
      "Ġworld": 1771,
      "ral": 1772,
      "ized": 1773,
      "ulation": 1774,
      "ĠStates": 1775,
      "Ġcity": 1776,
      "ude": 1777,
      "lack": 1778,
      "Ġyamma": 1779,
      "ido": 1780,
      "Ġkwall": 1781,
      "ges": 1782,
      "ĠCar": 1783,
      "Ġsos": 1784,
      "Ġmakarantar": 1785,
      "ital": 1786,
      "ĠLeg": 1787,
      "ĠArewa": 1788,
      "Ġgwamnati": 1789,
      "Ġwur": 1790,
      "Ġorig": 1791,
      "Ġ2006": 1792,
      "ject": 1793,
      "erson": 1794,
      "com": 1795,
      "Ġsosai": 1796,
      "Ġik": 1797,
      "ety": 1798,
      "Ġdal": 1799,
      "Ġair": 1800,
      "Ġneman": 1801,
      "ives": 1802,
      "Ġany": 1803,
      "Ġcre": 1804,
      "Ġmin": 1805,
      "Ġbel": 1806,
      "Ġ25": 1807,
      "Ġwe": 1808,
      "ungiyoyin": 1809,
      "Ġgina": 1810,
      "fe": 1811,
      "jejen": 1812,
      "ball": 1813,
      "ft": 1814,
      "Ġzar": 1815,
      "Ġ[": 1816,
      "yl": 1817,
      "Ġtal": 1818,
      "Ġsing": 1819,
      "Ġfam": 1820,
      "ĠMaris": 1821,
      "ĠAnd": 1822,
      "ĠAgus": 1823,
      "ps": 1824,
      "ĠGab": 1825,
      "Ġfus": 1826,
      "Ġearly": 1827,
      "Ġsunan": 1828,
      "hem": 1829,
      "ĠHukumar": 1830,
      "ĠPar": 1831,
      "iti": 1832,
      "ĠDan": 1833,
      "Ġlabar": 1834,
      "ier": 1835,
      "Ġlab": 1836,
      "Ġmaso": 1837,
      "kiyar": 1838,
      "idaj": 1839,
      "ets": 1840,
      "mai": 1841,
      "irar": 1842,
      "ined": 1843,
      "Ġbiyar": 1844,
      "Ġass": 1845,
      "ĠSan": 1846,
      "Ġalb": 1847,
      "Ġdr": 1848,
      "Ġilimi": 1849,
      "ðŁ": 1850,
      "ĠGwamn": 1851,
      "ahot": 1852,
      "Ġgovernment": 1853,
      "Ġbr": 1854,
      "ĠFaransa": 1855,
      "Ġjirgin": 1856,
      "ĠAustral": 1857,
      "idar": 1858,
      "kun": 1859,
      "ĠFrench": 1860,
      "Ġgwa": 1861,
      "Ġ0": 1862,
      "erman": 1863,
      "illion": 1864,
      "Ġimp": 1865,
      "Ġtsohon": 1866,
      "ĠYul": 1867,
      "ĠEd": 1868,
      "oro": 1869,
      "ouse": 1870,
      "asha": 1871,
      "10": 1872,
      "uman": 1873,
      "Ġkark": 1874,
      "Ġgw": 1875,
      "Ġstate": 1876,
      "ĠAll": 1877,
      "oka": 1878,
      "mba": 1879,
      "Ġrep": 1880,
      "ĠKar": 1881,
      "Ġlead": 1882,
      "17": 1883,
      "Ġcika": 1884,
      "ĠUniversity": 1885,
      "Ġoper": 1886,
      "ently": 1887,
      "ble": 1888,
      "Ġdake": 1889,
      "199": 1890,
      "Ġgaban": 1891,
      "urch": 1892,
      "Ġ30": 1893,
      "imman": 1894,
      "BC": 1895,
      "hern": 1896,
      "ĠRo": 1897,
      "Ġpartic": 1898,
      "gen": 1899,
      "ially": 1900,
      "Ġsecond": 1901,
      "Ġred": 1902,
      "Ġtawa": 1903,
      "ĠSatum": 1904,
      "ĠðŁ": 1905,
      "ito": 1906,
      "ugu": 1907,
      "Ġann": 1908,
      "Ġyanki": 1909,
      "Ġkashe": 1910,
      "ages": 1911,
      "Ġmak": 1912,
      "Ġcontin": 1913,
      "of": 1914,
      "Ġkulob": 1915,
      "ute": 1916,
      "Ġsever": 1917,
      "Ġter": 1918,
      "ru": 1919,
      "Ġsame": 1920,
      "kara": 1921,
      "ĠAh": 1922,
      "Ġrubuta": 1923,
      "Ġfarkon": 1924,
      "ĠKas": 1925,
      "ĠhaÉĵ": 1926,
      "Ġwacce": 1927,
      "adu": 1928,
      "Ġ2000": 1929,
      "atan": 1930,
      "ames": 1931,
      "gest": 1932,
      "ĠMuhamma": 1933,
      "ĠKing": 1934,
      "Ġbang": 1935,
      "rah": 1936,
      "Ġshirya": 1937,
      "yr": 1938,
      "ĠMinis": 1939,
      "Ġkowane": 1940,
      "Ġmasa": 1941,
      "..": 1942,
      "ĠNuwa": 1943,
      "iyoyi": 1944,
      "Ġlong": 1945,
      "inc": 1946,
      "ĠKh": 1947,
      "arac": 1948,
      "Ġtarihi": 1949,
      "taniya": 1950,
      "ĠhaÆĻ": 1951,
      "Ġfitar": 1952,
      "Ġ/": 1953,
      "ony": 1954,
      "eng": 1955,
      "Ġyabo": 1956,
      "ĠAyy": 1957,
      "Ġruwan": 1958,
      "ĠWh": 1959,
      "Ġgeneral": 1960,
      "Ġzaben": 1961,
      "ilu": 1962,
      "Ġkal": 1963,
      "Ġtyp": 1964,
      "Ġsch": 1965,
      "ĠShugaban": 1966,
      "ĠPol": 1967,
      "wana": 1968,
      "vent": 1969,
      "Ġwat": 1970,
      "ĠBl": 1971,
      "ĠRe": 1972,
      "ĠInternational": 1973,
      "Ġoften": 1974,
      "iod": 1975,
      "Ġexamp": 1976,
      "ĠKano": 1977,
      "oshi": 1978,
      "ĠFab": 1979,
      "Ġmanuf": 1980,
      "led": 1981,
      "ices": 1982,
      "Ġbayar": 1983,
      "Ġmet": 1984,
      "ĠOkto": 1985,
      "Ġrayuwa": 1986,
      "ĠMai": 1987,
      "Ġshekarun": 1988,
      "Ġshawar": 1989,
      "ĠAir": 1990,
      "ori": 1991,
      "Ġret": 1992,
      "Ġec": 1993,
      "ccess": 1994,
      "Ġri": 1995,
      "Ġfass": 1996,
      "kamakon": 1997,
      "jiya": 1998,
      "Ġ21": 1999,
      "Ġcommon": 2000,
      "ĠCoun": 2001,
      "Ġgr": 2002,
      "Ġshari": 2003,
      "Ġgidaj": 2004,
      "Ġkakar": 2005,
      "mall": 2006,
      "ĠMata": 2007,
      "ze": 2008,
      "ĠNiger": 2009,
      "ĠPa": 2010,
      "Ġjerin": 2011,
      "Ġfina": 2012,
      "Ġtabbatar": 2013,
      "ĠSe": 2014,
      "arshe": 2015,
      "Ġamince": 2016,
      "til": 2017,
      "ĠItal": 2018,
      "Ġmed": 2019,
      "Ġbayanan": 2020,
      "Ġtall": 2021,
      "Ġ2005": 2022,
      "utt": 2023,
      "Ġfilm": 2024,
      "Ġmur": 2025,
      "Ġgu": 2026,
      "sp": 2027,
      "Ġtattalin": 2028,
      "oni": 2029,
      "Ġtaimaka": 2030,
      "Ã¡": 2031,
      "ĠwaÉĹannan": 2032,
      "ress": 2033,
      "tance": 2034,
      "ording": 2035,
      "ti": 2036,
      "Ġjin": 2037,
      "ĠIngila": 2038,
      "ĠhaÉĹi": 2039,
      "Ġocc": 2040,
      "Ġmov": 2041,
      "ĠPart": 2042,
      "ĠCibiyar": 2043,
      "Ġmuhalli": 2044,
      "me": 2045,
      "Ġduba": 2046,
      "ishin": 2047,
      "Ġmagana": 2048,
      "Ġshirin": 2049,
      "Ġkansu": 2050,
      "Ġdep": 2051,
      "Ġmajor": 2052,
      "ross": 2053,
      "Ġkamfanin": 2054,
      "Ġlaw": 2055,
      "osed": 2056,
      "ĠDuk": 2057,
      "ged": 2058,
      "Ġown": 2059,
      "ccen": 2060,
      "Ġagainst": 2061,
      "ĠSouth": 2062,
      "Ġkaratu": 2063,
      "Ġconsid": 2064,
      "Ġ&": 2065,
      "obi": 2066,
      "ĠSha": 2067,
      "Ġaz": 2068,
      "Ġfr": 2069,
      "gu": 2070,
      "wara": 2071,
      "Ġlin": 2072,
      "Ġdesign": 2073,
      "ĠAlex": 2074,
      "ĠhaÉĹin": 2075,
      "Ġyear": 2076,
      "Ġkarkashin": 2077,
      "ĠPl": 2078,
      "amed": 2079,
      "iet": 2080,
      "lejin": 2081,
      "umm": 2082,
      "Ġabinci": 2083,
      "ĠChar": 2084,
      "though": 2085,
      "ode": 2086,
      "Ġresp": 2087,
      "Ġbisa": 2088,
      "ĠÆĻa": 2089,
      "ful": 2090,
      "ner": 2091,
      "ning": 2092,
      "Ġcould": 2093,
      "Ġtsawon": 2094,
      "ector": 2095,
      "ĠFabra": 2096,
      "ĠLeague": 2097,
      "ĠBel": 2098,
      "Ġilimin": 2099,
      "ason": 2100,
      "cient": 2101,
      "usa": 2102,
      "Ġdog": 2103,
      "cess": 2104,
      "orr": 2105,
      "soci": 2106,
      "agen": 2107,
      "ĠUS": 2108,
      "Ġ24": 2109,
      "ĠBay": 2110,
      "ĠBer": 2111,
      "xt": 2112,
      "ĠÆĻas": 2113,
      "obin": 2114,
      "Ġcharac": 2115,
      "lands": 2116,
      "Ġbro": 2117,
      "ĠAc": 2118,
      "The": 2119,
      "Ġincre": 2120,
      "saka": 2121,
      "Ġbefore": 2122,
      "Ġfour": 2123,
      "Ġsince": 2124,
      "ator": 2125,
      "Ġhaifi": 2126,
      "Ġmiliyan": 2127,
      "yd": 2128,
      "Ġsanar": 2129,
      "iken": 2130,
      "ondon": 2131,
      "bon": 2132,
      "ĠFil": 2133,
      "other": 2134,
      "Ġrema": 2135,
      "Ġju": 2136,
      "ici": 2137,
      "Ġ$": 2138,
      "Ġcountry": 2139,
      "ĠGerman": 2140,
      "Ġtara": 2141,
      "Ġ190": 2142,
      "Ġ2004": 2143,
      "Ġhalin": 2144,
      "ĠCal": 2145,
      "Ġname": 2146,
      "Ġsmall": 2147,
      "ÆĻashin": 2148,
      "mu": 2149,
      "Ġkudu": 2150,
      "ĠNijeriya": 2151,
      "ĠWill": 2152,
      "ves": 2153,
      "Ġyara": 2154,
      "oph": 2155,
      "ino": 2156,
      "uthor": 2157,
      "Ġwill": 2158,
      "Ġland": 2159,
      "12": 2160,
      "16": 2161,
      "omi": 2162,
      "15": 2163,
      "Ġbincike": 2164,
      "wanda": 2165,
      "hu": 2166,
      "ÉĹe": 2167,
      "reen": 2168,
      "Ġhukum": 2169,
      "Ġprogr": 2170,
      "ÆĻar": 2171,
      "cen": 2172,
      "ally": 2173,
      "omen": 2174,
      "ectr": 2175,
      "Ġseveral": 2176,
      "Ġ2022": 2177,
      "ĠYar": 2178,
      "ĠCent": 2179,
      "Ġtarihin": 2180,
      "ĠAcc": 2181,
      "ĠHaif": 2182,
      "Ġlik": 2183,
      "ĠLegas": 2184,
      "Ġtaron": 2185,
      "Ġeach": 2186,
      "Ġfiye": 2187,
      "Ġmawa": 2188,
      "Ġrahot": 2189,
      "yal": 2190,
      "Ġadam": 2191,
      "ights": 2192,
      "ato": 2193,
      "eter": 2194,
      "akar": 2195,
      "ively": 2196,
      "ays": 2197,
      "Ġkasuwanci": 2198,
      "aft": 2199,
      "Ġmutu": 2200,
      "ĠKam": 2201,
      "ĠDuba": 2202,
      "urg": 2203,
      "jan": 2204,
      "irun": 2205,
      "Ġkansa": 2206,
      "Ġ1990": 2207,
      "crib": 2208,
      "wun": 2209,
      "Ġpublic": 2210,
      "Ġnada": 2211,
      "ival": 2212,
      "ission": 2213,
      "ĠLondon": 2214,
      "ashi": 2215,
      "vers": 2216,
      "ĠAug": 2217,
      "ĠShi": 2218,
      "ĠhaÉĵaka": 2219,
      "Ġnu": 2220,
      "Ġkud": 2221,
      "gi": 2222,
      "Ġext": 2223,
      "Ġgano": 2224,
      "DP": 2225,
      "ĠHowever": 2226,
      "Ġtawagar": 2227,
      "Ġyanke": 2228,
      "amban": 2229,
      "ĠSal": 2230,
      "ĠCity": 2231,
      "arorin": 2232,
      "ows": 2233,
      "Ġsal": 2234,
      "olin": 2235,
      "Ġbecause": 2236,
      "Ġhannun": 2237,
      "ĠNa": 2238,
      "ĠBC": 2239,
      "Ġexample": 2240,
      "ĠÆĻarÆĻashin": 2241,
      "ille": 2242,
      "by": 2243,
      "âĢĶ": 2244,
      "Ġinclude": 2245,
      "pres": 2246,
      "pen": 2247,
      "Ġif": 2248,
      "ushe": 2249,
      "Ġdaida": 2250,
      "ĠThere": 2251,
      "Ġwasanni": 2252,
      "Ġnon": 2253,
      "Ġfannin": 2254,
      "va": 2255,
      "ements": 2256,
      "ander": 2257,
      "ĠNuwamba": 2258,
      "unshi": 2259,
      "ĠRep": 2260,
      "Ġmemba": 2261,
      "Ġasali": 2262,
      "ĠMakar": 2263,
      "Ġuntil": 2264,
      "Ġlarge": 2265,
      "che": 2266,
      "Ġsupport": 2267,
      "ided": 2268,
      "ĠTarihi": 2269,
      "Ġshug": 2270,
      "itions": 2271,
      "aron": 2272,
      "14": 2273,
      "ista": 2274,
      "uts": 2275,
      "Ġasalin": 2276,
      "mation": 2277,
      "mb": 2278,
      "ĠAdam": 2279,
      "ĠBro": 2280,
      "Ġzaune": 2281,
      "Ġmana": 2282,
      "ĠX": 2283,
      "ired": 2284,
      "ili": 2285,
      "Ġcult": 2286,
      "Ġtrad": 2287,
      "ĠNorth": 2288,
      "esa": 2289,
      "Ġmama": 2290,
      "Ġhudu": 2291,
      "Ġvi": 2292,
      "oss": 2293,
      "ved": 2294,
      "ago": 2295,
      "Ġganin": 2296,
      "apan": 2297,
      "Ġmatakin": 2298,
      "Ġestab": 2299,
      "Ġfur": 2300,
      "iam": 2301,
      "Ġinfl": 2302,
      "Ġhakan": 2303,
      "Ġdisc": 2304,
      "ĠLab": 2305,
      "Ġequ": 2306,
      "Ġgarga": 2307,
      "ootball": 2308,
      "insa": 2309,
      "Ġleda": 2310,
      "An": 2311,
      "Ġ1999": 2312,
      "jojin": 2313,
      "Ġdifferent": 2314,
      "ĠIndiya": 2315,
      "alth": 2316,
      "ĠAp": 2317,
      "Ġmulki": 2318,
      "Ġ2003": 2319,
      "ananan": 2320,
      "iyo": 2321,
      "Ġlabarai": 2322,
      "ule": 2323,
      "ified": 2324,
      "Ġdoko": 2325,
      "ĠComp": 2326,
      "ĠKya": 2327,
      "ĠDav": 2328,
      "Yan": 2329,
      "ĠSab": 2330,
      "itary": 2331,
      "ĠIlim": 2332,
      "ised": 2333,
      "ĠDon": 2334,
      "50": 2335,
      "Ġ23": 2336,
      "Ġtsara": 2337,
      "Ġbook": 2338,
      "ides": 2339,
      "Ġperiod": 2340,
      "Ġkyau": 2341,
      "Ġback": 2342,
      "ments": 2343,
      "ĠYana": 2344,
      "ĠHist": 2345,
      "ences": 2346,
      "omet": 2347,
      "Ġshafi": 2348,
      "ĠOktoba": 2349,
      "ox": 2350,
      "tt": 2351,
      "Ġgoma": 2352,
      "ĠAgusta": 2353,
      "ĠWest": 2354,
      "Ġsuccess": 2355,
      "ĠLib": 2356,
      "Ġrecord": 2357,
      "Ġcommun": 2358,
      "ste": 2359,
      "Ġruk": 2360,
      "Ġrage": 2361,
      "ison": 2362,
      "rew": 2363,
      "echn": 2364,
      "Ġhana": 2365,
      "ĠDem": 2366,
      "ĠMayu": 2367,
      "iev": 2368,
      "Ġrefer": 2369,
      "ĠGree": 2370,
      "Ġdigiri": 2371,
      "Ġcr": 2372,
      "antu": 2373,
      "ĠÆĻwararr": 2374,
      "anu": 2375,
      "ofin": 2376,
      "Ġdeath": 2377,
      "unta": 2378,
      "Ġkasashen": 2379,
      "ĠSer": 2380,
      "ĠLar": 2381,
      "ott": 2382,
      "Ġpower": 2383,
      "ĠSw": 2384,
      "FA": 2385,
      "gine": 2386,
      "Ġclass": 2387,
      "ĠPort": 2388,
      "Ġkarshe": 2389,
      "ĠBra": 2390,
      "ĠJapan": 2391,
      "ĠYamma": 2392,
      "wards": 2393,
      "attle": 2394,
      "ones": 2395,
      "Ġval": 2396,
      "Äģ": 2397,
      "ĠGeor": 2398,
      "umb": 2399,
      "row": 2400,
      "Ġsabon": 2401,
      "ĠSun": 2402,
      "arkokin": 2403,
      "Ġjiki": 2404,
      "aniya": 2405,
      "ĠSatumba": 2406,
      "ĠMic": 2407,
      "press": 2408,
      "Ġresult": 2409,
      "ving": 2410,
      "Ġfata": 2411,
      "lymp": 2412,
      "ĠHaifaff": 2413,
      "ĠâĢľ": 2414,
      "ĠMo": 2415,
      "jejeniyar": 2416,
      "lor": 2417,
      "Ġfas": 2418,
      "Ġwasannin": 2419,
      "ogin": 2420,
      "Ġnear": 2421,
      "ple": 2422,
      "Ġeconom": 2423,
      "ĠKwam": 2424,
      "Ġgreat": 2425,
      "Ġcewar": 2426,
      "Ġsakamakon": 2427,
      "unk": 2428,
      "shir": 2429,
      "arch": 2430,
      "inci": 2431,
      "Ġsol": 2432,
      "ĠOlymp": 2433,
      "Ġfasaha": 2434,
      "iving": 2435,
      "Ġhu": 2436,
      "Ġinganta": 2437,
      "ĠMad": 2438,
      "ĠÆ´an": 2439,
      "ham": 2440,
      "tra": 2441,
      "min": 2442,
      "Ġbabbar": 2443,
      "ĠHaifaffun": 2444,
      "hur": 2445,
      "ological": 2446,
      "ĠJanairu": 2447,
      "Ġyank": 2448,
      "Ġrequ": 2449,
      "Ġbikin": 2450,
      "finai": 2451,
      "ĠGen": 2452,
      "ĠDisamba": 2453,
      "Ġshida": 2454,
      "13": 2455,
      "Ġrayuwar": 2456,
      "Ġauthor": 2457,
      "ĠFir": 2458,
      "ĠMah": 2459,
      "ĠJul": 2460,
      ".,": 2461,
      "ĠMed": 2462,
      "rodu": 2463,
      "Ġaround": 2464,
      "Ġkawo": 2465,
      "Ġgund": 2466,
      "Ġzo": 2467,
      "ĠKim": 2468,
      "Ġada": 2469,
      "Ġnufin": 2470,
      "Ġ22": 2471,
      "Ġpopulation": 2472,
      "ĠYuni": 2473,
      "ĠAugust": 2474,
      "form": 2475,
      "ament": 2476,
      "ĠKwalejin": 2477,
      "ĠAbu": 2478,
      "adem": 2479,
      "co": 2480,
      "Ġdawo": 2481,
      "Ġoffic": 2482,
      "idai": 2483,
      "ĠMusulunci": 2484,
      "illa": 2485,
      "Ġsak": 2486,
      "Ġfun": 2487,
      "ĠNe": 2488,
      "Ġ1980": 2489,
      "Ġsir": 2490,
      "dom": 2491,
      "Ġwuraren": 2492,
      "Ġyawancin": 2493,
      "ĠChina": 2494,
      "ĠBas": 2495,
      "Ġthough": 2496,
      "anai": 2497,
      "ots": 2498,
      "epend": 2499,
      "udi": 2500,
      "ĠhaÆĻÆĻin": 2501,
      "ĠKan": 2502,
      "198": 2503,
      "Ġlife": 2504,
      "ĠAbdul": 2505,
      "rica": 2506,
      "Ġimpor": 2507,
      "ried": 2508,
      "anya": 2509,
      "omb": 2510,
      "evel": 2511,
      "Ġmusic": 2512,
      "ĠTe": 2513,
      "ography": 2514,
      "ania": 2515,
      "afe": 2516,
      "Ġgargajiya": 2517,
      "Ġleg": 2518,
      "Ġ2001": 2519,
      "Ġbased": 2520,
      "Ġro": 2521,
      "ĠOl": 2522,
      "atic": 2523,
      "ĠWa": 2524,
      "Ġ2002": 2525,
      "Ġmark": 2526,
      "Ġlanguage": 2527,
      "Ġarea": 2528,
      "ĠAfter": 2529,
      "Ġoriginal": 2530,
      "Ġcontinu": 2531,
      "Ġdid": 2532,
      "Ġ189": 2533,
      "Ġseries": 2534,
      "ody": 2535,
      "ting": 2536,
      "orts": 2537,
      "ĠAllah": 2538,
      "ended": 2539,
      "ĠEar": 2540,
      "atawa": 2541,
      "arci": 2542,
      "estern": 2543,
      "Ġyakin": 2544,
      "ĠParty": 2545,
      "ĠGasar": 2546,
      "Ġprocess": 2547,
      "ĠAfrilu": 2548,
      "ness": 2549,
      "Ġdiv": 2550,
      "ĠÆĻarshe": 2551,
      "ĠKamar": 2552,
      "ĠArab": 2553,
      "ract": 2554,
      "iven": 2555,
      "Ġbuk": 2556,
      "lar": 2557,
      "lo": 2558,
      "ĠCap": 2559,
      "Ġzamani": 2560,
      "Ġ26": 2561,
      "Ġatta": 2562,
      "arautar": 2563,
      "ĠÆĻau": 2564,
      "ĠRuss": 2565,
      "ĠYawan": 2566,
      "ize": 2567,
      "Ġfaf": 2568,
      "ĠMag": 2569,
      "Ġthose": 2570,
      "Ġperson": 2571,
      "ĠTsa": 2572,
      "Ġtan": 2573,
      "âĢĿ": 2574,
      "ids": 2575,
      "Ġbus": 2576,
      "ches": 2577,
      "Ġterm": 2578,
      "Ġmillion": 2579,
      "Ġplayer": 2580,
      "view": 2581,
      "get": 2582,
      "ĠPre": 2583,
      "otun": 2584,
      "Ġappro": 2585,
      "Ġshirye": 2586,
      "Ġnasar": 2587,
      "ĠTsarin": 2588,
      "ĠThey": 2589,
      "Ġarziki": 2590,
      "wood": 2591,
      "ayyar": 2592,
      "Ġamong": 2593,
      "Ġtakarar": 2594,
      "bab": 2595,
      "ero": 2596,
      "SA": 2597,
      "Ġkogin": 2598,
      "ĠSchool": 2599,
      "ards": 2600,
      "Ġposs": 2601,
      "present": 2602,
      "Ġdaidai": 2603,
      "line": 2604,
      "Ġmodern": 2605,
      "Ġlal": 2606,
      "ĠJamus": 2607,
      "ey": 2608,
      "ĠBurtaniya": 2609,
      "ford": 2610,
      "ĠBal": 2611,
      "ternal": 2612,
      "odin": 2613,
      "Ġdescrib": 2614,
      "ĠBy": 2615,
      "Ġlike": 2616,
      "ado": 2617,
      "Ġyayi": 2618,
      "Ġshawarar": 2619,
      "Ġorder": 2620,
      "dan": 2621,
      "ript": 2622,
      "Ġrun": 2623,
      "ututt": 2624,
      "ases": 2625,
      "idge": 2626,
      "hel": 2627,
      "ĠbuÆĻ": 2628,
      "Ġja": 2629,
      "ĠRa": 2630,
      "ĠRob": 2631,
      "Ġdace": 2632,
      "Ġgiz": 2633,
      "Ġwater": 2634,
      "ĠGir": 2635,
      "Ġala": 2636,
      "zz": 2637,
      "Ġ28": 2638,
      "abin": 2639,
      "Ġeven": 2640,
      "Ġbegan": 2641,
      "oli": 2642,
      "ĠHaih": 2643,
      "ured": 2644,
      ",\"": 2645,
      "Ġcoll": 2646,
      "ĠÆĻara": 2647,
      "ÃŃ": 2648,
      "Ġhalarci": 2649,
      "ĠÉĵang": 2650,
      "ĠWani": 2651,
      "Ġ27": 2652,
      "afuka": 2653,
      "air": 2654,
      "ĠBBC": 2655,
      "ĠYuli": 2656,
      "tal": 2657,
      "ĠHis": 2658,
      "issa": 2659,
      "Ġmace": 2660,
      "irÆĻ": 2661,
      "Ġpubl": 2662,
      "han": 2663,
      "Ġkab": 2664,
      "Ġhak": 2665,
      "Ġinflu": 2666,
      "ird": 2667,
      "mawa": 2668,
      "Ġkiya": 2669,
      "ĠSen": 2670,
      "ĠJos": 2671,
      "ikan": 2672,
      "ious": 2673,
      "aukar": 2674,
      "ery": 2675,
      "Ġbabu": 2676,
      "Ġ1970": 2677,
      "Ġtaken": 2678,
      "yancin": 2679,
      "ĠMakarantar": 2680,
      "Ġtem": 2681,
      "Ġappear": 2682,
      "Ġgurbin": 2683,
      "Ġcikak": 2684,
      "assan": 2685,
      "ĠRoman": 2686,
      "Ġmuch": 2687,
      "Ġusing": 2688,
      "Ġsirri": 2689,
      "Ġ1998": 2690,
      "ĠThese": 2691,
      "Ġ50": 2692,
      "Ġrele": 2693,
      "Ġdoka": 2694,
      "unar": 2695,
      "ĠÃ": 2696,
      "ories": 2697,
      "Ġcharacter": 2698,
      "iter": 2699,
      "ĠWal": 2700,
      "Ġstand": 2701,
      "king": 2702,
      "Ġword": 2703,
      "Ġwithin": 2704,
      "ĠMuhammad": 2705,
      "cer": 2706,
      "Ġhanyoyin": 2707,
      "ĠDr": 2708,
      "Ġsl": 2709,
      "ĠAfrica": 2710,
      "ocr": 2711,
      "aniz": 2712,
      "sakaicin": 2713,
      "ĠRef": 2714,
      "ket": 2715,
      "ember": 2716,
      "ĠBu": 2717,
      "Ġmatsal": 2718,
      "Ġhor": 2719,
      "Ġfollowing": 2720,
      "ĠIsra": 2721,
      "Ġprop": 2722,
      "ington": 2723,
      "Ġbirni": 2724,
      "Ġdue": 2725,
      "ician": 2726,
      "ĠMe": 2727,
      "Ġciwon": 2728,
      "PC": 2729,
      "ĠAk": 2730,
      "ĠÉĹaukar": 2731,
      "ittafin": 2732,
      "men": 2733,
      "Ġ1960": 2734,
      "yayya": 2735,
      "ron": 2736,
      "Ġdem": 2737,
      "Ġwakiltar": 2738,
      "Ġzabe": 2739,
      "Ġkarni": 2740,
      "Ġprom": 2741,
      "Ġhistor": 2742,
      "Ġexper": 2743,
      "asu": 2744,
      "ĠAikin": 2745,
      "Ġtransl": 2746,
      "ivil": 2747,
      "Ġvers": 2748,
      "Ġyanar": 2749,
      "Ġdef": 2750,
      "197": 2751,
      "uel": 2752,
      "Ġtit": 2753,
      "read": 2754,
      "ĠCong": 2755,
      "oint": 2756,
      "arkin": 2757,
      "ĠEm": 2758,
      "rain": 2759,
      "Ġspe": 2760,
      "arrafa": 2761,
      "Ġopp": 2762,
      "Ġdam": 2763,
      "Ġkowace": 2764,
      "ines": 2765,
      "ĠKasa": 2766,
      "eration": 2767,
      "ades": 2768,
      "Ġ1996": 2769,
      "Ġcomput": 2770,
      "11": 2771,
      "ven": 2772,
      "inin": 2773,
      "ren": 2774,
      "Ġrag": 2775,
      "eal": 2776,
      "Ġ29": 2777,
      "Ġarr": 2778,
      "ality": 2779,
      "aria": 2780,
      "Ġmataima": 2781,
      "Ġhistory": 2782,
      "Ġrece": 2783,
      "Ġgani": 2784,
      "Ġ1992": 2785,
      "Ġkaf": 2786,
      "ÉĹu": 2787,
      "ĠNigeria": 2788,
      "Ġmis": 2789,
      "ĠMu": 2790,
      "ĠAkwai": 2791,
      "uction": 2792,
      "Ġtel": 2793,
      "day": 2794,
      "Ġstat": 2795,
      "ĠKuma": 2796,
      "Ġsiyas": 2797,
      "Ġdel": 2798,
      "Ġvery": 2799,
      "ÉĹan": 2800,
      "ĠAyyukan": 2801,
      "ĠSam": 2802,
      "Ġmahimman": 2803,
      "ĠAfrican": 2804,
      "ĠTo": 2805,
      "ĠAz": 2806,
      "ĠDavid": 2807,
      "mon": 2808,
      "itional": 2809,
      "Ġschool": 2810,
      "onin": 2811,
      "ĠRayuwar": 2812,
      "do": 2813,
      "Ġsarrafa": 2814,
      "ĠArch": 2815,
      "Ġ1994": 2816,
      "Ġarch": 2817,
      "ues": 2818,
      "ĠÆĻunshi": 2819,
      "ĠkarÉĵ": 2820,
      "assa": 2821,
      "ĠNaz": 2822,
      "Ġmaye": 2823,
      "ĠGa": 2824,
      "ĠÆĻirÆĻ": 2825,
      "ĠShafuka": 2826,
      "ĠCons": 2827,
      "wu": 2828,
      "iness": 2829,
      "Ġadv": 2830,
      "Ġsta": 2831,
      "ĠPer": 2832,
      "attun": 2833,
      "Ġfassarorin": 2834,
      "Ġtashi": 2835,
      "Ġstill": 2836,
      "Ġwuce": 2837,
      "ĠDel": 2838,
      "ĠJerin": 2839,
      "Ġnow": 2840,
      "Ġmallaka": 2841,
      "urs": 2842,
      "Ġbinciken": 2843,
      "ĠHaihuwan": 2844,
      "ĠNov": 2845,
      "ÆĻo": 2846,
      "Ġalong": 2847,
      "Ġdukkan": 2848,
      "ount": 2849,
      "bit": 2850,
      "yle": 2851,
      "Ġkull": 2852,
      "ĠÆĻarshen": 2853,
      "Ġ1993": 2854,
      "Ġlaif": 2855,
      "round": 2856,
      "Ġopen": 2857,
      "Ġpresent": 2858,
      "Ġ;": 2859,
      "Ġfilin": 2860,
      "Ġrana": 2861,
      "Ġallow": 2862,
      "30": 2863,
      "Ġ1997": 2864,
      "rap": 2865,
      "Ġraba": 2866,
      "Ġreturn": 2867,
      "burg": 2868,
      "Ġgo": 2869,
      "ĠBlack": 2870,
      "tries": 2871,
      "jer": 2872,
      "Ġfact": 2873,
      "ĠMc": 2874,
      "ĠAtl": 2875,
      "Ġmembers": 2876,
      "work": 2877,
      "Ġmayar": 2878,
      "Ġshow": 2879,
      "Ġbat": 2880,
      "Ġnational": 2881,
      "Ġway": 2882,
      "ency": 2883,
      "Ġshar": 2884,
      "ĠKir": 2885,
      "Ġant": 2886,
      "ĠSome": 2887,
      "adan": 2888,
      "Ġalif": 2889,
      "aikatar": 2890,
      "emb": 2891,
      "ĠMon": 2892,
      "Ġkwana": 2893,
      "Ġgirman": 2894,
      "antarki": 2895,
      "Ġkaramar": 2896,
      "Ġpopular": 2897,
      "antake": 2898,
      "res": 2899,
      "Ġtsakiyar": 2900,
      "ora": 2901,
      "Ġfin": 2902,
      "lam": 2903,
      "ĠChristian": 2904,
      "ler": 2905,
      "Ġelectr": 2906,
      "Ġconsidered": 2907,
      "ĠhuÉĹu": 2908,
      "ĠMoh": 2909,
      "olution": 2910,
      "ĠAnn": 2911,
      "rahim": 2912,
      "Ġgidaje": 2913,
      "Ġabu": 2914,
      "ĠChurch": 2915,
      "Ġkyawun": 2916,
      "Ã¼": 2917,
      "ites": 2918,
      "ĠSai": 2919,
      "Ġwadda": 2920,
      "Ġnasarar": 2921,
      "ument": 2922,
      "Ġbuild": 2923,
      "ĠkuÉĹi": 2924,
      "Ġplace": 2925,
      "Ġrem": 2926,
      "ĠFC": 2927,
      "sc": 2928,
      "ym": 2929,
      "ĠEuropean": 2930,
      "ĠMil": 2931,
      "ĠBan": 2932,
      "ĠMany": 2933,
      "imar": 2934,
      "ĠZa": 2935,
      "Ġido": 2936,
      "itz": 2937,
      "reed": 2938,
      "lic": 2939,
      "Ġhig": 2940,
      "ĠCro": 2941,
      "Ġgundumar": 2942,
      "Ġzafi": 2943,
      "ky": 2944,
      "lege": 2945,
      "addamar": 2946,
      "ciety": 2947,
      "ense": 2948,
      "ĠShug": 2949,
      "ĠDokar": 2950,
      "ming": 2951,
      "Ġsimilar": 2952,
      "Ġwato": 2953,
      "ĠHakan": 2954,
      "ĠBell": 2955,
      "Ġcomplet": 2956,
      "Ġread": 2957,
      "imat": 2958,
      "Ġhand": 2959,
      "Ġmusul": 2960,
      "Ġ188": 2961,
      "Ġcanza": 2962,
      "Ġfaru": 2963,
      "zil": 2964,
      "ufe": 2965,
      "ĠFabrairu": 2966,
      "Ġchild": 2967,
      "ĠRayuwa": 2968,
      "omas": 2969,
      "Ġabokan": 2970,
      "Ġcrit": 2971,
      "ĠApp": 2972,
      "Ġmatsayi": 2973,
      "kwas": 2974,
      "ĠSak": 2975,
      "ĠAli": 2976,
      "ĠIta": 2977,
      "Ġrepresent": 2978,
      "Ġikon": 2979,
      "25": 2980,
      "Ġline": 2981,
      "ĠLatin": 2982,
      "Ġkwar": 2983,
      "ĠDin": 2984,
      "Ġhuman": 2985,
      "ĠSu": 2986,
      "Ġaddini": 2987,
      "Ġzane": 2988,
      "oung": 2989,
      "Ġlast": 2990,
      "Ġparticular": 2991,
      "Ġâ": 2992,
      "ĠSep": 2993,
      "Ġbakwai": 2994,
      "ĠÆĺungiyar": 2995,
      "Ġpass": 2996,
      "udd": 2997,
      "ĠUnion": 2998,
      "go": 2999,
      "Ã³": 3000,
      "Ġwall": 3001,
      "Ġamb": 3002,
      "attauna": 3003,
      "Ġold": 3004,
      "Ġimportant": 3005,
      "Ġzamantake": 3006,
      "Ġdirect": 3007,
      "iron": 3008,
      "Ġkwallaye": 3009,
      "Ġsamo": 3010,
      "Ġkasuwa": 3011,
      "ungiya": 3012,
      "ungiyoyi": 3013,
      "utu": 3014,
      "Ġ1991": 3015,
      "Ġbamban": 3016,
      "Ġkuri": 3017,
      "Ġbid": 3018,
      "Ġmilitary": 3019,
      "adun": 3020,
      "Ġkoyar": 3021,
      "astern": 3022,
      "ĠOne": 3023,
      "Ġhome": 3024,
      "ĠGod": 3025,
      "Ġshak": 3026,
      "arian": 3027,
      "Ġbakin": 3028,
      "umi": 3029,
      "Ġhead": 3030,
      "okacin": 3031,
      "Ġprogram": 3032,
      "ĠGreek": 3033,
      "cil": 3034,
      "istic": 3035,
      "Ġkanta": 3036,
      "Ġprot": 3037,
      "Ġaure": 3038,
      "ius": 3039,
      "Ġpoint": 3040,
      "awar": 3041,
      "ĠNijar": 3042,
      "Ġkil": 3043,
      "Ġless": 3044,
      "earch": 3045,
      "Ġvis": 3046,
      "Ġcour": 3047,
      "ĠOther": 3048,
      "ilos": 3049,
      "ibut": 3050,
      "Ġeffect": 3051,
      "ĠNo": 3052,
      "craft": 3053,
      "ĠSup": 3054,
      "ĠJama": 3055,
      "Ġattack": 3056,
      "ĠMasar": 3057,
      "ĠPark": 3058,
      "Ġgari": 3059,
      "Ġvarious": 3060,
      "ĠWasu": 3061,
      "anz": 3062,
      "ĠKud": 3063,
      "ummar": 3064,
      "abijin": 3065,
      "uniyar": 3066,
      "ganiz": 3067,
      "ĠÆĻid": 3068,
      "ĠHer": 3069,
      "ling": 3070,
      "iwatar": 3071,
      "ĠNass": 3072,
      "Ġwin": 3073,
      "eft": 3074,
      "ĠUk": 3075,
      "Ġmatasa": 3076,
      "br": 3077,
      "shiryen": 3078,
      "Ġ1995": 3079,
      "lished": 3080,
      "abawa": 3081,
      "ourn": 3082,
      "ilt": 3083,
      "atural": 3084,
      "Ġformer": 3085,
      "ĠRes": 3086,
      "ĠJa": 3087,
      "lement": 3088,
      "oron": 3089,
      "Ġlam": 3090,
      "Ġbayanai": 3091,
      "olic": 3092,
      "truct": 3093,
      "Ġsour": 3094,
      "ĠSec": 3095,
      "60": 3096,
      "Ġgalib": 3097,
      "Ġshawara": 3098,
      "Ġradi": 3099,
      "cience": 3100,
      "Ġspecies": 3101,
      "Ġsignific": 3102,
      "Ġclai": 3103,
      "Ġdokokin": 3104,
      "Ġdefin": 3105,
      "Ġrufe": 3106,
      "ĠMutane": 3107,
      "Ġdaukar": 3108,
      "chi": 3109,
      "Ġkudi": 3110,
      "Ġprof": 3111,
      "Ġriga": 3112,
      "Ġsaid": 3113,
      "Ġyammacin": 3114,
      "Ġstart": 3115,
      "ĠÂ": 3116,
      "andan": 3117,
      "ĠMis": 3118,
      "Ġfamily": 3119,
      "gn": 3120,
      "ering": 3121,
      "ote": 3122,
      "Ġdevelopment": 3123,
      "Ġphys": 3124,
      "Ġident": 3125,
      "Ġpract": 3126,
      "Ġsadar": 3127,
      "ota": 3128,
      "ĠTarihin": 3129,
      "ining": 3130,
      "Ġwhat": 3131,
      "fic": 3132,
      "zo": 3133,
      "Ġdak": 3134,
      "Ġcountries": 3135,
      "Ġharshen": 3136,
      "Ġwatsa": 3137,
      "Ġteam": 3138,
      "Ġsana": 3139,
      "ĠOb": 3140,
      "Ġnaz": 3141,
      "Ġpolitical": 3142,
      "Ġjim": 3143,
      "Ġgwiwa": 3144,
      "ÆĻe": 3145,
      "ĠalaÆĻa": 3146,
      "Ġdole": 3147,
      "ĠCO": 3148,
      "kal": 3149,
      "Ġbil": 3150,
      "udanar": 3151,
      "ops": 3152,
      "itar": 3153,
      "Ġdistr": 3154,
      "ying": 3155,
      "ahim": 3156,
      "shen": 3157,
      "Ġteku": 3158,
      "ĠHol": 3159,
      "Ġlim": 3160,
      "osp": 3161,
      "ethod": 3162,
      "orthern": 3163,
      "Ġkwamitin": 3164,
      "yo": 3165,
      "Ġlargest": 3166,
      "hal": 3167,
      "ĠWilliam": 3168,
      "ĠÆĻananan": 3169,
      "Ġalbum": 3170,
      "Ġobs": 3171,
      "Ġchar": 3172,
      "Ġminis": 3173,
      "Ġdokar": 3174,
      "Ġlantarki": 3175,
      "Ġsakand": 3176,
      "Ġtamb": 3177,
      "ither": 3178,
      "Ġref": 3179,
      "Ġanother": 3180,
      "Ġfootball": 3181,
      "utun": 3182,
      "Ġaiwatar": 3183,
      "isan": 3184,
      "rika": 3185,
      "Ġ40": 3186,
      "Ġindustr": 3187,
      "ĠCr": 3188,
      "lear": 3189,
      "oto": 3190,
      "anga": 3191,
      "Ġactiv": 3192,
      "Ġsada": 3193,
      "terial": 3194,
      "Ġmita": 3195,
      "ĠDuring": 3196,
      "tember": 3197,
      "Ġdare": 3198,
      "Ġmen": 3199,
      "Ġfield": 3200,
      "ĠRed": 3201,
      "Ġpublished": 3202,
      "eum": 3203,
      "Ġadm": 3204,
      "Ġtasiri": 3205,
      "Ġmi": 3206,
      "Ġkamfan": 3207,
      "Ġleft": 3208,
      "uw": 3209,
      "Ġfinal": 3210,
      "Ġstruct": 3211,
      "eph": 3212,
      "Ġlate": 3213,
      "Ġdist": 3214,
      "ĠSin": 3215,
      "Ġgabas": 3216,
      "Ġumar": 3217,
      "Ġkill": 3218,
      "ID": 3219,
      "ĠIlimi": 3220,
      "ĠHab": 3221,
      "Ġevery": 3222,
      "ela": 3223,
      "Ġ(\"": 3224,
      "Ġbecome": 3225,
      "Ġgy": 3226,
      "Ġmake": 3227,
      "ĠIbrahim": 3228,
      "Ġfeat": 3229,
      "21": 3230,
      "ĠAccording": 3231,
      "ean": 3232,
      "Ġmult": 3233,
      "Ġhalitta": 3234,
      "Ġharkokin": 3235,
      "ĠOf": 3236,
      "Ġanal": 3237,
      "Ġaff": 3238,
      "Ġlitt": 3239,
      "Ġproper": 3240,
      "ĠDi": 3241,
      "mo": 3242,
      "ĠKen": 3243,
      "ney": 3244,
      "Ġlocal": 3245,
      "ĠMasu": 3246,
      "Ġsingle": 3247,
      "ĠKungiyar": 3248,
      "Ġalm": 3249,
      "Ġshort": 3250,
      "Ġsojojin": 3251,
      "irc": 3252,
      "ĠKa": 3253,
      "Ġ187": 3254,
      "artar": 3255,
      "Ġdeveloped": 3256,
      "stitution": 3257,
      "ico": 3258,
      "ĠPres": 3259,
      "Ġkund": 3260,
      "jall": 3261,
      "ĠGeorge": 3262,
      "Ġgiven": 3263,
      "ogn": 3264,
      "ĠPaul": 3265,
      "Ġcond": 3266,
      "Ġdown": 3267,
      "Ġregion": 3268,
      "ĠOlympics": 3269,
      "fafa": 3270,
      "Ġjiragen": 3271,
      "ĠKad": 3272,
      "Ġreport": 3273,
      "ele": 3274,
      "Ġkamata": 3275,
      "Ġi": 3276,
      "ĠQu": 3277,
      "con": 3278,
      "Ġtseren": 3279,
      "Ġstates": 3280,
      "ways": 3281,
      "ĠNor": 3282,
      "ete": 3283,
      "ched": 3284,
      "Ġtil": 3285,
      "mad": 3286,
      "ĠMak": 3287,
      "Ġbaz": 3288,
      "Ġide": 3289,
      "Ġdauki": 3290,
      "Ġtakwas": 3291,
      "Ġkiran": 3292,
      "truction": 3293,
      "uncin": 3294,
      "Ġwithout": 3295,
      "ober": 3296,
      "ĠBrazil": 3297,
      "ĠPat": 3298,
      "Ġsune": 3299,
      "Ġneed": 3300,
      "umin": 3301,
      "ĠEngland": 3302,
      "Ġtattauna": 3303,
      "=\"": 3304,
      "Ġ),": 3305,
      "ĠHausa": 3306,
      "rote": 3307,
      "Ġrelig": 3308,
      "Ġcamp": 3309,
      "Ġfew": 3310,
      "Ġnoma": 3311,
      "ential": 3312,
      "Ġtashar": 3313,
      "Ġcontrol": 3314,
      "anuary": 3315,
      "Ġissu": 3316,
      "Ġdet": 3317,
      "Ġtsaye": 3318,
      "Ġtook": 3319,
      "iff": 3320,
      "Ġduka": 3321,
      "Ġsaka": 3322,
      "Ġestablished": 3323,
      "ĠPak": 3324,
      "Ġwid": 3325,
      "Ã¶": 3326,
      "SC": 3327,
      "ĠMafi": 3328,
      "Ġintrodu": 3329,
      "Ġrahoton": 3330,
      "Ġcurr": 3331,
      "22": 3332,
      "Ġlow": 3333,
      "ĠGidan": 3334,
      "bert": 3335,
      "ĠEast": 3336,
      "zon": 3337,
      "Ġcanc": 3338,
      "pril": 3339,
      "ĠHistory": 3340,
      "ĠJames": 3341,
      "Ġsayar": 3342,
      "ergy": 3343,
      "ĠCor": 3344,
      "hers": 3345,
      "iro": 3346,
      "ploy": 3347,
      "uren": 3348,
      "Ġshekarata": 3349,
      "ĠState": 3350,
      "ĠRoyal": 3351,
      "ĠKofin": 3352,
      "ushen": 3353,
      "cem": 3354,
      "Ġiska": 3355,
      "Ġtsakiya": 3356,
      "urar": 3357,
      "ĠNassoshi": 3358,
      "Ġep": 3359,
      "ration": 3360,
      "uck": 3361,
      "ĠWhen": 3362,
      "ĠPress": 3363,
      "Ġinvol": 3364,
      "ĠAustralia": 3365,
      "ĠNet": 3366,
      "Ġcont": 3367,
      "Ġrukunin": 3368,
      "ĠKogin": 3369,
      "Ġrawar": 3370,
      "Ġsoja": 3371,
      "Ġhel": 3372,
      "Ġindepend": 3373,
      "40": 3374,
      "Ġfahim": 3375,
      "ĠBi": 3376,
      "ĠParis": 3377,
      "Ġkudin": 3378,
      "ĠArt": 3379,
      "Ġincluded": 3380,
      "ĠArewacin": 3381,
      "Ġgami": 3382,
      "Ġusually": 3383,
      "Ġ1989": 3384,
      "Ġheld": 3385,
      "ths": 3386,
      "Ġevent": 3387,
      "ĠJanairun": 3388,
      "ĠMart": 3389,
      "ĠReg": 3390,
      "Ġsin": 3391,
      "Ġexist": 3392,
      "ored": 3393,
      "Ġsignificant": 3394,
      "Ġcer": 3395,
      "ĠSov": 3396,
      "Ġbaki": 3397,
      "ization": 3398,
      "aima": 3399,
      "Ġassoci": 3400,
      "Ġvol": 3401,
      "ĠSara": 3402,
      "Ġview": 3403,
      "Ġiri": 3404,
      "Ġaddinin": 3405,
      "Ġrul": 3406,
      "ĠOct": 3407,
      "ĠSeptember": 3408,
      "reg": 3409,
      "ĠJanuary": 3410,
      "NA": 3411,
      "Ġday": 3412,
      "ĠJew": 3413,
      "uda": 3414,
      "Ġcorr": 3415,
      "ivid": 3416,
      "II": 3417,
      "ĠCanada": 3418,
      "Ġcaus": 3419,
      "Ġjagoranci": 3420,
      "Ġhowever": 3421,
      "Ġkarshen": 3422,
      "Ġzag": 3423,
      "cember": 3424,
      "ĠLaf": 3425,
      "hard": 3426,
      "Ġ1988": 3427,
      "ĠAmerica": 3428,
      "Ġkall": 3429,
      "ĠFI": 3430,
      "Ġhotuna": 3431,
      "Ġmaz": 3432,
      "Ġjust": 3433,
      "imate": 3434,
      "ĠTarayyar": 3435,
      "Ġdalil": 3436,
      "Ġpur": 3437,
      "eh": 3438,
      "Ġsep": 3439,
      "Ġband": 3440,
      "Ġtsaro": 3441,
      "Ġmean": 3442,
      "Ġjiho": 3443,
      "irgin": 3444,
      "Ġeduc": 3445,
      "ampions": 3446,
      "Ġchang": 3447,
      "ĠJuly": 3448,
      "ior": 3449,
      "eland": 3450,
      "Ġmad": 3451,
      "Ġlabarin": 3452,
      "ĠCharles": 3453,
      "ĠFrance": 3454,
      "ĠGold": 3455,
      "Ġjins": 3456,
      "Ġgrow": 3457,
      "ĠDinkin": 3458,
      "iction": 3459,
      "ove": 3460,
      "ections": 3461,
      "Ġani": 3462,
      "ĠApril": 3463,
      "ĠAlb": 3464,
      "Ġexpl": 3465,
      "Ġnamed": 3466,
      "kas": 3467,
      "ĠPal": 3468,
      "Ġmajalis": 3469,
      "Ġabubuwa": 3470,
      "Ġtafiya": 3471,
      "Ġsold": 3472,
      "idence": 3473,
      "aika": 3474,
      "Ġgwamnan": 3475,
      "ĠDemocr": 3476,
      "Ġdubu": 3477,
      "ĠJune": 3478,
      "Ġrawa": 3479,
      "Ġ31": 3480,
      "ĠLokacin": 3481,
      "ĠEmp": 3482,
      "fesa": 3483,
      "emi": 3484,
      "ĠAss": 3485,
      "berg": 3486,
      "ĠØ": 3487,
      "oms": 3488,
      ");": 3489,
      "etic": 3490,
      "23": 3491,
      "Ġtaba": 3492,
      "Ġproduction": 3493,
      "ĠSauran": 3494,
      "Ġ1986": 3495,
      "Ġgalibi": 3496,
      "ĠMarch": 3497,
      "ĠÆĻarin": 3498,
      "Ġwuri": 3499,
      "ĠReferen": 3500,
      "Ġnorth": 3501,
      "ĠAfrika": 3502,
      "Ġinjin": 3503,
      "Ġconf": 3504,
      "ĠOctober": 3505,
      "Ġseason": 3506,
      "iforn": 3507,
      "ĠReferences": 3508,
      "ĠJamhur": 3509,
      "Ġareas": 3510,
      "Ġlok": 3511,
      "Ġfunction": 3512,
      "Ġwrote": 3513,
      "Ġadadin": 3514,
      "Ġhakkin": 3515,
      "ĠSana": 3516,
      "sequ": 3517,
      "ising": 3518,
      "Ġtimes": 3519,
      "Ġatt": 3520,
      "joji": 3521,
      "Ġtsaya": 3522,
      "itive": 3523,
      "Ġtotal": 3524,
      "Ġtarayya": 3525,
      "itan": 3526,
      "ĠHouse": 3527,
      "atal": 3528,
      "Ġdra": 3529,
      "Ġaut": 3530,
      "ush": 3531,
      "Ġshigar": 3532,
      "formation": 3533,
      "ĠDecember": 3534,
      "ollo": 3535,
      "Ġgudanarwa": 3536,
      "Ġbody": 3537,
      "ĠFasa": 3538,
      "ĠOs": 3539,
      "Ġsong": 3540,
      "Ġwadannan": 3541,
      "ĠHot": 3542,
      "Ġking": 3543,
      "Ġtheory": 3544,
      "Ġtreat": 3545,
      "ĠHen": 3546,
      "ĠKal": 3547,
      "Ġlinks": 3548,
      "Ġder": 3549,
      "Ġsug": 3550,
      "ĠKamfanin": 3551,
      "ĠGreat": 3552,
      "196": 3553,
      "Ġalthough": 3554,
      "ifornia": 3555,
      "Ġtsaron": 3556,
      "Ġcase": 3557,
      "bor": 3558,
      "tains": 3559,
      "Ġtarin": 3560,
      "ogo": 3561,
      "Ġmamaye": 3562,
      "Ġproble": 3563,
      "Ġ186": 3564,
      "Ġet": 3565,
      "Ġfive": 3566,
      "Ġbude": 3567,
      "ĠJar": 3568,
      "put": 3569,
      "Ġdaidaita": 3570,
      "side": 3571,
      "Ġcuta": 3572,
      "Ġrarr": 3573,
      "Ġproduced": 3574,
      "Ġlanguages": 3575,
      "iddle": 3576,
      "ĠSoviet": 3577,
      "Ġconn": 3578,
      "Ġbish": 3579,
      "Ġcibiyar": 3580,
      "key": 3581,
      "Ġgabata": 3582,
      "tained": 3583,
      "Ġdangin": 3584,
      "Ġsamf": 3585,
      "ĠzaÉĵe": 3586,
      "ena": 3587,
      "Ġmatsakaicin": 3588,
      "ĠRiver": 3589,
      "century": 3590,
      "Ġhaih": 3591,
      "Ġattem": 3592,
      "ibirin": 3593,
      "ĠKingdom": 3594,
      "Ġpa": 3595,
      "Ġgames": 3596,
      "aji": 3597,
      "ĠCollege": 3598,
      "Ġmart": 3599,
      "ĠBook": 3600,
      "Ġsaman": 3601,
      "dar": 3602,
      "Ġsepar": 3603,
      "cing": 3604,
      "Ġhukuma": 3605,
      "unic": 3606,
      "Ġtop": 3607,
      "ĠbuÉĹe": 3608,
      "Ġaika": 3609,
      "Ġcell": 3610,
      "ĠÆĻungiyoyin": 3611,
      "Ġmarubu": 3612,
      "Ġcarbon": 3613,
      "ĠHakanan": 3614,
      "Ġchem": 3615,
      "Ġmakama": 3616,
      "ĠCalifornia": 3617,
      "Ġhij": 3618,
      "Ġyarda": 3619,
      "aikata": 3620,
      "ĠVol": 3621,
      "ĠMin": 3622,
      "Ġkaranta": 3623,
      "ĠAlexander": 3624,
      "ention": 3625,
      "ously": 3626,
      "Ġtalabijin": 3627,
      "ilun": 3628,
      "ett": 3629,
      "ĠYankin": 3630,
      "ividual": 3631,
      "ume": 3632,
      "Ġgroups": 3633,
      "Ġstrong": 3634,
      "Ġlittafin": 3635,
      "Ġmusu": 3636,
      "Ġtakara": 3637,
      "ĠOg": 3638,
      "Ġpat": 3639,
      "ĠTrans": 3640,
      "yoyin": 3641,
      "Ġ1984": 3642,
      "ification": 3643,
      "Ġwritten": 3644,
      "ĠTas": 3645,
      "Ġhaving": 3646,
      "Ġ1979": 3647,
      "ĠGro": 3648,
      "ends": 3649,
      "Ġox": 3650,
      "Ġsystems": 3651,
      "Ġiz": 3652,
      "Ġfac": 3653,
      "Ġsix": 3654,
      "unt": 3655,
      "duct": 3656,
      "ometimes": 3657,
      "ĠCongress": 3658,
      "ĠEmpire": 3659,
      "ĠTal": 3660,
      "Ġdoke": 3661,
      "cript": 3662,
      "ĠBudd": 3663,
      "ĠKasuwan": 3664,
      "evision": 3665,
      "anish": 3666,
      "ĠBank": 3667,
      "Ġyankunan": 3668,
      "Ġ1987": 3669,
      "Ġ1983": 3670,
      "Ġtasirin": 3671,
      "ints": 3672,
      "Ġgoy": 3673,
      "ĠRic": 3674,
      "ĠAustralian": 3675,
      "Ġmutuwar": 3676,
      "less": 3677,
      "Ġbank": 3678,
      "ĠKaduna": 3679,
      "andun": 3680,
      "udan": 3681,
      "uro": 3682,
      "Ġyarjejeniyar": 3683,
      "Ġdev": 3684,
      "Ġgef": 3685,
      "AR": 3686,
      "mas": 3687,
      "aikatan": 3688,
      "ĠPremi": 3689,
      "ĠTana": 3690,
      "ĠHal": 3691,
      "Ġmaterial": 3692,
      "Ġmasanin": 3693,
      "ĠÆĻarni": 3694,
      "ĠMor": 3695,
      "ĠSpain": 3696,
      "kanci": 3697,
      "ĠWith": 3698,
      "ĠDut": 3699,
      "ulf": 3700,
      "ĠNovember": 3701,
      "ando": 3702,
      "Ġcal": 3703,
      "ĠÆĬ": 3704,
      "uciya": 3705,
      "AS": 3706,
      "Ġ1985": 3707,
      "Ġsubs": 3708,
      "Ġkimiyya": 3709,
      "ĠVal": 3710,
      "Ġright": 3711,
      "):": 3712,
      "Ġblack": 3713,
      "iled": 3714,
      "nd": 3715,
      "writ": 3716,
      "Ġturn": 3717,
      "Ġlet": 3718,
      "ĠAct": 3719,
      "Ġinternational": 3720,
      "Ġdoes": 3721,
      "ped": 3722,
      "ĠkuÉĹin": 3723,
      "Ġayyuka": 3724,
      "Ġkirk": 3725,
      "Ġshakatawa": 3726,
      "ental": 3727,
      "reak": 3728,
      "ĠMutanen": 3729,
      "Ġthird": 3730,
      "Ġspace": 3731,
      "Ġabs": 3732,
      "Ġdari": 3733,
      "Ġbegin": 3734,
      "Ġrole": 3735,
      "ĠPakistan": 3736,
      "ĠBat": 3737,
      "ĠAcadem": 3738,
      "val": 3739,
      "Ġsar": 3740,
      "abannin": 3741,
      "Ġgudumma": 3742,
      "Ġcompany": 3743,
      "ĠJo": 3744,
      "Éĵa": 3745,
      "ĠCha": 3746,
      "hael": 3747,
      "Ġmethod": 3748,
      "Ġfre": 3749,
      "Ġtafi": 3750,
      "Ġshould": 3751,
      "Ġrelations": 3752,
      "Ġterrit": 3753,
      "Ġengine": 3754,
      "ĠGar": 3755,
      "ĠKanada": 3756,
      "Ġlight": 3757,
      "Ġsouth": 3758,
      "Ġarewacin": 3759,
      "Ġrike": 3760,
      "Al": 3761,
      "Ġinf": 3762,
      "kai": 3763,
      "ĠMod": 3764,
      "arry": 3765,
      "ĠFrank": 3766,
      "ĠFranc": 3767,
      "ĠSee": 3768,
      "Ġlissa": 3769,
      "Ġbuilt": 3770,
      "ests": 3771,
      "24": 3772,
      "Ġsanda": 3773,
      "Ġgudun": 3774,
      ".)": 3775,
      "owa": 3776,
      "ĠRec": 3777,
      "atsina": 3778,
      "ĠGabas": 3779,
      "ret": 3780,
      "Ġ).": 3781,
      "Ġgona": 3782,
      "Ġwasansa": 3783,
      "Ġgama": 3784,
      "ecut": 3785,
      "Ġrepla": 3786,
      "adian": 3787,
      "even": 3788,
      "ĠYawancin": 3789,
      "Ġkwatan": 3790,
      "Ġsakandare": 3791,
      "Ġib": 3792,
      "ikh": 3793,
      "ĠHam": 3794,
      "Ġ2023": 3795,
      "Ġ1950": 3796,
      "field": 3797,
      "Ġworks": 3798,
      "Ġwomen": 3799,
      "Ġpe": 3800,
      "Ġservice": 3801,
      "ien": 3802,
      "Ġdata": 3803,
      "Ġasib": 3804,
      "ĠShugaba": 3805,
      "Ar": 3806,
      "Ġadawa": 3807,
      "ututtuka": 3808,
      "arsa": 3809,
      "ĠBinc": 3810,
      "Ġgine": 3811,
      "Ġhyd": 3812,
      "ĠDay": 3813,
      "Ġreleased": 3814,
      "Ġtechn": 3815,
      "omita": 3816,
      "Ġq": 3817,
      "Ġcame": 3818,
      "ĠCamb": 3819,
      "ĠGo": 3820,
      "asan": 3821,
      "Ġsassan": 3822,
      "ae": 3823,
      "ĠRepublic": 3824,
      "ĠSm": 3825,
      "ĠMinistan": 3826,
      "ĠWestern": 3827,
      "ĠLou": 3828,
      "ï»": 3829,
      "Ġrev": 3830,
      "AF": 3831,
      "ĠCi": 3832,
      "ĠPhil": 3833,
      "tress": 3834,
      "ĠApollo": 3835,
      "Ġnatural": 3836,
      "Ġkayayya": 3837,
      "Ġindividual": 3838,
      "Ġphilos": 3839,
      "Ġpolitician": 3840,
      "Ġmataimakin": 3841,
      "\")": 3842,
      "Ġkun": 3843,
      "Ġothers": 3844,
      "Ġcib": 3845,
      "avy": 3846,
      "otes": 3847,
      "inistr": 3848,
      "ĠUs": 3849,
      "Ġlat": 3850,
      "ability": 3851,
      "Ġmahimmanci": 3852,
      "oci": 3853,
      "Ġsett": 3854,
      "Ġsent": 3855,
      "Ġsee": 3856,
      "Ġkiyaye": 3857,
      "Ġdescribed": 3858,
      "Ġtushen": 3859,
      "ĠAward": 3860,
      "Ġcha": 3861,
      "Ġzamantakewa": 3862,
      "Ġsocial": 3863,
      "Ġdanganta": 3864,
      "Ġzur": 3865,
      "vail": 3866,
      "Ġcare": 3867,
      "Ġamsa": 3868,
      "ĠÆĻasashen": 3869,
      "iga": 3870,
      "Ġdauka": 3871,
      "ĠBang": 3872,
      "iyon": 3873,
      "Ġbazara": 3874,
      "ĠGeneral": 3875,
      "isi": 3876,
      "Ġlau": 3877,
      "anne": 3878,
      "Ġbusiness": 3879,
      "ishi": 3880,
      "Ġhanya": 3881,
      "ĠSul": 3882,
      "ĠHigh": 3883,
      "Ġofficial": 3884,
      "Ġplayed": 3885,
      "Ġill": 3886,
      "orm": 3887,
      "Ġaikinsa": 3888,
      "ahara": 3889,
      "Ġgabashin": 3890,
      "face": 3891,
      "Ġtura": 3892,
      "ĠKenya": 3893,
      "ecially": 3894,
      "Ġcire": 3895,
      "ĠSim": 3896,
      "Ġzamanin": 3897,
      "Ġfurther": 3898,
      "Ġforces": 3899,
      "ubar": 3900,
      "Ġearli": 3901,
      "Ġdi": 3902,
      "ĠArmy": 3903,
      "ĠCentral": 3904,
      "kokin": 3905,
      "Ġhukumomin": 3906,
      "ĠÆĻarfi": 3907,
      "Ġ1976": 3908,
      "ĠYayin": 3909,
      "ĠPremier": 3910,
      "Ġeither": 3911,
      "Ġtsari": 3912,
      "isc": 3913,
      "ĠRev": 3914,
      "Ġmass": 3915,
      "err": 3916,
      "ĠUN": 3917,
      "Ġwon": 3918,
      "stitute": 3919,
      "Ġge": 3920,
      "finan": 3921,
      "Ġkullun": 3922,
      "off": 3923,
      "Ġtown": 3924,
      "Ġtri": 3925,
      "ĠSir": 3926,
      "ĠPeople": 3927,
      "Ġdauke": 3928,
      "ĠRasha": 3929,
      "aries": 3930,
      "alism": 3931,
      "Ġsauransu": 3932,
      "ĠGudanar": 3933,
      "Ġmara": 3934,
      "ĠIndia": 3935,
      "ĠAma": 3936,
      "Ġlafiyar": 3937,
      "bu": 3938,
      "ĠJanar": 3939,
      "ĠAsh": 3940,
      "Ġ1972": 3941,
      "ĠExternal": 3942,
      "ĠFim": 3943,
      "Ġorganiz": 3944,
      "Ġnazarin": 3945,
      "ĠGreen": 3946,
      "ĠKab": 3947,
      "pper": 3948,
      "CC": 3949,
      "isha": 3950,
      "especially": 3951,
      "Ġnov": 3952,
      "Ġcombin": 3953,
      "viron": 3954,
      "zi": 3955,
      "ĠCoast": 3956,
      "ĠTare": 3957,
      "Ġmaima": 3958,
      "ĠÆĻo": 3959,
      "Ġconc": 3960,
      "inta": 3961,
      "ĠEr": 3962,
      "ĠRom": 3963,
      "ĠzaÉĵen": 3964,
      "78": 3965,
      "Ġcompar": 3966,
      "Ġlura": 3967,
      "ĠSpanish": 3968,
      "Ġhalf": 3969,
      "asing": 3970,
      "Ġrit": 3971,
      "ux": 3972,
      "onic": 3973,
      "Ġmer": 3974,
      "Ġtsare": 3975,
      "Ġila": 3976,
      "wal": 3977,
      "ĠGerm": 3978,
      "vo": 3979,
      "ĠDarak": 3980,
      "Ġmallakar": 3981,
      "ĠSaint": 3982,
      "Ġreal": 3983,
      "Ġ1982": 3984,
      "ĠDang": 3985,
      "ĠTurk": 3986,
      "ĠGovern": 3987,
      "ĠKula": 3988,
      "ĠCath": 3989,
      "ending": 3990,
      "Ġstyle": 3991,
      "Ġ1975": 3992,
      "Ġkilomita": 3993,
      "ĠMex": 3994,
      "self": 3995,
      "Ġfama": 3996,
      "ĠAlthough": 3997,
      "Ġdoc": 3998,
      "ĠUr": 3999,
      "Ġstudy": 4000,
      "ĠbuÆĻatar": 4001,
      "ators": 4002,
      "ĠFin": 4003,
      "Ġkm": 4004,
      "Ġwu": 4005,
      "Ġmy": 4006,
      "Ġshaf": 4007,
      "Ġorgan": 4008,
      "order": 4009,
      "ĠShari": 4010,
      "Ġage": 4011,
      "Ġrange": 4012,
      "ĠTel": 4013,
      "Ġjari": 4014,
      "Ġpred": 4015,
      "Ġmurab": 4016,
      "ĠÆĻasashe": 4017,
      "sy": 4018,
      "ĠFina": 4019,
      "Ġazaman": 4020,
      "asta": 4021,
      "egal": 4022,
      "Ġmust": 4023,
      "Ġdabb": 4024,
      "ebru": 4025,
      "ĠVict": 4026,
      "ĠSociety": 4027,
      "irarin": 4028,
      "ĠWe": 4029,
      "ĠRobert": 4030,
      "Ġver": 4031,
      "idi": 4032,
      "Ġzargin": 4033,
      "Ġobserv": 4034,
      "Ġyawon": 4035,
      "ardin": 4036,
      "diga": 4037,
      "ÙĦ": 4038,
      "akari": 4039,
      "ebruary": 4040,
      "pe": 4041,
      "Ġgandun": 4042,
      "ĠSudan": 4043,
      "si": 4044,
      "Ġwutar": 4045,
      "Ġcreated": 4046,
      "Ã¨": 4047,
      "born": 4048,
      "Ġdat": 4049,
      "ĠGwamnatin": 4050,
      "ister": 4051,
      "ĠÉĹauki": 4052,
      "Ġside": 4053,
      "Ġkujer": 4054,
      "Ġlaun": 4055,
      "ube": 4056,
      "cel": 4057,
      "ĠTV": 4058,
      "verage": 4059,
      "Ġ1978": 4060,
      "Ġ1981": 4061,
      "Ġsabbin": 4062,
      "ĠIslam": 4063,
      "Ġspecial": 4064,
      "aden": 4065,
      "ĠAsiya": 4066,
      "EC": 4067,
      "Ġposition": 4068,
      "47": 4069,
      "Ġmarasa": 4070,
      "Ġ=": 4071,
      "Ġgizon": 4072,
      "Ġsometimes": 4073,
      "Ġtsohuwar": 4074,
      "ĠZeal": 4075,
      "Ġgenerally": 4076,
      "iwar": 4077,
      "ĠEs": 4078,
      "stead": 4079,
      "ieved": 4080,
      "ateg": 4081,
      "ghan": 4082,
      "ils": 4083,
      "Ġpot": 4084,
      "Ġmeas": 4085,
      "ĠIran": 4086,
      "ĠNazarin": 4087,
      "Ġcivil": 4088,
      "ĠBak": 4089,
      "Ġgidajen": 4090,
      "ĠFur": 4091,
      "Ġzauna": 4092,
      "ĠÉĵangare": 4093,
      "Ġgyara": 4094,
      "ĠSte": 4095,
      "ength": 4096,
      "Ġmuk": 4097,
      "Ġ60": 4098,
      "Ġversion": 4099,
      "ĠJamhuriyar": 4100,
      "Ġkungiyoyin": 4101,
      "ĠMichael": 4102,
      "hemat": 4103,
      "Ġactor": 4104,
      "ashington": 4105,
      "ĠIg": 4106,
      "ĠWaÉĹ": 4107,
      "Ġkur": 4108,
      "cle": 4109,
      "ĠAssoci": 4110,
      "Ġcirc": 4111,
      "Ġtest": 4112,
      "ĠAmma": 4113,
      "ĠSy": 4114,
      "afawa": 4115,
      "ĠCin": 4116,
      "igo": 4117,
      "ĠZealand": 4118,
      "ĠStr": 4119,
      "Ġsum": 4120,
      "ours": 4121,
      "ĠMem": 4122,
      "Ġyaren": 4123,
      "Ġiyaka": 4124,
      "iral": 4125,
      "Ġfita": 4126,
      "Ġzura": 4127,
      "Ġnumbers": 4128,
      "80": 4129,
      "kk": 4130,
      "ĠFasaha": 4131,
      "ulla": 4132,
      "ĠÆ³": 4133,
      "Ġlalata": 4134,
      "Ġaj": 4135,
      "ĠKotun": 4136,
      "par": 4137,
      "Ġgoyon": 4138,
      "ĠSarkin": 4139,
      "ĠAD": 4140,
      "Ġperform": 4141,
      "ĠYulin": 4142,
      "ĠMost": 4143,
      "Ġlist": 4144,
      "ĠWhile": 4145,
      "Ġaircraft": 4146,
      "ĠSwed": 4147,
      "Ġfaruwa": 4148,
      "Ġaddition": 4149,
      "Ġzum": 4150,
      "Ġcompos": 4151,
      "Ġleast": 4152,
      "Ġwurare": 4153,
      "Ġtag": 4154,
      "Ġenc": 4155,
      "Ġfasalin": 4156,
      "Ġdakatar": 4157,
      "Ġfiram": 4158,
      "ĠGrand": 4159,
      "ĠPDP": 4160,
      "Ġrest": 4161,
      "abci": 4162,
      "icy": 4163,
      "ĠKwamitin": 4164,
      "ĠChampions": 4165,
      "Ġ1977": 4166,
      "ĠCouncil": 4167,
      "ĠYammacin": 4168,
      "Ġcikakken": 4169,
      "jects": 4170,
      "Ġhukuncin": 4171,
      "ĠÆĻoÆĻ": 4172,
      "ville": 4173,
      "ariya": 4174,
      "Ġcy": 4175,
      "Ġfall": 4176,
      "Ġmajalisa": 4177,
      "BA": 4178,
      "Ġmint": 4179,
      "gypt": 4180,
      "Ġdiscover": 4181,
      "Ġexpress": 4182,
      "ĠPeter": 4183,
      "Ġjef": 4184,
      "Ġbal": 4185,
      "ults": 4186,
      "Ġpri": 4187,
      "ĠPri": 4188,
      "ftware": 4189,
      "wari": 4190,
      "ĠGermany": 4191,
      "reet": 4192,
      "ĠWashington": 4193,
      "Ġhow": 4194,
      "Ġcontinued": 4195,
      "Ġreceived": 4196,
      "ĠAcademy": 4197,
      "ï»¿": 4198,
      "Ġnet": 4199,
      "Ġrab": 4200,
      "lav": 4201,
      "ounced": 4202,
      "ties": 4203,
      "ĠList": 4204,
      "ensive": 4205,
      "ĠFebruary": 4206,
      "Ġtaimakawa": 4207,
      "ourt": 4208,
      "Ġ1966": 4209,
      "ĠLaw": 4210,
      "ournal": 4211,
      "iddigar": 4212,
      "ĠRichard": 4213,
      "ĠBul": 4214,
      "ump": 4215,
      "uff": 4216,
      "Ġespecially": 4217,
      "ĠPe": 4218,
      "stitut": 4219,
      "Ġnor": 4220,
      "Ġavail": 4221,
      "Ġcomplex": 4222,
      "imary": 4223,
      "Ġhold": 4224,
      "raine": 4225,
      "ĠYah": 4226,
      "Ġiskar": 4227,
      "ubakar": 4228,
      "Ġlaunin": 4229,
      "ĠMos": 4230,
      "Ġjini": 4231,
      "ingu": 4232,
      "ĠIS": 4233,
      "ysis": 4234,
      "Ġchildren": 4235,
      "ĠKatsina": 4236,
      "Ġwakilci": 4237,
      "Ġmodel": 4238,
      "ĠBelg": 4239,
      "Ġparts": 4240,
      "ĠKudancin": 4241,
      "Ġ1974": 4242,
      "27": 4243,
      "used": 4244,
      "Ġisa": 4245,
      "ĠChinese": 4246,
      "ambaya": 4247,
      "ĠSuper": 4248,
      "Ġeconomic": 4249,
      "Ġfree": 4250,
      "Ġeth": 4251,
      "Ġgood": 4252,
      "Ġacid": 4253,
      "Ġrecogn": 4254,
      "ĠDutch": 4255,
      "Ġbara": 4256,
      "Ġdim": 4257,
      "gawa": 4258,
      "Ġrather": 4259,
      "Ġpossible": 4260,
      "now": 4261,
      "Ġgwiwar": 4262,
      "ĠDemocratic": 4263,
      "ĠzaÉĵi": 4264,
      "Ġkau": 4265,
      "Ġgaskiya": 4266,
      "Ġfilms": 4267,
      "ĠInter": 4268,
      "ĠUK": 4269,
      "Ġlib": 4270,
      "ĠAfghan": 4271,
      "Ġarzikin": 4272,
      "ĠLim": 4273,
      "otic": 4274,
      "ĠEgypt": 4275,
      "Ġprevi": 4276,
      "ĠCroat": 4277,
      "ĠÉĹalib": 4278,
      "ĠMuseum": 4279,
      "omp": 4280,
      "Ġpresident": 4281,
      "Ġkaro": 4282,
      "allacin": 4283,
      "</": 4284,
      "ĠUmar": 4285,
      "90": 4286,
      "wh": 4287,
      "Ġmahaifiyar": 4288,
      "Ġbatun": 4289,
      "Ġdied": 4290,
      "Ġben": 4291,
      "ĠMer": 4292,
      "ĠColumb": 4293,
      "Ġtemper": 4294,
      "Ġsel": 4295,
      "Ġcop": 4296,
      "ĠMuhalli": 4297,
      "ĠMuhammadu": 4298,
      "ĠPresident": 4299,
      "ĠUg": 4300,
      "anches": 4301,
      "ĠÆĻwararren": 4302,
      "Ġjuyin": 4303,
      "Ġima": 4304,
      "ĠEarth": 4305,
      "Ġformed": 4306,
      "Ġmatakan": 4307,
      "Ġshaida": 4308,
      "anch": 4309,
      "Ġball": 4310,
      "uru": 4311,
      "Ġkasashe": 4312,
      "Ġkokar": 4313,
      "lied": 4314,
      "far": 4315,
      "Ġelements": 4316,
      "ĠIf": 4317,
      "Ġkyautar": 4318,
      "ĠIII": 4319,
      "Ġtw": 4320,
      "ĠFIFA": 4321,
      "lobal": 4322,
      "Ġkada": 4323,
      "ston": 4324,
      "Ġjarida": 4325,
      "wi": 4326,
      "Ġforms": 4327,
      "aster": 4328,
      "ĠBayanan": 4329,
      "eign": 4330,
      "ĠMataima": 4331,
      "imately": 4332,
      "esc": 4333,
      "ĠEc": 4334,
      "allace": 4335,
      "vironment": 4336,
      "Ġsw": 4337,
      "Ġkwallo": 4338,
      "ĠAbuja": 4339,
      "Ġkalmar": 4340,
      "ls": 4341,
      "eball": 4342,
      "ique": 4343,
      "ĠBol": 4344,
      "ĠVictor": 4345,
      "pped": 4346,
      "wall": 4347,
      "Ġsauya": 4348,
      "Ġtype": 4349,
      "ca": 4350,
      "ĠLag": 4351,
      "ĠSenegal": 4352,
      "antic": 4353,
      "eck": 4354,
      "ideo": 4355,
      "ederal": 4356,
      "Ġdangane": 4357,
      "ĠHabasha": 4358,
      "ĠKamaru": 4359,
      "ques": 4360,
      "Ġcapital": 4361,
      "ammed": 4362,
      "Ġwats": 4363,
      "ĠThomas": 4364,
      "Ġmember": 4365,
      "dd": 4366,
      "ads": 4367,
      "ĠÆĻaddamar": 4368,
      "arauta": 4369,
      "28": 4370,
      "Ġkimanin": 4371,
      "Ġculture": 4372,
      "Ġcomputer": 4373,
      "ĠFl": 4374,
      "Ġanimal": 4375,
      "Ġsabuwar": 4376,
      "Ġ1969": 4377,
      "Ġterms": 4378,
      "uhari": 4379,
      "ĠJack": 4380,
      "Ġfood": 4381,
      "ĠAbubakar": 4382,
      "Ġdeb": 4383,
      "ocin": 4384,
      "Ġpriv": 4385,
      "ĠBenin": 4386,
      "ĠBankin": 4387,
      "ĠHenry": 4388,
      "ĠYunin": 4389,
      "Ġbroad": 4390,
      "ĠFirst": 4391,
      "ĠTunis": 4392,
      "Ġattempt": 4393,
      "oshin": 4394,
      "Ġpress": 4395,
      "ÆĻoÆĻin": 4396,
      "Ġbangare": 4397,
      "Ġfadin": 4398,
      "Ġyoung": 4399,
      "Ġzin": 4400,
      "Ġmaking": 4401,
      "ately": 4402,
      "Ġdara": 4403,
      "amun": 4404,
      "Ġcompet": 4405,
      "aper": 4406,
      "Ġprinci": 4407,
      "ĠShekar": 4408,
      "ĠRussian": 4409,
      "Ġlit": 4410,
      "Ġlower": 4411,
      "Ġsyn": 4412,
      "Ġkallon": 4413,
      "ww": 4414,
      "Ġni": 4415,
      "Ġjo": 4416,
      "Ġ1973": 4417,
      "ĠCup": 4418,
      "Ġarmy": 4419,
      "Ġ185": 4420,
      "37": 4421,
      "Ġdays": 4422,
      "ĠOff": 4423,
      "ifi": 4424,
      "AC": 4425,
      "atory": 4426,
      "ands": 4427,
      "Ġsuper": 4428,
      "Ġjuna": 4429,
      "ĠFilm": 4430,
      "Ġhorar": 4431,
      "Ġrock": 4432,
      "Ġinit": 4433,
      "Ġnever": 4434,
      "hief": 4435,
      "ĠScott": 4436,
      "Ġauri": 4437,
      "Ġanti": 4438,
      "Ġtur": 4439,
      "Ġdala": 4440,
      "ĠNas": 4441,
      "Ġtantance": 4442,
      "istics": 4443,
      "ĠSol": 4444,
      "Ġsout": 4445,
      "itect": 4446,
      "ĠIsland": 4447,
      "IC": 4448,
      "hest": 4449,
      "ĠCanadian": 4450,
      "ĠQue": 4451,
      "ĠTsakiya": 4452,
      "Ġrights": 4453,
      "inea": 4454,
      "Ġenergy": 4455,
      "ĠAda": 4456,
      "ÉĹaya": 4457,
      "kuma": 4458,
      "ĠâĢĻ": 4459,
      "ĠAC": 4460,
      "Ġmic": 4461,
      "ĠFal": 4462,
      "Ġcolon": 4463,
      "Ġimpro": 4464,
      "Ġnah": 4465,
      "ĠTatt": 4466,
      "Ġresearch": 4467,
      "Ġmarket": 4468,
      "Ġtelevision": 4469,
      "Ġsuggest": 4470,
      "ĠWaÉĹannan": 4471,
      "sta": 4472,
      "itch": 4473,
      "antun": 4474,
      "Ġzira": 4475,
      "anti": 4476,
      "ĠHaka": 4477,
      "Ġbest": 4478,
      "Ġcentral": 4479,
      "ging": 4480,
      "Ġbiyan": 4481,
      "Ġunivers": 4482,
      "Ġ1967": 4483,
      "Ġinvest": 4484,
      "Ġhigher": 4485,
      "Ġabokin": 4486,
      "ĠAyyuka": 4487,
      "jar": 4488,
      "ĠCape": 4489,
      "iman": 4490,
      "play": 4491,
      "Ġyada": 4492,
      "back": 4493,
      "ĠUkraine": 4494,
      "Ġastr": 4495,
      "angar": 4496,
      "ĠKimiyya": 4497,
      "Ġhouse": 4498,
      "Ġmatan": 4499,
      "Ġprofess": 4500,
      "eder": 4501,
      "Ġyaki": 4502,
      "ĠFabrairun": 4503,
      "igr": 4504,
      "ongo": 4505,
      "35": 4506,
      "itude": 4507,
      "ĠKe": 4508,
      "ĠVer": 4509,
      "Ġwatanni": 4510,
      "utsen": 4511,
      "Ġsaba": 4512,
      "ĠPers": 4513,
      "Ġclub": 4514,
      "Ġsadarwa": 4515,
      "Ġtro": 4516,
      "Ġisland": 4517,
      "odi": 4518,
      "hakin": 4519,
      "ink": 4520,
      "ĠAPC": 4521,
      "lywood": 4522,
      "pts": 4523,
      "Ġthroughout": 4524,
      "ĠBuhari": 4525,
      "odes": 4526,
      "Ġavailable": 4527,
      "Ġscient": 4528,
      "Ġnext": 4529,
      "Ġcertain": 4530,
      "fai": 4531,
      "ĠHall": 4532,
      "Ġfollowed": 4533,
      "Ġap": 4534,
      "Ġfad": 4535,
      "Ġattr": 4536,
      "ÉĵÉĵ": 4537,
      "ĠLarabawa": 4538,
      "ĠBill": 4539,
      "Ġsinger": 4540,
      "Ġbattle": 4541,
      "uranci": 4542,
      "Ġ65": 4543,
      "Ġbug": 4544,
      "ĠWil": 4545,
      "Ġancient": 4546,
      "In": 4547,
      "Ġbayanin": 4548,
      "Ġstandard": 4549,
      "Ġlevel": 4550,
      "ĠConf": 4551,
      "ĠDiv": 4552,
      "ulture": 4553,
      "Ġfather": 4554,
      "Ġabove": 4555,
      "formed": 4556,
      "ĠGroup": 4557,
      "''": 4558,
      "Ġziyar": 4559,
      "Ġfrequ": 4560,
      "Ġ1968": 4561,
      "Ġwhe": 4562,
      "Ġcontain": 4563,
      "ĠSince": 4564,
      "Ġjikin": 4565,
      "195": 4566,
      "Ġprec": 4567,
      "ĠScot": 4568,
      "Ġseen": 4569,
      "Ġste": 4570,
      "Ġindic": 4571,
      "ĠSta": 4572,
      "Ġtext": 4573,
      "Ġjefa": 4574,
      "26": 4575,
      "Ġden": 4576,
      "ĠÆĻidayar": 4577,
      "ĠAiki": 4578,
      "Ġnauyin": 4579,
      "Ġemploy": 4580,
      "Ġtaur": 4581,
      "Ġconsist": 4582,
      "Ġkudancin": 4583,
      "ĠDar": 4584,
      "ĠgurÉĵ": 4585,
      "ĠAngel": 4586,
      "Ġlocated": 4587,
      "Ġhard": 4588,
      "ĠSannan": 4589,
      "ĠCa": 4590,
      "Ġtunanin": 4591,
      "Ġhydro": 4592,
      "Ġbangaren": 4593,
      "Ġschol": 4594,
      "ĠSea": 4595,
      "uation": 4596,
      "Ġoffer": 4597,
      "utan": 4598,
      "ĠIndian": 4599,
      "ĠCommon": 4600,
      "Ġmujall": 4601,
      "ald": 4602,
      "ĠMul": 4603,
      "Ġdefe": 4604,
      "uhu": 4605,
      "Ġ1964": 4606,
      "ĠDen": 4607,
      "trict": 4608,
      "ĠItalian": 4609,
      "ĠTattalin": 4610,
      "Ġtashin": 4611,
      "ape": 4612,
      "oney": 4613,
      "Ġkwang": 4614,
      "erous": 4615,
      "Ġfasahar": 4616,
      "ĠCam": 4617,
      "ĠIya": 4618,
      "Ġplayers": 4619,
      "ĠCatholic": 4620,
      "ĠKat": 4621,
      "ĠMats": 4622,
      "Ġforce": 4623,
      "jeriya": 4624,
      "anding": 4625,
      "Ġport": 4626,
      "Ġtrade": 4627,
      "Ġhimself": 4628,
      "Ġbiya": 4629,
      "ĠSarki": 4630,
      "Ġnemi": 4631,
      "Ġkiwon": 4632,
      "rary": 4633,
      "Ġpost": 4634,
      "ĠBor": 4635,
      "Ġregard": 4636,
      "hab": 4637,
      "Ġmuhimman": 4638,
      "Ġdalib": 4639,
      "uments": 4640,
      "ĠKyautar": 4641,
      "odaya": 4642,
      "Ġreported": 4643,
      "48": 4644,
      "Ġ1971": 4645,
      "wayoyin": 4646,
      "Ġdabar": 4647,
      "Ġfig": 4648,
      "Ġkwatanta": 4649,
      "ĠDep": 4650,
      "Ġsuff": 4651,
      "TA": 4652,
      "Ġchange": 4653,
      "29": 4654,
      "ked": 4655,
      "ective": 4656,
      "Ġjinsi": 4657,
      "ĠBattle": 4658,
      "ĠIm": 4659,
      "Ġyankuna": 4660,
      "Ġkey": 4661,
      "ĠStud": 4662,
      "itted": 4663,
      "Ġorigin": 4664,
      "Ġdogara": 4665,
      "ĠKi": 4666,
      "ership": 4667,
      "Ġshugabannin": 4668,
      "Ġrauni": 4669,
      "ĠZam": 4670,
      "aign": 4671,
      "Ġkwayoyin": 4672,
      "het": 4673,
      "Ġ||": 4674,
      "36": 4675,
      "can": 4676,
      "yaya": 4677,
      "ols": 4678,
      "Ġtsan": 4679,
      "estival": 4680,
      "ĠYarjejeniyar": 4681,
      "bayan": 4682,
      "Ġrate": 4683,
      "ctions": 4684,
      "//": 4685,
      "Ġgod": 4686,
      "iyu": 4687,
      "Ġkundin": 4688,
      "like": 4689,
      "ĠHel": 4690,
      "Ġthus": 4691,
      "ĠIreland": 4692,
      "Ġlamba": 4693,
      "ĠPet": 4694,
      "45": 4695,
      "OS": 4696,
      "Ġmataki": 4697,
      "Ġsuccessful": 4698,
      "ĠRet": 4699,
      "bai": 4700,
      "sar": 4701,
      "ĠGl": 4702,
      "ĠNA": 4703,
      "Ġliter": 4704,
      "ecess": 4705,
      "Ġmeans": 4706,
      "ĠMataimakin": 4707,
      "waye": 4708,
      "Ġacross": 4709,
      "Ġneg": 4710,
      "cha": 4711,
      "Ġevidence": 4712,
      "gement": 4713,
      "Ġlayin": 4714,
      "Ġmaimakon": 4715,
      "Ġkor": 4716,
      "ĠJu": 4717,
      "ems": 4718,
      "ĠGuinea": 4719,
      "Ġaik": 4720,
      "Ġtilasta": 4721,
      "Ġgudana": 4722,
      "Ġgwag": 4723,
      "cts": 4724,
      "Ġdashi": 4725,
      "Ġaccording": 4726,
      "ĠÆĻauyen": 4727,
      "icle": 4728,
      "ĠIll": 4729,
      "Ġground": 4730,
      "Ġsassa": 4731,
      "Ġmultip": 4732,
      "tered": 4733,
      "ĠProf": 4734,
      "Ġalmost": 4735,
      "Ġrai": 4736,
      "ĠSing": 4737,
      "ĠSiya": 4738,
      "ĠAthen": 4739,
      "kantar": 4740,
      "ĠTer": 4741,
      "Ġ80": 4742,
      "ĠÐ": 4743,
      "Ġ35": 4744,
      "70": 4745,
      "ĠOx": 4746,
      "Ġdest": 4747,
      "Ġinformation": 4748,
      "ridge": 4749,
      "Ġmaf": 4750,
      "Ġsil": 4751,
      "Ġfull": 4752,
      "Ġrasa": 4753,
      "ilishi": 4754,
      "ĠSmith": 4755,
      "ĠMary": 4756,
      "Éĵe": 4757,
      "Ġparty": 4758,
      "ulated": 4759,
      "Ġrikodin": 4760,
      "hr": 4761,
      "Ġinteg": 4762,
      "Ġcoast": 4763,
      "ĠFrom": 4764,
      "Ġ1962": 4765,
      "alle": 4766,
      "Ġbecom": 4767,
      "Ġca": 4768,
      "hararr": 4769,
      "ĠBello": 4770,
      "Ġtak": 4771,
      "Ġsauri": 4772,
      "Ġmid": 4773,
      "Ġsharar": 4774,
      "Ġhalitt": 4775,
      "Ġmuhim": 4776,
      "odayake": 4777,
      "BN": 4778,
      "anies": 4779,
      "Ġje": 4780,
      "ĠInstitute": 4781,
      "Ġfiramare": 4782,
      "ĠDoko": 4783,
      "ĠÆĻaramin": 4784,
      "Ġtranslations": 4785,
      "Ġsiyasan": 4786,
      "ĠnaÉĹa": 4787,
      "Ġtre": 4788,
      "Ġdoub": 4789,
      "Ġoccur": 4790,
      "hib": 4791,
      "ataccen": 4792,
      "Ġ1965": 4793,
      "ĠKur": 4794,
      "Ġestablish": 4795,
      "ĠJapanese": 4796,
      "Ġsk": 4797,
      "ididdigar": 4798,
      "rey": 4799,
      "Ġdangi": 4800,
      "Ġfice": 4801,
      "Ġtoget": 4802,
      "Ġmakaranta": 4803,
      "Ġlokuta": 4804,
      "Ġkot": 4805,
      "ises": 4806,
      "hia": 4807,
      "anye": 4808,
      "ĠMac": 4809,
      "Ġfafut": 4810,
      "cher": 4811,
      "ĠMy": 4812,
      "Ġkimiyyar": 4813,
      "ĠDelta": 4814,
      "Ġtogether": 4815,
      "Ya": 4816,
      "nam": 4817,
      "ĠPo": 4818,
      "inka": 4819,
      "ĠIdan": 4820,
      "Ġplan": 4821,
      "Ġintroduced": 4822,
      "ĠOld": 4823,
      "echan": 4824,
      "nel": 4825,
      "ably": 4826,
      "Ġgaj": 4827,
      "ĠBerlin": 4828,
      "orpor": 4829,
      "asc": 4830,
      "ĠIra": 4831,
      "://": 4832,
      "ĠAhmed": 4833,
      "ĠMahaif": 4834,
      "Ġmisali": 4835,
      "Ġfund": 4836,
      "Ġid": 4837,
      "Ġina": 4838,
      "Ġstory": 4839,
      "Ġwee": 4840,
      "ayer": 4841,
      "Ġaverage": 4842,
      "Ġshare": 4843,
      "ĠHad": 4844,
      "Ġjima": 4845,
      "rick": 4846,
      "atively": 4847,
      "ĠKu": 4848,
      "ĠAnt": 4849,
      "Ġmagance": 4850,
      "Ġ1963": 4851,
      "Ġcommunity": 4852,
      "oye": 4853,
      "ĠJoseph": 4854,
      "Ġ+": 4855,
      "omm": 4856,
      "ellow": 4857,
      "ĠÆĻarancin": 4858,
      "Ġhars": 4859,
      "Ġkyauta": 4860,
      "Ġupon": 4861,
      "ĠIngilishi": 4862,
      "ĠKn": 4863,
      "ĠKoyaya": 4864,
      "ĠIv": 4865,
      "Ġadop": 4866,
      "Ġbiyo": 4867,
      "Ġcanjin": 4868,
      "Ġkotun": 4869,
      "Ġpers": 4870,
      "Ġkuwa": 4871,
      "Ġkananan": 4872,
      "Ġdabbobi": 4873,
      "Ġcover": 4874,
      "liament": 4875,
      "33": 4876,
      "Ġkamfanoni": 4877,
      "ĠCounty": 4878,
      "ĠLafiya": 4879,
      "Ġmukamin": 4880,
      "ested": 4881,
      "Ġvict": 4882,
      "Ġsoftware": 4883,
      "Ġmathemat": 4884,
      "Ġaccess": 4885,
      "loma": 4886,
      "ords": 4887,
      "Ġcourt": 4888,
      "ĠJer": 4889,
      "ĠriÆĻe": 4890,
      "Ġsit": 4891,
      "Ġtsof": 4892,
      "Ġnovel": 4893,
      "Ġkokarin": 4894,
      "ĠMark": 4895,
      "ĠLu": 4896,
      "Ġhijira": 4897,
      "writer": 4898,
      "Ġritaya": 4899,
      "ĠDes": 4900,
      "ĠAssociation": 4901,
      "Ġfuskantar": 4902,
      "Ġsaf": 4903,
      "attafai": 4904,
      "Ġhaya": 4905,
      "Ġur": 4906,
      "win": 4907,
      "Ø§": 4908,
      "ounds": 4909,
      "Ġcibiyoyin": 4910,
      "male": 4911,
      "undunar": 4912,
      "eto": 4913,
      "nes": 4914,
      "46": 4915,
      "Ġfav": 4916,
      "bra": 4917,
      "mark": 4918,
      "atives": 4919,
      "arkatun": 4920,
      "viewed": 4921,
      "ĠWad": 4922,
      "Ġstructure": 4923,
      "Ġmeaning": 4924,
      "ĠBritain": 4925,
      "Ġmazauna": 4926,
      "ires": 4927,
      "Ġmiss": 4928,
      "Ġtour": 4929,
      "Ġincludes": 4930,
      "75": 4931,
      "Ġhaihuwa": 4932,
      "Ġmanufofin": 4933,
      "Ġjig": 4934,
      "anian": 4935,
      "lama": 4936,
      "ophy": 4937,
      "xim": 4938,
      "Ġalhakin": 4939,
      "Ġrelated": 4940,
      "ĠWat": 4941,
      "illar": 4942,
      "Ġuwan": 4943,
      "Ġwan": 4944,
      "ills": 4945,
      "ĠfaÉĹa": 4946,
      "Ġacadem": 4947,
      "ĠCy": 4948,
      "Ġitself": 4949,
      "ĠItaliya": 4950,
      "ĠAsia": 4951,
      "39": 4952,
      "ishing": 4953,
      "Ġbuilding": 4954,
      "ĠTarayya": 4955,
      "Ġassociated": 4956,
      "Ġ^": 4957,
      "Ġservices": 4958,
      "ĠTex": 4959,
      "ugal": 4960,
      "Ġindustry": 4961,
      "anded": 4962,
      "eff": 4963,
      "ĠKor": 4964,
      "Ġcommer": 4965,
      "Ġfounded": 4966,
      "artment": 4967,
      "etur": 4968,
      "Ġdeterm": 4969,
      "Ġinfluence": 4970,
      "Ġnetwork": 4971,
      "Ġthought": 4972,
      "AM": 4973,
      "Ġnuc": 4974,
      "Ġgizo": 4975,
      "Ġincreased": 4976,
      "Ġinstead": 4977,
      "Ġyiw": 4978,
      "acy": 4979,
      "ĠMasana": 4980,
      "Ġfind": 4981,
      "ream": 4982,
      "Ä«": 4983,
      "ĠBirtaniya": 4984,
      "ĠÆĻirÆĻirar": 4985,
      "Ġginin": 4986,
      "ĠyaÆĻi": 4987,
      "ĠMont": 4988,
      "Ġash": 4989,
      "Ġzabi": 4990,
      "ebr": 4991,
      "soshi": 4992,
      "Ġtuna": 4993,
      "Ġtattara": 4994,
      "sen": 4995,
      "ĠBon": 4996,
      "Ġcapt": 4997,
      "ĠAgustan": 4998,
      "Ġfif": 4999,
      "iba": 5000,
      "Ġitace": 5001,
      "ĠGabashin": 5002,
      "Ġtraditional": 5003,
      "Ġkarin": 5004,
      "Ġgasa": 5005,
      "ante": 5006,
      "Ġamincewa": 5007,
      "Ġtitle": 5008,
      "Ġmoun": 5009,
      "ĠSl": 5010,
      "Ġtsibirin": 5011,
      "Ġmahaifinsa": 5012,
      "AN": 5013,
      "Ã§": 5014,
      "ĠGida": 5015,
      "Ġmotsa": 5016,
      "unÆĻ": 5017,
      "Ġlost": 5018,
      "Ġsurv": 5019,
      "iment": 5020,
      "warma": 5021,
      "Ġtradition": 5022,
      "Ġeducation": 5023,
      "Ġreligious": 5024,
      "mw": 5025,
      "kkya": 5026,
      "orial": 5027,
      "Ġunders": 5028,
      "Ġkaratunsa": 5029,
      "Ġbambanta": 5030,
      "pha": 5031,
      "eds": 5032,
      "ĠSout": 5033,
      "ĠFlor": 5034,
      "Ġjuya": 5035,
      "Ġvalue": 5036,
      "Ġbukatar": 5037,
      "Ġmatsalar": 5038,
      "ĠBos": 5039,
      "Ġmix": 5040,
      "ayoyi": 5041,
      "Ġsqu": 5042,
      "Ġfada": 5043,
      "uries": 5044,
      "ĠMayun": 5045,
      "Ġmovement": 5046,
      "Ġadministr": 5047,
      "ĠUganda": 5048,
      "ĠÎ": 5049,
      "oted": 5050,
      "ĠClub": 5051,
      "ĠAhmad": 5052,
      "Ġdistin": 5053,
      "FL": 5054,
      "Ġsla": 5055,
      "Ġdaular": 5056,
      "Ġcross": 5057,
      "Ġ''": 5058,
      "Ġbase": 5059,
      "Ġ<": 5060,
      "ĠZim": 5061,
      "Ġevents": 5062,
      "hips": 5063,
      "Ġdigirin": 5064,
      "uture": 5065,
      "Ġsize": 5066,
      "ĠMali": 5067,
      "ĠÆĻare": 5068,
      "anna": 5069,
      "Ġsex": 5070,
      "Ġmarub": 5071,
      "ĠFarfesa": 5072,
      "Ġsaur": 5073,
      "Ġwhose": 5074,
      "book": 5075,
      "ports": 5076,
      "Ġgefen": 5077,
      "Ġfoc": 5078,
      "oles": 5079,
      "Ġcikinsu": 5080,
      "ds": 5081,
      "ĠAljeriya": 5082,
      "Ġhadin": 5083,
      "ĠHon": 5084,
      "Ġdisp": 5085,
      "Ġclos": 5086,
      "Ġwords": 5087,
      "zane": 5088,
      "ĠRuwa": 5089,
      "ige": 5090,
      "Amer": 5091,
      "Ġcities": 5092,
      "Ġhost": 5093,
      "cast": 5094,
      "Ġmaga": 5095,
      "Ġspeak": 5096,
      "ĠApple": 5097,
      "ption": 5098,
      "Ġyawanci": 5099,
      "Ġsite": 5100,
      "Ġreac": 5101,
      "medi": 5102,
      "ĠÆĻaura": 5103,
      "Ġwah": 5104,
      "ambar": 5105,
      "vention": 5106,
      "Ġwatsi": 5107,
      "ĠAj": 5108,
      "Ġfri": 5109,
      "ĠMel": 5110,
      "ĠChe": 5111,
      "Ġarm": 5112,
      "Ġach": 5113,
      "Ġ1930": 5114,
      "Ġfal": 5115,
      "Ġiyal": 5116,
      "ĠAbub": 5117,
      "ief": 5118,
      "Ġ70": 5119,
      "ught": 5120,
      "enced": 5121,
      "Ġexcept": 5122,
      "bs": 5123,
      "ua": 5124,
      "ĠFas": 5125,
      "Ġ1961": 5126,
      "ĠBulg": 5127,
      "ker": 5128,
      "Ġ45": 5129,
      "Ġparticularly": 5130,
      "Ġ180": 5131,
      "Ġcann": 5132,
      "karun": 5133,
      "ĠIlimin": 5134,
      "ĠtaÉĵa": 5135,
      "Ġuses": 5136,
      "Ġunre": 5137,
      "Ġsanarwar": 5138,
      "ĠWanda": 5139,
      "Ġ()": 5140,
      "ny": 5141,
      "ores": 5142,
      "Ġshafin": 5143,
      "ette": 5144,
      "ĠArg": 5145,
      "Ġfarashin": 5146,
      "ĠMalays": 5147,
      "ĠSaud": 5148,
      "rought": 5149,
      "ĠÆ³an": 5150,
      "38": 5151,
      "Ġcases": 5152,
      "adesh": 5153,
      "ĠAlexand": 5154,
      "ĠArz": 5155,
      "ĠAwards": 5156,
      "Ġinj": 5157,
      "isk": 5158,
      "Ġshahara": 5159,
      "ĠAfghanistan": 5160,
      "Ġbaiwa": 5161,
      "Ġreferred": 5162,
      "ĠBorn": 5163,
      "ĠPages": 5164,
      "ĠLitt": 5165,
      "iding": 5166,
      "osition": 5167,
      "ĠTimes": 5168,
      "Ġsanann": 5169,
      "Ġaccept": 5170,
      "Ġdirector": 5171,
      "Ġkariya": 5172,
      "Ġkwanaki": 5173,
      "kn": 5174,
      "Ġsound": 5175,
      "VID": 5176,
      "Ġtransport": 5177,
      "ĠFrancis": 5178,
      "ender": 5179,
      "Ġbatut": 5180,
      "ances": 5181,
      "udawa": 5182,
      "Ġsat": 5183,
      "ĠKafin": 5184,
      "Ġstar": 5185,
      "istance": 5186,
      "Ġsojoji": 5187,
      "ummomin": 5188,
      "Ġten": 5189,
      "Ġscience": 5190,
      "Ġkasancewa": 5191,
      "Ġargu": 5192,
      "ĠChic": 5193,
      "ĠzaÉĵa": 5194,
      "Ġbiliyan": 5195,
      "Ġbaraz": 5196,
      "roy": 5197,
      "ĠDangane": 5198,
      "Ġpen": 5199,
      "Ġang": 5200,
      "Ġsauyin": 5201,
      "ju": 5202,
      "Ġnahiyar": 5203,
      "xi": 5204,
      "Ġmuka": 5205,
      "Ġrukuni": 5206,
      "ĠHo": 5207,
      "Ġaltern": 5208,
      "Ġdu": 5209,
      "ĠCz": 5210,
      "ĠwaÆĻar": 5211,
      "ĠAmeric": 5212,
      "Ġkasuwancin": 5213,
      "ĠHak": 5214,
      "ĠÆĻwayoyin": 5215,
      "Ġ1940": 5216,
      "ĠMexico": 5217,
      "oice": 5218,
      "ĠAlf": 5219,
      "Ġjagorancin": 5220,
      "Ġkilled": 5221,
      "ĠKasuwanci": 5222,
      "Ġmagung": 5223,
      "Ġannounced": 5224,
      "Ġalama": 5225,
      "evelop": 5226,
      "Ġcel": 5227,
      "Ġamsoshi": 5228,
      "ĠLagos": 5229,
      "Ġmaki": 5230,
      "ĠMet": 5231,
      "throp": 5232,
      "Ġimm": 5233,
      "Ġofishin": 5234,
      "Ġhealth": 5235,
      "Ġremained": 5236,
      "Ġcritic": 5237,
      "PP": 5238,
      "Ġsunayen": 5239,
      "elling": 5240,
      "ĠMasarautar": 5241,
      "Ġ1948": 5242,
      "ĠCompany": 5243,
      "Ġsources": 5244,
      "ĠFul": 5245,
      "Ġonce": 5246,
      "Ġdesigned": 5247,
      "ĠIsrael": 5248,
      "ĠCommun": 5249,
      "ĠEv": 5250,
      "Ġkisan": 5251,
      "Ġborn": 5252,
      "Ġnorthern": 5253,
      "Ġran": 5254,
      "ĠSashen": 5255,
      "ĠWak": 5256,
      "agon": 5257,
      "ogi": 5258,
      "Ġbooks": 5259,
      "ĠId": 5260,
      "anted": 5261,
      "Ġsiyasar": 5262,
      "ficult": 5263,
      "ĠCOVID": 5264,
      "Ġdarak": 5265,
      "Ġhum": 5266,
      "ĠHung": 5267,
      "ĠFa": 5268,
      "Ġlardin": 5269,
      "ibility": 5270,
      "ĠPortugal": 5271,
      "Ġgl": 5272,
      "Ġactress": 5273,
      "olf": 5274,
      "anyi": 5275,
      "Ġhoto": 5276,
      "jejeniya": 5277,
      "ĠOfishin": 5278,
      "Ġconcern": 5279,
      "Ġbur": 5280,
      "clus": 5281,
      "Ġrail": 5282,
      "ĠSecond": 5283,
      "Ġhau": 5284,
      "peror": 5285,
      "ĠOrder": 5286,
      "Ġinstr": 5287,
      "ĠMohammed": 5288,
      "edy": 5289,
      "Ġmor": 5290,
      "Ġapprox": 5291,
      "Ġtayi": 5292,
      "cco": 5293,
      "Ġ1945": 5294,
      "babwe": 5295,
      "ĠIl": 5296,
      "Ġrequired": 5297,
      "imin": 5298,
      "Ġcompanies": 5299,
      "Ġgwagwarma": 5300,
      "irr": 5301,
      "Ġamfanin": 5302,
      "Ġhoton": 5303,
      "Ġfootballer": 5304,
      "Ġhelp": 5305,
      "Ġallowed": 5306,
      "ĠCamp": 5307,
      "ĠFurther": 5308,
      "Ġsus": 5309,
      "Ġ1958": 5310,
      "ĠProgr": 5311,
      "Ġfeatures": 5312,
      "49": 5313,
      "ened": 5314,
      "ĠMalam": 5315,
      "Ġsource": 5316,
      "org": 5317,
      "ĠCop": 5318,
      "olo": 5319,
      "ĠArmen": 5320,
      "Ġmasarautar": 5321,
      "iko": 5322,
      "ĠBut": 5323,
      "Ġsurface": 5324,
      "ĠHistor": 5325,
      "ĠWales": 5326,
      "Ġ1920": 5327,
      "ututtukan": 5328,
      "Ġable": 5329,
      "Ġjaridar": 5330,
      "ĠSur": 5331,
      "ĠSil": 5332,
      "Ġgave": 5333,
      "ĠSheikh": 5334,
      "ĠManuf": 5335,
      "Ġrule": 5336,
      "Ġlack": 5337,
      "Ġzagaye": 5338,
      "ĠCourt": 5339,
      "Ġdifficult": 5340,
      "Ġrasu": 5341,
      "Ġjud": 5342,
      "Ġcampaign": 5343,
      "ĠMur": 5344,
      "Ġmoved": 5345,
      "ĠTra": 5346,
      "Ġmako": 5347,
      "ĠTw": 5348,
      "ĠTso": 5349,
      "Ġasp": 5350,
      "Ġbillion": 5351,
      "Ġshafe": 5352,
      "ĠYus": 5353,
      "oys": 5354,
      "ĠAngola": 5355,
      "abb": 5356,
      "Ġshan": 5357,
      "Ġelection": 5358,
      "Ġknow": 5359,
      "ĠScotland": 5360,
      "Ġraj": 5361,
      "Ġ90": 5362,
      "ĠÆĻoÆĻarin": 5363,
      "bour": 5364,
      "Ġsarak": 5365,
      "reme": 5366,
      "Ġkawar": 5367,
      "aching": 5368,
      "action": 5369,
      "hiri": 5370,
      "Ġfafata": 5371,
      "Ġdamuwa": 5372,
      "Ġradio": 5373,
      "Ab": 5374,
      "ĠIts": 5375,
      "Ġprovide": 5376,
      "Ġmatsalolin": 5377,
      "ĠCambridge": 5378,
      "ĠLouis": 5379,
      "Ġbugawa": 5380,
      "Ġzubar": 5381,
      "Ġrespons": 5382,
      "Ġalamar": 5383,
      "ĠÉĹayan": 5384,
      "echni": 5385,
      "Ġarchitect": 5386,
      "Ġtallafawa": 5387,
      "Ġhukumomi": 5388,
      "Ġhalittu": 5389,
      "ĠMaur": 5390,
      "iddiga": 5391,
      "vert": 5392,
      "ĠZimbabwe": 5393,
      "kh": 5394,
      "leg": 5395,
      "Ġdokoki": 5396,
      "wando": 5397,
      "Ġdarek": 5398,
      "Ġdut": 5399,
      "Ġaini": 5400,
      "ĠMiddle": 5401,
      "ĠÆĻayya": 5402,
      "ĠOd": 5403,
      "Ġ1959": 5404,
      "...": 5405,
      "Ã£": 5406,
      "based": 5407,
      "Ġauren": 5408,
      "ference": 5409,
      "Ġlarger": 5410,
      "Ġincreasing": 5411,
      "Ġwent": 5412,
      "ĠMoro": 5413,
      "abe": 5414,
      "ĠBrown": 5415,
      "Ġforeign": 5416,
      "ĠBus": 5417,
      "ogen": 5418,
      "ĠDaular": 5419,
      "ĠMusic": 5420,
      "Ġapplic": 5421,
      "Ġleading": 5422,
      "ĠAnnabi": 5423,
      "Ġfili": 5424,
      "Ġmeet": 5425,
      "ĠEk": 5426,
      "Ġrank": 5427,
      "Ġzartar": 5428,
      "Ġkasuwar": 5429,
      "Ġserved": 5430,
      "Ġeconomy": 5431,
      "32": 5432,
      "dam": 5433,
      "Ġcit": 5434,
      "ĠÆĻan": 5435,
      "ibuted": 5436,
      "ĠServ": 5437,
      "ĠÆĻab": 5438,
      "Ġstarted": 5439,
      "American": 5440,
      "Ġobject": 5441,
      "gwa": 5442,
      "rama": 5443,
      "ĠMusa": 5444,
      "Ġunreviewed": 5445,
      "ĠMen": 5446,
      "ĠInt": 5447,
      "Ġbidiyo": 5448,
      "Ġtambaya": 5449,
      "use": 5450,
      "Ġrigaka": 5451,
      "ĠCzech": 5452,
      "Ġmach": 5453,
      "Ġgrowth": 5454,
      "celona": 5455,
      "Ġ|-": 5456,
      "uge": 5457,
      "Ġbeha": 5458,
      "ibi": 5459,
      "Ġmalamin": 5460,
      "Ġprovided": 5461,
      "34": 5462,
      "cul": 5463,
      "ĠCross": 5464,
      "Ġelement": 5465,
      "Ġnasa": 5466,
      "Ġmab": 5467,
      "Ġkamuwa": 5468,
      "sych": 5469,
      "anchester": 5470,
      "adiyya": 5471,
      "ĠhaÉĹari": 5472,
      "Ġmemb": 5473,
      "iance": 5474,
      "ground": 5475,
      "ĠÆĻungiyoyi": 5476,
      "yt": 5477,
      "Ġsarki": 5478,
      "Ġwal": 5479,
      "ĠTown": 5480,
      "ĠHarkokin": 5481,
      "Ġpoet": 5482,
      "Ġeffects": 5483,
      "Ġeventually": 5484,
      "ĠAlh": 5485,
      "Ġmaganin": 5486,
      "Ġkarantawa": 5487,
      "Ġsouthern": 5488,
      "ĠMartin": 5489,
      "Ġprobab": 5490,
      "onds": 5491,
      "Ġvideo": 5492,
      "Ġtsere": 5493,
      "Ġwhite": 5494,
      "ĠVirgin": 5495,
      "Ġmother": 5496,
      "urity": 5497,
      "warin": 5498,
      "Ġkasancewar": 5499,
      "aben": 5500,
      "matic": 5501,
      "Ġmanufact": 5502,
      "onia": 5503,
      "Ġlaka": 5504,
      "ĠPrince": 5505,
      "Ġacikin": 5506,
      "ĠOst": 5507,
      "Ġspecific": 5508,
      "ria": 5509,
      "ĠGarin": 5510,
      "irus": 5511,
      "imb": 5512,
      "ĠMuslim": 5513,
      "Ġlalace": 5514,
      "alci": 5515,
      "ources": 5516,
      "unicip": 5517,
      "Ġgudummawa": 5518,
      "ango": 5519,
      "obe": 5520,
      "Ġgener": 5521,
      "\">": 5522,
      "ring": 5523,
      "enth": 5524,
      "Ġtypically": 5525,
      "Ġmale": 5526,
      "Ġdeg": 5527,
      "Ġexecut": 5528,
      "asashen": 5529,
      "ĠShar": 5530,
      "pret": 5531,
      "ĠMusulmi": 5532,
      "ĠSiyasa": 5533,
      "Ġwest": 5534,
      "ilities": 5535,
      "ĠArts": 5536,
      "Ġbelieved": 5537,
      "ĠCast": 5538,
      "ĠAfrilun": 5539,
      "Ġcommercial": 5540,
      "wanci": 5541,
      "Ġaikinta": 5542,
      "Ġsymb": 5543,
      "Ġsalon": 5544,
      "itzer": 5545,
      "Ġprivate": 5546,
      "65": 5547,
      "Ġclose": 5548,
      "ĠBah": 5549,
      "Ġzanga": 5550,
      "ĠIbn": 5551,
      "Ġzinare": 5552,
      "Ġpast": 5553,
      "'t": 5554,
      "ulu": 5555,
      "ibution": 5556,
      "ĠChadi": 5557,
      "shekara": 5558,
      "Ġclear": 5559,
      "eda": 5560,
      "Ġhtt": 5561,
      "ĠkarÉĵi": 5562,
      "rub": 5563,
      "Ġkad": 5564,
      "Ġeast": 5565,
      "ĠClass": 5566,
      "Ġcommonly": 5567,
      "Ġmight": 5568,
      "ella": 5569,
      "Ġharam": 5570,
      "ĠJon": 5571,
      "Ġhighest": 5572,
      "eri": 5573,
      "Ġsaw": 5574,
      "Ġcurrent": 5575,
      "ĠJewish": 5576,
      "Ġnames": 5577,
      "riev": 5578,
      "Ġren": 5579,
      "igen": 5580,
      "pa": 5581,
      "itte": 5582,
      "Ġbayani": 5583,
      "azz": 5584,
      "ĠJohnson": 5585,
      "Ġrecorded": 5586,
      "ĠOxford": 5587,
      "elves": 5588,
      "Ġresults": 5589,
      "ĠTekun": 5590,
      "ĠFound": 5591,
      "Ġconduct": 5592,
      "Ġiko": 5593,
      "amur": 5594,
      "ĠNether": 5595,
      "Ġsay": 5596,
      "ĠLo": 5597,
      "Ġlive": 5598,
      "Ġmonths": 5599,
      "ĠKhan": 5600,
      "uch": 5601,
      "imated": 5602,
      "ĠIslands": 5603,
      "otswana": 5604,
      "31": 5605,
      "Ġsanin": 5606,
      "Ġumarnin": 5607,
      "ned": 5608,
      "Ġtunani": 5609,
      "Ġincrease": 5610,
      "fr": 5611,
      "osis": 5612,
      "Ġprimary": 5613,
      "ĠMinister": 5614,
      "Ġnature": 5615,
      "Ġtax": 5616,
      "Ġmechan": 5617,
      "Ġwidely": 5618,
      "tir": 5619,
      "ĠAS": 5620,
      "ĠRadi": 5621,
      "ĠLos": 5622,
      "Ġemer": 5623,
      "Ġmajority": 5624,
      "Ġtab": 5625,
      "Ġjera": 5626,
      "Ġmetal": 5627,
      "Ġbada": 5628,
      "Ġhari": 5629,
      "Ġhama": 5630,
      "Ġdise": 5631,
      "ultural": 5632,
      "Ġfitowa": 5633,
      "Ġtattaunawa": 5634,
      "don": 5635,
      "esh": 5636,
      "tanet": 5637,
      "Ġ500": 5638,
      "dis": 5639,
      "ples": 5640,
      "Ġbrought": 5641,
      "Ġquant": 5642,
      "ĠBelgium": 5643,
      "icles": 5644,
      "ĠJim": 5645,
      "ĠWhite": 5646,
      "ĠJust": 5647,
      "Ġproject": 5648,
      "Ġtypes": 5649,
      "Ġbark": 5650,
      "ĠMari": 5651,
      "Ġbrother": 5652,
      "ek": 5653,
      "Ġbatt": 5654,
      "ĠNorthern": 5655,
      "ĠInjin": 5656,
      "igned": 5657,
      "wararrun": 5658,
      "Ġrespect": 5659,
      "Ġcharacters": 5660,
      "Ġcaused": 5661,
      "Ġaway": 5662,
      "uns": 5663,
      "Ġiyayen": 5664,
      "Ġtrib": 5665,
      "Ġrabin": 5666,
      "ĠCarol": 5667,
      "ĠLimited": 5668,
      "Ġmission": 5669,
      "ĠOtt": 5670,
      "Ġproduct": 5671,
      "ĠAbubuwan": 5672,
      "Ġcode": 5673,
      "Ġrap": 5674,
      "Ġcrew": 5675,
      "ĠMars": 5676,
      "Ġkamfani": 5677,
      "ĠÉĹauke": 5678,
      "Ġterritory": 5679,
      "ĠKul": 5680,
      "ĠÆĺasa": 5681,
      "Ġwakilai": 5682,
      "Ġhankalin": 5683,
      "Ġikirarin": 5684,
      "ĠSultan": 5685,
      "Ġacademic": 5686,
      "CO": 5687,
      "Ġchurch": 5688,
      "Ġibn": 5689,
      "Ġkak": 5690,
      "Ġsabis": 5691,
      "PA": 5692,
      "Ġquest": 5693,
      "Ġashirin": 5694,
      "col": 5695,
      "Ġiyali": 5696,
      "upt": 5697,
      "Ġmagn": 5698,
      "Ġsubject": 5699,
      "Ġfire": 5700,
      "ĠBron": 5701,
      "Ġblood": 5702,
      "ĠBarcelona": 5703,
      "stein": 5704,
      "95": 5705,
      "ĠMiss": 5706,
      "ĠSel": 5707,
      "Ġalk": 5708,
      "ĠForce": 5709,
      "pro": 5710,
      "Ġremains": 5711,
      "ĠSaboda": 5712,
      "Ġhid": 5713,
      "Ġreturned": 5714,
      "gor": 5715,
      "ĠBau": 5716,
      "Ġess": 5717,
      "irit": 5718,
      "Ġsea": 5719,
      "Ġsubsequ": 5720,
      "Ġinterest": 5721,
      "ĠMusulmai": 5722,
      "ĠkiÉĹan": 5723,
      "Ġ1956": 5724,
      "ĠArabic": 5725,
      "Ġlamarin": 5726,
      "iers": 5727,
      "ĠIbadan": 5728,
      "usun": 5729,
      "cles": 5730,
      "Ġ1952": 5731,
      "Ġparticip": 5732,
      "ĠReal": 5733,
      "ĠEarly": 5734,
      "Ġconditions": 5735,
      "Ã¤": 5736,
      "isl": 5737,
      "Ġoutside": 5738,
      "Ġhara": 5739,
      "ĠBig": 5740,
      "ĠCos": 5741,
      "idodin": 5742,
      "Ġtagulla": 5743,
      "ĠManchester": 5744,
      "abeth": 5745,
      "Ġproducer": 5746,
      "Ġmanufar": 5747,
      "Ġlikely": 5748,
      "Ġmazabar": 5749,
      "Ġmicro": 5750,
      "owers": 5751,
      "Ġbugun": 5752,
      "Ġhula": 5753,
      "ĠNi": 5754,
      "ĠAlger": 5755,
      "44": 5756,
      "Ġdyn": 5757,
      "Ġrubutu": 5758,
      "ĠBest": 5759,
      "ĠEastern": 5760,
      "ify": 5761,
      "Ġshafukan": 5762,
      "ĠBugu": 5763,
      "ĠChicago": 5764,
      "ĠIrish": 5765,
      "Ġkayayyaki": 5766,
      "ĠNetherlands": 5767,
      "Ġaward": 5768,
      "ĠBirnin": 5769,
      "Ġguitar": 5770,
      "ĠSar": 5771,
      "ĠTuranci": 5772,
      "Ġrubutun": 5773,
      "Ġjihohin": 5774,
      "amu": 5775,
      "Ġbankin": 5776,
      "Ġrikicin": 5777,
      "Ġ1957": 5778,
      "hat": 5779,
      "ĠDomin": 5780,
      "ĠBotswana": 5781,
      "Ġtafiyar": 5782,
      "ĠÆĻwararrun": 5783,
      "Ġaikata": 5784,
      "ss": 5785,
      "Ùħ": 5786,
      "Ġkaron": 5787,
      "Ġdeclar": 5788,
      "Ġjihohi": 5789,
      "right": 5790,
      "inj": 5791,
      "Ġburin": 5792,
      "Ġliving": 5793,
      "Ġconcent": 5794,
      "omal": 5795,
      "Ġconsider": 5796,
      "hon": 5797,
      "Ġrarraba": 5798,
      "Ġyuw": 5799,
      "ĠEdu": 5800,
      "Ġ...": 5801,
      "Ġsararin": 5802,
      "88": 5803,
      "99": 5804,
      "istry": 5805,
      "Ġmostly": 5806,
      "Ġscreen": 5807,
      "ĠShah": 5808,
      "ÙĬ": 5809,
      "Ġappeared": 5810,
      "ĠUsman": 5811,
      "Ġtheor": 5812,
      "cific": 5813,
      "ĠColumbia": 5814,
      "',": 5815,
      "Ġmala": 5816,
      "Ġratt": 5817,
      "oses": 5818,
      "ifa": 5819,
      "Ġfarar": 5820,
      "okaci": 5821,
      "west": 5822,
      "ĠÉĹari": 5823,
      "gon": 5824,
      "ĠHuman": 5825,
      "ieve": 5826,
      "yer": 5827,
      "Ġhoro": 5828,
      "ĠDef": 5829,
      "ivity": 5830,
      "mselves": 5831,
      "oya": 5832,
      "Ð°": 5833,
      "Ġself": 5834,
      "ĠÆĻware": 5835,
      "ukun": 5836,
      "Ġconstruction": 5837,
      "board": 5838,
      "Ġregions": 5839,
      "Ġtakardar": 5840,
      "odox": 5841,
      "Ġgwajin": 5842,
      "ĠBinciken": 5843,
      "Ġnauyi": 5844,
      "Ġlittle": 5845,
      "Ġtaimakon": 5846,
      "ĠCenter": 5847,
      "Ġchanges": 5848,
      "Ġindependent": 5849,
      "Ġrout": 5850,
      "Ġhotunan": 5851,
      "Ġlonger": 5852,
      "isions": 5853,
      "ancial": 5854,
      "Ġtekun": 5855,
      "Ġviol": 5856,
      "Ġcreat": 5857,
      "Ġconcept": 5858,
      "Ġtsayi": 5859,
      "ĠgabaÉĹaya": 5860,
      "ĠfaÉĹin": 5861,
      "Ġcultural": 5862,
      "ĠSweden": 5863,
      "Da": 5864,
      "Ġoccup": 5865,
      "Ġbeginning": 5866,
      "Ġtechni": 5867,
      "Ġcig": 5868,
      "porary": 5869,
      "ĠGovernment": 5870,
      "Ġthemselves": 5871,
      "ĠBaya": 5872,
      "known": 5873,
      "Ġrattaba": 5874,
      "Ġreplaced": 5875,
      "itation": 5876,
      "Ġshahararr": 5877,
      "Ġwriting": 5878,
      "IS": 5879,
      "Ġcause": 5880,
      "Ġhawa": 5881,
      "Ġlissafi": 5882,
      "Ġadded": 5883,
      "Ġbidiyon": 5884,
      "TV": 5885,
      "Ġoil": 5886,
      "inda": 5887,
      "Ġaction": 5888,
      "Ġsuf": 5889,
      "Ġfassara": 5890,
      "ster": 5891,
      "well": 5892,
      "Ġproducts": 5893,
      "ĠWind": 5894,
      "ĠAnton": 5895,
      "Ġenvironment": 5896,
      "Ġ1954": 5897,
      "Ġlauya": 5898,
      "Ġbreak": 5899,
      "assu": 5900,
      "year": 5901,
      "Ã³n": 5902,
      "rid": 5903,
      "idu": 5904,
      "ĠÆĻungiya": 5905,
      "inton": 5906,
      "ĠRel": 5907,
      "Ġhom": 5908,
      "Ġeight": 5909,
      "Ġstation": 5910,
      "ĠWasannin": 5911,
      "Ġshugabar": 5912,
      "Ġizinin": 5913,
      "no": 5914,
      "elled": 5915,
      "Ġmagani": 5916,
      "ĠPoland": 5917,
      "ĠMalaysia": 5918,
      "Ġbehavi": 5919,
      "time": 5920,
      "uruwan": 5921,
      "ĠGamb": 5922,
      "ygen": 5923,
      "enci": 5924,
      "ĠIndones": 5925,
      "las": 5926,
      "ĠAmb": 5927,
      "Ã©e": 5928,
      "Yancin": 5929,
      "Ġnecess": 5930,
      "ship": 5931,
      "ram": 5932,
      "erve": 5933,
      "ĠCard": 5934,
      "Ġproduce": 5935,
      "Ġearlier": 5936,
      "Ġfle": 5937,
      "Ġhon": 5938,
      "ĠSama": 5939,
      "Ġwayar": 5940,
      "ĠBern": 5941,
      "inois": 5942,
      "Ġpurp": 5943,
      "Ġainihin": 5944,
      "CA": 5945,
      "Ġdial": 5946,
      "Ġmumm": 5947,
      "olk": 5948,
      "ĠRik": 5949,
      "Ġx": 5950,
      "ĠAv": 5951,
      "Ġgang": 5952,
      "Ġbaseball": 5953,
      "ĠSanata": 5954,
      "Ġpractice": 5955,
      "itor": 5956,
      "ĠMot": 5957,
      "Ġdogon": 5958,
      "ciyar": 5959,
      "ners": 5960,
      "Ġlegal": 5961,
      "cean": 5962,
      "ĠDevelop": 5963,
      "kwal": 5964,
      "auci": 5965,
      "Ġsukar": 5966,
      "Ġ32": 5967,
      "ambance": 5968,
      "Ġregular": 5969,
      "Ġhistorical": 5970,
      "Ġru": 5971,
      "Ġharkar": 5972,
      "Ġmijin": 5973,
      "Ġsans": 5974,
      "Ġche": 5975,
      "Ġformal": 5976,
      "ĠHaus": 5977,
      "ancan": 5978,
      "ĠKhal": 5979,
      "Ġcommunic": 5980,
      "rik": 5981,
      "Ġung": 5982,
      "Ġgold": 5983,
      "Ġcome": 5984,
      "Ġkaya": 5985,
      "Ġ1947": 5986,
      "iting": 5987,
      "Ġlines": 5988,
      "Ġwhether": 5989,
      "rieved": 5990,
      "67": 5991,
      "Ġdub": 5992,
      "ĠkiÉĹa": 5993,
      "Ġfetur": 5994,
      "Ġkul": 5995,
      "rich": 5996,
      "Ġfight": 5997,
      "Ġkewaye": 5998,
      "ĠRussia": 5999,
      "cription": 6000,
      "500": 6001,
      "Ġsarauta": 6002,
      "Ġkolin": 6003,
      "Ġmamaki": 6004,
      "Ġmarubuci": 6005,
      "ĠLi": 6006,
      "thodox": 6007,
      "ĠZamb": 6008,
      "ĠÆĻarfafa": 6009,
      "Ġdalilin": 6010,
      "ĠBatman": 6011,
      "nia": 6012,
      "inar": 6013,
      "Ġlabari": 6014,
      "onse": 6015,
      "ĠAM": 6016,
      "Ġtowards": 6017,
      "Ġvia": 6018,
      "ayayya": 6019,
      "Ġayyana": 6020,
      "irs": 6021,
      "ĠJean": 6022,
      "opher": 6023,
      "ĠCivil": 6024,
      "Ġtoday": 6025,
      "ĠÆĻaramar": 6026,
      "ĠCroatia": 6027,
      "ĠTechn": 6028,
      "ĠFe": 6029,
      "koki": 6030,
      "Ġschools": 6031,
      "%,": 6032,
      "ĠHaÆĻ": 6033,
      "Ġlas": 6034,
      "ĠÆĻirar": 6035,
      "apt": 6036,
      "wayen": 6037,
      "Ġlimited": 6038,
      "Ġcareer": 6039,
      "ĠKare": 6040,
      "ĠHill": 6041,
      "isation": 6042,
      "ĠTim": 6043,
      "ider": 6044,
      "ĠRub": 6045,
      "ĠChile": 6046,
      "ledge": 6047,
      "Ġpersonal": 6048,
      "och": 6049,
      "ĠColl": 6050,
      "Ġkarfi": 6051,
      "met": 6052,
      "tu": 6053,
      "Ġkarfin": 6054,
      "Ta": 6055,
      "Ġkat": 6056,
      "Ġharin": 6057,
      "ĠRock": 6058,
      "Ġveh": 6059,
      "Ġsoke": 6060,
      "Ġbirth": 6061,
      "ĠDig": 6062,
      "ĠRome": 6063,
      "ĠLes": 6064,
      "adarai": 6065,
      "Ġbelow": 6066,
      "Ġalbarkatun": 6067,
      "ĠDani": 6068,
      "ĠWomen": 6069,
      "ĠAlbert": 6070,
      "ĠStreet": 6071,
      "ĠÆ´ar": 6072,
      "ĠYahudawa": 6073,
      "ucin": 6074,
      "Ġloss": 6075,
      "aces": 6076,
      "Ġwallafa": 6077,
      "Ġproblems": 6078,
      "Ġcim": 6079,
      "Ġstated": 6080,
      "ĠItaly": 6081,
      "Ġkoyarwa": 6082,
      "Ġchemical": 6083,
      "hood": 6084,
      "change": 6085,
      "Ġmamb": 6086,
      "iles": 6087,
      "ĠFestival": 6088,
      "Ġgwamna": 6089,
      "Ġcost": 6090,
      "Ġmakon": 6091,
      "ĠÆĻauye": 6092,
      "eded": 6093,
      "tirag": 6094,
      "Ġkifi": 6095,
      "ograp": 6096,
      "ĠSojojin": 6097,
      "Ġreading": 6098,
      "%.": 6099,
      "arine": 6100,
      "alled": 6101,
      "Ġacqu": 6102,
      "ĠManyan": 6103,
      "Ġzasu": 6104,
      "wealth": 6105,
      "ĠEliz": 6106,
      "Ġtallafin": 6107,
      "ĠYusuf": 6108,
      "Is": 6109,
      "Ġatom": 6110,
      "ansanci": 6111,
      "ĠÉĹauka": 6112,
      "Ġdar": 6113,
      "align": 6114,
      "Ġappoint": 6115,
      "ĠRail": 6116,
      "Ġdefined": 6117,
      "hold": 6118,
      "Ġwuta": 6119,
      "lying": 6120,
      "Ġcenturies": 6121,
      "Ġkudaden": 6122,
      "Ġ]": 6123,
      "ĠDir": 6124,
      "Ġstudies": 6125,
      "Ġaikace": 6126,
      "Ġopt": 6127,
      "ubal": 6128,
      "Ġphot": 6129,
      "Ġpoints": 6130,
      "itoci": 6131,
      "Ġu": 6132,
      "ughter": 6133,
      "ĠGirkanci": 6134,
      "arawa": 6135,
      "Ġgag": 6136,
      "ĠEdward": 6137,
      "Ġpain": 6138,
      "ĠIsa": 6139,
      "anned": 6140,
      "olec": 6141,
      "ĠAnother": 6142,
      "Ġjimillar": 6143,
      "Ġmurabba": 6144,
      "ennis": 6145,
      "ĠScience": 6146,
      "sea": 6147,
      "anced": 6148,
      "Ġbunk": 6149,
      "ĠBall": 6150,
      "Ġmarubucin": 6151,
      "Ġmakamashi": 6152,
      "Ġbarin": 6153,
      "Ġgra": 6154,
      "ĠTom": 6155,
      "ĠKr": 6156,
      "ĠSeries": 6157,
      "ĠBangl": 6158,
      "ĠPublic": 6159,
      "ession": 6160,
      "Ġkamfanonin": 6161,
      "ng": 6162,
      "san": 6163,
      "Ġriver": 6164,
      "Ġrubuce": 6165,
      "ĠGirma": 6166,
      "ecting": 6167,
      "ĠCE": 6168,
      "ĠFootball": 6169,
      "Ġkomawa": 6170,
      "Ġvariety": 6171,
      "den": 6172,
      "ipp": 6173,
      "itter": 6174,
      "ĠMun": 6175,
      "Ġdeta": 6176,
      "Ġtoo": 6177,
      "Ġkwantirag": 6178,
      "Ġkafofin": 6179,
      "ented": 6180,
      "ĠÆĻuri": 6181,
      "ĠkaÉĹan": 6182,
      "yanci": 6183,
      "Ġinterpret": 6184,
      "Ġexperi": 6185,
      "ĠSaudiyya": 6186,
      "Ġeas": 6187,
      "reedom": 6188,
      "ĠRetrieved": 6189,
      "ĠBob": 6190,
      "Ġlay": 6191,
      "FC": 6192,
      "ĠMov": 6193,
      "ĠWin": 6194,
      "ĠSocial": 6195,
      "Ġraga": 6196,
      "Ġsequ": 6197,
      "embly": 6198,
      "aur": 6199,
      "ĠDec": 6200,
      "Ġalways": 6201,
      "Ġtravel": 6202,
      "ĠLarabci": 6203,
      "edia": 6204,
      "Ġjan": 6205,
      "ĠÆĻarfin": 6206,
      "Ġlambobin": 6207,
      "Ġfront": 6208,
      "Ġbarkwanci": 6209,
      "ĠÆĻari": 6210,
      "ĠEp": 6211,
      "kanta": 6212,
      "Ġtaro": 6213,
      "Ġsmaller": 6214,
      "Ġkungiyoyi": 6215,
      "Ġislands": 6216,
      "nic": 6217,
      "Ġnar": 6218,
      "lahi": 6219,
      "cks": 6220,
      "Ġestimated": 6221,
      "ĠAngeles": 6222,
      "Ġhanci": 6223,
      "Ġsaut": 6224,
      "ĠPacific": 6225,
      "ĠHin": 6226,
      "Ġbaje": 6227,
      "ĠOper": 6228,
      "Ġ36": 6229,
      "ĠNews": 6230,
      "imal": 6231,
      "ĠStar": 6232,
      "Ġcommand": 6233,
      "ĠGwamnati": 6234,
      "Ġdiscovered": 6235,
      "Ġtroops": 6236,
      "Ġdirectly": 6237,
      "isms": 6238,
      "Ġsamarwa": 6239,
      "oon": 6240,
      "Ġrundunar": 6241,
      "ĠJac": 6242,
      "Ġzakarun": 6243,
      "ĠLake": 6244,
      "Ġphysical": 6245,
      "Ġanalysis": 6246,
      "85": 6247,
      "ĠPen": 6248,
      "Ġconfl": 6249,
      "ĠDarakta": 6250,
      "Ġak": 6251,
      "Ġput": 6252,
      "Ġlev": 6253,
      "lag": 6254,
      "Ġkyakkya": 6255,
      "attafan": 6256,
      "Ġmedia": 6257,
      "Ġlayi": 6258,
      "usar": 6259,
      "Ġpolicy": 6260,
      "ĠCommonwealth": 6261,
      "Ġnation": 6262,
      "Ġunits": 6263,
      "bawa": 6264,
      "Ġoffice": 6265,
      "ĠSystem": 6266,
      "Ġworking": 6267,
      "ĠBad": 6268,
      "Ġrinj": 6269,
      "Ġ1955": 6270,
      "ĠGwamnan": 6271,
      "Sa": 6272,
      "icial": 6273,
      "Ġmatukar": 6274,
      "Ġleav": 6275,
      "onomy": 6276,
      "Ġtitin": 6277,
      "Ġlear": 6278,
      "ĠStan": 6279,
      "vey": 6280,
      "abtar": 6281,
      "ĠTri": 6282,
      "ĠVictoria": 6283,
      "\"),": 6284,
      "Ġnakas": 6285,
      "Ġconstitution": 6286,
      "ĠNeja": 6287,
      "yana": 6288,
      "usan": 6289,
      "Ġrecent": 6290,
      "ĠMore": 6291,
      "Ġremov": 6292,
      "Ġcard": 6293,
      "ĠLife": 6294,
      "Ġproperties": 6295,
      "ĠTexas": 6296,
      "Ġyuwuwar": 6297,
      "MA": 6298,
      "Ġfarin": 6299,
      "ĠMill": 6300,
      "kina": 6301,
      "Ġmalami": 6302,
      "ĠMicro": 6303,
      "Ġfahimtar": 6304,
      "42": 6305,
      "ran": 6306,
      "rian": 6307,
      "alo": 6308,
      "Ġproblem": 6309,
      "head": 6310,
      "itaniya": 6311,
      "yoyi": 6312,
      "Ġseven": 6313,
      "oration": 6314,
      "ĠNob": 6315,
      "ĠFarkon": 6316,
      "ishop": 6317,
      "kamako": 6318,
      "Ġpaint": 6319,
      "Ġreached": 6320,
      "ĠRadio": 6321,
      "86": 6322,
      "kawa": 6323,
      "gun": 6324,
      "ĠWata": 6325,
      "tery": 6326,
      "Ġsaki": 6327,
      "ĠOyo": 6328,
      "ĠhaÉĹu": 6329,
      "ockey": 6330,
      "ĠSuna": 6331,
      "Ġdeal": 6332,
      "Ġshaidar": 6333,
      "Ġimanin": 6334,
      "Ġshugaba": 6335,
      "Ġnormal": 6336,
      "Ġmalamai": 6337,
      "ĠDivision": 6338,
      "eman": 6339,
      "hess": 6340,
      "itocin": 6341,
      "Ġadapt": 6342,
      "Ġtsalla": 6343,
      "ension": 6344,
      "Ġtemperature": 6345,
      "erbai": 6346,
      "Ġproposed": 6347,
      "ticles": 6348,
      "wer": 6349,
      "ĠLam": 6350,
      "warsa": 6351,
      "Ġrefl": 6352,
      "Ġ1944": 6353,
      "BS": 6354,
      "Ġbac": 6355,
      "ocal": 6356,
      "Ġjawo": 6357,
      "ĠMr": 6358,
      "cciyar": 6359,
      "Ġ400": 6360,
      "ĠArgent": 6361,
      "Ġcur": 6362,
      "ĠCorn": 6363,
      "Ġinvolved": 6364,
      "fo": 6365,
      "gely": 6366,
      "Ġkarya": 6367,
      "allah": 6368,
      "ĠDokokin": 6369,
      "rin": 6370,
      "ĠAth": 6371,
      "idents": 6372,
      "inu": 6373,
      "Ġkwando": 6374,
      "hine": 6375,
      "Ġprevent": 6376,
      "Ġgaske": 6377,
      "ĠOttoman": 6378,
      "ination": 6379,
      "water": 6380,
      "left": 6381,
      "zine": 6382,
      "Ġkwanan": 6383,
      "Ġseparate": 6384,
      "Ġsom": 6385,
      "Ġboard": 6386,
      "Ġmembobin": 6387,
      "ĠElizabeth": 6388,
      "fen": 6389,
      "Ġhali": 6390,
      "Ġweb": 6391,
      "Ġcorresp": 6392,
      "ĠArziki": 6393,
      "ĠMorocco": 6394,
      "Ġreason": 6395,
      "Ġelected": 6396,
      "Ġgirmamawa": 6397,
      "ĠDevelopment": 6398,
      "Ġminor": 6399,
      "tes": 6400,
      "ĠLand": 6401,
      "Ġhukunci": 6402,
      "Ġ1946": 6403,
      "Ġexpla": 6404,
      "Ġanimals": 6405,
      "Am": 6406,
      "uruwa": 6407,
      "ĠSuf": 6408,
      "ĠLabar": 6409,
      "Ġinsp": 6410,
      "ĠKimiyyar": 6411,
      "Ġdistinct": 6412,
      "gh": 6413,
      "ĠJud": 6414,
      "oston": 6415,
      "phas": 6416,
      "ĠSub": 6417,
      "Ġlength": 6418,
      "ĠIllinois": 6419,
      "Ġdab": 6420,
      "Ġheav": 6421,
      "Ġagric": 6422,
      "Ġnakasassu": 6423,
      "Sh": 6424,
      "urfa": 6425,
      "ĠPop": 6426,
      "Ġreb": 6427,
      "astic": 6428,
      "ips": 6429,
      "Ġsamfurin": 6430,
      "ĠOrthodox": 6431,
      "ittafi": 6432,
      "Ġoperations": 6433,
      "Ġcimma": 6434,
      "icts": 6435,
      "ayoyin": 6436,
      "ĠDam": 6437,
      "ĠAdm": 6438,
      "ĠAzerbai": 6439,
      "aut": 6440,
      "ĠYaÆĻin": 6441,
      "ĠColomb": 6442,
      "Ġtalauci": 6443,
      "Ġcomplete": 6444,
      "ĠBuddha": 6445,
      "Ġscholars": 6446,
      "Ġgayya": 6447,
      "Ġvilla": 6448,
      "Ġgreater": 6449,
      "ĠAbdullahi": 6450,
      "Ġfuture": 6451,
      "iploma": 6452,
      "Ġtechnology": 6453,
      "pping": 6454,
      "ready": 6455,
      "Ġminti": 6456,
      "vin": 6457,
      "ĠTwo": 6458,
      "uguese": 6459,
      "ĠÂ°": 6460,
      "uci": 6461,
      "yon": 6462,
      "ĠGood": 6463,
      "Ġjournal": 6464,
      "Ġmatsayinsa": 6465,
      "ĠSakamakon": 6466,
      "ĠðŁİ": 6467,
      "Ġtunawa": 6468,
      "Ġwahala": 6469,
      "Ġyou": 6470,
      "ady": 6471,
      "reement": 6472,
      "ĠMaza": 6473,
      "RC": 6474,
      "Ġera": 6475,
      "athan": 6476,
      "Ġcenter": 6477,
      "Ġtreatment": 6478,
      "Ġ1953": 6479,
      "Ġkotu": 6480,
      "ĠCarl": 6481,
      "ĠIma": 6482,
      "ĠkarÉĵar": 6483,
      "Ġmultiple": 6484,
      "Ġaro": 6485,
      "icient": 6486,
      "yyar": 6487,
      "ĠAch": 6488,
      "ĠyaÆĻin": 6489,
      "Ġalc": 6490,
      "ĠYoung": 6491,
      "Ġstudents": 6492,
      "Ġministan": 6493,
      "Ġdocument": 6494,
      "ĠUm": 6495,
      "perial": 6496,
      "Ġpercent": 6497,
      "Æĺ": 6498,
      "Ġrat": 6499,
      "ĠMand": 6500,
      "ĠYanayi": 6501,
      "'.": 6502,
      "unts": 6503,
      "ĠAddin": 6504,
      "ĠIslama": 6505,
      "Kogin": 6506,
      "Ġwhom": 6507,
      "Ġlargely": 6508,
      "iraliya": 6509,
      "ĠKwan": 6510,
      "ĠHor": 6511,
      "ĠShirin": 6512,
      "ĠTem": 6513,
      "Ġakai": 6514,
      "Ġtsaun": 6515,
      "ĠBangladesh": 6516,
      "Ġ1949": 6517,
      "ĠFaransanci": 6518,
      "Ġbound": 6519,
      "ithm": 6520,
      "ĠAtlantic": 6521,
      "ĠGal": 6522,
      "Ġperformed": 6523,
      "Ġplaced": 6524,
      "Ġapproximately": 6525,
      "ĠEduc": 6526,
      "annel": 6527,
      "gebra": 6528,
      "km": 6529,
      "Ġgive": 6530,
      "Ġpay": 6531,
      "Ġflight": 6532,
      "Ġleader": 6533,
      "Ġsupported": 6534,
      "IN": 6535,
      "eus": 6536,
      "ĠPan": 6537,
      "ologist": 6538,
      "Ġnumerous": 6539,
      "Ġcollection": 6540,
      "Ġlatter": 6541,
      "43": 6542,
      "Ġcututtuka": 6543,
      "ĠFi": 6544,
      "Ġbayi": 6545,
      "Ġremain": 6546,
      "Ġumarni": 6547,
      "Â°": 6548,
      "ĠShekara": 6549,
      "2007": 6550,
      "amurke": 6551,
      "ĠAy": 6552,
      "afen": 6553,
      "Ġ150": 6554,
      "ĠTanz": 6555,
      "Ġoriginally": 6556,
      "Ġoxygen": 6557,
      "ĠInc": 6558,
      "ĠSouthern": 6559,
      "Ġcos": 6560,
      "Ġmention": 6561,
      "Ġreact": 6562,
      "Ġfitattun": 6563,
      "Ġhukumance": 6564,
      "ĠMcC": 6565,
      "Ġambal": 6566,
      "Ġnearly": 6567,
      "Ġgane": 6568,
      "rem": 6569,
      "emy": 6570,
      "hind": 6571,
      "ĠHaÉĹin": 6572,
      "Ġrelatively": 6573,
      "Ġer": 6574,
      "Ġsanyi": 6575,
      "ĠdaÉĹe": 6576,
      "ums": 6577,
      "Ġrahoto": 6578,
      "Ġadopted": 6579,
      "76": 6580,
      "ĠNic": 6581,
      "Ġtsaf": 6582,
      "Ġaccount": 6583,
      "nov": 6584,
      "Ġmusulmi": 6585,
      "Ġhyp": 6586,
      "Ġgudu": 6587,
      "Ġbetter": 6588,
      "Ġintell": 6589,
      "Ġsadarwar": 6590,
      "Ġdiscuss": 6591,
      "Ġepis": 6592,
      "rad": 6593,
      "uter": 6594,
      "Ġmutuwa": 6595,
      "ĠSpec": 6596,
      "amuran": 6597,
      "ĠCel": 6598,
      "ĠGeorg": 6599,
      "Ġindependence": 6600,
      "Ġkwangilar": 6601,
      "41": 6602,
      "ĠAut": 6603,
      "ĠNam": 6604,
      "Ġdivided": 6605,
      "ĠBoston": 6606,
      "Ġemp": 6607,
      "Ġprevious": 6608,
      "55": 6609,
      "ER": 6610,
      "ĠBil": 6611,
      "ÉĹen": 6612,
      "Ġsurround": 6613,
      "ĠBarb": 6614,
      "olika": 6615,
      "iyy": 6616,
      "anny": 6617,
      "ĠUnder": 6618,
      "ĠAngl": 6619,
      "ilipp": 6620,
      "eli": 6621,
      "Ġshiri": 6622,
      "Ġyarjejeniya": 6623,
      "ĠAlhaji": 6624,
      "po": 6625,
      "sin": 6626,
      "text": 6627,
      "Ġtushe": 6628,
      "Ġrang": 6629,
      "adda": 6630,
      "ĠPla": 6631,
      "Ġtasowa": 6632,
      "ÙĨ": 6633,
      "Ġzahiri": 6634,
      "ĠModern": 6635,
      "ĠHausawa": 6636,
      "Ġkadan": 6637,
      "aton": 6638,
      "ĠAust": 6639,
      "ĠÆĺar": 6640,
      "2015": 6641,
      "zangar": 6642,
      "Ð¾": 6643,
      "Ġ#": 6644,
      "ĠSomal": 6645,
      "itzerland": 6646,
      "rated": 6647,
      "ĠhaÉĹarin": 6648,
      "Ġtafkin": 6649,
      "rd": 6650,
      "Ġcateg": 6651,
      "Ġcututtukan": 6652,
      "ĠAber": 6653,
      "Ġlog": 6654,
      "ĠJackson": 6655,
      "ĠJews": 6656,
      "98": 6657,
      "hawar": 6658,
      "Ġhade": 6659,
      "ataren": 6660,
      "Ġhighly": 6661,
      "Ġneigh": 6662,
      "Ġmarried": 6663,
      "ĠFoundation": 6664,
      "Ġruwaito": 6665,
      "Ġmotar": 6666,
      "ĠPortuguese": 6667,
      "ĠMisali": 6668,
      "Ġdaina": 6669,
      "Ġcred": 6670,
      "ĠViet": 6671,
      "ĠGall": 6672,
      "Ġimani": 6673,
      "ederation": 6674,
      "aje": 6675,
      "Ġredu": 6676,
      "ĠÆĻanÆĻ": 6677,
      "inger": 6678,
      "ĠRahot": 6679,
      "Ġlikita": 6680,
      "Ġidea": 6681,
      "ĠScottish": 6682,
      "essa": 6683,
      "ĠBec": 6684,
      "Ġalready": 6685,
      "Ã¡n": 6686,
      "Ġdabarun": 6687,
      "Ġuwa": 6688,
      "asons": 6689,
      "Ġkoya": 6690,
      "ĠAlber": 6691,
      "zuzz": 6692,
      "Ġwife": 6693,
      "ĠWork": 6694,
      "ensus": 6695,
      "Ġletter": 6696,
      "ĠSok": 6697,
      "ĠÉĹakin": 6698,
      "Ġwriters": 6699,
      "Ġresponse": 6700,
      "yuka": 6701,
      "ĠCat": 6702,
      "tances": 6703,
      "Ġfunctions": 6704,
      "hist": 6705,
      "tace": 6706,
      "Ġkog": 6707,
      "Ġleague": 6708,
      "Ġenter": 6709,
      "Ġhare": 6710,
      "icted": 6711,
      "Ġbanki": 6712,
      "ĠAndrew": 6713,
      "ĠLibrary": 6714,
      "Ġkunshi": 6715,
      "ĠTogo": 6716,
      "ĠHarshen": 6717,
      "ĠNations": 6718,
      "izing": 6719,
      "Ġgwamnato": 6720,
      "Ġadditional": 6721,
      "verse": 6722,
      "Ġlaifi": 6723,
      "bat": 6724,
      "ĠNot": 6725,
      "igan": 6726,
      "asi": 6727,
      "ĠTaf": 6728,
      "Ġiyakar": 6729,
      "Ġcolor": 6730,
      "Ġblock": 6731,
      "Ġhit": 6732,
      "lines": 6733,
      "100": 6734,
      "kel": 6735,
      "ounts": 6736,
      "ĠâĢĶ": 6737,
      "Ġkungiya": 6738,
      "Ġwestern": 6739,
      "Ġprint": 6740,
      "ĠOstiraliya": 6741,
      "ĠAba": 6742,
      "eshi": 6743,
      "Ġhed": 6744,
      "Ġrelease": 6745,
      "Ġperformance": 6746,
      "oid": 6747,
      "ĠBet": 6748,
      "olved": 6749,
      "Ġkarbi": 6750,
      "Ġ44": 6751,
      "dun": 6752,
      "ĠLew": 6753,
      "ĠJagor": 6754,
      "ĠOba": 6755,
      "bed": 6756,
      "ĪĴ": 6757,
      "Ġcust": 6758,
      "Ġwind": 6759,
      "ĠFort": 6760,
      "ĠLord": 6761,
      "ĠTura": 6762,
      "omer": 6763,
      "ĠMatsakaicin": 6764,
      "Ġstatus": 6765,
      "ĠOgun": 6766,
      "ĠYou": 6767,
      "Ġsociety": 6768,
      "Ġplant": 6769,
      "ĠIk": 6770,
      "2006": 6771,
      "ĠSwitzerland": 6772,
      "ĠÉĵangaren": 6773,
      "Ġbod": 6774,
      "Ġnesa": 6775,
      "Ġhous": 6776,
      "Ġmakarantun": 6777,
      "ittee": 6778,
      "Ġever": 6779,
      "Ġmainly": 6780,
      "ĠConserv": 6781,
      "wide": 6782,
      "Ġhira": 6783,
      "Ġpor": 6784,
      "Ġthous": 6785,
      "allen": 6786,
      "ĠAmericans": 6787,
      "Ġdand": 6788,
      "Ġhats": 6789,
      "ayed": 6790,
      "Ġyarin": 6791,
      "Ġabincin": 6792,
      "Ġdaidait": 6793,
      "ĠBib": 6794,
      "Ġadalci": 6795,
      "ĠWasan": 6796,
      "Ġimplement": 6797,
      "Ġunit": 6798,
      "hesis": 6799,
      "IA": 6800,
      "hol": 6801,
      "Ġfagen": 6802,
      "ĠNavy": 6803,
      "Ġ1951": 6804,
      "Ġtuh": 6805,
      "ĠCla": 6806,
      "Ġzuciya": 6807,
      "Ġships": 6808,
      "Ġzargi": 6809,
      "Ġsharhi": 6810,
      "ĠSarauniya": 6811,
      "96": 6812,
      "ĠPost": 6813,
      "ĠFat": 6814,
      "Ġmatsala": 6815,
      "bury": 6816,
      "zen": 6817,
      "Ġkware": 6818,
      "Ġcat": 6819,
      "ĠStep": 6820,
      "Ãº": 6821,
      "ĠÆĺasashen": 6822,
      "ĠKatolika": 6823,
      "Ġthreat": 6824,
      "Ġconqu": 6825,
      "Ġcry": 6826,
      "edic": 6827,
      "ĠGra": 6828,
      "Ġkabilar": 6829,
      "Ġkundi": 6830,
      "Ġmijinta": 6831,
      "ĠSas": 6832,
      "ctic": 6833,
      "Ġdacewa": 6834,
      "imarily": 6835,
      "ĠÂ£": 6836,
      "umn": 6837,
      "Ġcontem": 6838,
      "Ġadana": 6839,
      "Ġhanyoyi": 6840,
      "ĠMajor": 6841,
      "Ġjagoranta": 6842,
      "ĠMinista": 6843,
      "Ġtallafi": 6844,
      "ĠBorno": 6845,
      "ayim": 6846,
      "Ġ38": 6847,
      "Ġdiss": 6848,
      "ĠLeban": 6849,
      "ĠShehu": 6850,
      "iox": 6851,
      "ĠPhilipp": 6852,
      "ĠBiritaniya": 6853,
      "Ġcreate": 6854,
      "ĠSund": 6855,
      "Ġstage": 6856,
      "Ùİ": 6857,
      "heast": 6858,
      "ĠBag": 6859,
      "ĠLove": 6860,
      "obile": 6861,
      "Ġ37": 6862,
      "Ġcentre": 6863,
      "ĠLat": 6864,
      "Ġactive": 6865,
      "ĠBurkina": 6866,
      "ĠRevolution": 6867,
      "Ġ300": 6868,
      "Ġinganci": 6869,
      "ES": 6870,
      "Ġjur": 6871,
      "riage": 6872,
      "shirye": 6873,
      "gir": 6874,
      "iams": 6875,
      "Ġwood": 6876,
      "Ġpp": 6877,
      "ĠLig": 6878,
      "osing": 6879,
      "Ġcompon": 6880,
      "2011": 6881,
      "osa": 6882,
      "onstr": 6883,
      "Ġentire": 6884,
      "ĠMoun": 6885,
      "Ġpath": 6886,
      "Ġcontains": 6887,
      "Ġlook": 6888,
      "ferred": 6889,
      "Ġzarafin": 6890,
      "ient": 6891,
      "Ġkera": 6892,
      "Ġarg": 6893,
      "Ġtherefore": 6894,
      "Ġkwamf": 6895,
      "Ġgwaji": 6896,
      "Ġshows": 6897,
      "ulations": 6898,
      "iber": 6899,
      "aval": 6900,
      "ographic": 6901,
      "Ġzumunta": 6902,
      "Ġcitiz": 6903,
      "Ġbunkasa": 6904,
      "Ġgashin": 6905,
      "ĠDak": 6906,
      "ift": 6907,
      "Ġcut": 6908,
      "uls": 6909,
      "ĠVietnam": 6910,
      "ansion": 6911,
      "Ġplants": 6912,
      "Ġpoor": 6913,
      "Ġopened": 6914,
      "Ġcancantar": 6915,
      "ĠMadrid": 6916,
      "Ġdestroy": 6917,
      "DA": 6918,
      "ĠMi": 6919,
      "ĠVen": 6920,
      "asty": 6921,
      "ĠAbb": 6922,
      "Ġlevels": 6923,
      "Ġcoup": 6924,
      "Ġgabar": 6925,
      "kah": 6926,
      "chus": 6927,
      "ĠPrime": 6928,
      "Ġasarar": 6929,
      "Ġbirane": 6930,
      "ĠResearch": 6931,
      "td": 6932,
      "ĠAlk": 6933,
      "Ġ75": 6934,
      "Ġdivision": 6935,
      "Ġpotential": 6936,
      "ĠBauchi": 6937,
      "tsa": 6938,
      "Ġesc": 6939,
      "Ġmolec": 6940,
      "ules": 6941,
      "Ġkulawa": 6942,
      "Ġasibiti": 6943,
      "\").": 6944,
      "Ba": 6945,
      "ricket": 6946,
      "Ġ1939": 6947,
      "Ġhul": 6948,
      "ĠNap": 6949,
      "ĠJes": 6950,
      "Ġreview": 6951,
      "Å«": 6952,
      "á¸": 6953,
      "ĠwaÆĻa": 6954,
      "ĠYear": 6955,
      "ĠOt": 6956,
      "Ġmethods": 6957,
      "ĠGudanarwa": 6958,
      "Ġmasallacin": 6959,
      "Ġconsum": 6960,
      "Ġharamta": 6961,
      "ĠAge": 6962,
      "Ġ1942": 6963,
      "Ġinitial": 6964,
      "SM": 6965,
      "Ġnit": 6966,
      "iah": 6967,
      "2005": 6968,
      "ĠBeng": 6969,
      "Ġaddress": 6970,
      "utes": 6971,
      "ĠFollow": 6972,
      "Ġhaske": 6973,
      "Ġclimate": 6974,
      "Ġimmedi": 6975,
      "Ġsym": 6976,
      "ĠOktoban": 6977,
      "ĠFaso": 6978,
      "IV": 6979,
      "Ġtik": 6980,
      "Ġkodayake": 6981,
      "Ġget": 6982,
      "ididdiga": 6983,
      "ĠKongo": 6984,
      "Ġsaurin": 6985,
      "Ġprote": 6986,
      "ought": 6987,
      "ĠVirginia": 6988,
      "rown": 6989,
      "ĠGom": 6990,
      "2018": 6991,
      "ĠÆĻirÆĻira": 6992,
      "Ġprofessional": 6993,
      "Ġunderst": 6994,
      "Ġkogi": 6995,
      "Ġsports": 6996,
      "Ġmotoci": 6997,
      "Ġshafa": 6998,
      "ĠDNA": 6999,
      "eoples": 7000,
      "BT": 7001,
      "alu": 7002,
      "ĠLong": 7003,
      "ĠEst": 7004,
      "raham": 7005,
      "ĠBlue": 7006,
      "Ġabokansu": 7007,
      "Ġwide": 7008,
      "ĠSto": 7009,
      "ables": 7010,
      "Ġpair": 7011,
      "ĠUnivers": 7012,
      "Ġ64": 7013,
      "Ġdeep": 7014,
      "ĠAccra": 7015,
      "Ġrules": 7016,
      "asuwar": 7017,
      "ulpt": 7018,
      "estic": 7019,
      "ĠKirista": 7020,
      "2008": 7021,
      "ĠTsaro": 7022,
      "str": 7023,
      "2019": 7024,
      "Ġdrug": 7025,
      "Ġprior": 7026,
      "stitutions": 7027,
      "Ġgajeren": 7028,
      "ĠDaniel": 7029,
      "aska": 7030,
      "ĠGame": 7031,
      "Ġfadada": 7032,
      "Ġdisplay": 7033,
      "Ġclaimed": 7034,
      "ĠPrize": 7035,
      "ĠÉĹalibai": 7036,
      "Ġweek": 7037,
      "istar": 7038,
      "Ġmakarantu": 7039,
      "Ġazurfa": 7040,
      "ĠFilin": 7041,
      "ĠPatri": 7042,
      "Ġcompared": 7043,
      "ders": 7044,
      "ĠWay": 7045,
      "Ġ33": 7046,
      "ype": 7047,
      "Ġissue": 7048,
      "Ġiyalai": 7049,
      "iling": 7050,
      "Ġfocus": 7051,
      "%)": 7052,
      "pan": 7053,
      "Ã±": 7054,
      "ĠRights": 7055,
      "Ġkarkara": 7056,
      "Ġfinancial": 7057,
      "Ġtraining": 7058,
      "ĠIslamic": 7059,
      "Ġmemory": 7060,
      "Ġ1943": 7061,
      "Ġmota": 7062,
      "ĠJirgin": 7063,
      "Ġdirected": 7064,
      "Ġissues": 7065,
      "Ġsoon": 7066,
      "Ġappears": 7067,
      "aikacen": 7068,
      "sun": 7069,
      "Ġop": 7070,
      "ĠKananan": 7071,
      "pool": 7072,
      "ayo": 7073,
      "ĠFarko": 7074,
      "Ġkarfafa": 7075,
      "Ġprimarily": 7076,
      "Ġinfluenced": 7077,
      "Ġkujerar": 7078,
      "ĠRoma": 7079,
      "Ġsamaniya": 7080,
      "izar": 7081,
      "ĠKwallon": 7082,
      "wing": 7083,
      "Ġwancan": 7084,
      "ĠDesp": 7085,
      "Ġalgor": 7086,
      "Ġkalm": 7087,
      "Ġliterature": 7088,
      "ĠWadannan": 7089,
      "á¹": 7090,
      "Ġshigo": 7091,
      "Ġnoted": 7092,
      "Ġfuskanci": 7093,
      "Ġpressure": 7094,
      "Ġshown": 7095,
      "Ġenga": 7096,
      "ĠHaram": 7097,
      "ĠTaron": 7098,
      "Ġavo": 7099,
      "Ġactivity": 7100,
      "ĠÆĬan": 7101,
      "Ġjoined": 7102,
      "Ġfalsa": 7103,
      "hy": 7104,
      "Ġvan": 7105,
      "Ġazabtar": 7106,
      "ĠRos": 7107,
      "Ġjigilar": 7108,
      "uer": 7109,
      "orewa": 7110,
      "Ġcompleted": 7111,
      "ĠDepartment": 7112,
      "Ġsashin": 7113,
      "Ġdazuzz": 7114,
      "ĠKenn": 7115,
      "ĠZino": 7116,
      "Ġbasis": 7117,
      "Ġchanged": 7118,
      "Ġcelebr": 7119,
      "ĠSong": 7120,
      "ĠWood": 7121,
      "Ġcells": 7122,
      "mann": 7123,
      "190": 7124,
      "Ġquick": 7125,
      "Ġfederal": 7126,
      "Ġeastern": 7127,
      "Ġship": 7128,
      "ĠKy": 7129,
      "Ġsakamako": 7130,
      "Ġwhole": 7131,
      "Ġsabunta": 7132,
      "ginen": 7133,
      "ĠISBN": 7134,
      "shin": 7135,
      "icine": 7136,
      "irt": 7137,
      "Ġcounter": 7138,
      "ĠFollowing": 7139,
      "Ġborder": 7140,
      "Ġful": 7141,
      "ĠSani": 7142,
      "Ġwaya": 7143,
      "olled": 7144,
      "Ġtarget": 7145,
      "Ġartists": 7146,
      "Ġpromin": 7147,
      "Ġproperty": 7148,
      "ĠBincike": 7149,
      "Ġbenef": 7150,
      "zant": 7151,
      "orph": 7152,
      "irga": 7153,
      "obar": 7154,
      "Ġfamous": 7155,
      "Ġlegisl": 7156,
      "Ġcannot": 7157,
      "Ġsuggested": 7158,
      "Ġprobably": 7159,
      "Ġfari": 7160,
      "ĠDal": 7161,
      "ctor": 7162,
      "Ġmakes": 7163,
      "Ġfafutukar": 7164,
      "ĠParliament": 7165,
      "Ġkullum": 7166,
      "ĠKoriya": 7167,
      "kat": 7168,
      "ĠDuke": 7169,
      "Ġspread": 7170,
      "ĠLee": 7171,
      "Ġfriend": 7172,
      "ĠDj": 7173,
      "ĠFA": 7174,
      "Ġheavy": 7175,
      "adinai": 7176,
      "97": 7177,
      "Ġgado": 7178,
      "ĠStand": 7179,
      "Ġrepresented": 7180,
      "ĠEducation": 7181,
      "ĠAlgeria": 7182,
      "Ġtsallake": 7183,
      "xed": 7184,
      "ĠLandan": 7185,
      "ĠWakil": 7186,
      "ĠTour": 7187,
      "ĠChel": 7188,
      "Ġmatter": 7189,
      "Ġcarried": 7190,
      "Ġdaughter": 7191,
      "ĠAla": 7192,
      "Ġmatar": 7193,
      "ĠmaÆĻ": 7194,
      "ĠLittafin": 7195,
      "kins": 7196,
      "Ġenough": 7197,
      "2017": 7198,
      "ĠSokoto": 7199,
      "ĠLebanon": 7200,
      "Ġkeep": 7201,
      "ĠÆĻarfe": 7202,
      "ĠMassa": 7203,
      "ropol": 7204,
      "unicipal": 7205,
      "madu": 7206,
      "Ġfemale": 7207,
      "Ġkirkiro": 7208,
      "ĠNobel": 7209,
      "ras": 7210,
      "ĠMista": 7211,
      "abo": 7212,
      "Ġalkal": 7213,
      "Ġforced": 7214,
      "Ġconver": 7215,
      "ĠAustria": 7216,
      "93": 7217,
      "car": 7218,
      "ĠGlobal": 7219,
      "Ġrikice": 7220,
      "Wannan": 7221,
      "Ġdate": 7222,
      "Ġcand": 7223,
      "ĠAri": 7224,
      "Ġlocation": 7225,
      "Ġpeace": 7226,
      "Ġens": 7227,
      "Ġkocin": 7228,
      "atre": 7229,
      "Ġdone": 7230,
      "Ġbind": 7231,
      "2016": 7232,
      "Ġbuildings": 7233,
      "Ã¯": 7234,
      "ĠPenn": 7235,
      "Ġbehind": 7236,
      "Ġmanager": 7237,
      "ĠHaÆĻÆĻin": 7238,
      "odia": 7239,
      "2012": 7240,
      "Ġresulting": 7241,
      "ĠFulani": 7242,
      "Ġkaddamar": 7243,
      "ĠAlkal": 7244,
      "Ġfarf": 7245,
      "urches": 7246,
      "Ġregional": 7247,
      "66": 7248,
      "Ġsashen": 7249,
      "oln": 7250,
      "rovers": 7251,
      "Ġtsayin": 7252,
      "undred": 7253,
      "iza": 7254,
      "TO": 7255,
      "wani": 7256,
      "ĠSunan": 7257,
      "Ġworked": 7258,
      "Ġlaws": 7259,
      "ĠWilliams": 7260,
      "Ġmun": 7261,
      "Ġ34": 7262,
      "Ġjimlar": 7263,
      "Ġearliest": 7264,
      "Ġcorrespond": 7265,
      "Ġtsabar": 7266,
      "ukaci": 7267,
      "Ġjamhur": 7268,
      "Ġingancin": 7269,
      "ĠGwamna": 7270,
      "ĠØ§": 7271,
      "Ġrelationship": 7272,
      "DC": 7273,
      "sau": 7274,
      "Ġcoach": 7275,
      "2004": 7276,
      "ĠLibya": 7277,
      "Ġmadadin": 7278,
      "Ġdegree": 7279,
      "ofi": 7280,
      "Ġduniyar": 7281,
      "ĠlaÆĻ": 7282,
      "Ġ1941": 7283,
      "Ġkomai": 7284,
      "Ġbelief": 7285,
      "iqu": 7286,
      "idodi": 7287,
      "Ġjaka": 7288,
      "thur": 7289,
      "Ġfilayen": 7290,
      "Ġwuya": 7291,
      "ĠAthens": 7292,
      "Ġmamba": 7293,
      "Ġzafin": 7294,
      "Ġalgebra": 7295,
      "ĠWell": 7296,
      "ĠThat": 7297,
      "Ġwriter": 7298,
      "Ġderived": 7299,
      "Ġkayayyakin": 7300,
      "oke": 7301,
      "Ġhours": 7302,
      "Ġkaka": 7303,
      "ĠEnugu": 7304,
      "ĠAw": 7305,
      "Ġtambayoyi": 7306,
      "ĠAle": 7307,
      "ĠSamuel": 7308,
      "Ġtikitin": 7309,
      "ciences": 7310,
      "Ġfarfesa": 7311,
      "ĠChampionship": 7312,
      "ĠKore": 7313,
      "ova": 7314,
      "Ġconstruct": 7315,
      "Ġcigaba": 7316,
      "IT": 7317,
      "ĠÅ": 7318,
      "Ġkaruwar": 7319,
      "Ġprepar": 7320,
      "Ġmutumin": 7321,
      "Ġ1938": 7322,
      "Ġtank": 7323,
      "ales": 7324,
      "Ġfarawa": 7325,
      "Ġpresence": 7326,
      "Ġdalilai": 7327,
      "ĠTai": 7328,
      "ĠOver": 7329,
      "Ġannual": 7330,
      "BM": 7331,
      "Ġcast": 7332,
      "Ġchief": 7333,
      "Ġwahal": 7334,
      "Ġalcoh": 7335,
      "87": 7336,
      "ĠMala": 7337,
      "Ġgaza": 7338,
      "ĠAbin": 7339,
      "shire": 7340,
      "Ġquestion": 7341,
      "oul": 7342,
      "Ġnata": 7343,
      "Ġciniki": 7344,
      "Ġkiransa": 7345,
      "Ġsinadarai": 7346,
      "IP": 7347,
      "ois": 7348,
      "Ġroot": 7349,
      "ĠBoko": 7350,
      "Ġzanen": 7351,
      "ĠByzant": 7352,
      "Ã£o": 7353,
      "Ġdisease": 7354,
      "ftin": 7355,
      "Ġdutsen": 7356,
      "Ġsarkin": 7357,
      "Ġkind": 7358,
      "rog": 7359,
      "ĠOm": 7360,
      "ymph": 7361,
      "ĠHotuna": 7362,
      "aded": 7363,
      "ukin": 7364,
      "Ġcontract": 7365,
      "ĠRoad": 7366,
      "ĠAirport": 7367,
      "Ġbatutuwan": 7368,
      "Ġrapid": 7369,
      "Ġrisk": 7370,
      "itaccen": 7371,
      "ylv": 7372,
      "Ġkauye": 7373,
      "ĠAlfred": 7374,
      "ĠDespite": 7375,
      "IM": 7376,
      "had": 7377,
      "Ġmove": 7378,
      "Ġstop": 7379,
      "Ġtransm": 7380,
      "ĠzaÉĵin": 7381,
      "Ġdimok": 7382,
      "Ġscientific": 7383,
      "ĠbaÆĻi": 7384,
      "ĠElectr": 7385,
      "Ġblue": 7386,
      "Ġweap": 7387,
      "ĠFirayim": 7388,
      "Ġgudummawar": 7389,
      "ario": 7390,
      "ternet": 7391,
      "Ġcreation": 7392,
      "ĠSerb": 7393,
      "Ġsoldiers": 7394,
      "RA": 7395,
      "iku": 7396,
      "ĠRaj": 7397,
      "2010": 7398,
      "Ġplaces": 7399,
      "Ġclaim": 7400,
      "cement": 7401,
      "Ġalternative": 7402,
      "89": 7403,
      "itors": 7404,
      "Ġpun": 7405,
      "Ġsigned": 7406,
      "Ġoccas": 7407,
      "jected": 7408,
      "with": 7409,
      "ĠSqu": 7410,
      "Ġpaper": 7411,
      "tage": 7412,
      "Ġkarar": 7413,
      "oken": 7414,
      "ĠStat": 7415,
      "ĠMohamed": 7416,
      "yond": 7417,
      "Ä±": 7418,
      "ĠGDP": 7419,
      "bul": 7420,
      "ede": 7421,
      "idda": 7422,
      "Ġexc": 7423,
      "ĠShir": 7424,
      "Ġobjects": 7425,
      "Ġmurabus": 7426,
      "app": 7427,
      "net": 7428,
      "ĠDev": 7429,
      "ĠLev": 7430,
      "Ġjiha": 7431,
      "anguage": 7432,
      "Ġprovides": 7433,
      "ullar": 7434,
      "Ġmaterials": 7435,
      "ĠMutuwan": 7436,
      "Ġfuska": 7437,
      "ĠNuwam": 7438,
      "incoln": 7439,
      "Ġdemonstr": 7440,
      "Ġizini": 7441,
      "ĠEt": 7442,
      "Ġtsalle": 7443,
      "Ġscript": 7444,
      "ĠmawaÆĻa": 7445,
      "Ġglobal": 7446,
      "ĠTro": 7447,
      "ĠFer": 7448,
      "Ġcike": 7449,
      "Ġnuni": 7450,
      "Ġrum": 7451,
      "ĠNk": 7452,
      "Ġamount": 7453,
      "Ġingantaccen": 7454,
      "most": 7455,
      "allin": 7456,
      "Ġbecoming": 7457,
      "aw": 7458,
      "vard": 7459,
      "Ġbud": 7460,
      "Ġrasha": 7461,
      "ĠAdd": 7462,
      "2013": 7463,
      "Ġweak": 7464,
      "Ġrayuwarsa": 7465,
      "band": 7466,
      "Ġpsych": 7467,
      "Ġthr": 7468,
      "Ġuniversity": 7469,
      "Ġperm": 7470,
      "auni": 7471,
      "Ġyunk": 7472,
      "ĠTreat": 7473,
      "etts": 7474,
      "ĠUE": 7475,
      "Ġkarancin": 7476,
      "ublican": 7477,
      "ĠÆĻwall": 7478,
      "Ġvictory": 7479,
      "rief": 7480,
      "ĠPolit": 7481,
      "ĠMoon": 7482,
      "his": 7483,
      "ĠCari": 7484,
      "ĠPap": 7485,
      "ĠLah": 7486,
      "2009": 7487,
      "rapy": 7488,
      "bal": 7489,
      "Ġbala": 7490,
      "atures": 7491,
      "ĠKel": 7492,
      "igation": 7493,
      "ĠEqu": 7494,
      "ĠSports": 7495,
      "opes": 7496,
      "Ġdesp": 7497,
      "Ġkata": 7498,
      "Ġbana": 7499,
      "Ġinhab": 7500,
      "ĠWall": 7501,
      "Ġvon": 7502,
      "prus": 7503,
      "ĠSaudi": 7504,
      "ĠMedia": 7505,
      "LA": 7506,
      "arter": 7507,
      "Ġsiyar": 7508,
      "ĠyunÆĻ": 7509,
      "Ġshuka": 7510,
      "afar": 7511,
      "Ġletters": 7512,
      "Ġzumunci": 7513,
      "xts": 7514,
      "emic": 7515,
      "ĠArist": 7516,
      "ĠLabour": 7517,
      "ĠgurÉĵataccen": 7518,
      "Ġtaking": 7519,
      "Ġmom": 7520,
      "akai": 7521,
      "ĠUkrain": 7522,
      "Ġrashawa": 7523,
      "77": 7524,
      "92": 7525,
      "Ġbomb": 7526,
      "ĠHus": 7527,
      "cluding": 7528,
      "Ġindividuals": 7529,
      "Ġgraph": 7530,
      "ĠJe": 7531,
      "Ġtsira": 7532,
      "Ġsculpt": 7533,
      "ummomi": 7534,
      "Ġelectron": 7535,
      "Ġdutse": 7536,
      "Ġstars": 7537,
      "Ġhasken": 7538,
      "Ad": 7539,
      "tact": 7540,
      "ĠHarr": 7541,
      "2003": 7542,
      "Ġrediyo": 7543,
      "Ġtakama": 7544,
      "ĠLincoln": 7545,
      "yaran": 7546,
      "Ġtrue": 7547,
      "Ġdouble": 7548,
      "ĠAshanti": 7549,
      "Ġcomposer": 7550,
      "more": 7551,
      "wata": 7552,
      "urus": 7553,
      "enty": 7554,
      "Ġkwayar": 7555,
      "Ġcomposed": 7556,
      "ĠKaramar": 7557,
      "Ġneeded": 7558,
      "Ġmuhimmanci": 7559,
      "Ġexperience": 7560,
      "Ġmoney": 7561,
      "quot": 7562,
      "Ġkwale": 7563,
      "Ġintended": 7564,
      "ĠYarbawa": 7565,
      "Ġphilosophy": 7566,
      "ĠNotes": 7567,
      "Ġteams": 7568,
      "NC": 7569,
      "Ġice": 7570,
      "harma": 7571,
      "ordin": 7572,
      "dex": 7573,
      "Ġcontrast": 7574,
      "ĠWel": 7575,
      "ĠGreece": 7576,
      "Ġidentified": 7577,
      "ĠTsohon": 7578,
      "mond": 7579,
      "site": 7580,
      "Ġdakin": 7581,
      "Ġgare": 7582,
      "Ġrad": 7583,
      "ĠSand": 7584,
      "oper": 7585,
      "iano": 7586,
      "Ġcinikin": 7587,
      "Ġsecret": 7588,
      "ĠNorway": 7589,
      "Ġheart": 7590,
      "Ġspirit": 7591,
      "2014": 7592,
      "Ġrikici": 7593,
      "Ġindustrial": 7594,
      "Ġzuba": 7595,
      "ĠGund": 7596,
      "Ġmasara": 7597,
      "Ġyiwuwa": 7598,
      "ĠNamib": 7599,
      "Ø±": 7600,
      "Ġexpansion": 7601,
      "Ġroad": 7602,
      "Ġsadaukar": 7603,
      "ĠEconom": 7604,
      "Ġsense": 7605,
      "ĠBoth": 7606,
      "ĠBabu": 7607,
      "ĠTsakanin": 7608,
      "ĠKasuwancin": 7609,
      "ibly": 7610,
      "ensity": 7611,
      "yria": 7612,
      "Ġreligion": 7613,
      "Ġreduced": 7614,
      "SP": 7615,
      "fara": 7616,
      "ris": 7617,
      "arima": 7618,
      "ĠMawa": 7619,
      "Ġbashi": 7620,
      "iverpool": 7621,
      "Ġshawarwari": 7622,
      "Ġajiye": 7623,
      "ĠHelen": 7624,
      "Ġdarektan": 7625,
      "Äĩ": 7626,
      "aliban": 7627,
      "Ġassum": 7628,
      "ĠAnglican": 7629,
      "imi": 7630,
      "ĠLin": 7631,
      "Ġdecided": 7632,
      "Ġlabaran": 7633,
      "Ġlaifin": 7634,
      "Ġpassed": 7635,
      "Ġcombined": 7636,
      "Ð½": 7637,
      "ugg": 7638,
      "Ġdecre": 7639,
      "idojin": 7640,
      "Ġsanannen": 7641,
      "Ġbehavior": 7642,
      "EP": 7643,
      "OM": 7644,
      "lu": 7645,
      "Ġinst": 7646,
      "ĠFree": 7647,
      "racy": 7648,
      "orders": 7649,
      "ĠIraq": 7650,
      "lit": 7651,
      "song": 7652,
      "Ġrani": 7653,
      "Ġrise": 7654,
      "ĠLiga": 7655,
      "Ġyet": 7656,
      "ĠHy": 7657,
      "Ġ140": 7658,
      "Ġedition": 7659,
      "Ġvalues": 7660,
      "Ma": 7661,
      "Ġconstant": 7662,
      "Ġgirmama": 7663,
      "ĠTurkiyya": 7664,
      "ĠAzerbaijan": 7665,
      "ÉĹai": 7666,
      "Ġhapp": 7667,
      "Ġrace": 7668,
      "Ġbayyanar": 7669,
      "ĠKund": 7670,
      "anning": 7671,
      "ĠDistrict": 7672,
      "ĠGolden": 7673,
      "Ġsongs": 7674,
      "mus": 7675,
      "ĠLau": 7676,
      "ĠAnth": 7677,
      "rie": 7678,
      "Ġbasic": 7679,
      "Ġnisa": 7680,
      "Ġofis": 7681,
      "ĠFour": 7682,
      "ĠRanar": 7683,
      "Ġsauka": 7684,
      "Ġsacr": 7685,
      "Ġcompounds": 7686,
      "miyar": 7687,
      "Ġmika": 7688,
      "ĠProject": 7689,
      "ĠColor": 7690,
      "ĠAhmadu": 7691,
      "Ġaccepted": 7692,
      "ESC": 7693,
      "Ġtree": 7694,
      "Ġciya": 7695,
      "atare": 7696,
      "ĠHeb": 7697,
      "Ġonline": 7698,
      "kans": 7699,
      "ieval": 7700,
      "ĠCorpor": 7701,
      "ĠIgbo": 7702,
      "which": 7703,
      "Ġjournalist": 7704,
      "oor": 7705,
      "ĠIndepend": 7706,
      "Ġlaunched": 7707,
      "ĠSon": 7708,
      "ĠCas": 7709,
      "bbean": 7710,
      "Ġprograms": 7711,
      "ĠService": 7712,
      "kir": 7713,
      "cewar": 7714,
      "Ġzamantakewar": 7715,
      "Ġmummunan": 7716,
      "ply": 7717,
      "zy": 7718,
      "Ġsens": 7719,
      "ĠCle": 7720,
      "ĠRog": 7721,
      "ĠGuard": 7722,
      "ĠBroad": 7723,
      "Ġmujallar": 7724,
      "LC": 7725,
      "ilies": 7726,
      "ĠKasar": 7727,
      "karar": 7728,
      "ĠRu": 7729,
      "ĠHealth": 7730,
      "Ġfailed": 7731,
      "As": 7732,
      "Ġnomin": 7733,
      "ĠOpen": 7734,
      "Ġreaction": 7735,
      "Ġmotocin": 7736,
      "Ġhydrogen": 7737,
      "ÙĪ": 7738,
      "ĠOut": 7739,
      "Ġended": 7740,
      "encies": 7741,
      "Ġsansanin": 7742,
      "Ġwaka": 7743,
      "agu": 7744,
      "ĠUp": 7745,
      "Ġmachine": 7746,
      "Ġrespectively": 7747,
      "Ġharaji": 7748,
      "Ġappointed": 7749,
      "onso": 7750,
      "Ġsojan": 7751,
      "ĠCommission": 7752,
      "Ġremaining": 7753,
      "Ġcikakkun": 7754,
      "Ġpattern": 7755,
      "ĠØ§ÙĦ": 7756,
      "Ġwr": 7757,
      "Ġmill": 7758,
      "ĠFM": 7759,
      "emen": 7760,
      "Ġincorpor": 7761,
      "Ġhistorian": 7762,
      "Ġmiddle": 7763,
      "Ġmedical": 7764,
      "ĠCongo": 7765,
      "Ġargued": 7766,
      "ĠChelsea": 7767,
      "enh": 7768,
      "ĠBapt": 7769,
      "eti": 7770,
      "Ġalamun": 7771,
      "Ġmatakai": 7772,
      "egun": 7773,
      "Ġ55": 7774,
      "ĠNigerian": 7775,
      "Ġclassical": 7776,
      "ĠMilitary": 7777,
      "94": 7778,
      "ĠwaÆĻoÆĻin": 7779,
      "Ġzaba": 7780,
      "ĠJan": 7781,
      "rier": 7782,
      "Ġdaraja": 7783,
      "Ġpil": 7784,
      "Ġkasan": 7785,
      "ĠArsen": 7786,
      "Ġconsists": 7787,
      "Ġcontrovers": 7788,
      "ĠDC": 7789,
      "ĠFederal": 7790,
      "oti": 7791,
      "Ġpreviously": 7792,
      "ĠMatsayin": 7793,
      "Af": 7794,
      "Ġbad": 7795,
      "angi": 7796,
      "Ġkwalejin": 7797,
      "Ġsummer": 7798,
      "ĠColombia": 7799,
      "Ġsoyayya": 7800,
      "Ġolder": 7801,
      "ĠBecause": 7802,
      "Ġgun": 7803,
      "Ġsoci": 7804,
      "ĠBulgaria": 7805,
      "Ġdiox": 7806,
      "ĠMatt": 7807,
      "forms": 7808,
      "Ġmotsi": 7809,
      "Ġimpact": 7810,
      "Ġdeaths": 7811,
      "Ġmartani": 7812,
      "Ġbautar": 7813,
      "Ġability": 7814,
      "tainment": 7815,
      "ishinan": 7816,
      "Ġauthority": 7817,
      "ĠSA": 7818,
      "ĠTime": 7819,
      "Ġlif": 7820,
      "rogen": 7821,
      "Ġspeed": 7822,
      "bus": 7823,
      "ĠAT": 7824,
      "urt": 7825,
      "ĠKowane": 7826,
      "ching": 7827,
      "Ġdefeated": 7828,
      "ĠCyprus": 7829,
      "bl": 7830,
      "Ġface": 7831,
      "ittar": 7832,
      "ĠTop": 7833,
      "Ġlived": 7834,
      "Ġdistrict": 7835,
      "ĠValley": 7836,
      "Ġwahalar": 7837,
      "cal": 7838,
      "itage": 7839,
      "eties": 7840,
      "ĠRon": 7841,
      "Éĵar": 7842,
      "ĠsauÆĻi": 7843,
      "ĠMulki": 7844,
      "Ġnative": 7845,
      "asts": 7846,
      "andon": 7847,
      "ĠSever": 7848,
      "ĠGur": 7849,
      "ĠLater": 7850,
      "Ġattacks": 7851,
      "ĠUEFA": 7852,
      "ĠTak": 7853,
      "baci": 7854,
      "ĠMusamman": 7855,
      "Ġweight": 7856,
      "ĠGirmamawa": 7857,
      "ĠDisambar": 7858,
      "ĠGabon": 7859,
      "ĠðŁĴ": 7860,
      "Ġajiyar": 7861,
      "Ġhumans": 7862,
      "usal": 7863,
      "Ġdecision": 7864,
      "Ġstudio": 7865,
      "Ġmonarch": 7866,
      "ÆĻoÆĻi": 7867,
      "68": 7868,
      "nest": 7869,
      "Ġwaj": 7870,
      "ĠGas": 7871,
      "Ġrecords": 7872,
      "ĠJonathan": 7873,
      "part": 7874,
      "Ġrasuwar": 7875,
      "ĠMid": 7876,
      "elt": 7877,
      "ĠIV": 7878,
      "alika": 7879,
      "Ġappar": 7880,
      "ospital": 7881,
      "Ġcontaining": 7882,
      "Na": 7883,
      "Åį": 7884,
      "warzon": 7885,
      "Ġstor": 7886,
      "Ġtsayawa": 7887,
      "Ġraye": 7888,
      "ĠSC": 7889,
      "ĠSport": 7890,
      "pal": 7891,
      "Ġinitially": 7892,
      "ĠzaÉĵaÉĵÉĵ": 7893,
      "iew": 7894,
      "Ġnight": 7895,
      "Ġalaka": 7896,
      "oge": 7897,
      "Ġrain": 7898,
      "rel": 7899,
      "Ġrij": 7900,
      "Ġphen": 7901,
      "ĠÆĻimar": 7902,
      "Ġfeature": 7903,
      "Ġkamfen": 7904,
      "ketball": 7905,
      "Ġeffective": 7906,
      "Ġkatako": 7907,
      "Ġour": 7908,
      "Ġmallaki": 7909,
      "Ġslow": 7910,
      "ĠIvory": 7911,
      "mers": 7912,
      "Ġsen": 7913,
      "Ġbata": 7914,
      "ĠSadar": 7915,
      "ĠEg": 7916,
      "Ġmatarsa": 7917,
      "Ġlawyer": 7918,
      "ĠHaj": 7919,
      "Ġ1914": 7920,
      "Ġ1929": 7921,
      "ĠCaribbean": 7922,
      "kamar": 7923,
      "ĠBla": 7924,
      "ĠKididdigar": 7925,
      "ĠFam": 7926,
      "ĠkaÉĹai": 7927,
      "ĠLabor": 7928,
      "Ġjahar": 7929,
      "ĠLiverpool": 7930,
      "Ġbambancin": 7931,
      "Ġethnic": 7932,
      "ĠSum": 7933,
      "istoci": 7934,
      "essive": 7935,
      "Ġmuhimmiyar": 7936,
      "ĠGidauniyar": 7937,
      "Ġgwagwarmayar": 7938,
      "ĠLewis": 7939,
      "Ġcitizens": 7940,
      "Ġtakamaiman": 7941,
      "ĠJr": 7942,
      "Ġformation": 7943,
      "Ġvary": 7944,
      "Ġflu": 7945,
      "oe": 7946,
      "aled": 7947,
      "ĠCuba": 7948,
      "lie": 7949,
      "Ġplaying": 7950,
      "Ġsexual": 7951,
      "ĠStephen": 7952,
      "HO": 7953,
      "Ġdade": 7954,
      "ĠTurkish": 7955,
      "Ð¸": 7956,
      "Ġintanet": 7957,
      "kad": 7958,
      "ĠCD": 7959,
      "ĠHas": 7960,
      "Ġ1918": 7961,
      "ĠMutuwa": 7962,
      "Ġguje": 7963,
      "ĠmawaÆĻin": 7964,
      "Ġasibitin": 7965,
      "ĠQueen": 7966,
      "Ġdom": 7967,
      "Ġharshe": 7968,
      "ĠEU": 7969,
      "aches": 7970,
      "Ġfeatured": 7971,
      "mis": 7972,
      "Ġsection": 7973,
      "ĠKaz": 7974,
      "Ġ1900": 7975,
      "umomi": 7976,
      "tsu": 7977,
      "cious": 7978,
      "udun": 7979,
      "Ġ48": 7980,
      "Ġbox": 7981,
      "Ġjagorantar": 7982,
      "Ġattract": 7983,
      "Ġfrequently": 7984,
      "ĠfaÉĹaÉĹa": 7985,
      "ĠFrancisco": 7986,
      "usi": 7987,
      "Ġmatsayinta": 7988,
      "Ġfatan": 7989,
      "ĠTheir": 7990,
      "tract": 7991,
      "Ġcocin": 7992,
      "ĠThus": 7993,
      "Ġmalaman": 7994,
      "Ġpoly": 7995,
      "ĠFlorida": 7996,
      "Ġbra": 7997,
      "oly": 7998,
      "ĠKara": 7999,
      "ĠNol": 8000,
      "Ġjawa": 8001,
      "Ġalum": 8002,
      "haya": 8003,
      "Ġmodels": 8004,
      "Ġ1937": 8005,
      "St": 8006,
      "Ġtend": 8007,
      "Ġbor": 8008,
      "Ġkaramin": 8009,
      "soft": 8010,
      "uciyar": 8011,
      "ĠHarvard": 8012,
      "Ġorganization": 8013,
      "Ġyasa": 8014,
      "see": 8015,
      "itting": 8016,
      "ĠTunisia": 8017,
      "Ġburn": 8018,
      "adel": 8019,
      "ĠRuth": 8020,
      "Ġkamu": 8021,
      "ĠmuÆĻ": 8022,
      "Ġarrang": 8023,
      "Ġkoguna": 8024,
      "Ġbig": 8025,
      "ĠMatan": 8026,
      "Ġcommunities": 8027,
      "Ġlittattafai": 8028,
      "arus": 8029,
      "Ġfadar": 8030,
      "Ġbainar": 8031,
      "Ġneut": 8032,
      "Ġradiation": 8033,
      "Ġactivities": 8034,
      "64": 8035,
      "Ġyaba": 8036,
      "ador": 8037,
      "ĠRib": 8038,
      "ĠJournal": 8039,
      "udio": 8040,
      "hah": 8041,
      "ĠCocin": 8042,
      "Ġmahaifinta": 8043,
      "Ġequal": 8044,
      "Ġobserved": 8045,
      "chusetts": 8046,
      "mate": 8047,
      "isher": 8048,
      "ĠÆĻi": 8049,
      "ĠWeb": 8050,
      "Ġabun": 8051,
      "ĠBabbar": 8052,
      ".[": 8053,
      "Ġpron": 8054,
      "Ġbarazanar": 8055,
      "ĠRuk": 8056,
      "ĠLtd": 8057,
      "oven": 8058,
      "Ġprison": 8059,
      "ĠMasallacin": 8060,
      "Ġ1927": 8061,
      "ĠDanish": 8062,
      "ĠSatumbar": 8063,
      "Ġraguwar": 8064,
      "Ġsas": 8065,
      "Ġbambance": 8066,
      "ĠTest": 8067,
      "tawa": 8068,
      "ĠCP": 8069,
      "Ġyancin": 8070,
      "aux": 8071,
      "Ġfourth": 8072,
      "Ġurban": 8073,
      "itable": 8074,
      "Ġmada": 8075,
      "ĠGames": 8076,
      "acity": 8077,
      "Ġkwaikwayon": 8078,
      "ĠAtlanta": 8079,
      "dago": 8080,
      "light": 8081,
      "onian": 8082,
      "ĠAkwa": 8083,
      "taining": 8084,
      "crete": 8085,
      "ĠGi": 8086,
      "Ġhagu": 8087,
      "illed": 8088,
      "Ġhalartar": 8089,
      "Ġagaji": 8090,
      "Ġmujallu": 8091,
      "Ġtakes": 8092,
      "Ġconflict": 8093,
      "ĠChief": 8094,
      "ÆĻon": 8095,
      "ĠTawa": 8096,
      "Ġapplied": 8097,
      "Ġkwarin": 8098,
      "ĠRecords": 8099,
      "Ġtsofaf": 8100,
      "bes": 8101,
      "chers": 8102,
      "Ġkisa": 8103,
      "Ġbre": 8104,
      "Ġmaka": 8105,
      "ipment": 8106,
      "Ġconserv": 8107,
      "ĠfaÉĹi": 8108,
      "Ġemphas": 8109,
      "Ġapproach": 8110,
      "Ġnucle": 8111,
      "Ġtu": 8112,
      "ĠMir": 8113,
      "ĠAsalin": 8114,
      "Ġexamples": 8115,
      "www": 8116,
      "Ã¢": 8117,
      "Ġut": 8118,
      "Ġax": 8119,
      "mats": 8120,
      "Ġinternal": 8121,
      "Ġado": 8122,
      "Ġparties": 8123,
      "Ġmakamai": 8124,
      "ĠBible": 8125,
      "ĠOp": 8126,
      "Ġbear": 8127,
      "ccan": 8128,
      "ĠArgentina": 8129,
      "Ġkwararr": 8130,
      "Ġmusical": 8131,
      "ĠEdo": 8132,
      "ĠiÆĻ": 8133,
      "2000": 8134,
      "abanin": 8135,
      "dindin": 8136,
      "Ġsimple": 8137,
      "Ġresulted": 8138,
      "Ġsul": 8139,
      "Ġsector": 8140,
      "Ġbukaci": 8141,
      "Ġhang": 8142,
      "ĠTod": 8143,
      "ims": 8144,
      "igayi": 8145,
      "orship": 8146,
      "barka": 8147,
      "Ġappearance": 8148,
      "ĠHoly": 8149,
      "ĠUkrainian": 8150,
      "eding": 8151,
      "ĠNoma": 8152,
      "Ġdistance": 8153,
      "ĠÉĵar": 8154,
      "Ġdistribution": 8155,
      "Ġgaggawa": 8156,
      "ĠlaÆĻabi": 8157,
      "ËĪ": 8158,
      "Ġanthrop": 8159,
      "Ġkarbar": 8160,
      "Ġcomment": 8161,
      "Ġoperating": 8162,
      "ĠMoz": 8163,
      "ĠCommunity": 8164,
      "lan": 8165,
      "Ġhundred": 8166,
      "Ġstep": 8167,
      "Ġshugabancin": 8168,
      "07": 8169,
      "Bab": 8170,
      "itic": 8171,
      "Ġgadi": 8172,
      "Ġhockey": 8173,
      "undi": 8174,
      "Ġkaru": 8175,
      "ĠAbo": 8176,
      "Ġentered": 8177,
      "ĠhaÉĵakar": 8178,
      "Ġbishop": 8179,
      "Ġdespite": 8180,
      "WA": 8181,
      "iran": 8182,
      "Ġneur": 8183,
      "Ġ42": 8184,
      "ĠSpace": 8185,
      "Ġlaifuka": 8186,
      "Ġideas": 8187,
      "Ġlokutan": 8188,
      "Ġsamfuran": 8189,
      "ĠStudies": 8190,
      "igenous": 8191,
      "Ġfish": 8192,
      "Ġpurch": 8193,
      "Ġzan": 8194,
      "ĠWater": 8195,
      "Ġprovince": 8196,
      "Ġdalar": 8197,
      "cop": 8198,
      "ĠCit": 8199,
      "ĠFace": 8200,
      "Ġmahaifin": 8201,
      "Ġbring": 8202,
      "Ġtsoffin": 8203,
      "Ġartist": 8204,
      "âĢĿ,": 8205,
      "iana": 8206,
      "Ġmel": 8207,
      "ĠKong": 8208,
      "Ġreve": 8209,
      "Ġdead": 8210,
      "Ġhalayen": 8211,
      "Ġfail": 8212,
      "burgh": 8213,
      "Ġnoman": 8214,
      "aling": 8215,
      "eton": 8216,
      "ĠÆĺwararrun": 8217,
      "ĠLiberal": 8218,
      "Ġoffered": 8219,
      "Ġquickly": 8220,
      "ĠMassachusetts": 8221,
      "Ġcor": 8222,
      "Ġhams": 8223,
      "ikar": 8224,
      "ĠDer": 8225,
      "addun": 8226,
      "ĠKyauta": 8227,
      "Ġbukuk": 8228,
      "Ġfigures": 8229,
      "Ġoccurred": 8230,
      "Ġhttps": 8231,
      "PS": 8232,
      "fect": 8233,
      "Ðµ": 8234,
      "Ġinstitutions": 8235,
      "Ġmonth": 8236,
      "Ġhuj": 8237,
      "ĠNetwork": 8238,
      "rane": 8239,
      "sk": 8240,
      "ĠkuÉĹa": 8241,
      "inema": 8242,
      "ĠEngine": 8243,
      "Ġzarafi": 8244,
      "ĠPersian": 8245,
      "Ġfavor": 8246,
      "Ġsiff": 8247,
      "Ġdajin": 8248,
      "yam": 8249,
      "Ġtable": 8250,
      "ĠJord": 8251,
      "ukanta": 8252,
      "Ġroyal": 8253,
      "Ġruns": 8254,
      "ĠKnight": 8255,
      "Ġsusp": 8256,
      "Ġresponsible": 8257,
      "58": 8258,
      "ĠAga": 8259,
      "Ġgwan": 8260,
      "adama": 8261,
      "Ġisass": 8262,
      "Ġ1936": 8263,
      "Ġpositive": 8264,
      "Ġextended": 8265,
      "venue": 8266,
      "osphere": 8267,
      "Ġfigure": 8268,
      "Ġinstrument": 8269,
      "Ġrajista": 8270,
      "cons": 8271,
      "ĠKash": 8272,
      "ĠMaz": 8273,
      "uit": 8274,
      "cewa": 8275,
      "Ġorbit": 8276,
      "Ġimage": 8277,
      "Ġkow": 8278,
      "ĠOcean": 8279,
      "iform": 8280,
      "Ġdefinition": 8281,
      "ĠDenmark": 8282,
      "Ġknowledge": 8283,
      "usta": 8284,
      "Ġ1933": 8285,
      "ĠPhilip": 8286,
      "Ġkadai": 8287,
      "Ġupper": 8288,
      "ĠGaba": 8289,
      "izes": 8290,
      "Ġrecover": 8291,
      "Ġsets": 8292,
      "Ġcontinue": 8293,
      "Ġpal": 8294,
      "ĠBoy": 8295,
      "cking": 8296,
      "ocracy": 8297,
      "Ġnuclear": 8298,
      "ĠAlberta": 8299,
      "Ġcandid": 8300,
      "life": 8301,
      "Ġgins": 8302,
      "ĠSem": 8303,
      "Ġtaimako": 8304,
      "ĠLabarin": 8305,
      "Ġadministration": 8306,
      "icit": 8307,
      "ĠTor": 8308,
      "Ġkarfe": 8309,
      "ĠBCE": 8310,
      "Ġwallafe": 8311,
      "Ġdaukaka": 8312,
      "aunin": 8313,
      "ushi": 8314,
      "ĠLigue": 8315,
      "mut": 8316,
      "oo": 8317,
      "ĠChem": 8318,
      "ĠHars": 8319,
      "2020": 8320,
      "Ġrot": 8321,
      "ÆĻan": 8322,
      "Ġjanye": 8323,
      "Ġdesc": 8324,
      "uther": 8325,
      "ĠFre": 8326,
      "ĠJones": 8327,
      "ĠAlso": 8328,
      "Ġziyarci": 8329,
      "91": 8330,
      "Ġhy": 8331,
      "ĠTay": 8332,
      "char": 8333,
      "Ġconsequ": 8334,
      "Ġmanagement": 8335,
      "ĠEmperor": 8336,
      "Ġgefe": 8337,
      "ĠDaraktan": 8338,
      "Ġbecomes": 8339,
      "Ġsarakunan": 8340,
      "Ġdawa": 8341,
      "Ġhop": 8342,
      "Ġsucce": 8343,
      "oting": 8344,
      "ĠArthur": 8345,
      "Ġtash": 8346,
      "ĠÆĺasar": 8347,
      "¿¼": 8348,
      "ĠÉĹabi": 8349,
      "Ġspoken": 8350,
      "Ġharuff": 8351,
      "Ġrequir": 8352,
      "Ġpresented": 8353,
      "Ġdeclared": 8354,
      "songwriter": 8355,
      "ĠaÆĻ": 8356,
      "ĠdaÉĹin": 8357,
      "ĠHassan": 8358,
      "Ġordered": 8359,
      "Ġmuhimmin": 8360,
      "katche": 8361,
      "ÑĢ": 8362,
      "ubi": 8363,
      "fix": 8364,
      "antawa": 8365,
      "Ġresistance": 8366,
      "ancy": 8367,
      "Ġemb": 8368,
      "ĠTsibirin": 8369,
      "Ġ1926": 8370,
      "ĠÆĻayyade": 8371,
      "katchewan": 8372,
      "ï¿¼": 8373,
      "ĠÆĺungiyoyin": 8374,
      "Ġmanoma": 8375,
      "Ġearth": 8376,
      "ĠJohann": 8377,
      "Ġdepend": 8378,
      "Ġzartarwa": 8379,
      "eless": 8380,
      "ĠDutsen": 8381,
      "ectors": 8382,
      "Ġmarriage": 8383,
      "inium": 8384,
      "Ġreference": 8385,
      "Ġtechniques": 8386,
      "Ġnecessary": 8387,
      "vis": 8388,
      "Ġsand": 8389,
      "ĠAja": 8390,
      "ĠPower": 8391,
      "ariz": 8392,
      "ĠUl": 8393,
      "istocin": 8394,
      "Ġsearch": 8395,
      "Ġkurket": 8396,
      "Ġbalag": 8397,
      "ĠCarolina": 8398,
      "ĠRahoton": 8399,
      "iments": 8400,
      "Ġcouncil": 8401,
      "Ġdistingu": 8402,
      "Ġcurrently": 8403,
      "Ġturned": 8404,
      "Ġengineering": 8405,
      "tare": 8406,
      "Ġconfir": 8407,
      "Ġdioxide": 8408,
      "vest": 8409,
      "alar": 8410,
      "ĠBow": 8411,
      "ĠGeography": 8412,
      "Ġoperation": 8413,
      "ĠHindu": 8414,
      "house": 8415,
      "Ġbrain": 8416,
      "isted": 8417,
      "ovak": 8418,
      "Ġmagungunan": 8419,
      "ĠChi": 8420,
      "ĠCatal": 8421,
      "Ġ1919": 8422,
      "ĠEll": 8423,
      "law": 8424,
      "Ġdirection": 8425,
      "Ġallowing": 8426,
      "Ġcancanci": 8427,
      "ĠiÆĻirarin": 8428,
      "Ġkid": 8429,
      "acts": 8430,
      "Ġlakabi": 8431,
      "Ġbis": 8432,
      "Ġyad": 8433,
      "ception": 8434,
      "Ġtambayar": 8435,
      "Ġdynasty": 8436,
      "ĠColorado": 8437,
      "ĠRam": 8438,
      "onym": 8439,
      "Ġelectric": 8440,
      "Ġfahimta": 8441,
      "300": 8442,
      "dra": 8443,
      "jamin": 8444,
      "Ġkore": 8445,
      "ĠMes": 8446,
      "Ġshot": 8447,
      "ading": 8448,
      "hibit": 8449,
      "avirus": 8450,
      "Ġmusulunci": 8451,
      "Ġclaims": 8452,
      "Ġsulf": 8453,
      "Ġpark": 8454,
      "ĠGram": 8455,
      "Ġgrand": 8456,
      "span": 8457,
      "Ġillustr": 8458,
      "ĠJesus": 8459,
      "Ġfully": 8460,
      "wise": 8461,
      "edi": 8462,
      "ĠCikin": 8463,
      "ĠDaya": 8464,
      "Ġ1925": 8465,
      "ĠWasanni": 8466,
      "ĠPolish": 8467,
      "Ġalmara": 8468,
      "Ġmoment": 8469,
      "Ġaudi": 8470,
      "olar": 8471,
      "iece": 8472,
      "Ġbroadcast": 8473,
      "ĠTin": 8474,
      "ione": 8475,
      "Ġchurches": 8476,
      "Ġdindindin": 8477,
      "Ġdarajar": 8478,
      "Ġsymbol": 8479,
      "ĠHoll": 8480,
      "ĠMaga": 8481,
      "Ġmatsa": 8482,
      "nie": 8483,
      "Ġbiranen": 8484,
      "Ã¼r": 8485,
      "Ġzuriyar": 8486,
      "ĠLabarai": 8487,
      "ESCO": 8488,
      "rÃ©": 8489,
      "ĠDog": 8490,
      "Ġkasuw": 8491,
      "Ġhakar": 8492,
      "Ġnewsp": 8493,
      "Ġarticle": 8494,
      "ĠMicrosoft": 8495,
      "--": 8496,
      "Ġbrief": 8497,
      "Ġbaka": 8498,
      "ĠRh": 8499,
      "ĠEb": 8500,
      "ĠkeÉĵe": 8501,
      "Ġelections": 8502,
      "Ġ1934": 8503,
      "ĠBayani": 8504,
      "ĠAlexandria": 8505,
      "AD": 8506,
      "Ġdedic": 8507,
      "Ġiniti": 8508,
      "agle": 8509,
      "Ġcru": 8510,
      "irai": 8511,
      "Ġpoll": 8512,
      "ĠYin": 8513,
      "Ġspent": 8514,
      "Ġ160": 8515,
      "Ġagreement": 8516,
      "Ġ1928": 8517,
      "Ġcondition": 8518,
      "56": 8519,
      "72": 8520,
      "ĠHong": 8521,
      "ĠLik": 8522,
      "ammad": 8523,
      "Ġbelong": 8524,
      "ĠOlympic": 8525,
      "oud": 8526,
      "Ġdro": 8527,
      "heim": 8528,
      "Ġkari": 8529,
      "manuel": 8530,
      "Ġbinne": 8531,
      "Ġcontribut": 8532,
      "ĠAnne": 8533,
      "oured": 8534,
      "Ġstructures": 8535,
      "aikacin": 8536,
      "ĠBosnia": 8537,
      "ĠArsenal": 8538,
      "ave": 8539,
      "Ġbul": 8540,
      "Ġrika": 8541,
      "ĠDick": 8542,
      "Ġsuma": 8543,
      "Ġslight": 8544,
      "tructure": 8545,
      "iyi": 8546,
      "Ġvow": 8547,
      "Ġ41": 8548,
      "ĠAtt": 8549,
      "Ġmyth": 8550,
      "ĠWindows": 8551,
      "Ġgark": 8552,
      "stone": 8553,
      "Ġhalittar": 8554,
      "ĠCosta": 8555,
      "Ġawarded": 8556,
      "uz": 8557,
      "ĠÄ": 8558,
      "Ġshim": 8559,
      "tane": 8560,
      "state": 8561,
      "amiji": 8562,
      "ĠProv": 8563,
      "Ġ1924": 8564,
      "ĠCountry": 8565,
      "ĠSaskatchewan": 8566,
      "ns": 8567,
      "ĠBac": 8568,
      "Ġ(),": 8569,
      "igration": 8570,
      "Ġkamun": 8571,
      "reek": 8572,
      "ionally": 8573,
      "83": 8574,
      "ĠSau": 8575,
      "ĠSpr": 8576,
      "ectro": 8577,
      "Ġmuseum": 8578,
      "Ġexpected": 8579,
      "Ġdaidaito": 8580,
      "Ġuwar": 8581,
      "Ġyari": 8582,
      "ĠRab": 8583,
      "such": 8584,
      "Ġbiyun": 8585,
      "acing": 8586,
      "ĠAnglo": 8587,
      "1999": 8588,
      "Ġfafatawa": 8589,
      "ĠBuff": 8590,
      "oronavirus": 8591,
      "Ġcharge": 8592,
      "Ġhaihuwar": 8593,
      "Ġuniverse": 8594,
      "ĠAtari": 8595,
      "ivalent": 8596,
      "Ġmarked": 8597,
      "ĠAssembly": 8598,
      "ĠGombe": 8599,
      "79": 8600,
      "Ġreign": 8601,
      "Ġcanja": 8602,
      "ĠJiha": 8603,
      "Ts": 8604,
      "Ġsites": 8605,
      "igu": 8606,
      "Ġrinjaye": 8607,
      "annywood": 8608,
      "eak": 8609,
      "sal": 8610,
      "amine": 8611,
      "ĠAmster": 8612,
      "ĠMataki": 8613,
      "Ġoccurs": 8614,
      "Ġmintuna": 8615,
      "Ġalcohol": 8616,
      "ylvania": 8617,
      "ĠKundin": 8618,
      "haj": 8619,
      "ĠKafa": 8620,
      "ugby": 8621,
      "Ġallows": 8622,
      "Ġ1935": 8623,
      "ĠRepublican": 8624,
      "ishaÉĹi": 8625,
      "ĠTawagar": 8626,
      "53": 8627,
      "ansu": 8628,
      "ĠBund": 8629,
      "inawa": 8630,
      "Ġresources": 8631,
      "Ġyaro": 8632,
      "Ġspeech": 8633,
      "ĠAmsterdam": 8634,
      "inter": 8635,
      "abor": 8636,
      "ukwu": 8637,
      "aged": 8638,
      "ĠAnamb": 8639,
      "Ġnotable": 8640,
      "Ġrestrict": 8641,
      "alists": 8642,
      "Ġplays": 8643,
      "Ġsecondary": 8644,
      "ĠChristianity": 8645,
      "Ġdandalin": 8646,
      "Ġtam": 8647,
      "ĠLG": 8648,
      "tsare": 8649,
      "ogue": 8650,
      "Ġkwakwal": 8651,
      "Ġchlor": 8652,
      "Ġexpressed": 8653,
      "ĠKulob": 8654,
      "ĠSav": 8655,
      "ĠLeon": 8656,
      "ĠArchived": 8657,
      "Ġdarakta": 8658,
      "Ġrigakafin": 8659,
      "ĠCorporation": 8660,
      "aly": 8661,
      "Ġlunar": 8662,
      "Ġalka": 8663,
      "kewar": 8664,
      "Ġhawan": 8665,
      "Ġkwashe": 8666,
      "ĠBrig": 8667,
      "Ġsauye": 8668,
      "Ġgurb": 8669,
      "ĠdaÉĹewa": 8670,
      "ĠByzantine": 8671,
      "Ġgini": 8672,
      "Ġwoman": 8673,
      "Ġrob": 8674,
      "abet": 8675,
      "uli": 8676,
      "ĠAncient": 8677,
      "ynam": 8678,
      "ĠGeorgia": 8679,
      "icians": 8680,
      "taka": 8681,
      "Ġtexts": 8682,
      "ĠSecret": 8683,
      "Ġrefers": 8684,
      "Ġfitaccen": 8685,
      "ĠStandard": 8686,
      ".âĢĿ": 8687,
      "OL": 8688,
      "Ġpowers": 8689,
      "ĠFront": 8690,
      "ĠConstitution": 8691,
      "Ġexistence": 8692,
      "ĠLittle": 8693,
      "iyyun": 8694,
      "pass": 8695,
      "Ġdiploma": 8696,
      "Ġgug": 8697,
      "ĠNg": 8698,
      "iminal": 8699,
      "Ġadabi": 8700,
      "Ġtsawa": 8701,
      "antage": 8702,
      "oca": 8703,
      "ĠHanyar": 8704,
      "ĠAustrian": 8705,
      "Ġsimply": 8706,
      "Ġkingdom": 8707,
      "ĠProfile": 8708,
      "Ġleaving": 8709,
      "oba": 8710,
      "road": 8711,
      "ĠRM": 8712,
      "Ġtsunts": 8713,
      "hail": 8714,
      "Ġoldest": 8715,
      "%),": 8716,
      "Ġdark": 8717,
      "uraren": 8718,
      "ĠDur": 8719,
      "Ġclosed": 8720,
      "Ġbinary": 8721,
      "Ġevolution": 8722,
      "Ġprovin": 8723,
      "Ġarchitecture": 8724,
      "Ġwebsite": 8725,
      "Ġnine": 8726,
      "gacy": 8727,
      "ĠPot": 8728,
      "ĠPubl": 8729,
      "ĠChad": 8730,
      "ĠEnd": 8731,
      "ĠDeath": 8732,
      "Ġshafar": 8733,
      "Ġsarautar": 8734,
      "Ġmaya": 8735,
      "ĠMich": 8736,
      "ĠDara": 8737,
      "ĠGer": 8738,
      "ĠPC": 8739,
      "Ġmanya": 8740,
      "Ġnasu": 8741,
      "Ġfamilies": 8742,
      "ĠAmazon": 8743,
      "ĠbuÆĻata": 8744,
      "Ġmagunguna": 8745,
      "Sc": 8746,
      "Ġple": 8747,
      "ĠBand": 8748,
      "ĠDama": 8749,
      "Ġquality": 8750,
      "Ġleaders": 8751,
      "ĠSakand": 8752,
      "Ġtsananin": 8753,
      "Ø¯": 8754,
      "ĠHan": 8755,
      "ĠFle": 8756,
      "ĠYak": 8757,
      "ĠAdrian": 8758,
      "Ġversions": 8759,
      "Ġcontemporary": 8760,
      "ĠSeveral": 8761,
      "54": 8762,
      "ĠAkan": 8763,
      "ĠABC": 8764,
      "iyata": 8765,
      "Ġ1932": 8766,
      "Ġmanajan": 8767,
      "ĠMuj": 8768,
      "Ġkallo": 8769,
      "ĠAdamawa": 8770,
      "sky": 8771,
      "ĠdaÉĹi": 8772,
      "ĠCre": 8773,
      "Ġkasafin": 8774,
      "Ġcoal": 8775,
      "Ġfuskar": 8776,
      "ĠTechnology": 8777,
      "Ġ*": 8778,
      "Ġaji": 8779,
      "Ġcas": 8780,
      "Ġround": 8781,
      "ĠHous": 8782,
      "ĠGirka": 8783,
      "ĠRashin": 8784,
      "Ġconclud": 8785,
      "upe": 8786,
      "Ġequipment": 8787,
      "Ġmahaifiyarsa": 8788,
      "Ġmentioned": 8789,
      "usalem": 8790,
      "Ġiron": 8791,
      "Ġcomes": 8792,
      "ĠMaroko": 8793,
      "ĠMatasa": 8794,
      "Ġlabor": 8795,
      "Ġragu": 8796,
      "Ġprominent": 8797,
      "OC": 8798,
      "Ġerr": 8799,
      "Ġaminci": 8800,
      "Ġstories": 8801,
      "ighter": 8802,
      "ĠPhilos": 8803,
      "Ġ1922": 8804,
      "ĠÃī": 8805,
      "Ġmabiya": 8806,
      "ĠNollywood": 8807,
      "Ġmiya": 8808,
      "ĠRod": 8809,
      "Ġgajer": 8810,
      "Ġexchange": 8811,
      "cycl": 8812,
      "Ġopposed": 8813,
      "Ġarchae": 8814,
      "ĠFranklin": 8815,
      "funan": 8816,
      "Ġgives": 8817,
      "ĠSant": 8818,
      "ĠHu": 8819,
      "ĠFata": 8820,
      "ĠUb": 8821,
      "ĠConvention": 8822,
      "Ġsecurity": 8823,
      "Ġfollows": 8824,
      "ĠKiwon": 8825,
      "Ġapplications": 8826,
      "Ġfolk": 8827,
      "Ġgiving": 8828,
      "Ġrig": 8829,
      "ĠfaÉĹ": 8830,
      "Ġflow": 8831,
      "Ġserious": 8832,
      "ĠKaratu": 8833,
      "Ġhuhu": 8834,
      "igence": 8835,
      "ĠEle": 8836,
      "ĠVilla": 8837,
      "ĠBoard": 8838,
      "Ġminister": 8839,
      "Ġyadu": 8840,
      "ĠTre": 8841,
      "ĠBre": 8842,
      "ĠDor": 8843,
      "ĠPier": 8844,
      "ĠAlaska": 8845,
      "Ġfinally": 8846,
      "chen": 8847,
      "yes": 8848,
      "ĠAP": 8849,
      "Ġfann": 8850,
      "Ġrushe": 8851,
      "Ġconce": 8852,
      "Ġagreed": 8853,
      "Ġmurder": 8854,
      "ĠBelarus": 8855,
      "ĠJordan": 8856,
      "NS": 8857,
      "Un": 8858,
      "arters": 8859,
      "erc": 8860,
      "ĠFore": 8861,
      "Ġformat": 8862,
      "daga": 8863,
      "ortun": 8864,
      "Ġ1931": 8865,
      "ĠMagana": 8866,
      "Ġmahimmancin": 8867,
      "Ġetc": 8868,
      "61": 8869,
      "Ġdabi": 8870,
      "Ġbn": 8871,
      "asy": 8872,
      "Ġtada": 8873,
      "ĠSarak": 8874,
      "ĠImo": 8875,
      "thing": 8876,
      "ogle": 8877,
      "ĠMusta": 8878,
      "Ġgwaje": 8879,
      "Ġcourse": 8880,
      "ĠSk": 8881,
      "Ġways": 8882,
      "ĠGreg": 8883,
      "ĠFried": 8884,
      "Ġasusun": 8885,
      "Ġatoms": 8886,
      "ĠFreder": 8887,
      "2002": 8888,
      "Ġgoal": 8889,
      "Ġtantancewa": 8890,
      "ĠSomaliya": 8891,
      "Ġtsu": 8892,
      "Ġdecades": 8893,
      "Ġtakardun": 8894,
      "Ġgabatarwa": 8895,
      "Ġterritories": 8896,
      "Ġnegative": 8897,
      "Ġdomestic": 8898,
      "Ġreach": 8899,
      "ifically": 8900,
      "Ġmatch": 8901,
      "Ġminutes": 8902,
      "Ġcompetition": 8903,
      "worth": 8904,
      "zar": 8905,
      "Ġgoyi": 8906,
      "ĠMike": 8907,
      "ĠOrganiz": 8908,
      "ĠPhys": 8909,
      "Ġtsib": 8910,
      "apore": 8911,
      "ĠIndustr": 8912,
      "Ġefforts": 8913,
      "Ġkwantiragin": 8914,
      "62": 8915,
      "Ø¨": 8916,
      "Ġfast": 8917,
      "Ġjayayya": 8918,
      "ĠMaid": 8919,
      "ĠBenjamin": 8920,
      "ĠÆĻwararru": 8921,
      "Ġtsanani": 8922,
      "ĠBusiness": 8923,
      "Ġult": 8924,
      "uration": 8925,
      "Ġ1910": 8926,
      "Ġ1917": 8927,
      "Ġgwani": 8928,
      "Ġofficially": 8929,
      "ĠUNESCO": 8930,
      "63": 8931,
      "olid": 8932,
      "Ġbirds": 8933,
      "Ġactually": 8934,
      "cow": 8935,
      "mod": 8936,
      "alus": 8937,
      "isis": 8938,
      "Ġwild": 8939,
      "Ġtourn": 8940,
      "ulate": 8941,
      "Ġiyakan": 8942,
      "ahman": 8943,
      "ulty": 8944,
      "Ġ1921": 8945,
      "Ġbranch": 8946,
      "sylvania": 8947,
      "Ġbit": 8948,
      "ĠGwa": 8949,
      "othe": 8950,
      "Ġconv": 8951,
      "ĠKashi": 8952,
      "ĠPlay": 8953,
      "Ġyiwuwar": 8954,
      "ĠLan": 8955,
      "illery": 8956,
      "arraba": 8957,
      "Ġbasu": 8958,
      "Ġlaunch": 8959,
      "ĠSwedish": 8960,
      "Ġmountain": 8961,
      "74": 8962,
      "oids": 8963,
      "Ġ\".": 8964,
      "ĠAsian": 8965,
      "dium": 8966,
      "Ġcritical": 8967,
      "Ġsignificantly": 8968,
      "Ġnisan": 8969,
      "ĠRwanda": 8970,
      "Ġfaith": 8971,
      "Ġrunning": 8972,
      "ĠBooks": 8973,
      "Ġregarded": 8974,
      "Ġepisode": 8975,
      "Ġmakwa": 8976,
      "ĠMaria": 8977,
      "ilanci": 8978,
      "ĠNasar": 8979,
      "Ġexact": 8980,
      "Ġkiranta": 8981,
      "Ġnazari": 8982,
      "UN": 8983,
      "Ġtold": 8984,
      "Ġinvas": 8985,
      "ĠAristot": 8986,
      "amm": 8987,
      "omy": 8988,
      "ologists": 8989,
      "Ġbass": 8990,
      "alt": 8991,
      "ĠAkin": 8992,
      "ilan": 8993,
      "anner": 8994,
      "obs": 8995,
      "ĠZin": 8996,
      "Ġgovernor": 8997,
      "ĠAustin": 8998,
      "ĠSuka": 8999,
      "Ġlic": 9000,
      "Ġzurfi": 9001,
      "Ġmixed": 9002,
      "Ġrough": 9003,
      "Ġnama": 9004,
      "ĠSi": 9005,
      "inga": 9006,
      "Ġzirga": 9007,
      "class": 9008,
      "Ġragar": 9009,
      "Ġchap": 9010,
      "Ch": 9011,
      "Ġgreen": 9012,
      "hawara": 9013,
      "ĠCommittee": 9014,
      "52": 9015,
      "Ġnut": 9016,
      "ĠHell": 9017,
      "cika": 9018,
      "ampion": 9019,
      "ĠForces": 9020,
      "Ġinstance": 9021,
      "Ġfitowar": 9022,
      "ĠSaliyo": 9023,
      "ĠAnambra": 9024,
      "Ġnob": 9025,
      "igin": 9026,
      "ĠWrit": 9027,
      "ĠMarc": 9028,
      "ashion": 9029,
      "ĠEgyptian": 9030,
      "Ġbarazana": 9031,
      "ĠIndonesia": 9032,
      "Ġimmediately": 9033,
      "ĠHebrew": 9034,
      "ĠBid": 9035,
      "ĠLuc": 9036,
      "opp": 9037,
      "Ġ39": 9038,
      "pression": 9039,
      "Ġavoid": 9040,
      "Ġtallace": 9041,
      "Ġvac": 9042,
      "Ġiyakokin": 9043,
      "ĠMach": 9044,
      "Ġ49": 9045,
      "issance": 9046,
      "chestra": 9047,
      "ĠSingapore": 9048,
      "ĠaÆĻalla": 9049,
      "adon": 9050,
      "umber": 9051,
      "otics": 9052,
      "Ġsauke": 9053,
      "ugos": 9054,
      "Ġpurpose": 9055,
      "SS": 9056,
      "ĠSyria": 9057,
      "Ġthings": 9058,
      "Ġnotes": 9059,
      "Ġreserv": 9060,
      "phy": 9061,
      "Ġpositions": 9062,
      "ĠDoug": 9063,
      "Ġkiwo": 9064,
      "Ġserve": 9065,
      "Ġrarrab": 9066,
      "ĠWilson": 9067,
      "ĠAst": 9068,
      "sue": 9069,
      "ĠAlaba": 9070,
      "ĠAliyu": 9071,
      "Ġvote": 9072,
      "ĠVan": 9073,
      "Ġsport": 9074,
      "ĠShow": 9075,
      "efore": 9076,
      "Ġmagoya": 9077,
      "Ġopposition": 9078,
      "Ġkwamfuta": 9079,
      "ĠInternet": 9080,
      "ĠChild": 9081,
      "deen": 9082,
      "ĠÆĻwaÆĻ": 9083,
      "ĠJaridar": 9084,
      "ĠHungary": 9085,
      "eing": 9086,
      "lomas": 9087,
      "Ġther": 9088,
      "ĠTall": 9089,
      "ĠBisa": 9090,
      "ĠJeff": 9091,
      "Ġadvert": 9092,
      "Ã©n": 9093,
      "ĠÆĻwayar": 9094,
      "Ġbelieve": 9095,
      "Ġprogramming": 9096,
      "ĠJoe": 9097,
      "Ġwucin": 9098,
      "Ġremoved": 9099,
      "Ġbapt": 9100,
      "osh": 9101,
      "ĠOu": 9102,
      "ĠClinton": 9103,
      "Ġsolution": 9104,
      "Ġrecognized": 9105,
      "Ġfleet": 9106,
      "ĠFacebook": 9107,
      "gers": 9108,
      "Ġakas": 9109,
      "Ġhab": 9110,
      "ĠKon": 9111,
      "Ġalbarka": 9112,
      "ĠEnter": 9113,
      "Ġcommission": 9114,
      "Ġparticles": 9115,
      "ĠMovement": 9116,
      "ĠAnthony": 9117,
      "84": 9118,
      "wick": 9119,
      "Ġfell": 9120,
      "ĠBikin": 9121,
      "Ġkoyi": 9122,
      "ĠAlc": 9123,
      "Ġwariyar": 9124,
      "ĠNASA": 9125,
      "Ġrigakafi": 9126,
      "ĠPennsylvania": 9127,
      "Ġniyyar": 9128,
      "amber": 9129,
      "auyen": 9130,
      "Ġ978": 9131,
      "Ġgyare": 9132,
      "Ġyunkurin": 9133,
      "lies": 9134,
      "Ġfadi": 9135,
      "Ġgrew": 9136,
      "Ġmaxim": 9137,
      "entially": 9138,
      "ilding": 9139,
      "Ġpreserv": 9140,
      "Ġbukata": 9141,
      "Ġcomputers": 9142,
      "Ġcontent": 9143,
      "Ġgrowing": 9144,
      "icen": 9145,
      "ĠBiyu": 9146,
      "Ġshag": 9147,
      "ĠKent": 9148,
      "teen": 9149,
      "Ġencour": 9150,
      "ĠShekarar": 9151,
      "Ġsubsequently": 9152,
      "ĠTanzaniya": 9153,
      "Ġhun": 9154,
      "Ġbeyond": 9155,
      "haps": 9156,
      "Ġimportance": 9157,
      "Ġshowed": 9158,
      "HR": 9159,
      "rupt": 9160,
      "ĠEach": 9161,
      "ĠEsp": 9162,
      "Ġhasashen": 9163,
      "ething": 9164,
      "ĠMadag": 9165,
      "oa": 9166,
      "infor": 9167,
      "taf": 9168,
      "agan": 9169,
      "ÃŃa": 9170,
      "Yar": 9171,
      "Ġware": 9172,
      "ambig": 9173,
      "allaci": 9174,
      "ĠyunÆĻurin": 9175,
      "uban": 9176,
      "essed": 9177,
      "Ġtranslation": 9178,
      "ambiguation": 9179,
      "Ġauth": 9180,
      "alan": 9181,
      "ĠArticles": 9182,
      "Ġreshen": 9183,
      "Ġplanned": 9184,
      "Ġmatsaka": 9185,
      "ĠIsma": 9186,
      "Ġkiyasta": 9187,
      "Ġfahimci": 9188,
      "Ġdevices": 9189,
      "Ġmagazine": 9190,
      "Ġcommunication": 9191,
      "ï¸": 9192,
      "Ġdiam": 9193,
      "Ġfan": 9194,
      "ĠBud": 9195,
      "usion": 9196,
      "ĠKans": 9197,
      "Ġmotion": 9198,
      "Ġinside": 9199,
      "Ġ1901": 9200,
      "Ġrequire": 9201,
      "Ġdevice": 9202,
      "ĠManufar": 9203,
      "Ġmambobin": 9204,
      "ez": 9205,
      "Å¡": 9206,
      "Ġduwa": 9207,
      "Ġsm": 9208,
      "Ġfashe": 9209,
      "ĠtaÆĻa": 9210,
      "ĠBin": 9211,
      "ĠMax": 9212,
      "ĠQatar": 9213,
      "Ġsanarwa": 9214,
      "ĠJerusalem": 9215,
      "bamban": 9216,
      "set": 9217,
      "Ġpati": 9218,
      "olis": 9219,
      "ĠGulf": 9220,
      "ĠOri": 9221,
      "ifying": 9222,
      "Ġfactors": 9223,
      "ĠHollywood": 9224,
      "ĠJustice": 9225,
      "ĠÆĻanÆĻara": 9226,
      "Ġkishin": 9227,
      "Ġ1913": 9228,
      "ĠRama": 9229,
      "Ġsunansa": 9230,
      "Ġadj": 9231,
      "ĠAbi": 9232,
      "Ġkyaftin": 9233,
      "ĠCanjin": 9234,
      "ĠShak": 9235,
      "ĠField": 9236,
      "Ġhypot": 9237,
      "69": 9238,
      "Ġmuke": 9239,
      "ĠSri": 9240,
      "Ġasked": 9241,
      "anyen": 9242,
      "ĠÆĻauyuka": 9243,
      "Ġdraw": 9244,
      "Ġcombination": 9245,
      "Ġprinciple": 9246,
      "Ġmakwab": 9247,
      "ï¸ı": 9248,
      "Ġconvent": 9249,
      "Ġfixed": 9250,
      "Ġformula": 9251,
      "Ġextensive": 9252,
      "Ġprotection": 9253,
      "Ġhelped": 9254,
      "Ġmartabar": 9255,
      "Ġcalcul": 9256,
      "Ġkorona": 9257,
      "ĠHolland": 9258,
      "ĠPope": 9259,
      "Ġwinter": 9260,
      "Ġfighting": 9261,
      "Ġkin": 9262,
      "tantin": 9263,
      "Ġnews": 9264,
      "ĠBrook": 9265,
      "Ġgreatest": 9266,
      "ĠVerde": 9267,
      "Ġcaptured": 9268,
      "Ġinstruments": 9269,
      "ĠArmenia": 9270,
      "Ġfat": 9271,
      "Ġalph": 9272,
      "eful": 9273,
      "ĠChristians": 9274,
      "ĠAlliance": 9275,
      "Ġfranc": 9276,
      "atorial": 9277,
      "ĠPeace": 9278,
      "Ġsarakuna": 9279,
      "Æ´": 9280,
      "Ġton": 9281,
      "ĠSher": 9282,
      "ĠTot": 9283,
      "Ġones": 9284,
      "ĠAmong": 9285,
      "hedral": 9286,
      "Ġcompletely": 9287,
      "Ġidentity": 9288,
      "Ġtrees": 9289,
      "hun": 9290,
      "Ġgyaran": 9291,
      "elle": 9292,
      "omat": 9293,
      "ĠYanzu": 9294,
      "fantry": 9295,
      "ĠSupreme": 9296,
      "Ġconvers": 9297,
      "Ġlove": 9298,
      "ĠZariya": 9299,
      "ĠBruss": 9300,
      "Ġpolice": 9301,
      "Ġwinning": 9302,
      "ĠChap": 9303,
      "via": 9304,
      "Ġgaya": 9305,
      "ĠAntar": 9306,
      "anyo": 9307,
      "Ġprime": 9308,
      "Ġlissafin": 9309,
      "ĠOffice": 9310,
      "57": 9311,
      "Ġion": 9312,
      "Ġdariya": 9313,
      "ĠBod": 9314,
      "rod": 9315,
      "Ġhaifa": 9316,
      "ĠbuÆĻatun": 9317,
      "ĠShekaru": 9318,
      "81": 9319,
      "Ġseem": 9320,
      "Ġlikit": 9321,
      "ĠIraki": 9322,
      "hara": 9323,
      "ĠNep": 9324,
      "Ġyiwa": 9325,
      "akes": 9326,
      "athon": 9327,
      "ĠTurkey": 9328,
      "ĠForest": 9329,
      "Ġmotor": 9330,
      "ĠCrown": 9331,
      "ĠMoscow": 9332,
      "Ġsquare": 9333,
      "Ġ1912": 9334,
      "ĠGil": 9335,
      "Ġgained": 9336,
      "Ġkwal": 9337,
      "Ġrecently": 9338,
      "viation": 9339,
      "Ġfassarar": 9340,
      "chell": 9341,
      "ĠÆĻayyad": 9342,
      "Ġkakka": 9343,
      "Ġnin": 9344,
      "enz": 9345,
      "Ġphase": 9346,
      "Ġkudade": 9347,
      "ĠTunisiya": 9348,
      "Ġmeeting": 9349,
      "disambiguation": 9350,
      "Ġcatal": 9351,
      "Ġhaf": 9352,
      "iced": 9353,
      "Ġpi": 9354,
      "Ġmeant": 9355,
      "Ġextrem": 9356,
      "Le": 9357,
      "gari": 9358,
      "Ġdivers": 9359,
      "unction": 9360,
      "etr": 9361,
      "Ġmagudanar": 9362,
      "Ġsubm": 9363,
      "Ġcapacity": 9364,
      "Ġrepe": 9365,
      "ĠArabia": 9366,
      "ĠCroatian": 9367,
      "ĠImam": 9368,
      "urb": 9369,
      "Ġyakan": 9370,
      "ĠMass": 9371,
      "ĠMount": 9372,
      "ĠSanta": 9373,
      "ĠKeb": 9374,
      "ĠNd": 9375,
      "Ġissued": 9376,
      "Ġconnected": 9377,
      "including": 9378,
      "ĠFall": 9379,
      "Ġrecomm": 9380,
      "Ġpowerful": 9381,
      "Ġweeks": 9382,
      "Ġclosely": 9383,
      "arily": 9384,
      "Ġsafe": 9385,
      "ĠBuk": 9386,
      "iginal": 9387,
      "uko": 9388,
      "Ġalam": 9389,
      "Ġgaji": 9390,
      "ĠHaw": 9391,
      "ĠBruce": 9392,
      "2001": 9393,
      "Ġsupply": 9394,
      "Ġgaruruwan": 9395,
      "amental": 9396,
      "Ġdescribe": 9397,
      "Ġdalibai": 9398,
      "Ġsubsequent": 9399,
      "equ": 9400,
      "ĠyaÉĹa": 9401,
      "ĠKai": 9402,
      "ĠDu": 9403,
      "Ġcho": 9404,
      "Ġarrived": 9405,
      "Ġmataimakiyar": 9406,
[...]
