{
  "version": "1.0",
  "truncation": null,
  "padding": null,
  "added_tokens": [
    {
      "id": 0,
      "content": "[PAD]",
      "single_word": false,
      "lstrip": false,
      "rstrip": false,
      "normalized": false,
      "special": true
    },
    {
      "id": 1,
      "content": "[CLS]",
      "single_word": false,
      "lstrip": false,
      "rstrip": false,
      "normalized": false,
      "special": true
    },
    {
      "id": 2,
      "content": "[SEP]",
      "single_word": false,
      "lstrip": false,
      "rstrip": false,
      "normalized": false,
      "special": true
    },
    {
      "id": 3,
      "content": "[MASK]",
      "single_word": false,
      "lstrip": false,
      "rstrip": false,
      "normalized": false,
      "special": true
    }
  ],
  "normalizer": {
    "type": "NFC"
  },
  "pre_tokenizer": {
    "type": "ByteLevel",
    "add_prefix_space": false,
    "trim_offsets": true,
    "use_regex": true
  },
  "post_processor": null,
  "decoder": {
    "type": "ByteLevel",
    "add_prefix_space": true,
    "trim_offsets": true,
    "use_regex": true
  },
  "model": {
    "type": "BPE",
    "dropout": null,
    "unk_token": null,
    "continuing_subword_prefix": null,
    "end_of_word_suffix": null,
    "fuse_unk": false,
    "byte_fallback": false,
    "ignore_merges": false,
    "vocab": {
      "[PAD]": 0,
      "[CLS]": 1,
      "[SEP]": 2,
      "[MASK]": 3,
      "!": 4,
      "\"": 5,
      "#": 6,
      "$": 7,
      "%": 8,
      "&": 9,
      "'": 10,
      "(": 11,
      ")": 12,
      "*": 13,
      "+": 14,
      ",": 15,
      "-": 16,
      ".": 17,
      "/": 18,
      "0": 19,
      "1": 20,
      "2": 21,
      "3": 22,
      "4": 23,
      "5": 24,
      "6": 25,
      "7": 26,
      "8": 27,
      "9": 28,
      ":": 29,
      ";": 30,
      "<": 31,
      "=": 32,
      ">": 33,
      "?": 34,
      "@": 35,
      "A": 36,
      "B": 37,
      "C": 38,
      "D": 39,
      "E": 40,
      "F": 41,
      "G": 42,
      "H": 43,
      "I": 44,
      "J": 45,
      "K": 46,
      "L": 47,
      "M": 48,
      "N": 49,
      "O": 50,
      "P": 51,
      "Q": 52,
      "R": 53,
      "S": 54,
      "T": 55,
      "U": 56,
      "V": 57,
      "W": 58,
      "X": 59,
      "Y": 60,
      "Z": 61,
      "[": 62,
      "\\": 63,
      "]": 64,
      "^": 65,
      "_": 66,
      "`": 67,
      "a": 68,
      "b": 69,
      "c": 70,
      "d": 71,
      "e": 72,
      "f": 73,
      "g": 74,
      "h": 75,
      "i": 76,
      "j": 77,
      "k": 78,
      "l": 79,
      "m": 80,
      "n": 81,
      "o": 82,
      "p": 83,
      "q": 84,
      "r": 85,
      "s": 86,
      "t": 87,
      "u": 88,
      "v": 89,
      "w": 90,
      "x": 91,
      "y": 92,
      "z": 93,
      "{": 94,
      "|": 95,
      "}": 96,
      "~": 97,
      "¡": 98,
      "¢": 99,
      "£": 100,
      "¤": 101,
      "¥": 102,
      "¦": 103,
      "§": 104,
      "¨": 105,
      "©": 106,
      "ª": 107,
      "«": 108,
      "¬": 109,
      "®": 110,
      "¯": 111,
      "°": 112,
      "±": 113,
      "²": 114,
      "³": 115,
      "´": 116,
      "µ": 117,
      "¶": 118,
      "·": 119,
      "¸": 120,
      "¹": 121,
      "º": 122,
      "»": 123,
      "¼": 124,
      "½": 125,
      "¾": 126,
      "¿": 127,
      "Â": 128,
      "Ã": 129,
      "Ä": 130,
      "Å": 131,
      "Æ": 132,
      "Ç": 133,
      "È": 134,
      "É": 135,
      "Ê": 136,
      "Ë": 137,
      "Ì": 138,
      "Í": 139,
      "Î": 140,
      "Ï": 141,
      "Ð": 142,
      "Ñ": 143,
      "Ò": 144,
      "Ó": 145,
      "Ô": 146,
      "Õ": 147,
      "Ö": 148,
      "×": 149,
      "Ø": 150,
      "Ù": 151,
      "Ú": 152,
      "Û": 153,
      "Ü": 154,
      "Ý": 155,
      "Þ": 156,
      "ß": 157,
      "à": 158,
      "á": 159,
      "â": 160,
      "ã": 161,
      "ä": 162,
      "å": 163,
      "æ": 164,
      "ç": 165,
      "è": 166,
      "é": 167,
      "ê": 168,
      "ë": 169,
      "ì": 170,
      "í": 171,
      "î": 172,
      "ï": 173,
      "ð": 174,
      "Ċ": 175,
      "Ġ": 176,
      "Ģ": 177,
      "ģ": 178,
      "Ĥ": 179,
      "ĥ": 180,
      "Ħ": 181,
      "ħ": 182,
      "Ĩ": 183,
      "ĩ": 184,
      "Ī": 185,
      "ī": 186,
      "Ĭ": 187,
      "ĭ": 188,
      "Į": 189,
      "į": 190,
      "İ": 191,
      "ı": 192,
      "Ĳ": 193,
      "ĳ": 194,
      "Ĵ": 195,
      "ĵ": 196,
      "Ķ": 197,
      "ķ": 198,
      "ĸ": 199,
      "Ĺ": 200,
      "ĺ": 201,
      "Ļ": 202,
      "ļ": 203,
      "Ľ": 204,
      "ľ": 205,
      "Ŀ": 206,
      "ŀ": 207,
      "Ł": 208,
      "ł": 209,
      "Ń": 210,
      "á»": 211,
      "an": 212,
      "Ġn": 213,
      "ar": 214,
      "in": 215,
      "Ġa": 216,
      "Ġt": 217,
      "Ġd": 218,
      "á»į": 219,
      "á»¥": 220,
      "Ġs": 221,
      "er": 222,
      "Ġm": 223,
      "Ġna": 224,
      "he": 225,
      "on": 226,
      "Ġk": 227,
      "Ġda": 228,
      "wa": 229,
      "Ġb": 230,
      "ya": 231,
      "Ġo": 232,
      "at": 233,
      "á»ĭ": 234,
      "ĠA": 235,
      "en": 236,
      "al": 237,
      "Ġi": 238,
      "as": 239,
      "un": 240,
      "or": 241,
      "Ġc": 242,
      "es": 243,
      "Ġg": 244,
      "it": 245,
      "am": 246,
      "Ġf": 247,
      "Ġthe": 248,
      "ke": 249,
      "ed": 250,
      "is": 251,
      "Ġh": 252,
      "Ġw": 253,
      "ĠM": 254,
      "ĠS": 255,
      "ur": 256,
      "and": 257,
      "ka": 258,
      "Ġya": 259,
      "Ġá»į": 260,
      "ir": 261,
      "ic": 262,
      "Ġr": 263,
      "ĠN": 264,
      "Ġp": 265,
      "Ġ1": 266,
      "Ġof": 267,
      "ta": 268,
      "ma": 269,
      "Ġl": 270,
      "ĠB": 271,
      "Ġma": 272,
      "ara": 273,
      "ĠC": 274,
      "Ġe": 275,
      "ĠT": 276,
      "Ġta": 277,
      "Ġin": 278,
      "Ġ2": 279,
      "áº": 280,
      "ch": 281,
      "Ġ(": 282,
      "le": 283,
      "áº¹": 284,
      "us": 285,
      "ion": 286,
      "ĠI": 287,
      "Ġwa": 288,
      "ab": 289,
      "ay": 290,
      "om": 291,
      "ĠÃ": 292,
      "ik": 293,
      "il": 294,
      "ing": 295,
      "gb": 296,
      "ad": 297,
      "Ġand": 298,
      "Ġnke": 299,
      "Ġy": 300,
      "ere": 301,
      "ut": 302,
      "Ġ20": 303,
      "el": 304,
      "ÃŃ": 305,
      "ol": 306,
      "id": 307,
      "ĠD": 308,
      "ĠK": 309,
      "Ġto": 310,
      "ye": 311,
      "hi": 312,
      "Ġ19": 313,
      "et": 314,
      "ent": 315,
      "ĠO": 316,
      "ĠP": 317,
      "em": 318,
      "ĠG": 319,
      "Ġon": 320,
      "ĠE": 321,
      "ana": 322,
      "Ġnd": 323,
      "ul": 324,
      "ĠH": 325,
      "ÆĻ": 326,
      "ĠL": 327,
      "ĠF": 328,
      "os": 329,
      "im": 330,
      "Ġz": 331,
      "ak": 332,
      "Ġj": 333,
      "um": 334,
      "ce": 335,
      "ĠR": 336,
      "ai": 337,
      "Ìģ": 338,
      "ga": 339,
      "gh": 340,
      "kw": 341,
      "rá»¥": 342,
      "ot": 343,
      "ĠJ": 344,
      "iy": 345,
      "af": 346,
      "ro": 347,
      "ba": 348,
      "ĠW": 349,
      "Ġku": 350,
      "ia": 351,
      "ct": 352,
      "iya": 353,
      "Ġan": 354,
      "Ã¡": 355,
      "Ãł": 356,
      "ikin": 357,
      "Ġbá»¥": 358,
      "Ġndá»ĭ": 359,
      "ation": 360,
      "Ġis": 361,
      "are": 362,
      "Ġal": 363,
      "Ġá»¥": 364,
      "ĠÆĻ": 365,
      "ci": 366,
      "Ġsu": 367,
      "Ã¬": 368,
      "re": 369,
      "ri": 370,
      "Ġwas": 371,
      "Ġba": 372,
      "uk": 373,
      "Ġka": 374,
      "od": 375,
      "Ġdá»ĭ": 376,
      "ÉĹ": 377,
      "Ġkuma": 378,
      "st": 379,
      "Ã©": 380,
      "Ġ\"": 381,
      "iv": 382,
      "Ġ201": 383,
      "Ġha": 384,
      "á»įn": 385,
      "Ġas": 386,
      "Ġth": 387,
      "ud": 388,
      "ge": 389,
      "we": 390,
      "Ġcikin": 391,
      "âĢ": 392,
      "Ġfor": 393,
      "Ġsh": 394,
      "ĠY": 395,
      "all": 396,
      "ers": 397,
      "ani": 398,
      "Ġihe": 399,
      "ÌĢ": 400,
      "Ġne": 401,
      "pá»¥": 402,
      "war": 403,
      "ok": 404,
      "sa": 405,
      "ra": 406,
      "há»¥": 407,
      "ist": 408,
      "ann": 409,
      "hek": 410,
      "ĠU": 411,
      "iri": 412,
      "uwa": 413,
      "th": 414,
      "Ġga": 415,
      "Ġonye": 416,
      "Ġá»": 417,
      "ĠThe": 418,
      "ig": 419,
      "ter": 420,
      "op": 421,
      "Ġshek": 422,
      "ow": 423,
      "Ãº": 424,
      "Ġmat": 425,
      "ĠIn": 426,
      "Ġkas": 427,
      "bi": 428,
      "Ġre": 429,
      "any": 430,
      "ji": 431,
      "ká»į": 432,
      "ag": 433,
      "ari": 434,
      "00": 435,
      "Ġni": 436,
      "ub": 437,
      "á¹": 438,
      "Ġbe": 439,
      "ĠAn": 440,
      "Ġab": 441,
      "Ġde": 442,
      "ha": 443,
      "anda": 444,
      "Ġat": 445,
      "ith": 446,
      "la": 447,
      "Ġshi": 448,
      "cin": 449,
      "Ġá»Į": 450,
      "wu": 451,
      "be": 452,
      "ama": 453,
      "á¹£": 454,
      "ite": 455,
      "Ġsun": 456,
      "ant": 457,
      "rá»į": 458,
      "da": 459,
      "pe": 460,
      "Ġam": 461,
      "ly": 462,
      "wá»įn": 463,
      "Ġahá»¥": 464,
      "og": 465,
      "me": 466,
      "Ġst": 467,
      "Ġnw": 468,
      "Ġ200": 469,
      "Ġyi": 470,
      "Ġaka": 471,
      "iyar": 472,
      "est": 473,
      "Ġá»įrá»¥": 474,
      "ĠAf": 475,
      "che": 476,
      "Ġts": 477,
      "ark": 478,
      "ĠNa": 479,
      "Ġdi": 480,
      "lá»į": 481,
      "Ġ.": 482,
      "Ġdaga": 483,
      "Ġko": 484,
      "wan": 485,
      "Ġwith": 486,
      "Ġce": 487,
      "ĠAl": 488,
      "Ġmai": 489,
      "Ġsa": 490,
      "ess": 491,
      "ver": 492,
      "Ġak": 493,
      "Ġke": 494,
      "),": 495,
      "ts": 496,
      "Ġmas": 497,
      "ine": 498,
      "Ã¨": 499,
      "eg": 500,
      "ĠÃł": 501,
      "und": 502,
      "uru": 503,
      "Ġcon": 504,
      "Ġkan": 505,
      "Ã³": 506,
      "ĠAm": 507,
      "ib": 508,
      "ug": 509,
      "'s": 510,
      "Ġá»ĭ": 511,
      "ity": 512,
      "hin": 513,
      "ĠnÃŃ": 514,
      "ĠSt": 515,
      "Ġaf": 516,
      "Ġmaka": 517,
      "Ġti": 518,
      "ate": 519,
      "zi": 520,
      "Ġby": 521,
      "Ġor": 522,
      "ian": 523,
      "anar": 524,
      "arar": 525,
      "á»ĭa": 526,
      "ĠMa": 527,
      "art": 528,
      "ĠÃ¬": 529,
      "Ġsam": 530,
      "ata": 531,
      "âĢĵ": 532,
      "Ġv": 533,
      "ang": 534,
      "Ġkar": 535,
      "pa": 536,
      "kwa": 537,
      "ance": 538,
      "tu": 539,
      "rom": 540,
      "dá»¥": 541,
      "ĠÉĹ": 542,
      "dá»ĭ": 543,
      "Ġwh": 544,
      "tá»¥": 545,
      "chá»ĭ": 546,
      "if": 547,
      "Ġdon": 548,
      "ob": 549,
      "ric": 550,
      "ank": 551,
      "tan": 552,
      "Ġthat": 553,
      "Ġmm": 554,
      "Ġlo": 555,
      "Ġwanda": 556,
      "ayin": 557,
      "arin": 558,
      "je": 559,
      "ayan": 560,
      "yin": 561,
      "kwá»¥": 562,
      "de": 563,
      "ment": 564,
      "ung": 565,
      "up": 566,
      "Ġ199": 567,
      "ĠV": 568,
      "ee": 569,
      "kwá»į": 570,
      "asa": 571,
      "Ġ'": 572,
      "Ġcom": 573,
      "qu": 574,
      "so": 575,
      "ill": 576,
      "Ġmgb": 577,
      "ck": 578,
      "ie": 579,
      "Ġkwa": 580,
      "annan": 581,
      "ĠCh": 582,
      "ane": 583,
      "Ġ-": 584,
      "ĠAr": 585,
      "kwu": 586,
      "ala": 587,
      "ish": 588,
      "ve": 589,
      "ans": 590,
      "Ġgb": 591,
      "aba": 592,
      ").": 593,
      "oro": 594,
      "Ã¹": 595,
      "Ġare": 596,
      "ghá»ĭ": 597,
      "rá»ĭ": 598,
      "iki": 599,
      "Ġmats": 600,
      "Ġzuwa": 601,
      "man": 602,
      "á»¥rá»¥": 603,
      "ime": 604,
      "19": 605,
      "ide": 606,
      "Ġyana": 607,
      "kwá»¥kwá»į": 608,
      "out": 609,
      "á»įrá»į": 610,
      "ard": 611,
      "Ġfrom": 612,
      "Ġpro": 613,
      "Ã²": 614,
      "20": 615,
      "ti": 616,
      "wo": 617,
      "tara": 618,
      "fin": 619,
      "Ġeg": 620,
      "hen": 621,
      "una": 622,
      "Ġse": 623,
      "Ġus": 624,
      "Ġar": 625,
      "ort": 626,
      "Ġen": 627,
      "ary": 628,
      "má»¥": 629,
      "ong": 630,
      "our": 631,
      "ban": 632,
      "Ġ3": 633,
      "to": 634,
      "iti": 635,
      "jer": 636,
      "ĠUn": 637,
      "zá»į": 638,
      "ell": 639,
      "pá»¥ta": 640,
      "ive": 641,
      "Ġmut": 642,
      "Ġotu": 643,
      "fi": 644,
      "Ġafá»į": 645,
      "Ġex": 646,
      "anin": 647,
      "fe": 648,
      "Ġnk": 649,
      "igh": 650,
      "ll": 651,
      "pt": 652,
      "asar": 653,
      "ars": 654,
      "Ġad": 655,
      "ah": 656,
      "lu": 657,
      "Ġshekarar": 658,
      "ore": 659,
      "Ġsuka": 660,
      "yan": 661,
      "ast": 662,
      "cc": 663,
      "Ġmasu": 664,
      "Ġá»¥lá»į": 665,
      "pp": 666,
      "ich": 667,
      "Ġmatsayin": 668,
      "ass": 669,
      "kp": 670,
      "ĠIt": 671,
      "Ġisi": 672,
      "afa": 673,
      "Ġch": 674,
      "du": 675,
      "Ġhe": 676,
      "Ġpl": 677,
      "ew": 678,
      "ov": 679,
      "ida": 680,
      "ber": 681,
      "ĠÃĢ": 682,
      "ust": 683,
      "ih": 684,
      "Ġkam": 685,
      "ens": 686,
      "Ġ198": 687,
      "ĠZ": 688,
      "Ġshekara": 689,
      "ou": 690,
      "Ġsi": 691,
      "Ġtare": 692,
      "ure": 693,
      "yar": 694,
      "ike": 695,
      "ous": 696,
      "ina": 697,
      "ĠAb": 698,
      "Ġnwere": 699,
      "afá»į": 700,
      "jeriya": 701,
      "yo": 702,
      "Ġza": 703,
      "ada": 704,
      "Ġakwá»¥kwá»į": 705,
      "rin": 706,
      "Ġwatan": 707,
      "Ġsite": 708,
      "ey": 709,
      "mp": 710,
      "Ġme": 711,
      "á»¥á»į": 712,
      "ĠâĢĵ": 713,
      "Ġ18": 714,
      "cha": 715,
      "bá»¥": 716,
      "ali": 717,
      "Ġso": 718,
      "Ġike": 719,
      "ction": 720,
      "ry": 721,
      "Ġwasan": 722,
      "ord": 723,
      "Ġu": 724,
      "oh": 725,
      "láº¹": 726,
      "Ãºn": 727,
      "Éĵ": 728,
      "ue": 729,
      "yi": 730,
      "oun": 731,
      "ĠYa": 732,
      "Ġyan": 733,
      "zu": 734,
      "Ġik": 735,
      "ita": 736,
      "ical": 737,
      "eme": 738,
      "Ġbu": 739,
      "wá»¥": 740,
      "aka": 741,
      "her": 742,
      "ost": 743,
      "Ġloka": 744,
      "Ġfark": 745,
      "ĠtÃŃ": 746,
      "Ġob": 747,
      "já»į": 748,
      "se": 749,
      "jir": 750,
      "Ġáº¹": 751,
      "Ġmma": 752,
      "eri": 753,
      "na": 754,
      "ated": 755,
      "kin": 756,
      "Ġiya": 757,
      "Ġgo": 758,
      "ĠSh": 759,
      "Ġ197": 760,
      "ĠOn": 761,
      "yere": 762,
      "Ġit": 763,
      "Ġebe": 764,
      "Ġá¹£": 765,
      "ap": 766,
      "Ġranar": 767,
      "ĠAs": 768,
      "ĠÃ³": 769,
      "ká»¥": 770,
      "end": 771,
      "Ġci": 772,
      "gba": 773,
      "amb": 774,
      "âĢĻ": 775,
      "Ġfi": 776,
      "ational": 777,
      "ally": 778,
      "ĠEn": 779,
      "Ġwani": 780,
      "ĠNajeriya": 781,
      "tern": 782,
      "Ġhis": 783,
      "ami": 784,
      "fani": 785,
      "Ġ4": 786,
      "do": 787,
      "Ġle": 788,
      "eric": 789,
      "Ġbayan": 790,
      "aban": 791,
      "Ġcewa": 792,
      "ará»ĭ": 793,
      "ĠÃĢwá»įn": 794,
      "ĠAfric": 795,
      "zá»¥": 796,
      "gá»¥": 797,
      "Ġhai": 798,
      "ond": 799,
      "ashin": 800,
      "ph": 801,
      "rit": 802,
      "pá»¥tara": 803,
      "Ġwere": 804,
      "uwan": 805,
      "Ġaká»¥": 806,
      "ĠÃ¡": 807,
      "Ġbi": 808,
      "Ġwhich": 809,
      "aya": 810,
      "Ġfarko": 811,
      "Ġ196": 812,
      "Ġbiy": 813,
      "lo": 814,
      "land": 815,
      "ld": 816,
      "ff": 817,
      "ach": 818,
      "asi": 819,
      "ations": 820,
      "ire": 821,
      "jin": 822,
      "Ġra": 823,
      "Ġsuna": 824,
      "Ġamfani": 825,
      "Ġpr": 826,
      "ame": 827,
      "cl": 828,
      "ĠRe": 829,
      "Ġla": 830,
      "ence": 831,
      "ede": 832,
      "ĠTh": 833,
      "anta": 834,
      "arta": 835,
      "Ġng": 836,
      "á»įá»į": 837,
      "ited": 838,
      "ungiyar": 839,
      "Ġun": 840,
      "ome": 841,
      "aru": 842,
      "ork": 843,
      "uniya": 844,
      "ĠFr": 845,
      "Ġ5": 846,
      "ze": 847,
      "Ġá»įn": 848,
      "Ġte": 849,
      "ther": 850,
      "Ġgud": 851,
      "ĠAd": 852,
      "ja": 853,
      "ati": 854,
      "Ġiji": 855,
      "Ġá»¥má»¥": 856,
      "Ġkasance": 857,
      "dÃ¬": 858,
      "av": 859,
      "les": 860,
      "oc": 861,
      "Ġlokacin": 862,
      "iger": 863,
      "su": 864,
      "ori": 865,
      "wam": 866,
      "odo": 867,
      "ni": 868,
      "osi": 869,
      "ions": 870,
      "ĠMana": 871,
      "Ġiri": 872,
      "Ġcomp": 873,
      "ory": 874,
      "Ġmgbe": 875,
      "Ġpe": 876,
      "Ġiche": 877,
      "ru": 878,
      "Ġndá»¥": 879,
      "olog": 880,
      "Ġala": 881,
      "ĠAmeric": 882,
      "Ġmba": 883,
      "Ġá»įzá»į": 884,
      "gbe": 885,
      "gbo": 886,
      "Ġabá»¥á»į": 887,
      "Ġbiyu": 888,
      "pr": 889,
      "ne": 890,
      "uku": 891,
      "á»ĭrá»ĭ": 892,
      "ĠMar": 893,
      "ice": 894,
      "ound": 895,
      "atar": 896,
      "stáº¹": 897,
      "Ã¬dÃ¬": 898,
      "Ġbay": 899,
      "ĠÃ¡stáº¹": 900,
      "Ġwannan": 901,
      "Ġhad": 902,
      "Ġ202": 903,
      "uwar": 904,
      "Ġsab": 905,
      "uka": 906,
      "li": 907,
      "uh": 908,
      "\".": 909,
      "ĠNiger": 910,
      "per": 911,
      "yy": 912,
      "ĠSe": 913,
      "uta": 914,
      "rÃŃ": 915,
      "ĠNew": 916,
      "ĠLe": 917,
      "ese": 918,
      "Ġnot": 919,
      "pá»į": 920,
      "Ġmme": 921,
      "ates": 922,
      "Ġcan": 923,
      "Ġnkiri": 924,
      "za": 925,
      "há»ĭa": 926,
      "Ġawá»įn": 927,
      "ĠIhe": 928,
      "má»į": 929,
      "uri": 930,
      "ĠÆ": 931,
      "di": 932,
      "Ġbab": 933,
      "gin": 934,
      "Ġtr": 935,
      "Ġkw": 936,
      "ĠPr": 937,
      "aye": 938,
      "ĠÉĹan": 939,
      "ki": 940,
      "Ġhas": 941,
      "ĠMus": 942,
      "Ġjáº¹": 943,
      "tá»¥tá»¥": 944,
      "ces": 945,
      "alin": 946,
      "ĠCom": 947,
      "eb": 948,
      "Ġru": 949,
      "okasi": 950,
      "ihar": 951,
      "gbÃł": 952,
      "Ġdo": 953,
      "itere": 954,
      "Ġalso": 955,
      "ĠhaÉĹ": 956,
      "ign": 957,
      "gbu": 958,
      "ĠIs": 959,
      "anya": 960,
      "outh": 961,
      "zarta": 962,
      "ira": 963,
      "Ġyank": 964,
      "Ġ6": 965,
      "Ġzama": 966,
      "alis": 967,
      "ĠItokasi": 968,
      "Ġsha": 969,
      "ĠÃłwá»įn": 970,
      "anci": 971,
      "ĠManazarta": 972,
      "ĠDe": 973,
      "ult": 974,
      "iss": 975,
      "Ġ|": 976,
      "lim": 977,
      "Ġaiki": 978,
      "Ġmus": 979,
      "ĠNai": 980,
      "Ġmmadá»¥": 981,
      "amp": 982,
      "Ġfa": 983,
      "Ġanya": 984,
      "ree": 985,
      "Ġmere": 986,
      "won": 987,
      "Ãłn": 988,
      "Ã¡n": 989,
      "Ġkasa": 990,
      "att": 991,
      "ayi": 992,
      "ition": 993,
      "chi": 994,
      "Ġmbá»¥": 995,
      "Ġhar": 996,
      "bo": 997,
      "fa": 998,
      "ight": 999,
      "Ġfir": 1000,
      "own": 1001,
      "ula": 1002,
      "oyin": 1003,
      "Ġráº¹": 1004,
      "Ġ195": 1005,
      "lic": 1006,
      "Ġfara": 1007,
      "000": 1008,
      "Ġhave": 1009,
      "anyá»ĭ": 1010,
      "Ġegwu": 1011,
      "arr": 1012,
      "ward": 1013,
      "Ġbut": 1014,
      "ins": 1015,
      "Ġres": 1016,
      "ip": 1017,
      "ics": 1018,
      "akar": 1019,
      "Ġmmiri": 1020,
      "Ġhany": 1021,
      "irka": 1022,
      "Ġmak": 1023,
      "ose": 1024,
      "Ġgaba": 1025,
      "umar": 1026,
      "Ġos": 1027,
      "wamn": 1028,
      "orm": 1029,
      "ĠAfrica": 1030,
      "ivers": 1031,
      "ys": 1032,
      "Ġmutane": 1033,
      "wá»į": 1034,
      "oul": 1035,
      "jo": 1036,
      "Ġdey": 1037,
      "ĠUnited": 1038,
      "Ġone": 1039,
      "ons": 1040,
      "Ġmal": 1041,
      "te": 1042,
      "ath": 1043,
      "Ġwasu": 1044,
      "Ġana": 1045,
      "mar": 1046,
      "ĠÃ²": 1047,
      "Ġinda": 1048,
      "ĠDa": 1049,
      "Ġdis": 1050,
      "vel": 1051,
      "Ġ7": 1052,
      "ĠBr": 1053,
      "Ġá»įd": 1054,
      "á»įdá»¥": 1055,
      "orld": 1056,
      "int": 1057,
      "á»¥n": 1058,
      "ume": 1059,
      "ool": 1060,
      "Ġyawan": 1061,
      "ount": 1062,
      "ĠTa": 1063,
      "ĠHa": 1064,
      "Ġkai": 1065,
      "omin": 1066,
      "Ġits": 1067,
      "isi": 1068,
      "ĠAfirka": 1069,
      "utar": 1070,
      "ura": 1071,
      "jáº¹": 1072,
      "Ġwá»įn": 1073,
      "oll": 1074,
      "jen": 1075,
      "Ġ[": 1076,
      "Ġall": 1077,
      "ĠHe": 1078,
      "Ġnn": 1079,
      "ors": 1080,
      "Ġduk": 1081,
      "ĠâĢ": 1082,
      "ced": 1083,
      "Ġmany": 1084,
      "Ġtun": 1085,
      "Ġyin": 1086,
      "jiria": 1087,
      "llon": 1088,
      "ile": 1089,
      "gbá»į": 1090,
      "Ġá¹£e": 1091,
      "Ġbin": 1092,
      "Ġtsak": 1093,
      "Ġmu": 1094,
      "ugh": 1095,
      "jik": 1096,
      "ju": 1097,
      "ash": 1098,
      "Ġtheir": 1099,
      "erv": 1100,
      "erm": 1101,
      "wai": 1102,
      "erÃ©": 1103,
      "\",": 1104,
      "Ġcont": 1105,
      "adi": 1106,
      "hu": 1107,
      "Ġake": 1108,
      "Ġ9": 1109,
      "ugaban": 1110,
      "Ġobodo": 1111,
      "kan": 1112,
      "als": 1113,
      "Ġaká»¥ká»į": 1114,
      "Ġdan": 1115,
      "Ġmata": 1116,
      "Ġati": 1117,
      "oge": 1118,
      "jalis": 1119,
      "Ġgasar": 1120,
      "uba": 1121,
      "ola": 1122,
      "ĠNaijiria": 1123,
      "ĠSa": 1124,
      "Ġkasar": 1125,
      "ghara": 1126,
      "orn": 1127,
      "Ġpart": 1128,
      "ukan": 1129,
      "Ġno": 1130,
      "irin": 1131,
      "antar": 1132,
      "ĠÃĮ": 1133,
      "Ġ8": 1134,
      "Ġfirst": 1135,
      "Ġá»¤": 1136,
      "ĠCol": 1137,
      ".\"": 1138,
      "Ġkafa": 1139,
      "ĠÆĻar": 1140,
      "clud": 1141,
      "á¹£áº¹": 1142,
      "Ġsay": 1143,
      "Ġoge": 1144,
      "Ġom": 1145,
      "Ġfun": 1146,
      "ĠNdá»ĭ": 1147,
      "ral": 1148,
      "Ġá»įtá»¥tá»¥": 1149,
      "201": 1150,
      "Ġfit": 1151,
      "asá»ĭ": 1152,
      "Ġwe": 1153,
      "afin": 1154,
      "one": 1155,
      "Ġkamar": 1156,
      "ies": 1157,
      "200": 1158,
      "ents": 1159,
      "Ġ194": 1160,
      "Ġyawa": 1161,
      "Ġduniya": 1162,
      "ould": 1163,
      "ini": 1164,
      "son": 1165,
      "Ġ2019": 1166,
      "Ġele": 1167,
      "inu": 1168,
      "ĠAt": 1169,
      "Ġtak": 1170,
      "pá»¥rá»¥": 1171,
      "old": 1172,
      "Ġcomm": 1173,
      "ely": 1174,
      "Ġnwanyá»ĭ": 1175,
      "Ġwey": 1176,
      "ade": 1177,
      "oda": 1178,
      "oss": 1179,
      "ĠNigeria": 1180,
      "Ġed": 1181,
      "ĠMah": 1182,
      "Ġform": 1183,
      "ano": 1184,
      "Ġbaya": 1185,
      "Ġ10": 1186,
      "Ġbir": 1187,
      "Ġibi": 1188,
      "ĠAmerican": 1189,
      "jÃ¡": 1190,
      "ĠSouth": 1191,
      "Ġaikin": 1192,
      "ahá»¥": 1193,
      "ton": 1194,
      "Ġzam": 1195,
      "lÃ©": 1196,
      "ĠGh": 1197,
      "Ġhanyar": 1198,
      "ĠwaÉĹ": 1199,
      "uran": 1200,
      "Ġruo": 1201,
      "ope": 1202,
      "ale": 1203,
      "Ġá»įchá»ĭ": 1204,
      "ĠÃłti": 1205,
      "ase": 1206,
      "cy": 1207,
      "ĠlÃ¡": 1208,
      "ĠÆĻasa": 1209,
      "Ġye": 1210,
      "emba": 1211,
      "ĠÃ¨": 1212,
      "Ġbá»¥rá»¥": 1213,
      "ote": 1214,
      "Ġ17": 1215,
      "ĠCon": 1216,
      "Ġtana": 1217,
      "ĠBa": 1218,
      "Ġgida": 1219,
      "egwu": 1220,
      "Ġmag": 1221,
      "Ġthis": 1222,
      "amar": 1223,
      "Ġbec": 1224,
      "ular": 1225,
      "Ġshiga": 1226,
      "Ġká»į": 1227,
      "Ġlá»į": 1228,
      "ĠsÃŃ": 1229,
      "Ġdes": 1230,
      "ĠLa": 1231,
      "eti": 1232,
      "ĠInd": 1233,
      "á»¥s": 1234,
      "tar": 1235,
      "Ġusoro": 1236,
      "fer": 1237,
      "urka": 1238,
      "Ġfil": 1239,
      "Ġgba": 1240,
      "Ġgwamn": 1241,
      "him": 1242,
      "ress": 1243,
      "Ġeme": 1244,
      "Ã¬n": 1245,
      "Ġjihar": 1246,
      "Ġim": 1247,
      "á»¥ta": 1248,
      "anu": 1249,
      "Ġbabban": 1250,
      "Ġother": 1251,
      "ĠAg": 1252,
      "Ġmkp": 1253,
      "ila": 1254,
      "tÃ¬": 1255,
      "Ġinclud": 1256,
      "eral": 1257,
      "Ġhal": 1258,
      "Ġnaa": 1259,
      "Ġnwa": 1260,
      "Ġbeen": 1261,
      "dda": 1262,
      "Ġshekaru": 1263,
      "ise": 1264,
      "ĠSch": 1265,
      "Ġmar": 1266,
      "Ġhaka": 1267,
      "ember": 1268,
      "afi": 1269,
      "Ġgab": 1270,
      "aki": 1271,
      "Ġabin": 1272,
      "Ġiwu": 1273,
      "ĠBe": 1274,
      "ĠBo": 1275,
      "ĠÃ¬gbÃł": 1276,
      "unan": 1277,
      "ĠJoh": 1278,
      "ko": 1279,
      "Ġol": 1280,
      "Ġhuk": 1281,
      "paghara": 1282,
      "zo": 1283,
      "urin": 1284,
      "reat": 1285,
      "ern": 1286,
      "ĠPro": 1287,
      "Ġid": 1288,
      "ind": 1289,
      "ÅĦ": 1290,
      "Ġ2015": 1291,
      "Ã©k": 1292,
      "inist": 1293,
      "ashe": 1294,
      "jalisar": 1295,
      "ĠNational": 1296,
      "ĠÆĻwa": 1297,
      "Ġ2016": 1298,
      "tá»į": 1299,
      "ĠTe": 1300,
      "wn": 1301,
      "ĠÆĻasar": 1302,
      "Ġji": 1303,
      "ĠAmurka": 1304,
      "Ġkya": 1305,
      "ĠEng": 1306,
      "Ġagb": 1307,
      "Ġwee": 1308,
      "Ġita": 1309,
      "Ġsamu": 1310,
      "Ġ2020": 1311,
      "oto": 1312,
      "Ã¹n": 1313,
      "Ġndá»įrá»į": 1314,
      "ĠSo": 1315,
      "Ġcl": 1316,
      "Ġaga": 1317,
      "Ġ15": 1318,
      "ram": 1319,
      "hip": 1320,
      "ĠEd": 1321,
      "Ġ2018": 1322,
      "Ġco": 1323,
      "ron": 1324,
      "ĠGhana": 1325,
      "Ġobi": 1326,
      "Ġmk": 1327,
      "bá»į": 1328,
      "co": 1329,
      "Ġkus": 1330,
      "Ġamma": 1331,
      "Ġnwe": 1332,
      "Ġcin": 1333,
      "ism": 1334,
      "gha": 1335,
      "anan": 1336,
      "Ġplay": 1337,
      "ince": 1338,
      "Ġmul": 1339,
      "tain": 1340,
      "á»¥nyere": 1341,
      "Ġwho": 1342,
      "Ġbuga": 1343,
      "une": 1344,
      "abi": 1345,
      "gar": 1346,
      "uring": 1347,
      "Ġjama": 1348,
      "Ġgir": 1349,
      "ĠFor": 1350,
      "wur": 1351,
      "Ġsy": 1352,
      "Ġki": 1353,
      "Ġama": 1354,
      "ict": 1355,
      "Ġá»įná»¥": 1356,
      "Ġozi": 1357,
      "ough": 1358,
      "Ġev": 1359,
      "ement": 1360,
      "idan": 1361,
      "Ġmpaghara": 1362,
      "atin": 1363,
      "Ġdá»ĭka": 1364,
      "ternational": 1365,
      "Ġime": 1366,
      "ĠÆĺ": 1367,
      "Ġá»įchá»ĭchá»ĭ": 1368,
      "ings": 1369,
      "annin": 1370,
      "ĠNi": 1371,
      "Ġes": 1372,
      "ĠNor": 1373,
      "á»¥lá»į": 1374,
      "Ġyankin": 1375,
      "Ġdem": 1376,
      "Ġhaife": 1377,
      "Ġzai": 1378,
      "ĠBab": 1379,
      "ran": 1380,
      "Ġtwo": 1381,
      "bin": 1382,
      "akin": 1383,
      "ury": 1384,
      "oth": 1385,
      "con": 1386,
      "Ġruwa": 1387,
      "uni": 1388,
      "ĠJam": 1389,
      "adum": 1390,
      "age": 1391,
      "ĠOnye": 1392,
      "bu": 1393,
      "ĠQ": 1394,
      "Ġmana": 1395,
      "Ġcent": 1396,
      "Ġgame": 1397,
      "Ġmore": 1398,
      "ial": 1399,
      "Ġ2014": 1400,
      "ublic": 1401,
      "udu": 1402,
      "yana": 1403,
      "Ġkp": 1404,
      "wuregwu": 1405,
      "ĠkÃ©k": 1406,
      "ild": 1407,
      "Ġ,": 1408,
      "ĠComm": 1409,
      "Ġbas": 1410,
      "ĠPh": 1411,
      "Ġ2011": 1412,
      "ĠkÃ©kerÃ©": 1413,
      "ĠMas": 1414,
      "aren": 1415,
      "Ġ2017": 1416,
      "Ġadd": 1417,
      "amma": 1418,
      "ute": 1419,
      "Ġsp": 1420,
      "sh": 1421,
      "far": 1422,
      "Ġwá»į": 1423,
      "Ġact": 1424,
      "Ġspe": 1425,
      "Ã¡náº¹": 1426,
      "Ġwata": 1427,
      "ĠÅĦ": 1428,
      "Ġná»į": 1429,
      "Ġ16": 1430,
      "ĠÃ¬gbÃłjÃ¡": 1431,
      "Ġaha": 1432,
      "Ġshine": 1433,
      "au": 1434,
      "lÃº": 1435,
      "Ġgu": 1436,
      "ĠplÃ¡náº¹": 1437,
      "Ġgá»¥nyere": 1438,
      "Ġsuch": 1439,
      "atun": 1440,
      "lish": 1441,
      "Ġmet": 1442,
      "yocha": 1443,
      "form": 1444,
      "Ġ2010": 1445,
      "Ġmafi": 1446,
      "iyyar": 1447,
      "ene": 1448,
      "iversity": 1449,
      "Ġ193": 1450,
      "med": 1451,
      "Ġatá»į": 1452,
      "ĠTur": 1453,
      "Ġá»¥wa": 1454,
      "Ġtrans": 1455,
      "Ġpol": 1456,
      "Ġsamun": 1457,
      "ats": 1458,
      "Ġego": 1459,
      "ÃŃn": 1460,
      "ĠTs": 1461,
      "io": 1462,
      "Ġ2021": 1463,
      "Ġrel": 1464,
      "Ġused": 1465,
      "Ġshugaban": 1466,
      "Ġmost": 1467,
      "vern": 1468,
      "ĠOr": 1469,
      "Ġnuna": 1470,
      "Ġac": 1471,
      "ology": 1472,
      "iyya": 1473,
      "eeti": 1474,
      "okin": 1475,
      "Ġag": 1476,
      "Ġsaboda": 1477,
      "ĠJami": 1478,
      "ĠRo": 1479,
      "ĠDis": 1480,
      "ĠBen": 1481,
      "ancin": 1482,
      "Ġakan": 1483,
      "ĠEur": 1484,
      "wara": 1485,
      "ople": 1486,
      "jiká»į": 1487,
      "port": 1488,
      "Ġ2012": 1489,
      "ĠnÃ¡": 1490,
      "Ġcons": 1491,
      "ood": 1492,
      "ká»įta": 1493,
      "Ġnan": 1494,
      "ĠHar": 1495,
      "Ġinto": 1496,
      "Ġ2013": 1497,
      "iz": 1498,
      "iyan": 1499,
      "Ġyanzu": 1500,
      "ĠIb": 1501,
      "ft": 1502,
      "emi": 1503,
      "Ġá»Įrá»¥": 1504,
      "ĠJohn": 1505,
      "oke": 1506,
      "bar": 1507,
      "Ġson": 1508,
      "Ġndi": 1509,
      "Ġuku": 1510,
      "ĠOk": 1511,
      "der": 1512,
      "Ġbayyana": 1513,
      "á»įá»įment": 1514,
      "Ġlab": 1515,
      "Ġdaya": 1516,
      "Ġrec": 1517,
      "Ġikpe": 1518,
      "Ġbo": 1519,
      "itt": 1520,
      "18": 1521,
      "arg": 1522,
      "stit": 1523,
      "Ġ2007": 1524,
      "Ġlati": 1525,
      "ĠWorld": 1526,
      "Ġtsakanin": 1527,
      "Ġyadda": 1528,
      "Ġgro": 1529,
      "Ġniile": 1530,
      "able": 1531,
      "ĠMay": 1532,
      "ubu": 1533,
      "Ġonwe": 1534,
      "tab": 1535,
      "anwe": 1536,
      "hed": 1537,
      "Ġover": 1538,
      "Ġper": 1539,
      "anen": 1540,
      "Ġout": 1541,
      "fu": 1542,
      "kÃł": 1543,
      "enye": 1544,
      "Ġhann": 1545,
      "ĠFar": 1546,
      "Ġkungiyar": 1547,
      "Ġthey": 1548,
      "fic": 1549,
      "rá»ĭta": 1550,
      "Ġá»įmá»į": 1551,
      "Ġprodu": 1552,
      "ĠArt": 1553,
      "ley": 1554,
      "Ġahá»ĭa": 1555,
      "urn": 1556,
      "Ġ2009": 1557,
      "ional": 1558,
      "ĠOl": 1559,
      "ĠBayan": 1560,
      "ĠAust": 1561,
      "Ġori": 1562,
      "ĠGu": 1563,
      "ative": 1564,
      "anyere": 1565,
      "inye": 1566,
      "rist": 1567,
      "Ġtsa": 1568,
      "ashen": 1569,
      "Ġbet": 1570,
      "Ġreg": 1571,
      "aron": 1572,
      "ku": 1573,
      "Ġ12": 1574,
      "gburu": 1575,
      "Ġup": 1576,
      "Ġph": 1577,
      "Ġtas": 1578,
      "Ġgas": 1579,
      "etiti": 1580,
      "Ġá»įdá»ĭ": 1581,
      "ĠLag": 1582,
      "Ġ2008": 1583,
      "Ġund": 1584,
      "ater": 1585,
      "Ġimp": 1586,
      "Ġ14": 1587,
      "Ġá»įjá»į": 1588,
      "ĠDi": 1589,
      "Ġem": 1590,
      "Ġelu": 1591,
      "ÆĻin": 1592,
      "nin": 1593,
      "ĠCo": 1594,
      "ĠwaÉĹanda": 1595,
      "Ġsama": 1596,
      "ĠYork": 1597,
      "ĠInternational": 1598,
      "cted": 1599,
      "Ġpre": 1600,
      "ĠMahadum": 1601,
      "rib": 1602,
      "cial": 1603,
      "era": 1604,
      "Ġnum": 1605,
      "Ġafter": 1606,
      "ĠTr": 1607,
      "Ġgburu": 1608,
      "Ġsiya": 1609,
      "oot": 1610,
      "rough": 1611,
      "aus": 1612,
      "ĠÉĹaya": 1613,
      "Ġmil": 1614,
      "Ġsome": 1615,
      "ĠtÃ³": 1616,
      "Ġtime": 1617,
      "Ġig": 1618,
      "Ġexp": 1619,
      "ela": 1620,
      "Ġwasa": 1621,
      "velop": 1622,
      "Ġegwuregwu": 1623,
      "Ġyayin": 1624,
      "Ġkn": 1625,
      "Ġcol": 1626,
      "ife": 1627,
      "Ġtsarin": 1628,
      "way": 1629,
      "Ġsake": 1630,
      "ĠChin": 1631,
      "Ġyake": 1632,
      "Ġ/": 1633,
      "á»įá»įmentá»ĭ": 1634,
      "Ġher": 1635,
      "Ġthan": 1636,
      "ĠNaá»ĭ": 1637,
      "gan": 1638,
      "Ġje": 1639,
      "Ġokwu": 1640,
      "Ġwaje": 1641,
      "hile": 1642,
      "ten": 1643,
      "amin": 1644,
      "Ġayy": 1645,
      "Ġacc": 1646,
      "ities": 1647,
      "Ġá»įdÃºn": 1648,
      "raph": 1649,
      "atá»¥": 1650,
      "Ġany": 1651,
      "ukwu": 1652,
      "Ġsau": 1653,
      "iew": 1654,
      "ĠAward": 1655,
      "ague": 1656,
      "ween": 1657,
      "ĠUniversity": 1658,
      "ower": 1659,
      "Ġsub": 1660,
      "Ġguda": 1661,
      "weghá»ĭ": 1662,
      "ihi": 1663,
      "Ġgara": 1664,
      "Ġ:": 1665,
      "ráº¹": 1666,
      "Ġnas": 1667,
      "uss": 1668,
      "ĠState": 1669,
      "Ġapp": 1670,
      "ists": 1671,
      "ert": 1672,
      "ily": 1673,
      "kwara": 1674,
      "aro": 1675,
      "por": 1676,
      "gbáº¹": 1677,
      "Ġsamar": 1678,
      "atic": 1679,
      "ĠStates": 1680,
      "ĠÆĻwallon": 1681,
      "ghará»ĭ": 1682,
      "Ġnew": 1683,
      "emb": 1684,
      "ĠEurope": 1685,
      "ĠCan": 1686,
      "Ġsai": 1687,
      "ĠLagos": 1688,
      "Ġá»¥dá»ĭ": 1689,
      "mi": 1690,
      "jirá»ĭa": 1691,
      "ima": 1692,
      "stem": 1693,
      "ĠGe": 1694,
      "Ġ11": 1695,
      "ctor": 1696,
      "anni": 1697,
      "isa": 1698,
      "fá»įdá»¥": 1699,
      "ká»įrá»ĭta": 1700,
      "unin": 1701,
      "Ġgudanar": 1702,
      "Ġnt": 1703,
      "Ġwak": 1704,
      "Ġngosi": 1705,
      "Ġsami": 1706,
      "Ġwad": 1707,
      "Ġilim": 1708,
      "sá»į": 1709,
      "ĠThis": 1710,
      "com": 1711,
      "Ġfim": 1712,
      "were": 1713,
      "Ġsc": 1714,
      "ĠDuniya": 1715,
      "ĠKo": 1716,
      "ĠbÃŃ": 1717,
      "Ġsanya": 1718,
      "pin": 1719,
      "Ġgen": 1720,
      "Ġnat": 1721,
      "Ġray": 1722,
      "ihu": 1723,
      "elu": 1724,
      "ĠAfrican": 1725,
      "..": 1726,
      "ĠOb": 1727,
      "ual": 1728,
      "ĠCent": 1729,
      "lin": 1730,
      "ĠfÃºn": 1731,
      "chasá»ĭ": 1732,
      "ĠPe": 1733,
      "Ġkoma": 1734,
      "Ġ2006": 1735,
      "red": 1736,
      "adá»ĭ": 1737,
      "Ġpop": 1738,
      "yÃ©": 1739,
      "ket": 1740,
      "Ġqu": 1741,
      "ĠSchool": 1742,
      "Ġmah": 1743,
      "Ġfar": 1744,
      "ĠEx": 1745,
      "adin": 1746,
      "Ġmi": 1747,
      "ĠnÃ¡Ãł": 1748,
      "Ġri": 1749,
      "ansa": 1750,
      "ĠAna": 1751,
      "Ġezi": 1752,
      "lex": 1753,
      "amba": 1754,
      "Ġtari": 1755,
      "ĠMe": 1756,
      "Ġgburugburu": 1757,
      "ukar": 1758,
      "Ġwork": 1759,
      "Ġonly": 1760,
      "iyo": 1761,
      "Ġnau": 1762,
      "ull": 1763,
      "Ġ13": 1764,
      "Ġunder": 1765,
      "BC": 1766,
      "ps": 1767,
      "Ġzab": 1768,
      "yya": 1769,
      "Ġ&": 1770,
      "ona": 1771,
      "ick": 1772,
      "Ġap": 1773,
      "ĠÆĻungiyar": 1774,
      "Ġdin": 1775,
      "arly": 1776,
      "cts": 1777,
      "199": 1778,
      "Ġ)": 1779,
      "Ġinter": 1780,
      "Ġsauran": 1781,
      "chara": 1782,
      "Ġbetween": 1783,
      "arch": 1784,
      "Ġwajen": 1785,
      "oman": 1786,
      "ĠAng": 1787,
      "amman": 1788,
      "anye": 1789,
      "ĠNaá»ĭjirá»ĭa": 1790,
      "uc": 1791,
      "azá»¥": 1792,
      "ĠBur": 1793,
      "Ġobibi": 1794,
      "á»¥tara": 1795,
      "ĠPa": 1796,
      "Ġpo": 1797,
      "Ġmer": 1798,
      "Ġjam": 1799,
      "ĠUS": 1800,
      "Ġmod": 1801,
      "iche": 1802,
      "angu": 1803,
      "Ġmalitere": 1804,
      "ger": 1805,
      "ĠÆĻafa": 1806,
      "á»įnwa": 1807,
      "ĠCl": 1808,
      "Ġcar": 1809,
      "Ġsak": 1810,
      "Ġkwuru": 1811,
      "ĠMuh": 1812,
      "very": 1813,
      "po": 1814,
      "eld": 1815,
      "bÃŃ": 1816,
      "ará»¥": 1817,
      "Ġpa": 1818,
      "ista": 1819,
      "Ġgidan": 1820,
      "otu": 1821,
      "ĠAll": 1822,
      "adar": 1823,
      "oko": 1824,
      "ĠBrit": 1825,
      "Ġoke": 1826,
      "uli": 1827,
      "ĠMal": 1828,
      "Ġnyere": 1829,
      "ĠMgbe": 1830,
      "Ġabub": 1831,
      "dÃ¨": 1832,
      "Ġpres": 1833,
      "other": 1834,
      "zin": 1835,
      "Ġmakar": 1836,
      "Ġ192": 1837,
      "alla": 1838,
      "ondon": 1839,
      "omen": 1840,
      "Ġá»¥gbá»į": 1841,
      "ef": 1842,
      "Ġshir": 1843,
      "uzi": 1844,
      "Ġyar": 1845,
      "ved": 1846,
      "enn": 1847,
      "ution": 1848,
      "ĠMma": 1849,
      "uth": 1850,
      "Ġwould": 1851,
      "Ġmanyan": 1852,
      "ÆĻa": 1853,
      "iyoyin": 1854,
      "orin": 1855,
      "itin": 1856,
      "let": 1857,
      "ebe": 1858,
      "atta": 1859,
      "wun": 1860,
      "Ġcount": 1861,
      "ÉĹa": 1862,
      "á»¥sá»¥": 1863,
      "Ġsec": 1864,
      "á»įpá»¥tara": 1865,
      "Ġind": 1866,
      "atu": 1867,
      "Ġtaka": 1868,
      "Ġwhen": 1869,
      "ĠShe": 1870,
      "erin": 1871,
      "jÃº": 1872,
      "ĠOs": 1873,
      "Ġaná»į": 1874,
      "Ġise": 1875,
      "Ġjir": 1876,
      "ĠMat": 1877,
      "umm": 1878,
      "ench": 1879,
      "iru": 1880,
      "ero": 1881,
      "Ġabout": 1882,
      "Ġdai": 1883,
      "ĠBar": 1884,
      "ghach": 1885,
      "Ġhim": 1886,
      "Ġif": 1887,
      "ĠzaÉĵ": 1888,
      "yn": 1889,
      "Ġkayan": 1890,
      "ĠRa": 1891,
      "ĠLondon": 1892,
      "Ġdang": 1893,
      "ĠWar": 1894,
      "chie": 1895,
      "ĠMan": 1896,
      "Ġyears": 1897,
      "aif": 1898,
      "Ġro": 1899,
      "Ġsá»į": 1900,
      "akan": 1901,
      "etá»¥ta": 1902,
      "cent": 1903,
      "anc": 1904,
      "imes": 1905,
      "ision": 1906,
      "go": 1907,
      "gy": 1908,
      "bá»įchá»ĭ": 1909,
      "ball": 1910,
      "Ġá»¥zá»į": 1911,
      "Ġciki": 1912,
      "iver": 1913,
      "ĠEl": 1914,
      "ĠPart": 1915,
      "fanin": 1916,
      "Ġagha": 1917,
      "ĠPl": 1918,
      "Ġmon": 1919,
      "Ġomume": 1920,
      "its": 1921,
      "ĠHo": 1922,
      "Ġmay": 1923,
      "ĠMmadá»¥": 1924,
      "ural": 1925,
      "Ġá»įka": 1926,
      "Ġsan": 1927,
      "add": 1928,
      "ific": 1929,
      "Ġint": 1930,
      "ĠhaÉĹa": 1931,
      "ks": 1932,
      "vernment": 1933,
      "Ġdomin": 1934,
      "ĠSc": 1935,
      "Ġara": 1936,
      "Ġod": 1937,
      "ĠlÃ¡ti": 1938,
      "ĠCar": 1939,
      "ures": 1940,
      "ished": 1941,
      "uma": 1942,
      "ĠChrist": 1943,
      "kun": 1944,
      "Ġmin": 1945,
      "ĠRaya": 1946,
      "olu": 1947,
      "ouse": 1948,
      "ĠDem": 1949,
      "ĠKa": 1950,
      "Ġoh": 1951,
      "Ġdiff": 1952,
      "lack": 1953,
      "Ġá»¥fá»įdá»¥": 1954,
      "ĠCity": 1955,
      "há»¥rá»¥": 1956,
      "Ġthere": 1957,
      "Ġkashi": 1958,
      "Ġpáº¹": 1959,
      "Ġset": 1960,
      "Ġmá»¥rá»¥": 1961,
      "kar": 1962,
      "Ġngwa": 1963,
      "Ġokp": 1964,
      "Ġikike": 1965,
      "ĠMut": 1966,
      "bum": 1967,
      "Ġ2005": 1968,
      "aká»¥": 1969,
      "ms": 1970,
      "ĠPar": 1971,
      "va": 1972,
      "ollow": 1973,
      "ĠColle": 1974,
      "ÃŃrÃŃ": 1975,
      "ograph": 1976,
      "ido": 1977,
      "Ġninu": 1978,
      "Ġwakil": 1979,
      "ages": 1980,
      "Ġtab": 1981,
      "vent": 1982,
      "ĠKing": 1983,
      "agb": 1984,
      "Ġmutum": 1985,
      "Ġmá»į": 1986,
      "Ġrub": 1987,
      "iwa": 1988,
      "Ġduring": 1989,
      "Ġnde": 1990,
      "10": 1991,
      "Ġá»įgá»¥": 1992,
      "ĠII": 1993,
      "Ġile": 1994,
      "lá»¥": 1995,
      "agor": 1996,
      "Ġbai": 1997,
      "els": 1998,
      "Ġ2000": 1999,
      "Ġsitere": 2000,
      "ident": 2001,
      "yyun": 2002,
      "gi": 2003,
      "ikwa": 2004,
      "Ġnso": 2005,
      "ĠNe": 2006,
      "afiya": 2007,
      "iláº¹": 2008,
      "ĠGr": 2009,
      "Ġinc": 2010,
      "Ġmee": 2011,
      "Ġfe": 2012,
      "nÃº": 2013,
      "Ġmkpa": 2014,
      "Ġcall": 2015,
      "ĠPol": 2016,
      "que": 2017,
      "gun": 2018,
      "Ġlamb": 2019,
      "ĠKwa": 2020,
      "Ġgá»įá»įmentá»ĭ": 2021,
      "Ġshe": 2022,
      "Ġsteeti": 2023,
      "Ġ100": 2024,
      "Ġkula": 2025,
      "Ġá»įká»¥": 2026,
      "kwe": 2027,
      "ants": 2028,
      "ĠÉĹa": 2029,
      "ĠRayayyun": 2030,
      "ital": 2031,
      "shi": 2032,
      "Ġthrough": 2033,
      "aik": 2034,
      "the": 2035,
      "Ġsupp": 2036,
      "ery": 2037,
      "pl": 2038,
      "Ġsystem": 2039,
      "Ġá»įma": 2040,
      "inst": 2041,
      "Ġhigh": 2042,
      "ode": 2043,
      "ety": 2044,
      "Ġfound": 2045,
      "ugu": 2046,
      "Ġirin": 2047,
      "Ġok": 2048,
      "agba": 2049,
      "eth": 2050,
      "Ġsannan": 2051,
      "Ġyanayi": 2052,
      "ĠAmerica": 2053,
      "Ġ25": 2054,
      "ham": 2055,
      "Ġrashin": 2056,
      "atá»į": 2057,
      "ĠDaga": 2058,
      "ĠMajalisar": 2059,
      "ili": 2060,
      "mma": 2061,
      "ĠJa": 2062,
      "ĠlÃ³": 2063,
      "Ġhaifar": 2064,
      "Ġbar": 2065,
      "oo": 2066,
      "Ġkachasá»ĭ": 2067,
      "okwu": 2068,
      "ating": 2069,
      "my": 2070,
      "ihe": 2071,
      "ĠCa": 2072,
      "ĠLo": 2073,
      "Ġstr": 2074,
      "Ġhank": 2075,
      "Ġbanyere": 2076,
      "rá»ĭa": 2077,
      "ĠAbd": 2078,
      "The": 2079,
      "itta": 2080,
      "ĠGo": 2081,
      "Ġ2004": 2082,
      "ĠBritish": 2083,
      "ĠWest": 2084,
      "Ġfin": 2085,
      "Ġbel": 2086,
      "Ġá»įhá»¥rá»¥": 2087,
      "ĠMo": 2088,
      "gwá»¥": 2089,
      "yen": 2090,
      "okp": 2091,
      "Ġ30": 2092,
      "Ġuse": 2093,
      "akwa": 2094,
      "etara": 2095,
      "ĠAh": 2096,
      "Ġshekar": 2097,
      "fore": 2098,
      "Ġ2022": 2099,
      "Ġagá»¥": 2100,
      "alli": 2101,
      "ĠEnglish": 2102,
      "Ġkafin": 2103,
      "Ġtara": 2104,
      "Ġet": 2105,
      "ont": 2106,
      "Ġdama": 2107,
      "ĠorÃŃ": 2108,
      "lor": 2109,
      "unci": 2110,
      "Ġart": 2111,
      "Ġdamar": 2112,
      "asara": 2113,
      "Ġtake": 2114,
      "ctions": 2115,
      "ĠLeague": 2116,
      "Ġlokaci": 2117,
      "Ġnyocha": 2118,
      "Ġwhere": 2119,
      "ĠAnd": 2120,
      "ange": 2121,
      "ĠAre": 2122,
      "Ġmusamman": 2123,
      "Ġazá»¥": 2124,
      "Ġmpá»¥": 2125,
      "Ġbirnin": 2126,
      "soci": 2127,
      "cess": 2128,
      "ences": 2129,
      "nu": 2130,
      "rop": 2131,
      "ĠSp": 2132,
      "ashi": 2133,
      "ven": 2134,
      "ĠBir": 2135,
      "ards": 2136,
      "Ġdok": 2137,
      "ĠFrench": 2138,
      "Ġstud": 2139,
      "ered": 2140,
      "Ġnwoke": 2141,
      "Ġnna": 2142,
      "Ġ2003": 2143,
      "Ġbá»įá»į": 2144,
      "ĠÃĵ": 2145,
      "Ġsiyasa": 2146,
      "Ġ0": 2147,
      "erson": 2148,
      "cr": 2149,
      "tic": 2150,
      "awa": 2151,
      "Ġgh": 2152,
      "Ġdig": 2153,
      "illion": 2154,
      "ĠDav": 2155,
      "ansu": 2156,
      "ÃłÃ¬": 2157,
      "arki": 2158,
      "DP": 2159,
      "sá»ĭ": 2160,
      "Ġukwu": 2161,
      "ĠTun": 2162,
      "Ġatá»¥": 2163,
      "Ġkir": 2164,
      "aká»į": 2165,
      "Ġwar": 2166,
      "idd": 2167,
      "Ġgur": 2168,
      "Ġakwai": 2169,
      "ĠÉĹin": 2170,
      "17": 2171,
      "Ġknown": 2172,
      "ĠRay": 2173,
      "Ġigwe": 2174,
      "Ġjami": 2175,
      "ause": 2176,
      "ĠLeg": 2177,
      "uká»į": 2178,
      "Ġoá¹£": 2179,
      "ogin": 2180,
      "ibiyar": 2181,
      "gram": 2182,
      "Ġugbu": 2183,
      "Ġtsoh": 2184,
      "Ġvari": 2185,
      "ĠâĢľ": 2186,
      "Ġmo": 2187,
      "Ġtra": 2188,
      "Ġsur": 2189,
      "ĠIng": 2190,
      "ĠAustral": 2191,
      "van": 2192,
      "ĠCal": 2193,
      "rid": 2194,
      "vi": 2195,
      "aga": 2196,
      "ĠHany": 2197,
      "ĠKam": 2198,
      "Ġled": 2199,
      "ather": 2200,
      "ĠSan": 2201,
      "Ġdevelop": 2202,
      "Ġ21": 2203,
      "ĠNorth": 2204,
      "esa": 2205,
      "ĠnÃŃnÃº": 2206,
      "bon": 2207,
      "ĠWill": 2208,
      "Ġgarin": 2209,
      "Ġihu": 2210,
      "ked": 2211,
      "Ġdaban": 2212,
      "ĠJihar": 2213,
      "ĠSept": 2214,
      "Ã¬ÃŃ": 2215,
      "ĠAk": 2216,
      "upu": 2217,
      "Ġpeople": 2218,
      "Ġib": 2219,
      "Ġnye": 2220,
      "oni": 2221,
      "ĠFil": 2222,
      "uman": 2223,
      "Ġcutar": 2224,
      "jÃŃrÃŃ": 2225,
      "yl": 2226,
      "ams": 2227,
      "Ġosisi": 2228,
      "xt": 2229,
      "Ġ1999": 2230,
      "Ġwell": 2231,
      "arshen": 2232,
      "ude": 2233,
      "ives": 2234,
      "Ġgbara": 2235,
      "Ġfito": 2236,
      "Ġmaza": 2237,
      "Ġfollow": 2238,
      "alaba": 2239,
      "akpá»į": 2240,
      "jÃŃrÃŃÃł": 2241,
      "Ġmulkin": 2242,
      "Ġdist": 2243,
      "ĠChina": 2244,
      "ĠTari": 2245,
      "Ġhist": 2246,
      "Ġoche": 2247,
      "ĠWannan": 2248,
      "reen": 2249,
      "ĠNÃłÃ¬": 2250,
      "view": 2251,
      "Ġ1990": 2252,
      "Ġnri": 2253,
      "ĠBank": 2254,
      "toba": 2255,
      "asu": 2256,
      "Ġjagor": 2257,
      "hem": 2258,
      "16": 2259,
      "eries": 2260,
      "ible": 2261,
      "ĠsÃ¬": 2262,
      "ĠMusul": 2263,
      "Ġkwu": 2264,
      "á»įpá»¥ta": 2265,
      "Ġju": 2266,
      "cce": 2267,
      "Ġmara": 2268,
      "ject": 2269,
      "alth": 2270,
      "eng": 2271,
      "ĠCollege": 2272,
      "ĠNÃłÃ¬jÃŃrÃŃÃł": 2273,
      "Ġdire": 2274,
      "ĠKh": 2275,
      "ilar": 2276,
      "ĠBabban": 2277,
      "Ġgbo": 2278,
      "Ġend": 2279,
      "ĠBel": 2280,
      "din": 2281,
      "wever": 2282,
      "Ġkaratun": 2283,
      "makwá»¥kwá»į": 2284,
      "put": 2285,
      "jor": 2286,
      "pend": 2287,
      "abar": 2288,
      "amak": 2289,
      "cil": 2290,
      "ĠPort": 2291,
      "Ġatt": 2292,
      "ĠSat": 2293,
      "bur": 2294,
      "ĠCong": 2295,
      "Ġinv": 2296,
      "Ġlike": 2297,
      "eman": 2298,
      "ĠSen": 2299,
      "Ġnz": 2300,
      "ission": 2301,
      "ĠâĢĺ": 2302,
      "Ġabubuwan": 2303,
      "ĠCr": 2304,
      "Ġtaima": 2305,
      "ele": 2306,
      "Ġstate": 2307,
      "Ġgosi": 2308,
      "adu": 2309,
      "Ġnumber": 2310,
      "Ġyau": 2311,
      "ĠParty": 2312,
      "Ġsing": 2313,
      "ĠNjiká»į": 2314,
      "ĠEm": 2315,
      "conom": 2316,
      "Ġhannu": 2317,
      "Ġred": 2318,
      "erman": 2319,
      "Ġá»¤lá»į": 2320,
      "ased": 2321,
      "Ġpar": 2322,
      "ty": 2323,
      "gide": 2324,
      "Ġ$": 2325,
      "Ġthree": 2326,
      "Ġhada": 2327,
      "alite": 2328,
      "Ġdec": 2329,
      "Ġinf": 2330,
      "ĠMuhamma": 2331,
      "gen": 2332,
      "edia": 2333,
      "Ar": 2334,
      "yd": 2335,
      "Ġloc": 2336,
      "ony": 2337,
      "ĠBBC": 2338,
      "Ġhukumar": 2339,
      "Ġnj": 2340,
      "ĠChar": 2341,
      "ĠAir": 2342,
      "Ġpolit": 2343,
      "Ġsign": 2344,
      "Ġlangu": 2345,
      "Ġá»įrá»ĭa": 2346,
      "198": 2347,
      "Ġcentury": 2348,
      "Ġgirma": 2349,
      "Ġpla": 2350,
      "âĢĿ": 2351,
      "rite": 2352,
      "hekwa": 2353,
      "Ġing": 2354,
      "Ġprov": 2355,
      "Ġáº¹gbáº¹": 2356,
      "Ġthese": 2357,
      "FA": 2358,
      "ner": 2359,
      "led": 2360,
      "Ġsm": 2361,
      "ĠAc": 2362,
      "mu": 2363,
      "PC": 2364,
      "ep": 2365,
      "ugust": 2366,
      "Ġbá»¥la": 2367,
      "Ġdiffer": 2368,
      "Ġent": 2369,
      "ĠBay": 2370,
      "15": 2371,
      "urch": 2372,
      "ĠLib": 2373,
      "ĠMinist": 2374,
      "ho": 2375,
      "Ġincluding": 2376,
      "Ġkim": 2377,
      "Ġgroup": 2378,
      "ĠMin": 2379,
      "Ġ24": 2380,
      "ĠFa": 2381,
      "ians": 2382,
      "Ġkira": 2383,
      "ĠKano": 2384,
      "ĠMad": 2385,
      "Ġmasana": 2386,
      "Ġdu": 2387,
      "Ġkara": 2388,
      "wará»ĭ": 2389,
      "yáº¹": 2390,
      "ilu": 2391,
      "she": 2392,
      "ĠGab": 2393,
      "ival": 2394,
      "ÆĻi": 2395,
      "Ġcr": 2396,
      "chn": 2397,
      "Ġnwetara": 2398,
      "ple": 2399,
      "Ġthem": 2400,
      "Ġlater": 2401,
      "Ġmb": 2402,
      "Ġzaman": 2403,
      "Ġmutanen": 2404,
      "Ġkusan": 2405,
      "attalin": 2406,
      "ĠOt": 2407,
      "ĠAká»¥": 2408,
      "fo": 2409,
      "Ġkul": 2410,
      "Ġbáº¹": 2411,
      "Ġext": 2412,
      "ĠIr": 2413,
      "Ġserv": 2414,
      "Ġmajalisar": 2415,
      "ĠBro": 2416,
      "ĠHanyoyin": 2417,
      "Ġworld": 2418,
      "Ġwrit": 2419,
      "ied": 2420,
      "gw": 2421,
      "esi": 2422,
      "Ġwurin": 2423,
      "ĠDan": 2424,
      "Ġayyukan": 2425,
      "Ġá»įdun": 2426,
      "apan": 2427,
      "12": 2428,
      "Ġman": 2429,
      "oph": 2430,
      "Ġhá»įpá»¥tara": 2431,
      "Ġwhile": 2432,
      "aná»ĭ": 2433,
      "Ġiláº¹": 2434,
      "Ġkwallon": 2435,
      "Ġkwaikwa": 2436,
      "gu": 2437,
      "cept": 2438,
      "Ġá»įmá»¥": 2439,
      "Ġkark": 2440,
      "ĠJana": 2441,
      "Ġá»įha": 2442,
      "Ġfam": 2443,
      "Ġwadanda": 2444,
      "Ġmade": 2445,
      "ĠX": 2446,
      "Ġ2002": 2447,
      "okpuru": 2448,
      "ĠPet": 2449,
      "ika": 2450,
      "á»įrá»¥": 2451,
      "Ġidan": 2452,
      "ĠGeor": 2453,
      "Ġyanayin": 2454,
      "ots": 2455,
      "eji": 2456,
      "ÉĹi": 2457,
      "ken": 2458,
      "Ġlashe": 2459,
      "ĠMic": 2460,
      "arai": 2461,
      "adem": 2462,
      "Ġbeing": 2463,
      "Ġmpá»¥ga": 2464,
      "Ġsos": 2465,
      "ĠHuk": 2466,
      "Ġkwaikwayo": 2467,
      "ulation": 2468,
      "rew": 2469,
      "Ġlead": 2470,
      "yp": 2471,
      "ĠAcc": 2472,
      "ĠArab": 2473,
      "arge": 2474,
      "ĠpÃ©": 2475,
      "ature": 2476,
      "Ġhankali": 2477,
      "ren": 2478,
      "umma": 2479,
      "Ġgbasara": 2480,
      "Ġkare": 2481,
      "ayar": 2482,
      "Ġ2001": 2483,
      "Ġboth": 2484,
      "Ġnnukwu": 2485,
      "ĠJune": 2486,
      "Ġcor": 2487,
      "ĠRep": 2488,
      "Ġoun": 2489,
      "Ġmgbanwe": 2490,
      "Ġyear": 2491,
      "Ġsim": 2492,
      "kÃ¨": 2493,
      "ived": 2494,
      "Ġlambar": 2495,
      "Ġ190": 2496,
      "yanwá»¥": 2497,
      "eum": 2498,
      "ĠKudu": 2499,
      "ĠAde": 2500,
      "elf": 2501,
      "mala": 2502,
      "adan": 2503,
      "ility": 2504,
      "alá»ĭ": 2505,
      "Ġmall": 2506,
      "chekwa": 2507,
      "wood": 2508,
      "ĠAlex": 2509,
      "ĠAbu": 2510,
      "Ġthen": 2511,
      "ason": 2512,
      "ĠBra": 2513,
      "ined": 2514,
      "Ġkofin": 2515,
      "ĠItal": 2516,
      "Ġbá»įá»įlá»¥": 2517,
      "ille": 2518,
      "uki": 2519,
      "yal": 2520,
      "Ġgar": 2521,
      "ĠBer": 2522,
      "Ġ1980": 2523,
      "kará»ĭ": 2524,
      "ier": 2525,
      "yÃłn": 2526,
      "ito": 2527,
      "lands": 2528,
      "ĠÉĵ": 2529,
      "Ġagá»¥makwá»¥kwá»į": 2530,
      "ĠWa": 2531,
      "ĠJapan": 2532,
      "ĠLab": 2533,
      "Ġkawai": 2534,
      "ĠGen": 2535,
      "ayen": 2536,
      "usa": 2537,
      "Ġnasara": 2538,
      "ott": 2539,
      "Ġcity": 2540,
      "Ġsuke": 2541,
      "icin": 2542,
      "Ġkal": 2543,
      "ĠilÃ©": 2544,
      "rÃ©": 2545,
      "ĠKar": 2546,
      "ford": 2547,
      "Ġnchá»ĭ": 2548,
      "Ġhot": 2549,
      "ĠSw": 2550,
      "Ġkammala": 2551,
      "Ġmáº¹": 2552,
      "lah": 2553,
      "Ġins": 2554,
      "dom": 2555,
      "ments": 2556,
      "ibia": 2557,
      "res": 2558,
      "já»¥": 2559,
      "aman": 2560,
      "mo": 2561,
      "14": 2562,
      "Ġdab": 2563,
      "Ġá»įgá»¥gá»¥": 2564,
      "Ġcalled": 2565,
      "Ġlafiya": 2566,
      "Ġkasuwan": 2567,
      "ĠDá»ĭ": 2568,
      "Ġ23": 2569,
      "omi": 2570,
      "ĠTurai": 2571,
      "á»įmp": 2572,
      "Ġá»įkwa": 2573,
      "An": 2574,
      "Ġair": 2575,
      "aft": 2576,
      "ĠNke": 2577,
      "owane": 2578,
      "Ġfasa": 2579,
      "Ġgwa": 2580,
      "Ġtabb": 2581,
      "lished": 2582,
      "pen": 2583,
      "Ġsecond": 2584,
      "ato": 2585,
      "Ġkusa": 2586,
      "ĠÆ´": 2587,
      "ĠAugust": 2588,
      "Ġtaf": 2589,
      "50": 2590,
      "ington": 2591,
      "Ġdara": 2592,
      "Ġasá»¥sá»¥": 2593,
      "lymp": 2594,
      "chite": 2595,
      "Ġnta": 2596,
      "á»¥zá»į": 2597,
      "aima": 2598,
      "Ġass": 2599,
      "Ġfl": 2600,
      "Ġbecame": 2601,
      "Ġspeci": 2602,
      "ÉĹin": 2603,
      "Ġobere": 2604,
      "Ġarewa": 2605,
      "Ġkama": 2606,
      "ves": 2607,
      "ract": 2608,
      "Ġaká»¥ká»¥": 2609,
      "Ġgabatar": 2610,
      "ĠBi": 2611,
      "Ġmain": 2612,
      "sÃŃ": 2613,
      ".,": 2614,
      "ĠSal": 2615,
      "Ġnka": 2616,
      "Ġwu": 2617,
      "daban": 2618,
      "ows": 2619,
      "Ġorigin": 2620,
      "Ġgwamnatin": 2621,
      "ekwu": 2622,
      "á»įm": 2623,
      "Ġterm": 2624,
      "ĠRob": 2625,
      "Ġdesc": 2626,
      "Ġdaji": 2627,
      "ootball": 2628,
      "Ġkowa": 2629,
      "Ġkwam": 2630,
      "Ġrik": 2631,
      "matá»¥": 2632,
      "ster": 2633,
      "zz": 2634,
      "Ġgovernment": 2635,
      "ocr": 2636,
      "amá»¥rá»¥": 2637,
      "ĠOlymp": 2638,
      "gáº¹": 2639,
      "rika": 2640,
      "ĠShi": 2641,
      "ĠCor": 2642,
      "ĠWilli": 2643,
      "Ġnaaná»ĭ": 2644,
      "ĠÃĴ": 2645,
      "aa": 2646,
      "Ġoji": 2647,
      "imiri": 2648,
      "aff": 2649,
      "Ġsch": 2650,
      "Ġsani": 2651,
      "ration": 2652,
      "Ġláº¹": 2653,
      "Ġá»įhá»ĭa": 2654,
      "Ġwat": 2655,
      "idi": 2656,
      "ĠEb": 2657,
      "ĠArewa": 2658,
      "ights": 2659,
      "Ġearly": 2660,
      "umb": 2661,
      "Ġtupu": 2662,
      "asha": 2663,
      "jÃ¬": 2664,
      "Ġgw": 2665,
      "Ġoper": 2666,
      "emme": 2667,
      "bÃ¡": 2668,
      "ĠDo": 2669,
      "Ġyamma": 2670,
      "Ġkwall": 2671,
      "istan": 2672,
      "ĠNo": 2673,
      "ĠDon": 2674,
      "Ġmakarantar": 2675,
      "emede": 2676,
      "ĠSu": 2677,
      "Ġwur": 2678,
      "Ġ22": 2679,
      "udi": 2680,
      "Ġgwamnati": 2681,
      "wÃ©": 2682,
      "Ġá»įgwá»¥": 2683,
      "Ġisii": 2684,
      "Ġinst": 2685,
      "ica": 2686,
      "13": 2687,
      "Ġeze": 2688,
      "197": 2689,
      "gani": 2690,
      "Ġsosai": 2691,
      ",\"": 2692,
      "ghá»į": 2693,
      "jiya": 2694,
      "Ġret": 2695,
      "ĠChe": 2696,
      "zed": 2697,
      "day": 2698,
      "Ġkáº¹": 2699,
      "Ġwin": 2700,
      "Ġiá¹£áº¹": 2701,
      "Ġlong": 2702,
      "Ġneman": 2703,
      "ungiyoyin": 2704,
      "Ġgina": 2705,
      "Ġbefore": 2706,
      "warar": 2707,
      "ĠSup": 2708,
      "ĠInstit": 2709,
      "ĠRepublic": 2710,
      "ware": 2711,
      "Ġug": 2712,
      "Ġpartic": 2713,
      "nÃ¬": 2714,
      "par": 2715,
      "weta": 2716,
      "jejen": 2717,
      "Ġsame": 2718,
      "Ġtele": 2719,
      "Ġmaso": 2720,
      "eru": 2721,
      "Ġnkwa": 2722,
      "Ġget": 2723,
      "ris": 2724,
      "obere": 2725,
      "ziná»¥lá»į": 2726,
      "ĠMaris": 2727,
      "Ġfus": 2728,
      "ently": 2729,
      "atan": 2730,
      "ĠAgus": 2731,
      "Ġ1998": 2732,
      "ful": 2733,
      "Ġsol": 2734,
      "ÌĢ-": 2735,
      "ĠJul": 2736,
      "Ġagainst": 2737,
      "á»įmpi": 2738,
      "cen": 2739,
      "egide": 2740,
      "ago": 2741,
      "gwá»į": 2742,
      "Ġguz": 2743,
      "ghachi": 2744,
      "ording": 2745,
      "Ġjar": 2746,
      "Ġfilm": 2747,
      "ĠHukumar": 2748,
      "ning": 2749,
      "áº¸": 2750,
      "já»įba": 2751,
      "ino": 2752,
      "ĠKen": 2753,
      "Ġdere": 2754,
      "Ġlaw": 2755,
      "idar": 2756,
      "ĠWh": 2757,
      "Ġaná»¥": 2758,
      "ually": 2759,
      "ðŁ": 2760,
      "Ġá»Ĭ": 2761,
      "Ġsunan": 2762,
      "lÃ¡": 2763,
      "ones": 2764,
      "cike": 2765,
      "Ġ1960": 2766,
      "ĠRuss": 2767,
      "Ġbiyar": 2768,
      "iro": 2769,
      "ĠDok": 2770,
      "SA": 2771,
      "atara": 2772,
      "ries": 2773,
      "ĠChi": 2774,
      "gbÃ¨": 2775,
      "Ġilimi": 2776,
      "umba": 2777,
      "Ġnará»ĭ": 2778,
      "ĠGerman": 2779,
      "Ġá»įnwa": 2780,
      "ĠFab": 2781,
      "chiche": 2782,
      "ĠFaransa": 2783,
      "ĠBlack": 2784,
      "Ġjirgin": 2785,
      "Ġarz": 2786,
      "ices": 2787,
      "anne": 2788,
      "ĠFrance": 2789,
      "Ġ1996": 2790,
      "Ġmov": 2791,
      "ĠAfr": 2792,
      "ĠAp": 2793,
      "Ġide": 2794,
      "Ġ1970": 2795,
      "ander": 2796,
      "fan": 2797,
      "row": 2798,
      "Ġtsohon": 2799,
      "sen": 2800,
      "Ġukwuu": 2801,
      "iet": 2802,
      "ble": 2803,
      "pres": 2804,
      "akwá»¥": 2805,
      "oshi": 2806,
      "Ġown": 2807,
      "Ġmanu": 2808,
      "ĠYor": 2809,
      "Ġtransl": 2810,
      "lam": 2811,
      "Ġnrite": 2812,
      "jan": 2813,
      "Ġdal": 2814,
      "Ġfour": 2815,
      "ges": 2816,
      "ator": 2817,
      "utu": 2818,
      "ĠUg": 2819,
      "jar": 2820,
      "ĠEbe": 2821,
      "wararr": 2822,
      "veral": 2823,
      "si": 2824,
      "ourt": 2825,
      "Ġmur": 2826,
      "har": 2827,
      "ically": 2828,
      "Ġcika": 2829,
      "Ġdake": 2830,
      "Ġann": 2831,
      "Ġmuh": 2832,
      "Ġappe": 2833,
      "ĠMm": 2834,
      "ĠDr": 2835,
      "ampions": 2836,
      "ĠDel": 2837,
      "ĠmÃ¡": 2838,
      "ĠAká»¥ká»į": 2839,
      "ches": 2840,
      "Ġmmetá»¥ta": 2841,
      "ght": 2842,
      "ĠUnion": 2843,
      "ames": 2844,
      "himman": 2845,
      "ĠðŁ": 2846,
      "ĠMuseum": 2847,
      "Ġ1994": 2848,
      "ĠSam": 2849,
      "Ġ26": 2850,
      "sc": 2851,
      "mba": 2852,
      "Ġmaara": 2853,
      "Ġ1992": 2854,
      "ĠNn": 2855,
      "Ġtawa": 2856,
      "Ġzuru": 2857,
      "Ġ27": 2858,
      "Ġkashe": 2859,
      "Ġyanki": 2860,
      "Ġoff": 2861,
      "ourn": 2862,
      "ĠBal": 2863,
      "Ġ1993": 2864,
      "Ġnne": 2865,
      "Ġlarg": 2866,
      "pÃŃn": 2867,
      "Ġkulob": 2868,
      "urr": 2869,
      "Ġá»įsá»į": 2870,
      "ĠIgbo": 2871,
      "fect": 2872,
      "ĠSun": 2873,
      "Ġrubuta": 2874,
      "Ġfarkon": 2875,
      "ography": 2876,
      "Ġban": 2877,
      "Ġmgbasa": 2878,
      "ĠDavid": 2879,
      "Ġguzobere": 2880,
      "yÃ¬n": 2881,
      "ĠhaÉĵ": 2882,
      "Ġsince": 2883,
      "Ġbang": 2884,
      "Ġ28": 2885,
      "Ġwacce": 2886,
      "kpo": 2887,
      "ĠNg": 2888,
      "Ġodide": 2889,
      "ides": 2890,
      "cient": 2891,
      "Ġgr": 2892,
      "Ġá»¥bá»įchá»ĭ": 2893,
      "ĠNov": 2894,
      "ĠHist": 2895,
      "uthor": 2896,
      "of": 2897,
      "Ġshirya": 2898,
      "Ġkowane": 2899,
      "ĠNuwa": 2900,
      "bab": 2901,
      "Ġkansa": 2902,
      "Ġoften": 2903,
      "inin": 2904,
      "Ġakara": 2905,
      "Ġexamp": 2906,
      "estern": 2907,
      "eto": 2908,
      "Ġ189": 2909,
      "Ġtarihi": 2910,
      "Ġyabo": 2911,
      "Ġ1997": 2912,
      "aifin": 2913,
      "taniya": 2914,
      "ĠbÃ¡": 2915,
      "ĠhaÆĻ": 2916,
      "Ġá»ĭn": 2917,
      "Ġfitar": 2918,
      "Ġrá»¥rá»¥": 2919,
      "Ġcommon": 2920,
      "Ġlin": 2921,
      "Ġmajor": 2922,
      "ĠwÃł": 2923,
      "Ġruwan": 2924,
      "rá»ĭka": 2925,
      "Ġtáº¹": 2926,
      "Ġgaa": 2927,
      "Ġsmall": 2928,
      "ec": 2929,
      "ace": 2930,
      "Ġmillion": 2931,
      "ĠAyy": 2932,
      "Ġmake": 2933,
      "til": 2934,
      "Ġzaben": 2935,
      "Ã¨dÃ¨": 2936,
      "Ġeb": 2937,
      "Ġpá»¥tara": 2938,
      "osed": 2939,
      "kÃ³": 2940,
      "tÃ¹": 2941,
      "ĠkÃŃ": 2942,
      "emepá»¥ta": 2943,
      "ĠShugaban": 2944,
      "vers": 2945,
      "lite": 2946,
      "wanda": 2947,
      "ĠorÃŃláº¹": 2948,
      "Ġname": 2949,
      "ciety": 2950,
      "Ġmasa": 2951,
      "Ġcountry": 2952,
      "rÃ²": 2953,
      "ĠMoh": 2954,
      "ĠTo": 2955,
      "ziri": 2956,
      "Ġpip": 2957,
      "Ġja": 2958,
      "Ġadá»ĭ": 2959,
      "ĠMon": 2960,
      "ĠTara": 2961,
      "ĠFed": 2962,
      "Ġiwe": 2963,
      "amakon": 2964,
      "ĠDuk": 2965,
      "á¹£e": 2966,
      "ament": 2967,
      "aract": 2968,
      "ccess": 2969,
      "arshe": 2970,
      "Ġbayar": 2971,
      "adá»ĭghá»ĭ": 2972,
      "ords": 2973,
      "ĠMai": 2974,
      "ubo": 2975,
      "Ġrayuwa": 2976,
      "Ġanyanwá»¥": 2977,
      "Ġshekarun": 2978,
      "Ġsupport": 2979,
      "Ġocc": 2980,
      "ged": 2981,
      "Ġsal": 2982,
      "Ġwon": 2983,
      "Ġá»¥má»¥aka": 2984,
      "ody": 2985,
      "Ġfass": 2986,
      "Ġcontr": 2987,
      "Ġgbogbo": 2988,
      "Äģ": 2989,
      "Ġatá»¥matá»¥": 2990,
      "ogo": 2991,
      "agen": 2992,
      "Ġmita": 2993,
      "Ġca": 2994,
      "ĠWomen": 2995,
      "Ġ29": 2996,
      "ĠEdens": 2997,
      "ĠBC": 2998,
      "ouncil": 2999,
      "Ġkpá»įrá»į": 3000,
      "Ġnjem": 3001,
      "kas": 3002,
      "iness": 3003,
      "by": 3004,
      "Ġá»įná»įdá»¥": 3005,
      "ĠBas": 3006,
      "abá»¥": 3007,
      "Ġdesign": 3008,
      "Ġconsid": 3009,
      "Ġgosipá»¥tara": 3010,
      "ĠSha": 3011,
      "ulture": 3012,
      "ĠAkwa": 3013,
      "Ġjerin": 3014,
      "Ġfina": 3015,
      "ĠKas": 3016,
      "Ġ50": 3017,
      "ving": 3018,
      "ĠarÃ¡": 3019,
      "ĠAdam": 3020,
      "Ġtabbatar": 3021,
      "ado": 3022,
      "Ġ1991": 3023,
      "Ġtall": 3024,
      "Ġdifferent": 3025,
      "ĠUs": 3026,
      "Ġlife": 3027,
      "arorin": 3028,
      "Ġland": 3029,
      "Ġshari": 3030,
      "Ġamince": 3031,
      "Ġ1995": 3032,
      "ahá»ĭa": 3033,
      "Ġmmeká»įrá»ĭta": 3034,
      "Ġmemb": 3035,
      "yon": 3036,
      "enweghá»ĭ": 3037,
      "Ġntá»¥": 3038,
      "egosi": 3039,
      "ĠGir": 3040,
      "yinye": 3041,
      "ĠMed": 3042,
      "ĠÆĻa": 3043,
      "ĠHol": 3044,
      "Ġpublic": 3045,
      "Ġbecause": 3046,
      "omet": 3047,
      "ĠÃ¬lÃº": 3048,
      "ets": 3049,
      "Ġtattalin": 3050,
      "Ġtaimaka": 3051,
      "Ġgaban": 3052,
      "Ġnsogbu": 3053,
      "iwu": 3054,
      "ĠBu": 3055,
      "Ġaz": 3056,
      "ĠMc": 3057,
      "ared": 3058,
      "ĠwaÉĹannan": 3059,
      "oki": 3060,
      "ishin": 3061,
      "Ġahá»¥ike": 3062,
      "ched": 3063,
      "Ġbayanan": 3064,
      "ological": 3065,
      "ĠhaÉĹi": 3066,
      "yÃŃ": 3067,
      "Ġincre": 3068,
      "Ġkakar": 3069,
      "ĠAbdul": 3070,
      "Ġgáº¹": 3071,
      "oli": 3072,
      "ĠGa": 3073,
      "Ġmeriri": 3074,
      "Ġoffic": 3075,
      "Ġkansu": 3076,
      "Ġabá»¥": 3077,
      "Ġpos": 3078,
      "ĠIngila": 3079,
      "eration": 3080,
      "ĠCanada": 3081,
      "á¹£Ã¨": 3082,
      "ria": 3083,
      "ĠMag": 3084,
      "ĠCibiyar": 3085,
      "Ġmuhalli": 3086,
      "Ġduba": 3087,
      "Ġsiri": 3088,
      "Ġwill": 3089,
      "Ġrep": 3090,
      "Am": 3091,
      "11": 3092,
      "Ġmagana": 3093,
      "ĠIndia": 3094,
      "ici": 3095,
      "Ġshirin": 3096,
      "ĠEs": 3097,
      "Ġrema": 3098,
      "Ġenweghá»ĭ": 3099,
      "Ġnor": 3100,
      "Ġef": 3101,
      "illa": 3102,
      "ĠDemocr": 3103,
      "ays": 3104,
      "ccen": 3105,
      "ID": 3106,
      "Ġkamfanin": 3107,
      "ison": 3108,
      "Ġnchekwa": 3109,
      "ĠGl": 3110,
      "Ġnná»į": 3111,
      "sáº¹": 3112,
      "ĠkÃ²": 3113,
      "Ġkaratu": 3114,
      "Ġnle": 3115,
      "á»¥kwa": 3116,
      "âĢĶ": 3117,
      "Ġstat": 3118,
      "ĠMu": 3119,
      "akwado": 3120,
      "ĠCO": 3121,
      "Ġcould": 3122,
      "itan": 3123,
      "Ġeach": 3124,
      "ĠAfrika": 3125,
      "Ġbus": 3126,
      "Ġmot": 3127,
      "ĠWal": 3128,
      "ĠhaÉĹin": 3129,
      "hazi": 3130,
      "Ġbank": 3131,
      "irar": 3132,
      "lejin": 3133,
      "Ġkarkashin": 3134,
      "ĠGro": 3135,
      "obin": 3136,
      "ĠSpa": 3137,
      "though": 3138,
      "saka": 3139,
      "ĠInstitute": 3140,
      "run": 3141,
      "ĠUN": 3142,
      "Ġcharact": 3143,
      "ĠFir": 3144,
      "eriod": 3145,
      "attle": 3146,
      ".)": 3147,
      "iter": 3148,
      "ikan": 3149,
      "ox": 3150,
      "Ġsta": 3151,
      "Ġáº¸": 3152,
      "Ġabinci": 3153,
      "Ġohun": 3154,
      "ĠSab": 3155,
      "ober": 3156,
      "ĠEast": 3157,
      "ĠAssoci": 3158,
      "ett": 3159,
      "Ġedemede": 3160,
      "for": 3161,
      "Ġbisa": 3162,
      "Ġnweta": 3163,
      "Ġmmemme": 3164,
      "uel": 3165,
      "asan": 3166,
      "ruct": 3167,
      "ĠJen": 3168,
      "Ġtsawon": 3169,
      "ĠAwards": 3170,
      "Ġshow": 3171,
      "Ġyara": 3172,
      "ĠEngland": 3173,
      "ĠFabra": 3174,
      "CO": 3175,
      "Ġtal": 3176,
      "itions": 3177,
      "30": 3178,
      "Ġback": 3179,
      "Ġagba": 3180,
      "Ġmam": 3181,
      "Ġilimin": 3182,
      "ĠBell": 3183,
      "cik": 3184,
      "ĠArts": 3185,
      "ĠNigerian": 3186,
      "ĠComp": 3187,
      "cer": 3188,
      "ĠTV": 3189,
      "ete": 3190,
      "Ġjin": 3191,
      "Ġome": 3192,
      "burg": 3193,
      "zer": 3194,
      "Ġnu": 3195,
      "Ġnkuzi": 3196,
      "Ġngalaba": 3197,
      "Ġog": 3198,
      "=\"": 3199,
      "ĠJo": 3200,
      "Ġseveral": 3201,
      "ness": 3202,
      "ĠAfrá»ĭka": 3203,
      "ĠGwamn": 3204,
      "pÃŃnláº¹": 3205,
      "Ġrah": 3206,
      "present": 3207,
      "Ġhaifi": 3208,
      "Ġinclude": 3209,
      "ired": 3210,
      "Ġmiliyan": 3211,
      "Ġbr": 3212,
      "ĠEdensibia": 3213,
      "ĠNet": 3214,
      "Ġsanar": 3215,
      "Ġcre": 3216,
      "yoyin": 3217,
      "ript": 3218,
      "ca": 3219,
      "wÃ¡": 3220,
      "Ġmusic": 3221,
      "Ġcap": 3222,
      "Ġikuku": 3223,
      "Ġkil": 3224,
      "ĠPres": 3225,
      "antu": 3226,
      "ĠParis": 3227,
      "ĠNÃŃ": 3228,
      "ively": 3229,
      "unic": 3230,
      "rict": 3231,
      "itary": 3232,
      "ĠCup": 3233,
      "ĠId": 3234,
      "urs": 3235,
      "depend": 3236,
      "cience": 3237,
      "uke": 3238,
      "Ġhalin": 3239,
      "Ġkudu": 3240,
      "lect": 3241,
      "ÆĻashin": 3242,
      "dá»į": 3243,
      "Ġada": 3244,
      "Ġeto": 3245,
      "ĠGerm": 3246,
      "Ġplayer": 3247,
      "ĠChampions": 3248,
      "ĠNijeriya": 3249,
      "Ġawon": 3250,
      "uro": 3251,
      "arak": 3252,
      "Ġaká»į": 3253,
      "aná»¥": 3254,
      "Ġlori": 3255,
      "esá»ĭrá»ĭ": 3256,
      "oton": 3257,
      "196": 3258,
      "Ġtrad": 3259,
      "Ġemp": 3260,
      "irun": 3261,
      "ĠGree": 3262,
      "ctober": 3263,
      "Ġuntil": 3264,
      "ĠYar": 3265,
      "olin": 3266,
      "ĠSy": 3267,
      "Ġmechara": 3268,
      "ĠAkwá»¥kwá»į": 3269,
      "ĠRoman": 3270,
      "ĠHowever": 3271,
      "Ġequ": 3272,
      "yle": 3273,
      "rÃ¹n": 3274,
      "Ġnon": 3275,
      "Ġhu": 3276,
      "Ġhukum": 3277,
      "Ġdeath": 3278,
      "Ġbincike": 3279,
      "ÉĹe": 3280,
      "val": 3281,
      "omb": 3282,
      "iyoyi": 3283,
      "esearch": 3284,
      "ĠYan": 3285,
      "Ġojii": 3286,
      "Ġnche": 3287,
      "Ġkará»ĭrá»ĭ": 3288,
      "ĠAcadem": 3289,
      "ĠSm": 3290,
      "ĠHigh": 3291,
      "Ġtarihin": 3292,
      "sÃ¬": 3293,
      "Ġmegide": 3294,
      "ĠLegas": 3295,
      "ĠThere": 3296,
      "ĠCongress": 3297,
      "Ġtaron": 3298,
      "Ġmawa": 3299,
      "Ġmed": 3300,
      "Ã³n": 3301,
      "Ġfiye": 3302,
      "ĠEmp": 3303,
      "ÆĻar": 3304,
      "ateg": 3305,
      "Ġadam": 3306,
      "ĠFC": 3307,
      "ĠKim": 3308,
      "ico": 3309,
      "tt": 3310,
      "Ġbook": 3311,
      "ora": 3312,
      "ided": 3313,
      "zation": 3314,
      "ĠReg": 3315,
      "ĠDuba": 3316,
      "tr": 3317,
      "press": 3318,
      "ĠSak": 3319,
      "Ġclass": 3320,
      "Ġkasuwanci": 3321,
      "Ġmemba": 3322,
      "Ġkacha": 3323,
      "Ġmutu": 3324,
      "ĠKenya": 3325,
      "tÃł": 3326,
      "Ġasaa": 3327,
      "Ġugwu": 3328,
      "Ġexample": 3329,
      "Ġperiod": 3330,
      "ĠPress": 3331,
      "ĠKan": 3332,
      "Ġestab": 3333,
      "nke": 3334,
      "ird": 3335,
      "ciken": 3336,
      "ĠMak": 3337,
      "ĠCount": 3338,
      "ĠPaul": 3339,
      "zil": 3340,
      "ĠPark": 3341,
      "afe": 3342,
      "ĠIsra": 3343,
      "Ġlarge": 3344,
      "Ġpower": 3345,
      "Ġkud": 3346,
      "unk": 3347,
      "Ġazá»¥ma": 3348,
      "ĠSte": 3349,
      "ĠhaÉĵaka": 3350,
      "ĠÆĻas": 3351,
      "Ġrele": 3352,
      "egal": 3353,
      "ĠyÃ¬ÃŃ": 3354,
      "ĠFin": 3355,
      "Ġot": 3356,
      "ĠAtl": 3357,
      "Ġole": 3358,
      "Ġá»įk": 3359,
      "Ġgano": 3360,
      "wÃ²": 3361,
      "Ġyanke": 3362,
      "Ġpri": 3363,
      "ube": 3364,
      "ĠHai": 3365,
      "ena": 3366,
      "Ġeji": 3367,
      "ĠÂ": 3368,
      "Ġnada": 3369,
      "odi": 3370,
      "Ġhannun": 3371,
      "ĠPhil": 3372,
      "Ġghá»įrá»į": 3373,
      "uchi": 3374,
      "Ġnwá»¥rá»¥": 3375,
      "ĠÆĻarÆĻashin": 3376,
      "ĠZa": 3377,
      "Af": 3378,
      "amban": 3379,
      "pril": 3380,
      "á»¥sá»ĭrá»ĭ": 3381,
      "Ġshug": 3382,
      "Ġtawagar": 3383,
      "Ġge": 3384,
      "Ġnwee": 3385,
      "Ġsuccess": 3386,
      "Ġeven": 3387,
      "Ġdaida": 3388,
      "ĠMakar": 3389,
      "Ġwasanni": 3390,
      "Ġkwan": 3391,
      "Ġelect": 3392,
      "ná»¥": 3393,
      "rÃ¨": 3394,
      "Ġfannin": 3395,
      "Ġbak": 3396,
      "ĠQu": 3397,
      "rain": 3398,
      "ĠCam": 3399,
      "iko": 3400,
      "Ã¼": 3401,
      "Ġdog": 3402,
      "ĠNuwamba": 3403,
      "Ġasali": 3404,
      "ĠDec": 3405,
      "ĠAli": 3406,
      "ĠSteeti": 3407,
      "Ġrefer": 3408,
      "Ġlanguage": 3409,
      "Ġresult": 3410,
      "kweká»įrá»ĭta": 3411,
      "ĠKe": 3412,
      "ĠAbub": 3413,
      "ĠTarihi": 3414,
      "ĠKad": 3415,
      "Ġasá»įmpi": 3416,
      "ĠEuropean": 3417,
      "ĠCape": 3418,
      "jojin": 3419,
      "gine": 3420,
      "ĠJuly": 3421,
      "ried": 3422,
      "Ġ1989": 3423,
      "men": 3424,
      "Ġaround": 3425,
      "Ġasalin": 3426,
      "Ġpáº¹lu": 3427,
      "Ġeconom": 3428,
      "nÃ¬yÃłn": 3429,
      "Ġ;": 3430,
      "Ġval": 3431,
      "onwe": 3432,
      "Ġzaune": 3433,
      "ĠHouse": 3434,
      "Ġimport": 3435,
      "ĠKya": 3436,
      "unshi": 3437,
      "Ġtit": 3438,
      "Ġhudu": 3439,
      ");": 3440,
      "ĠDut": 3441,
      "Ġganin": 3442,
      "rodu": 3443,
      "ĠFe": 3444,
      "Ġmatakin": 3445,
      "21": 3446,
      "ĠGod": 3447,
      "nyÃ©": 3448,
      "ĠFeb": 3449,
      "ĠHer": 3450,
      "Ġgarga": 3451,
      "unta": 3452,
      "ĠBy": 3453,
      "aká»¥ká»¥": 3454,
      "Ġleda": 3455,
      "achá»ĭ": 3456,
      "ĠMil": 3457,
      "Ġkem": 3458,
      "oung": 3459,
      "work": 3460,
      "Ġozu": 3461,
      "Ġrun": 3462,
      "ĠCentral": 3463,
      "Ġuwe": 3464,
      "ĠOktoba": 3465,
      "ac": 3466,
      "ĠRed": 3467,
      "ories": 3468,
      "ĠIndiya": 3469,
      "Ġgreat": 3470,
      "Ġarea": 3471,
      "Ġmulki": 3472,
      "fess": 3473,
      "ised": 3474,
      "ananan": 3475,
      "kee": 3476,
      "gn": 3477,
      "ayya": 3478,
      "ky": 3479,
      "gbÃ©": 3480,
      "ĠFI": 3481,
      "Ġkará»ĭa": 3482,
      "Ġperson": 3483,
      "Ġtsara": 3484,
      "Ġlabarai": 3485,
      "kacin": 3486,
      "Ġrequ": 3487,
      "ĠJe": 3488,
      "ĠIS": 3489,
      "25": 3490,
      "ĠAustralia": 3491,
      "zarin": 3492,
      "Ġfas": 3493,
      "Ġhakan": 3494,
      "ality": 3495,
      "ĠIlim": 3496,
      "ency": 3497,
      "ĠChurch": 3498,
      "Ġkyau": 3499,
      "Ġ||": 3500,
      "ĠYana": 3501,
      "ĠBuh": 3502,
      "iforn": 3503,
      "ĠPrin": 3504,
      "Ġ1986": 3505,
      "ĠGeorge": 3506,
      "Ø§": 3507,
      "ĠCouncil": 3508,
      "ĠUK": 3509,
      "ense": 3510,
      "ĠÃ¨nÃ¬yÃłn": 3511,
      "Ġche": 3512,
      "Ġsá»ĭ": 3513,
      "ĠAgusta": 3514,
      "Ġosimiri": 3515,
      "Ġeziná»¥lá»į": 3516,
      "Ġshafi": 3517,
      "Ġdat": 3518,
      "Ġdigiri": 3519,
      "Ġasatá»į": 3520,
      "Ġ1988": 3521,
      "gá»į": 3522,
      "ĠAss": 3523,
      "iga": 3524,
      "ĠMart": 3525,
      "Ġruk": 3526,
      "ĠJames": 3527,
      "Ġgoma": 3528,
      "ĠDemocratic": 3529,
      "ades": 3530,
      "Ġechiche": 3531,
      "ĠDes": 3532,
      "ified": 3533,
      "ids": 3534,
      "Ġdid": 3535,
      "Ġseries": 3536,
      "ush": 3537,
      "ĠJu": 3538,
      "akwá»¥kwá»į": 3539,
      "ivil": 3540,
      "ĠKingdom": 3541,
      "kpá»¥rá»¥": 3542,
      "thern": 3543,
      "ĠGreen": 3544,
      "Ġrage": 3545,
      "Ġhana": 3546,
      "Ġá»ĭzá»¥": 3547,
      "ĠMayu": 3548,
      "ifornia": 3549,
      "ĠAssociation": 3550,
      "obi": 3551,
      "ĠGold": 3552,
      "omas": 3553,
      "ases": 3554,
      "Ġyoo": 3555,
      "ĠGermany": 3556,
      "Ġdiv": 3557,
      "itain": 3558,
      "ĠOctober": 3559,
      "ĠPeople": 3560,
      "rahim": 3561,
      "ek": 3562,
      "cks": 3563,
      "Ġ188": 3564,
      "Ġkasashen": 3565,
      "Ġpopulation": 3566,
      "Ġdia": 3567,
      "ĠMata": 3568,
      "unity": 3569,
      "ĠFilm": 3570,
      "Yan": 3571,
      "Ã¶": 3572,
      "Ġprogram": 3573,
      "Ġbuk": 3574,
      "ĠAnn": 3575,
      "gypt": 3576,
      "Ġ2023": 3577,
      "Ġkarshe": 3578,
      "ĠAfter": 3579,
      "á»Į": 3580,
      "ĠMor": 3581,
      "ĠOtu": 3582,
      "ĠBritain": 3583,
      "Ġkwuo": 3584,
      "Ġthough": 3585,
      "ĠBuhari": 3586,
      "ĠYamma": 3587,
      "ĠMuhammad": 3588,
      "ĠMarch": 3589,
      "iving": 3590,
      "shir": 3591,
      "Ġsabon": 3592,
      "bara": 3593,
      "Ġkm": 3594,
      "ĠPri": 3595,
      "aifaff": 3596,
      "ĠJená»¥": 3597,
      "Ġjiki": 3598,
      "Ġmetá»¥tara": 3599,
      "zie": 3600,
      "ĠSatumba": 3601,
      "Ġabu": 3602,
      "arkokin": 3603,
      "read": 3604,
      "ĠAcademy": 3605,
      "gboro": 3606,
      "ĠHam": 3607,
      "pi": 3608,
      "assan": 3609,
      "vir": 3610,
      "anuary": 3611,
      "ĠPat": 3612,
      "ĠCalifornia": 3613,
      "ĠSer": 3614,
      "ĠOne": 3615,
      "Ġneed": 3616,
      "Ġfata": 3617,
      "Ġpass": 3618,
      "ĠIk": 3619,
      "Ġbá»ĭ": 3620,
      "yÃ¨": 3621,
      "ĠHaifaff": 3622,
      "Ġstill": 3623,
      "adio": 3624,
      "ĠUganda": 3625,
      "ĠMee": 3626,
      "Ġamong": 3627,
      "Ġanyá»ĭ": 3628,
      "laim": 3629,
      "jejeniyar": 3630,
      "ushe": 3631,
      "Ġwasannin": 3632,
      "Ġauthor": 3633,
      "pect": 3634,
      "ĠSociety": 3635,
      "Ġdep": 3636,
      "Ġbased": 3637,
      "ĠMoham": 3638,
      "báº¹": 3639,
      "ling": 3640,
      "Ġcewar": 3641,
      "ĠÃ³nyÃ©": 3642,
      "Ġprocess": 3643,
      "Ġsakamakon": 3644,
      "Ġatta": 3645,
      "ĠolÃ³": 3646,
      "Ġzo": 3647,
      "Ġfasaha": 3648,
      "22": 3649,
      "Ġstart": 3650,
      "Ġinganta": 3651,
      "arth": 3652,
      "Ġá»ĭgba": 3653,
      "anz": 3654,
      "ĠÆ´an": 3655,
      "hur": 3656,
      "Ġ1987": 3657,
      "Ġcontinu": 3658,
      "Ġbabbar": 3659,
      "ĠHaifaffun": 3660,
      "Ġalbum": 3661,
      "Ġil": 3662,
      "Ġrecord": 3663,
      "Ġkwad": 3664,
      "ĠJanairu": 3665,
      "ayo": 3666,
      "Ġ1985": 3667,
      "Ġbikin": 3668,
      "estival": 3669,
      "Ġnow": 3670,
      "line": 3671,
      "umi": 3672,
      "min": 3673,
      "Ġ1983": 3674,
      "finai": 3675,
      "ĠDisamba": 3676,
      "br": 3677,
      "Ġshida": 3678,
      "Ġrayuwar": 3679,
      "hia": 3680,
      "kal": 3681,
      "ĠChristian": 3682,
      "Ġschool": 3683,
      "ruary": 3684,
      "ĠWilliam": 3685,
      "ensá»ĭ": 3686,
      "Ġwater": 3687,
      "rian": 3688,
      "reg": 3689,
      "ĠZe": 3690,
      "ĠRes": 3691,
      "dÃŃ": 3692,
      "Ġsir": 3693,
      "abin": 3694,
      "Ġhi": 3695,
      "kwas": 3696,
      "ĠLara": 3697,
      "ĠPDP": 3698,
      "Ġbá»¥kwa": 3699,
      "Ġkawo": 3700,
      "Ġthose": 3701,
      "Ġgund": 3702,
      "Ġpub": 3703,
      "isan": 3704,
      "ĠStud": 3705,
      "Ġposs": 3706,
      "yyar": 3707,
      "ĠLu": 3708,
      "Ġusing": 3709,
      "Ġfáº¹": 3710,
      "ĠYuni": 3711,
      "ĠHak": 3712,
      "Ġnufin": 3713,
      "Ġnakwa": 3714,
      "Ġconf": 3715,
      "iá¹£áº¹": 3716,
      "Ġpat": 3717,
      "Ġorder": 3718,
      "Ġmaa": 3719,
      "otun": 3720,
      "anai": 3721,
      "ĠKwalejin": 3722,
      "Ġhak": 3723,
      "Ġdawo": 3724,
      "aimakin": 3725,
      "ĠPo": 3726,
      "Ġyii": 3727,
      "ternal": 3728,
      "Ġdata": 3729,
      "idai": 3730,
      "ĠRoyal": 3731,
      "ĠJená»¥wará»ĭ": 3732,
      "CA": 3733,
      "Ġjo": 3734,
      "ĠMusulunci": 3735,
      "Ġappro": 3736,
      "ĠSud": 3737,
      "kÃ²": 3738,
      "ĠEgypt": 3739,
      "jÃł": 3740,
      "ogun": 3741,
      "Ġ1984": 3742,
      "Ġmmá»¥ta": 3743,
      "ĠBook": 3744,
      "Ġugbo": 3745,
      "Ġyawancin": 3746,
      "mai": 3747,
      "Ġlast": 3748,
      "ĠAllah": 3749,
      "Ġwuraren": 3750,
      "ĠHis": 3751,
      "odin": 3752,
      "ĠSeptember": 3753,
      "Ġprin": 3754,
      "Ġmkpá»¥rá»¥": 3755,
      "Ġmmeri": 3756,
      "ler": 3757,
      "reed": 3758,
      "Ġconst": 3759,
      "ĠBrazil": 3760,
      "ĠÃŃ": 3761,
      "ĠhaÆĻÆĻin": 3762,
      "fáº¹": 3763,
      "Ġmmepe": 3764,
      "''": 3765,
      "Ġfoto": 3766,
      "ĠAbuja": 3767,
      "cle": 3768,
      "Ġteam": 3769,
      "alib": 3770,
      "ishi": 3771,
      "Ġâ": 3772,
      "ĠRD": 3773,
      "ĠDay": 3774,
      "Ġá»įká»į": 3775,
      "astern": 3776,
      "ately": 3777,
      "Ġsin": 3778,
      "Ġsonye": 3779,
      "Ġgargajiya": 3780,
      "Ġá»¥gwá»į": 3781,
      "ĠJanuary": 3782,
      "owo": 3783,
      "Ġbid": 3784,
      "ĠWe": 3785,
      "ĠGeneral": 3786,
      "Ġref": 3787,
      "Ġmmepá»¥ta": 3788,
      "ĠNob": 3789,
      "imited": 3790,
      "orts": 3791,
      "Ġoá¹£Ã¹": 3792,
      "Ġmmeká»į": 3793,
      "Cards": 3794,
      "á¹ħ": 3795,
      "Ġezie": 3796,
      "ĠhCards": 3797,
      "ĠGall": 3798,
      "ĠKaduna": 3799,
      "ering": 3800,
      "Ġenye": 3801,
      "irus": 3802,
      "ĠThey": 3803,
      "Ġter": 3804,
      "ĠCro": 3805,
      "Ġnkw": 3806,
      "atawa": 3807,
      "berg": 3808,
      "Ġ40": 3809,
      "Ġ1979": 3810,
      "Ġtem": 3811,
      "ĠCha": 3812,
      "chá»į": 3813,
      "ĠOff": 3814,
      "Ġá»¥ba": 3815,
      "ĠSim": 3816,
      "ĠNdá»¥": 3817,
      "Ġstand": 3818,
      "ĠLaw": 3819,
      "Ġfur": 3820,
      "amawa": 3821,
      "Ġbro": 3822,
      "jikwa": 3823,
      "Ġcarbon": 3824,
      "Ġibe": 3825,
      "ured": 3826,
      "ĠdÃ¡": 3827,
      "ĠBenin": 3828,
      "ĠGroup": 3829,
      "Ġyakin": 3830,
      "Ġprom": 3831,
      "ĠGasar": 3832,
      "Ġopp": 3833,
      "ĠLatin": 3834,
      "Ġdam": 3835,
      "ĠAfrilu": 3836,
      "BA": 3837,
      "ĠÆĻarshe": 3838,
      "Ġtakarar": 3839,
      "ĠOd": 3840,
      "Ġmuch": 3841,
      "hael": 3842,
      "pinle": 3843,
      "Ġgener": 3844,
      "Ġinflu": 3845,
      "kon": 3846,
      "ĠWash": 3847,
      "amai": 3848,
      "Ġgá»¥sá»ĭrá»ĭ": 3849,
      "ĠKwam": 3850,
      "ĠIbrahim": 3851,
      "Ġorile": 3852,
      "Ġzamani": 3853,
      "Ġmmalite": 3854,
      "maka": 3855,
      "ted": 3856,
      "Ġmmaná»¥": 3857,
      "ĠYawan": 3858,
      "Ġnkwado": 3859,
      "Ġnit": 3860,
      "ĠApril": 3861,
      "key": 3862,
      "ĠÆĻau": 3863,
      "Ġfaf": 3864,
      "uf": 3865,
      "Ġformer": 3866,
      "ĠPages": 3867,
      "nd": 3868,
      "Ġakp": 3869,
      "á»įká»¥": 3870,
      "ĠSara": 3871,
      "ĠDisemba": 3872,
      "san": 3873,
      "hern": 3874,
      "CC": 3875,
      "Ġshirye": 3876,
      "ĠDecember": 3877,
      "bert": 3878,
      "40": 3879,
      "ĠTsarin": 3880,
      "Ġarziki": 3881,
      "arci": 3882,
      "ĠFebruary": 3883,
      "Ġhand": 3884,
      "ĠYe": 3885,
      "Ġrea": 3886,
      "ologo": 3887,
      "ĠQue": 3888,
      "NA": 3889,
      "tÃŃ": 3890,
      "aland": 3891,
      "Ġá»Įk": 3892,
      "bit": 3893,
      "ww": 3894,
      "lywood": 3895,
      "Ġvery": 3896,
      "ĠAwá»įn": 3897,
      "23": 3898,
      "ĠFound": 3899,
      "Ġold": 3900,
      "ĠAPC": 3901,
      "cing": 3902,
      "ĠIbadan": 3903,
      "Ġkogin": 3904,
      "Ġmodern": 3905,
      "ĠtÃºn": 3906,
      "Ġ(\"": 3907,
      "olution": 3908,
      "Ġdaidai": 3909,
      "utut": 3910,
      "Ġ31": 3911,
      "erial": 3912,
      "ĠAct": 3913,
      "ĠJamus": 3914,
      "Ġá»įmá»¥má»¥": 3915,
      "Ġwithin": 3916,
      "ĠWashington": 3917,
      "Ġsl": 3918,
      "Ġbegan": 3919,
      "ĠOlympics": 3920,
      "ĠBurtaniya": 3921,
      "ended": 3922,
      "Ġprop": 3923,
      "gwa": 3924,
      "á»įnd": 3925,
      "outhern": 3926,
      "PA": 3927,
      "itional": 3928,
      "Ġtranslations": 3929,
      "ĠPremi": 3930,
      "Ġinjin": 3931,
      "unye": 3932,
      "kewa": 3933,
      "Ġyayi": 3934,
      "ĠNations": 3935,
      "vision": 3936,
      "Ġkab": 3937,
      "ĠIm": 3938,
      "round": 3939,
      "ĠSec": 3940,
      "Ġvers": 3941,
      "Ġfootball": 3942,
      "aná»į": 3943,
      "ogi": 3944,
      "minist": 3945,
      "Ġshawarar": 3946,
      "viron": 3947,
      "ument": 3948,
      "ĠOm": 3949,
      "ĠOf": 3950,
      "ĠÃĪ": 3951,
      "cel": 3952,
      "Ġopen": 3953,
      "Ġ186": 3954,
      "Ġ1976": 3955,
      "Ġsaur": 3956,
      "Ġwit": 3957,
      "ĠMod": 3958,
      "Ġpopular": 3959,
      "Artic": 3960,
      "ĠCharles": 3961,
      "Ġhistory": 3962,
      "Ġdace": 3963,
      "Ġosise": 3964,
      "viewed": 3965,
      "Ġonyinye": 3966,
      "oso": 3967,
      "tal": 3968,
      "Ġrece": 3969,
      "Ġhead": 3970,
      "ĠbuÆĻ": 3971,
      "Ġnh": 3972,
      "Ġ187": 3973,
      "ĠWani": 3974,
      "Ġbelie": 3975,
      "ĠSeptemba": 3976,
      "ines": 3977,
      "Ġnkweká»įrá»ĭta": 3978,
      "ĠwÃ¡": 3979,
      "ĠVict": 3980,
      "ridge": 3981,
      "//": 3982,
      "ĠHaih": 3983,
      "ĠMgb": 3984,
      "arian": 3985,
      "ĠUk": 3986,
      "arkin": 3987,
      "ĠThese": 3988,
      "dÃ¡": 3989,
      "ĠÉĵang": 3990,
      "afuka": 3991,
      "Ġhalarci": 3992,
      "mer": 3993,
      "udd": 3994,
      "Ġunre": 3995,
      "ĠSite": 3996,
      "Ġ=": 3997,
      "ĠLou": 3998,
      "ĠYuli": 3999,
      "ĠTrans": 4000,
      "Ġfollowing": 4001,
      "olic": 4002,
      "tÃ²": 4003,
      "agá»¥": 4004,
      "Ġmace": 4005,
      "ĠCons": 4006,
      "Ġikpeazá»¥": 4007,
      "Ġminist": 4008,
      "Ġido": 4009,
      "ĠkÃ³": 4010,
      "Articles": 4011,
      "irÆĻ": 4012,
      "Ġdue": 4013,
      "ká»įwa": 4014,
      "Ġperform": 4015,
      "yá»į": 4016,
      "Ġtaken": 4017,
      "ĠNovember": 4018,
      "etá»į": 4019,
      "Ġkiya": 4020,
      "Ġkwá»¥": 4021,
      "atal": 4022,
      "ĠÃ¨dÃ¨": 4023,
      "ĠApp": 4024,
      "Ġez": 4025,
      "obal": 4026,
      "ests": 4027,
      "zon": 4028,
      "Ġho": 4029,
      "ĠRiver": 4030,
      "vo": 4031,
      "assa": 4032,
      "ĠSpain": 4033,
      "itii": 4034,
      "ĠRich": 4035,
      "hun": 4036,
      "Ġdel": 4037,
      "ĠSome": 4038,
      "ĠBl": 4039,
      "arautar": 4040,
      "Ġohere": 4041,
      "Ġigb": 4042,
      "osp": 4043,
      "ming": 4044,
      "ĠAma": 4045,
      "Ġuru": 4046,
      "Ġugboro": 4047,
      "Ġmen": 4048,
      "Ġest": 4049,
      "ĠMer": 4050,
      "Ġchild": 4051,
      "Ġ1950": 4052,
      "yancin": 4053,
      "Ġbabu": 4054,
      "ĠOgun": 4055,
      "ĠMakarantar": 4056,
      "bawa": 4057,
      "Ġgurbin": 4058,
      "sta": 4059,
      "peci": 4060,
      "Ġnational": 4061,
      "iven": 4062,
      "Ġcikak": 4063,
      "ock": 4064,
      "ites": 4065,
      "Ġ1975": 4066,
      "ĠÆĻara": 4067,
      "Ġsirri": 4068,
      "ĠTown": 4069,
      "Ġnrá»¥": 4070,
      "olo": 4071,
      "ĠBest": 4072,
      "Ġresp": 4073,
      "ĠSudan": 4074,
      "ĠMba": 4075,
      "ĠPer": 4076,
      "Ġdoka": 4077,
      "ĠGreat": 4078,
      "Ġmembers": 4079,
      "unar": 4080,
      "ĠÆĻwararr": 4081,
      "ĠNobel": 4082,
      "Ġ1982": 4083,
      "á»įvan": 4084,
      "table": 4085,
      "ĠYoruba": 4086,
      "Ġallow": 4087,
      "Ġmepá»¥tara": 4088,
      "Ġhistor": 4089,
      "ĠmÃ¡a": 4090,
      "ĠHen": 4091,
      "Ġreturn": 4092,
      "Ġah": 4093,
      "amara": 4094,
      "ĠKir": 4095,
      "chiri": 4096,
      "Ġhanyoyin": 4097,
      "ting": 4098,
      "anga": 4099,
      "akp": 4100,
      "mon": 4101,
      "Ġsong": 4102,
      "wi": 4103,
      "Ġbá»¥bu": 4104,
      "ashar": 4105,
      "Ġbuild": 4106,
      "á»įvaná»į": 4107,
      "ĠerÃ©": 4108,
      "ĠDelta": 4109,
      "Ġnwunye": 4110,
      "ĠMy": 4111,
      "Ġito": 4112,
      "ĠSuper": 4113,
      "omá»įká»¥": 4114,
      "omita": 4115,
      "Ġplace": 4116,
      "Ġip": 4117,
      "osa": 4118,
      "ĠJose": 4119,
      "ÃłÃ¡": 4120,
      "sakaicin": 4121,
      "Ġ1978": 4122,
      "gress": 4123,
      "ources": 4124,
      "Ġpresent": 4125,
      "ĠHausa": 4126,
      "ï»": 4127,
      "Ġkwadoro": 4128,
      "ĠAla": 4129,
      "icles": 4130,
      "Ġmatsal": 4131,
      "ĠVal": 4132,
      "ĠHistory": 4133,
      "hal": 4134,
      "igar": 4135,
      "Ġread": 4136,
      "Ġbirni": 4137,
      "Ġafo": 4138,
      "craft": 4139,
      "Ġer": 4140,
      "Ġrem": 4141,
      "Ġtyp": 4142,
      "Ġciwon": 4143,
      "ultural": 4144,
      "side": 4145,
      "Ġsee": 4146,
      "ulu": 4147,
      "xim": 4148,
      "prel": 4149,
      "Ġgasá»ĭrá»ĭ": 4150,
      "ittafin": 4151,
      "iddle": 4152,
      "Ġpuku": 4153,
      "Ġtek": 4154,
      "Ġpá»¥rá»¥": 4155,
      "Ġkaya": 4156,
      "):": 4157,
      "á»¥wa": 4158,
      "ĠPak": 4159,
      "ĠAngel": 4160,
      "ÌĢ.": 4161,
      "Ġá»¥ka": 4162,
      "Ġunreviewed": 4163,
      "udo": 4164,
      "ĠSin": 4165,
      "Ġzabe": 4166,
      "Ġwakiltar": 4167,
      "Ġkarni": 4168,
      "Ġdef": 4169,
      "ĠAikin": 4170,
      "Ġmy": 4171,
      "Ġrag": 4172,
      "Ġalong": 4173,
      "Ġá»įla": 4174,
      "ergy": 4175,
      "Ġ1981": 4176,
      "Ġyanar": 4177,
      "ĠWestern": 4178,
      "irgin": 4179,
      "AF": 4180,
      "Ġkpá»į": 4181,
      "Ġshort": 4182,
      "aso": 4183,
      "Ġnjiká»į": 4184,
      "Ġcomput": 4185,
      "yÃł": 4186,
      "car": 4187,
      "Ġwr": 4188,
      "str": 4189,
      "Ġabok": 4190,
      "arrafa": 4191,
      "kasÃŃ": 4192,
      "sar": 4193,
      "vironment": 4194,
      "ĠKasa": 4195,
      "king": 4196,
      "Ġhome": 4197,
      "Ġevery": 4198,
      "rÃŃkÃł": 4199,
      "Ġchá»įrá»į": 4200,
      "ĠFestival": 4201,
      "BN": 4202,
      "Ġkowace": 4203,
      "ĠÉĹaukar": 4204,
      "ĠAhma": 4205,
      "ĠNá»į": 4206,
      "ĠIwu": 4207,
      "oria": 4208,
      "lement": 4209,
      "Ġdeb": 4210,
      "ĠJos": 4211,
      "formation": 4212,
      "ĠPremier": 4213,
      "ix": 4214,
      "org": 4215,
      "ĠMary": 4216,
      "Ġfamily": 4217,
      "AS": 4218,
      "Ġhuman": 4219,
      "Ġjik": 4220,
      "Ġsaman": 4221,
      "Ġ1977": 4222,
      "Ġprote": 4223,
      "Ġ1972": 4224,
      "orial": 4225,
      "elata": 4226,
      "Ġgbe": 4227,
      "ĠPeter": 4228,
      "Ġtri": 4229,
      "ician": 4230,
      "ĠBin": 4231,
      "ems": 4232,
      "ES": 4233,
      "ben": 4234,
      "wÃ³": 4235,
      "ĠlÃ³rÃŃ": 4236,
      "Ġitoolu": 4237,
      "Ġgani": 4238,
      "ĠVol": 4239,
      "ĠMany": 4240,
      "ikpe": 4241,
      "Ġrepresent": 4242,
      "ney": 4243,
      "://": 4244,
      "ournal": 4245,
      "mw": 4246,
      "hes": 4247,
      "Ġetiti": 4248,
      "Ġbara": 4249,
      "ĠDin": 4250,
      "get": 4251,
      "Ġsayensá»ĭ": 4252,
      "Ġ),": 4253,
      "ĠDevelop": 4254,
      "ĠFoundation": 4255,
      "Ġochie": 4256,
      "ÉĹu": 4257,
      "Ġjust": 4258,
      "uda": 4259,
      "ando": 4260,
      "iction": 4261,
      "andan": 4262,
      "ĠJama": 4263,
      "ĠAkwai": 4264,
      "Ġday": 4265,
      "ilt": 4266,
      "Ġnzuká»į": 4267,
      "Ġnzere": 4268,
      "ĠMichael": 4269,
      "Ġjiri": 4270,
      "Ġtok": 4271,
      "chnology": 4272,
      "ĠEprel": 4273,
      "bipá»¥ta": 4274,
      "ĠCenter": 4275,
      "ways": 4276,
      "Ġmahimman": 4277,
      "Ġvis": 4278,
      "Ġbecome": 4279,
      "Ġlik": 4280,
      "Ġá»¥má»¥n": 4281,
      "pinláº¹": 4282,
      "hod": 4283,
      "ÉĹan": 4284,
      "Ġee": 4285,
      "Ġmis": 4286,
      "Ġnduzi": 4287,
      "wards": 4288,
      "Ġfusk": 4289,
      "Ġline": 4290,
      "ĠFrank": 4291,
      "ĠFranc": 4292,
      "Ġkilomita": 4293,
      "ĠIta": 4294,
      "Ġkaf": 4295,
      "ĠRayuwar": 4296,
      "ĠTunis": 4297,
      "Ġcolle": 4298,
      "Ġazá»¥mahá»ĭa": 4299,
      "Ġsarrafa": 4300,
      "ĠAyyukan": 4301,
      "ÙĦ": 4302,
      "á»įtá»¥tá»¥": 4303,
      "onye": 4304,
      "ĠÆĻunshi": 4305,
      "Ġmusul": 4306,
      "Al": 4307,
      "Ġtin": 4308,
      "reet": 4309,
      "ĠkarÉĵ": 4310,
      "Ġmaye": 4311,
      "ĠInter": 4312,
      "Ġdown": 4313,
      "Ġtop": 4314,
      "etinye": 4315,
      "ĠÆĻirÆĻ": 4316,
      "Ġcha": 4317,
      "nuche": 4318,
      "ĠPresident": 4319,
      "ĠYank": 4320,
      "ĠShafuka": 4321,
      "Ġimportant": 4322,
      "enti": 4323,
      "lÃ³": 4324,
      "gg": 4325,
      "bumnuche": 4326,
      "ville": 4327,
      "ĠGreek": 4328,
      "oron": 4329,
      "</": 4330,
      "Ġbat": 4331,
      "attun": 4332,
      "rÃłn": 4333,
      "ibo": 4334,
      "Ġfassarorin": 4335,
      "Ġprim": 4336,
      "Ġtashi": 4337,
      "ĠMusic": 4338,
      "Ġá»įcha": 4339,
      "Ġway": 4340,
      "uto": 4341,
      "Ġ1966": 4342,
      "Ġraba": 4343,
      "Ġwuce": 4344,
      "AR": 4345,
      "EC": 4346,
      "dÃ©": 4347,
      "ĠJerin": 4348,
      "ĠChampionship": 4349,
      "onin": 4350,
      "Ġbil": 4351,
      "Ġfaru": 4352,
      "Ġmallaka": 4353,
      "ĠMis": 4354,
      "Ġpolitical": 4355,
      "ĠMex": 4356,
      "ĠHaihuwan": 4357,
      "ĠHá»¥kwa": 4358,
      "Ġactiv": 4359,
      "Ġclaim": 4360,
      "ining": 4361,
      "ÆĻo": 4362,
      "adun": 4363,
      "ĠÆĻarshen": 4364,
      "Ġakwa": 4365,
      "ĠNá»įv": 4366,
      "24": 4367,
      "Ġfilin": 4368,
      "á»ĭn": 4369,
      "rie": 4370,
      "iho": 4371,
      "Ġpoint": 4372,
      "Ġnet": 4373,
      "wanye": 4374,
      "Ġphys": 4375,
      "Ġnear": 4376,
      "Ġnchá»ĭká»įta": 4377,
      "Ġrana": 4378,
      "ĠIslam": 4379,
      "Ġrest": 4380,
      "uncin": 4381,
      "ï»¿": 4382,
      "78": 4383,
      "ĠSai": 4384,
      "Ġconsidered": 4385,
      "Ġsek": 4386,
      "Ġbinciken": 4387,
      "ĠNde": 4388,
      "Ġshah": 4389,
      "kpá»į": 4390,
      "Ġndeká»į": 4391,
      "Ġear": 4392,
      "Ġagbá»¥rá»¥": 4393,
      "Ġhel": 4394,
      "zara": 4395,
      "alism": 4396,
      "ĠNá»įvemba": 4397,
      "Ġdr": 4398,
      "ongo": 4399,
      "ĠCoast": 4400,
      "eren": 4401,
      "Ġmilitary": 4402,
      "Ġlocal": 4403,
      "ĠObi": 4404,
      "Ġá»¥da": 4405,
      "field": 4406,
      "ĠNass": 4407,
      "Ġcome": 4408,
      "Ġmayar": 4409,
      "anish": 4410,
      "Ġalif": 4411,
      "cul": 4412,
      "tá»ĭ": 4413,
      "ĠIsland": 4414,
      "aikatar": 4415,
      "ĠGallery": 4416,
      "Ġgy": 4417,
      "Ġkwana": 4418,
      "antarki": 4419,
      "chester": 4420,
      "Ġmarubu": 4421,
      "Ġmahaifin": 4422,
      "Ġorin": 4423,
      "Ġkaramar": 4424,
      "ĠMov": 4425,
      "á»ĭta": 4426,
      "istic": 4427,
      "ump": 4428,
      "ops": 4429,
      "Ġamb": 4430,
      "Ġnasarar": 4431,
      "Ġtsakiyar": 4432,
      "Ġuche": 4433,
      "itar": 4434,
      "Ġreport": 4435,
      "Ġseason": 4436,
      "inent": 4437,
      "Ġcrit": 4438,
      "ĠDevelopment": 4439,
      "ĠKal": 4440,
      "ĠhuÉĹu": 4441,
      "Ġless": 4442,
      "right": 4443,
      "Ġgidaje": 4444,
      "Ġgirman": 4445,
      "ĠGar": 4446,
      "Ġparticular": 4447,
      "Ġkull": 4448,
      "Ġkyawun": 4449,
      "Ġará»¥": 4450,
      "ferences": 4451,
      "ĠShug": 4452,
      "ĠHab": 4453,
      "cip": 4454,
      "Ġilu": 4455,
      "aran": 4456,
      "Ġwadda": 4457,
      "ĠFederal": 4458,
      "Ġfield": 4459,
      "ĠOtÃº": 4460,
      "Ġspa": 4461,
      "Ġzamanta": 4462,
      "ĠkuÉĹi": 4463,
      "Ġokpomá»įká»¥": 4464,
      "ĠUr": 4465,
      "ĠmÃł": 4466,
      "ĠJack": 4467,
      "ements": 4468,
      "ĠMos": 4469,
      "Ġeffect": 4470,
      "Ġogologo": 4471,
      "ĠCap": 4472,
      "ĠBak": 4473,
      "Ġdirect": 4474,
      "á¹ħá»¥": 4475,
      "Ġbipá»¥tara": 4476,
      "gara": 4477,
      "Ġcamp": 4478,
      "Ġdescrib": 4479,
      "Ġntuli": 4480,
      "Ġzafi": 4481,
      "ĠFIFA": 4482,
      "Ġgundumar": 4483,
      "Ġá»ĭga": 4484,
      "addamar": 4485,
      "Ġá»įrá»į": 4486,
      "Ġode": 4487,
      "ĠDokar": 4488,
      "Ġomeiwu": 4489,
      "oma": 4490,
      "á»įtara": 4491,
      "Ġindust": 4492,
      "ĠSov": 4493,
      "Ġleg": 4494,
      "Ġwato": 4495,
      "Ġere": 4496,
      "ĠBus": 4497,
      "ĠHal": 4498,
      "wá»¥wa": 4499,
      "ĠSir": 4500,
      "ĠSol": 4501,
      "Ġgeneral": 4502,
      "ths": 4503,
      "gement": 4504,
      "reak": 4505,
      "ulaá»ĭ": 4506,
      "Ġdevelopment": 4507,
      "ÌĢ,": 4508,
      "rag": 4509,
      "Ġ1974": 4510,
      "Ġcountries": 4511,
      "Ġwall": 4512,
      "Ġcanza": 4513,
      "ĠTsak": 4514,
      "ribut": 4515,
      "Ġnchá»ĭkwa": 4516,
      "Ġmkpo": 4517,
      "ĠRayuwa": 4518,
      "ĠFabrairu": 4519,
      "ĠIpinle": 4520,
      "chamara": 4521,
      "ĠEli": 4522,
      "cco": 4523,
      "\")": 4524,
      "Ġá»ĭbá»¥": 4525,
      "Ġmatsayi": 4526,
      "ĠRobert": 4527,
      "Ġá»įdá»ĭn": 4528,
      "Ġikon": 4529,
      "enwe": 4530,
      "Ġkat": 4531,
      "Ġkill": 4532,
      "ĠJulaá»ĭ": 4533,
      "ĠSta": 4534,
      "Ġvarious": 4535,
      "eche": 4536,
      "imi": 4537,
      "Ġlara": 4538,
      "II": 4539,
      "ĠEr": 4540,
      "Ġshak": 4541,
      "60": 4542,
      "ĠTer": 4543,
      "ĠZim": 4544,
      "ĠKud": 4545,
      "Ġaddini": 4546,
      "ĠGrand": 4547,
      "kiya": 4548,
      "Ġblo": 4549,
      "Ġzane": 4550,
      "ĠÃĮpÃŃnláº¹": 4551,
      "ested": 4552,
      "Ġbakwai": 4553,
      "ĠÆĺungiyar": 4554,
      "Ġanti": 4555,
      "unawa": 4556,
      "wit": 4557,
      "Ġpost": 4558,
      "anna": 4559,
      "vin": 4560,
      "Ġleft": 4561,
      "Ġ1967": 4562,
      "ĠAccording": 4563,
      "ĠMoro": 4564,
      "less": 4565,
      "ours": 4566,
      "Ġsamo": 4567,
      "ishá»įn": 4568,
      "á»įk": 4569,
      "inea": 4570,
      "Ġkwallaye": 4571,
      "col": 4572,
      "Ġkasuwa": 4573,
      "ungiya": 4574,
      "Ġáº¹ni": 4575,
      "ungiyoyi": 4576,
      "Ġkuri": 4577,
      "Ġhow": 4578,
      "Ġbamban": 4579,
      "Ġvol": 4580,
      "fes": 4581,
      "lÃ¹": 4582,
      "Ġwhat": 4583,
      "Ġfeat": 4584,
      "Ġeeyan": 4585,
      "eland": 4586,
      "etic": 4587,
      "ĠMinista": 4588,
      "ĠMuhammadu": 4589,
      "Ġalb": 4590,
      "Ġpract": 4591,
      "Ġalm": 4592,
      "Ġsingle": 4593,
      "Ġadv": 4594,
      "Ġspecies": 4595,
      "ĠtÃł": 4596,
      "Ġkoyar": 4597,
      "Ġident": 4598,
      "Ġaure": 4599,
      "Ġlate": 4600,
      "ĠChic": 4601,
      "ĠKuma": 4602,
      "Ġwepá»¥tara": 4603,
      "ĠÃ²á¹£Ã¨": 4604,
      "Ġlevel": 4605,
      "ĠCamb": 4606,
      "Ġgari": 4607,
      "Ġcal": 4608,
      "Ġlam": 4609,
      "ĠSom": 4610,
      "ĠShek": 4611,
      "Ġkemgbe": 4612,
      "hie": 4613,
      "ĠEmpire": 4614,
      "In": 4615,
      "Ġkanta": 4616,
      "Ġcharacter": 4617,
      "ĠmÃ©": 4618,
      "Ġbakin": 4619,
      "Ġrul": 4620,
      "Ġcond": 4621,
      "Ġanother": 4622,
      "ĠNijar": 4623,
      "Ġdefin": 4624,
      "Ġá»įmá»¥ma": 4625,
      "Ġlow": 4626,
      "Ġbegin": 4627,
      "ĠArch": 4628,
      "ĠEdu": 4629,
      "Ġsaid": 4630,
      "ruction": 4631,
      "ype": 4632,
      "ĠTal": 4633,
      "umin": 4634,
      "Ġonyeisi": 4635,
      "Ġsignific": 4636,
      "ĠWasu": 4637,
      "Ġel": 4638,
      "abijin": 4639,
      "uniyar": 4640,
      "ĠÆĻid": 4641,
      "az": 4642,
      "abalá»ĭ": 4643,
      "iwatar": 4644,
      "ĠOther": 4645,
      "Ġregion": 4646,
      "Ġá»¥kpá»¥rá»¥": 4647,
      "Ġsocial": 4648,
      "ĠMasar": 4649,
      "Ġanal": 4650,
      "ĠSoviet": 4651,
      "ny": 4652,
      "Ġweb": 4653,
      "Ġstates": 4654,
      "Ġwithout": 4655,
      "Ġmatasa": 4656,
      "ĠDuring": 4657,
      "Ġ1969": 4658,
      "awar": 4659,
      "ummar": 4660,
      "wal": 4661,
      "ĠServ": 4662,
      "Ġlat": 4663,
      "Ġyou": 4664,
      "ĠSenegal": 4665,
      "Ġgá»ĭ": 4666,
      "Ġrá»¥": 4667,
      "Ġ1973": 4668,
      "ĠBello": 4669,
      "avirus": 4670,
      "Ġlargest": 4671,
      "ĠThomas": 4672,
      "Ġbayanai": 4673,
      "Ġá»įdá»ĭda": 4674,
      "igi": 4675,
      "ports": 4676,
      "Ġband": 4677,
      "ĠPan": 4678,
      "shiryen": 4679,
      "Ġtá»į": 4680,
      "irs": 4681,
      "Ġproper": 4682,
      "Ġkudi": 4683,
      "Ġndá»ĭda": 4684,
      "Ġshawara": 4685,
      "ĠHon": 4686,
      "ĠDutch": 4687,
      "ead": 4688,
      "Ġfive": 4689,
      "Ġjim": 4690,
      "gbÃ¡": 4691,
      "ulf": 4692,
      "Ġá»Įktoba": 4693,
      "win": 4694,
      "ties": 4695,
      "Ġdokokin": 4696,
      "las": 4697,
      "Ġpublished": 4698,
      "ither": 4699,
      "Ġrufe": 4700,
      "mes": 4701,
      "á»¥bá»įchá»ĭ": 4702,
      "babwe": 4703,
      "ĠMutane": 4704,
      "Ġmean": 4705,
      "ĠKá»įm": 4706,
      "Ġriga": 4707,
      "geria": 4708,
      "Ġstruct": 4709,
      "Ġyammacin": 4710,
      "Ġanim": 4711,
      "ĠSmith": 4712,
      "ĠAbubakar": 4713,
      "ĠSwed": 4714,
      "ĠalÃ¡": 4715,
      "anyeghá»ĭ": 4716,
      "Ġhyd": 4717,
      "Ġevent": 4718,
      "Ġkun": 4719,
      "Ġgá»¥rá»¥": 4720,
      "idence": 4721,
      "Ġassoci": 4722,
      "Ã³Ã²": 4723,
      "ĠSpe": 4724,
      "gbá»įn": 4725,
      "raá»ĭ": 4726,
      "ĠÃ²tÃ¹": 4727,
      "Ġtatta": 4728,
      "Ġsadar": 4729,
      "alibi": 4730,
      "Ġsimilar": 4731,
      "ĠTarihin": 4732,
      "Ġnjikwa": 4733,
      "Ġsana": 4734,
      "sá»¥": 4735,
      "195": 4736,
      "Ġharshen": 4737,
      "lear": 4738,
      "Ġwatsa": 4739,
      "Ġox": 4740,
      "ĠCont": 4741,
      "Ġoriginal": 4742,
      "wana": 4743,
      "Ġdukkan": 4744,
      "ĠHot": 4745,
      "afiyar": 4746,
      "Ġaro": 4747,
      "ochi": 4748,
      "ĠDist": 4749,
      "Ġtimes": 4750,
      "Ġgwiwa": 4751,
      "ÆĻe": 4752,
      "TA": 4753,
      "Ġfew": 4754,
      "obodo": 4755,
      "ĠalaÆĻa": 4756,
      "Ġdole": 4757,
      "Ġcontrol": 4758,
      "otes": 4759,
      "achá»į": 4760,
      "ĠAj": 4761,
      "Ġolu": 4762,
      "ĠJew": 4763,
      "akwun": 4764,
      "ĠPakistan": 4765,
      "undin": 4766,
      "ardin": 4767,
      "ania": 4768,
      "udanar": 4769,
      "ĠSpanish": 4770,
      "ĠAsh": 4771,
      "Ġwomen": 4772,
      "Ġ1964": 4773,
      "ĠBill": 4774,
      "oms": 4775,
      "Ġdaukar": 4776,
      "Ġtel": 4777,
      "idere": 4778,
      "Ġteku": 4779,
      "Ġtafi": 4780,
      "Ġ1971": 4781,
      "Ġenyemaka": 4782,
      "ĠZimbabwe": 4783,
      "80": 4784,
      "Ġlitt": 4785,
      "27": 4786,
      "ĠCross": 4787,
      "ĠAlexander": 4788,
      "Ġ1968": 4789,
      "ĠJoseph": 4790,
      "Ġtil": 4791,
      "Ġkwamitin": 4792,
      "ĠAmáº¹": 4793,
      "Ġitinye": 4794,
      "ends": 4795,
      "Ġá»įbá»¥": 4796,
      "ako": 4797,
      "Ġder": 4798,
      "Ġeduc": 4799,
      "ĠIf": 4800,
      "gwÃ¨": 4801,
      "Ġigba": 4802,
      "ald": 4803,
      "ĠÆĻananan": 4804,
      "ĠotÃº": 4805,
      "Ġcell": 4806,
      "ĠLee": 4807,
      "ĠBang": 4808,
      "atsina": 4809,
      "Ġdangin": 4810,
      "part": 4811,
      "Ġep": 4812,
      "ium": 4813,
      "ĠWhen": 4814,
      "ĠEbens": 4815,
      "ij": 4816,
      "Ġpresident": 4817,
      "Ġnhazi": 4818,
      "ghachiri": 4819,
      "ĠOri": 4820,
      "alle": 4821,
      "Ġlantarki": 4822,
      "ĠLin": 4823,
      "ĠgbÃ©": 4824,
      "Ġsakand": 4825,
      "ĠClub": 4826,
      "Ġáº¹láº¹": 4827,
      "Ġtamb": 4828,
      "Ġdokar": 4829,
      "Ġmmasá»ĭ": 4830,
      "tanet": 4831,
      "Ġgiven": 4832,
      "Ġ''": 4833,
      "ĠokÃ©": 4834,
      "ĠZealand": 4835,
      "Ġdare": 4836,
      "Ġaiwatar": 4837,
      "ĠRec": 4838,
      "ĠGuinea": 4839,
      "ĠWat": 4840,
      "ove": 4841,
      "ĠReferences": 4842,
      "Ġinvol": 4843,
      "Ġran": 4844,
      "ĠPal": 4845,
      "Ġá»įkachamara": 4846,
      "ĠAz": 4847,
      "ĠÃ©": 4848,
      "osoph": 4849,
      "ĠSaint": 4850,
      "Ġintrodu": 4851,
      "ummer": 4852,
      "Ġdecl": 4853,
      "itive": 4854,
      "Ġdeveloped": 4855,
      "enyere": 4856,
      "ideo": 4857,
      "Ġá»ĭdá»ĭ": 4858,
      "utun": 4859,
      "ĠWith": 4860,
      "iyi": 4861,
      "Ġtasiri": 4862,
      "shen": 4863,
      "uko": 4864,
      "Ġ60": 4865,
      "Ġkamfan": 4866,
      "isha": 4867,
      "ender": 4868,
      "now": 4869,
      "serv": 4870,
      "Ġbody": 4871,
      "Ġgabas": 4872,
      "Ġidi": 4873,
      "ĠUm": 4874,
      "Ġgrow": 4875,
      "Ġestablished": 4876,
      "yr": 4877,
      "Ġ).": 4878,
      "ĠIlimi": 4879,
      "ĠNz": 4880,
      "ĠEk": 4881,
      "Ġumar": 4882,
      "Ġview": 4883,
      "ĠFrancis": 4884,
      "Ġindepend": 4885,
      "ĠWil": 4886,
      "Ġhalitta": 4887,
      "ĠCommission": 4888,
      "ĠMasu": 4889,
      "ĠBul": 4890,
      "limate": 4891,
      "jall": 4892,
      "Ġharkokin": 4893,
      "ikh": 4894,
      "ivid": 4895,
      "thers": 4896,
      "artar": 4897,
      "nes": 4898,
      "ĠSing": 4899,
      "ĠKab": 4900,
      "ĠKungiyar": 4901,
      "Ġ1963": 4902,
      "Ġsojojin": 4903,
      "ues": 4904,
      "Ġright": 4905,
      "Ġwan": 4906,
      "adian": 4907,
      "Ġtook": 4908,
      "á»ĭtá»ĭ": 4909,
      "ential": 4910,
      "ĠMiss": 4911,
      "lue": 4912,
      "ĠMb": 4913,
      "Ġosote": 4914,
      ".[": 4915,
      "Ġaá¹£": 4916,
      "unt": 4917,
      "28": 4918,
      "orar": 4919,
      "eroon": 4920,
      "fafa": 4921,
      "ĠTimes": 4922,
      "ĠAhmed": 4923,
      "ĠScience": 4924,
      "alace": 4925,
      "Ġgames": 4926,
      "AN": 4927,
      "já»¥já»¥": 4928,
      "Ġkamata": 4929,
      "ĠRom": 4930,
      "aster": 4931,
      "Ġjiragen": 4932,
      "Ġlá»¥rá»¥": 4933,
      "iaka": 4934,
      "ĠGidan": 4935,
      "ĠColumb": 4936,
      "Ġtseren": 4937,
      "uren": 4938,
      "Ġlok": 4939,
      "ously": 4940,
      "Ġfact": 4941,
      "ĠEle": 4942,
      "Ġsada": 4943,
      "Ġkwar": 4944,
      "Ġ1965": 4945,
      "cover": 4946,
      "Ġdauki": 4947,
      "iran": 4948,
      "Ġtakwas": 4949,
      "Ġchang": 4950,
      "loy": 4951,
      "antic": 4952,
      "Ġ1962": 4953,
      "Ġsune": 4954,
      "stitut": 4955,
      "Ġheld": 4956,
      "...": 4957,
      "lÃł": 4958,
      "Ġsix": 4959,
      "ĠRichard": 4960,
      "Ġcare": 4961,
      "Ġnoma": 4962,
      "ĠFirst": 4963,
      "Ġexist": 4964,
      "ĠBat": 4965,
      "Ġduka": 4966,
      "kÃ¬": 4967,
      "Ġdak": 4968,
      "Ġcaus": 4969,
      "ĠSil": 4970,
      "Ġtsaye": 4971,
      "mb": 4972,
      "Ġcase": 4973,
      "ĠMafi": 4974,
      "Ġgl": 4975,
      "Ġking": 4976,
      "Ġruru": 4977,
      "Ġsaka": 4978,
      "idee": 4979,
      "Ġnorth": 4980,
      "Ġtashar": 4981,
      "Ġtotal": 4982,
      "Ã¬bÃŃ": 4983,
      "Ġport": 4984,
      "Ġusually": 4985,
      "ising": 4986,
      "gr": 4987,
      "ints": 4988,
      "Ġrahoton": 4989,
      "Ġincluded": 4990,
      "ĠAustralian": 4991,
      "erve": 4992,
      "ĠBut": 4993,
      "Ġiniti": 4994,
      "ĠLos": 4995,
      "ĠDen": 4996,
      "ĠFlor": 4997,
      "iman": 4998,
      "Ġsayar": 4999,
      "Ġsignificant": 5000,
      "omp": 5001,
      "Ġzar": 5002,
      "47": 5003,
      "Ġsoja": 5004,
      "ĠBekee": 5005,
      "ĠScot": 5006,
      "Ġareas": 5007,
      "Ġlanguages": 5008,
      "century": 5009,
      "ĠDiv": 5010,
      "ushen": 5011,
      "ĠGá»įá»įmentá»ĭ": 5012,
      "Ġproble": 5013,
      "Ġomen": 5014,
      "Ġmic": 5015,
      "Ġmmeká»įahá»¥": 5016,
      "Ġsk": 5017,
      "ollywood": 5018,
      "ĠHall": 5019,
      "Ġaddinin": 5020,
      "Ġshekarata": 5021,
      "ĠAw": 5022,
      "Ġhowever": 5023,
      "ored": 5024,
      "ĠArmy": 5025,
      "ĠKofin": 5026,
      "ollo": 5027,
      "anyi": 5028,
      "Ġá»įdá»ĭnala": 5029,
      "Ġiska": 5030,
      "Ġproduction": 5031,
      "ĠSee": 5032,
      "Ġtsakiya": 5033,
      "'.": 5034,
      "itation": 5035,
      "ĠGra": 5036,
      "ĠNassoshi": 5037,
      "ĠIran": 5038,
      "ĠIya": 5039,
      "dun": 5040,
      "ĠmÃłkÃł": 5041,
      "ĠEduc": 5042,
      "Ġseká»įnd": 5043,
      "Ġturn": 5044,
      "chá»įpá»¥ta": 5045,
      "Ġrukunin": 5046,
      "Ġpur": 5047,
      "ĠKogin": 5048,
      "pebi": 5049,
      "Ġrawar": 5050,
      "Ġmkpofu": 5051,
      "IS": 5052,
      "ole": 5053,
      "Ġfahim": 5054,
      "aliya": 5055,
      "Ġmaga": 5056,
      "ĠÆĻo": 5057,
      "ĠMachá»ĭ": 5058,
      "Ġphil": 5059,
      "ĠEarth": 5060,
      "Ġkudin": 5061,
      "Ġibu": 5062,
      "ston": 5063,
      "ĠArewacin": 5064,
      "Ġmad": 5065,
      "',": 5066,
      "Ġgami": 5067,
      "ukuma": 5068,
      "90": 5069,
      "Ġlinks": 5070,
      "26": 5071,
      "ĠEg": 5072,
      "ĠJanairun": 5073,
      "ĠLimited": 5074,
      "ghan": 5075,
      "uz": 5076,
      "empt": 5077,
      "aries": 5078,
      "Ġbaki": 5079,
      "ĠWas": 5080,
      "Ġnamed": 5081,
      "ĠManchester": 5082,
      "VID": 5083,
      "sea": 5084,
      "Ġbusiness": 5085,
      "rey": 5086,
      "Ġcir": 5087,
      "Ġhouse": 5088,
      "Ġstrong": 5089,
      "ĠJohnson": 5090,
      "ĠEt": 5091,
      "Ġthird": 5092,
      "ĠrÃŃ": 5093,
      "raine": 5094,
      "ĠDar": 5095,
      "ĠÃ¨yÃŃ": 5096,
      "pan": 5097,
      "ĠCompany": 5098,
      "ĠJon": 5099,
      "Ġize": 5100,
      "ĠHuman": 5101,
      "ĠList": 5102,
      "ĠTele": 5103,
      "Ġtsaya": 5104,
      "fofin": 5105,
      "Ġzag": 5106,
      "Ġbá»¥ghá»ĭ": 5107,
      "Ġjagoranci": 5108,
      "ĠÃ³kÃ¨": 5109,
      "Ġkall": 5110,
      "Ġkarshen": 5111,
      "ior": 5112,
      "Ġchem": 5113,
      "uga": 5114,
      "annes": 5115,
      "ification": 5116,
      "Ġnwanne": 5117,
      "icy": 5118,
      "sy": 5119,
      "Ġhotuna": 5120,
      "writ": 5121,
      "Ġalthough": 5122,
      "Ġogb": 5123,
      "ĠolÃ¹": 5124,
      "Ġclub": 5125,
      "Ġebubo": 5126,
      "Ġmes": 5127,
      "ĠBig": 5128,
      "fesa": 5129,
      "ĠTarayyar": 5130,
      "Ġorgan": 5131,
      "AC": 5132,
      "Ġdalil": 5133,
      "ĠtÃłbÃŃ": 5134,
      "ĠAkin": 5135,
      "ĠHel": 5136,
      "ĠTin": 5137,
      "Ġjiho": 5138,
      "Ġtsaro": 5139,
      "ĠSana": 5140,
      "tains": 5141,
      "ĠCameroon": 5142,
      "sequ": 5143,
      "ex": 5144,
      "vert": 5145,
      "Ġrelations": 5146,
      "Ġ<": 5147,
      "otic": 5148,
      "Ġblack": 5149,
      "Ã¬nrin": 5150,
      "ĠonÃŃ": 5151,
      "ella": 5152,
      "Ġá»įkÃł": 5153,
      "ĠDinkin": 5154,
      "ĠlÃ¨": 5155,
      "Ġekw": 5156,
      "joji": 5157,
      "ĠRu": 5158,
      "Ġfunction": 5159,
      "Ġstyle": 5160,
      "cast": 5161,
      "Ġside": 5162,
      "Ġtheory": 5163,
      "Ġlabarin": 5164,
      "Ġjins": 5165,
      "face": 5166,
      "35": 5167,
      "raw": 5168,
      "Ġcompany": 5169,
      "Ġstudy": 5170,
      "Ġsouth": 5171,
      "ĠBudd": 5172,
      "37": 5173,
      "páº¹": 5174,
      "Ġgoolu": 5175,
      "Ġdubu": 5176,
      "score": 5177,
      "Ġmajalis": 5178,
      "Ġtreat": 5179,
      "ĠChief": 5180,
      "Ġsent": 5181,
      "ĠMexico": 5182,
      "ĠCath": 5183,
      "uts": 5184,
      "ĠNews": 5185,
      "Ġabubuwa": 5186,
      "ĠCounty": 5187,
      "Ġrole": 5188,
      "ĠGovernment": 5189,
      "Ġhelp": 5190,
      "Ġhtt": 5191,
      "anti": 5192,
      "Ġtafiya": 5193,
      "Ġsonyeere": 5194,
      "ention": 5195,
      "Ġcanc": 5196,
      "vention": 5197,
      "ĠIsrael": 5198,
      "ĠAD": 5199,
      "Ġakpá»įrá»į": 5200,
      "ators": 5201,
      "ĠOx": 5202,
      "Ġgroups": 5203,
      "Ġrawa": 5204,
      "Ġengine": 5205,
      "Ġgwamnan": 5206,
      "ĠCOVID": 5207,
      "ĠÃ²un": 5208,
      "gá»įst": 5209,
      "ĠMac": 5210,
      "Ġwrote": 5211,
      "Ġdari": 5212,
      "beghá»ĭ": 5213,
      "ĠLokacin": 5214,
      "Ç¹": 5215,
      "ertain": 5216,
      "ker": 5217,
      "ership": 5218,
      "Ġprofess": 5219,
      "Ġá»¤má»¥": 5220,
      "29": 5221,
      "Ġmuk": 5222,
      "ĠZam": 5223,
      "Ġiko": 5224,
      "ĠFl": 5225,
      "ambra": 5226,
      "Ġir": 5227,
      "kpa": 5228,
      "ĠNorthern": 5229,
      "ĠHenry": 5230,
      "Ġgalibi": 5231,
      "Ġcurr": 5232,
      "ĠÆĻarin": 5233,
      "Ġwuri": 5234,
      "Ġparty": 5235,
      "ĠEdo": 5236,
      "onavirus": 5237,
      "Ġmalite": 5238,
      "Americ": 5239,
      "Ġlist": 5240,
      "ĠJamhur": 5241,
      "ĠIle": 5242,
      "ĠChicago": 5243,
      "Ġtaba": 5244,
      "ultan": 5245,
      "Ġmid": 5246,
      "ĠDang": 5247,
      "Ġenwere": 5248,
      "Ġproduced": 5249,
      "aifiyar": 5250,
      "ĠNwa": 5251,
      "chan": 5252,
      "Ġden": 5253,
      "ĠKatsina": 5254,
      "Ġsepar": 5255,
      "Ġadadin": 5256,
      "tained": 5257,
      "Ġrepla": 5258,
      "ĠSauran": 5259,
      "Ġkiran": 5260,
      "Ġinternational": 5261,
      "Ġhakkin": 5262,
      "ĠSecond": 5263,
      "ĠJust": 5264,
      "ference": 5265,
      "born": 5266,
      "ua": 5267,
      "ĠIji": 5268,
      "Ġtarayya": 5269,
      "ĠMorocco": 5270,
      "Ġorgani": 5271,
      "ĠMaka": 5272,
      "á»įta": 5273,
      "ĠYou": 5274,
      "ecut": 5275,
      "zab": 5276,
      "Ġnná»įchi": 5277,
      "ĠDam": 5278,
      "ĠFasa": 5279,
      "Ġmgbochi": 5280,
      "Afric": 5281,
      "ii": 5282,
      "Ġgudanarwa": 5283,
      "Ġ185": 5284,
      "gÃºn": 5285,
      "Ġacid": 5286,
      "ĠRussia": 5287,
      "Ġshar": 5288,
      "Ġ1961": 5289,
      "Ġwadannan": 5290,
      "ometimes": 5291,
      "Ġhalf": 5292,
      "ĠGom": 5293,
      "Ġdaidaita": 5294,
      "ĠKu": 5295,
      "ĠFebá»¥": 5296,
      "order": 5297,
      "cus": 5298,
      "Ġiyi": 5299,
      "Ġtown": 5300,
      "ls": 5301,
      "ĠBon": 5302,
      "ĠOyo": 5303,
      "ĠKamfanin": 5304,
      "ĠÐ": 5305,
      "MA": 5306,
      "lá»įb": 5307,
      "ource": 5308,
      "Ġtsaron": 5309,
      "ĠNdepá»¥ta": 5310,
      "asá»¥": 5311,
      "Ġsugg": 5312,
      "ĠnÃŃgbÃł": 5313,
      "ĠMet": 5314,
      "ĠObodo": 5315,
      "Ġtarin": 5316,
      "Ġmamaye": 5317,
      "ĠBrown": 5318,
      "orob": 5319,
      "ĠIl": 5320,
      "Ġshigar": 5321,
      "ambia": 5322,
      "TV": 5323,
      "Ġfre": 5324,
      "ĠTurk": 5325,
      "ĠBad": 5326,
      "Ġbude": 5327,
      "ils": 5328,
      "Ġá»Įgá»įst": 5329,
      "ĠNgalaba": 5330,
      "Ġaut": 5331,
      "Ġcuta": 5332,
      "ĠEconom": 5333,
      "Ġkok": 5334,
      "Ġ|-": 5335,
      "Ġindivid": 5336,
      "Ġrarr": 5337,
      "iled": 5338,
      "Ġhaving": 5339,
      "má»įdá»¥": 5340,
      "ĠTra": 5341,
      "ĠSocial": 5342,
      "ĠCin": 5343,
      "Ġcibiyar": 5344,
      "Ġresearch": 5345,
      "Ġgabata": 5346,
      "Ġwaye": 5347,
      "icle": 5348,
      "Ġspace": 5349,
      "ĠmÃº": 5350,
      "ĠzaÉĵe": 5351,
      "Ġtan": 5352,
      "ĠChinese": 5353,
      "Ġmatsakaicin": 5354,
      "Ġsamf": 5355,
      "Ġlight": 5356,
      "Ġrá»¥á»į": 5357,
      "ĠScott": 5358,
      "Ġpipo": 5359,
      "alu": 5360,
      "ĠBah": 5361,
      "Ġsystems": 5362,
      "Ġmgba": 5363,
      "Ġwritten": 5364,
      "mÃ¬": 5365,
      "ĠAngeles": 5366,
      "atory": 5367,
      "Ġconne": 5368,
      "Ġá»Įtá»¥tá»¥": 5369,
      "Ġila": 5370,
      "ĠFebá»¥wará»ĭ": 5371,
      "rary": 5372,
      "Ġconc": 5373,
      "Ġmahadum": 5374,
      "Ġdar": 5375,
      "ĠLove": 5376,
      "ĠKat": 5377,
      "Ġenyi": 5378,
      "IC": 5379,
      "Ġaika": 5380,
      "45": 5381,
      "Ġebumnuche": 5382,
      "lav": 5383,
      "ĠVer": 5384,
      "\">": 5385,
      "bers": 5386,
      "aria": 5387,
      "Ġage": 5388,
      "ĠbuÉĹe": 5389,
      "Ġ1958": 5390,
      "Ġhukuma": 5391,
      "Ġisiokwu": 5392,
      "Ã§": 5393,
      "ĠÆĻungiyoyin": 5394,
      "ĠSund": 5395,
      "Ġá»įnwá»¥": 5396,
      "ĠHakanan": 5397,
      "ister": 5398,
      "ĠMont": 5399,
      "Ġactor": 5400,
      "Ġyarda": 5401,
      "ĠSur": 5402,
      "aikata": 5403,
      "Ġservice": 5404,
      "Ġkaranta": 5405,
      "Ġlal": 5406,
      "Ġpolitician": 5407,
      "ilun": 5408,
      "Ġtalabijin": 5409,
      "Ġast": 5410,
      "ĠKanada": 5411,
      "Ġq": 5412,
      "Ġume": 5413,
      "ĠEze": 5414,
      "ulin": 5415,
      "kwasá»ĭ": 5416,
      "ĠRev": 5417,
      "ĠYankin": 5418,
      "Ġtabi": 5419,
      "iance": 5420,
      "ĠTana": 5421,
      "opa": 5422,
      "ibirin": 5423,
      "ĠMohammed": 5424,
      "33": 5425,
      "Ġgi": 5426,
      "umike": 5427,
      "nam": 5428,
      "Ġlittafin": 5429,
      "Ġtakara": 5430,
      "Ġmusu": 5431,
      "ĠMul": 5432,
      "PP": 5433,
      "ĠEko": 5434,
      "ĠLife": 5435,
      "Ġshould": 5436,
      "pu": 5437,
      "ĠOge": 5438,
      "Ġá»¥tá»į": 5439,
      "Ġanaghá»ĭ": 5440,
      "dÃºn": 5441,
      "ĠÃłká»į": 5442,
      "Ġhold": 5443,
      "Ġmethod": 5444,
      "Ġterrit": 5445,
      "ĠNzuká»į": 5446,
      "ĠGood": 5447,
      "book": 5448,
      "ĠØ": 5449,
      "lá»įpá»į": 5450,
      "rick": 5451,
      "Ġelection": 5452,
      "ĠIreland": 5453,
      "Ab": 5454,
      "tun": 5455,
      "Ġdut": 5456,
      "Ġgood": 5457,
      "ĠUkraine": 5458,
      "ĠMen": 5459,
      "kaci": 5460,
      "Ġdoes": 5461,
      "Ġmulti": 5462,
      "nÃł": 5463,
      "iment": 5464,
      "Ġdoke": 5465,
      "ĠNA": 5466,
      "empor": 5467,
      "rogen": 5468,
      "Ġokpuk": 5469,
      "Ġntá»į": 5470,
      "ĠKasuwan": 5471,
      "ĠBerlin": 5472,
      "Ġtur": 5473,
      "rap": 5474,
      "Ġdev": 5475,
      "ĠjÃ¹": 5476,
      "act": 5477,
      "ĠMme": 5478,
      "Ġsara": 5479,
      "undi": 5480,
      "Ġfree": 5481,
      "Ġtasirin": 5482,
      "vail": 5483,
      "andun": 5484,
      "Ġeth": 5485,
      "ĠOá¹£": 5486,
      "Ġozuzo": 5487,
      "Ġcivil": 5488,
      "Ġmutuwar": 5489,
      "ĠMali": 5490,
      "Ġlas": 5491,
      "ĠMost": 5492,
      "bobi": 5493,
      "Ġyarjejeniyar": 5494,
      "Ġá»ĭrá»ĭ": 5495,
      "ĠStr": 5496,
      "Ġpot": 5497,
      "Ġsett": 5498,
      "pecially": 5499,
      "ĠHill": 5500,
      "Ġndá»¥má»įdá»¥": 5501,
      "Ġ80": 5502,
      "Ġothers": 5503,
      "ĠKi": 5504,
      "48": 5505,
      "Ġá»įpá»į": 5506,
      "Ġagain": 5507,
      "Ġworks": 5508,
      "off": 5509,
      "Ġá»Įn": 5510,
      "Ġmasanin": 5511,
      "maná»¥": 5512,
      "ĠÆĬ": 5513,
      "ĠÆĻarni": 5514,
      "Ġnsá»į": 5515,
      "ĠFal": 5516,
      "Ġbuilt": 5517,
      "Ġdet": 5518,
      "tala": 5519,
      "Ġeyi": 5520,
      "osition": 5521,
      "Ġmust": 5522,
      "Ġve": 5523,
      "Ġhaih": 5524,
      "Ġnov": 5525,
      "ĠCi": 5526,
      "eria": 5527,
      "ĠFim": 5528,
      "lied": 5529,
      "Ġmach": 5530,
      "Ġcame": 5531,
      "Ġkimiyya": 5532,
      "Ġill": 5533,
      "ĠAsia": 5534,
      "36": 5535,
      "ĠArabic": 5536,
      "akwunye": 5537,
      "Ġhá»¥rá»¥": 5538,
      "Ġredu": 5539,
      "OS": 5540,
      "ĠDani": 5541,
      "Ġfinal": 5542,
      "owa": 5543,
      "Ġmass": 5544,
      "acha": 5545,
      "oice": 5546,
      "Ġball": 5547,
      "ĠkuÉĹin": 5548,
      "Ġ35": 5549,
      "rig": 5550,
      "Ġayyuka": 5551,
      "Ġearli": 5552,
      "ription": 5553,
      "ĠnkÃł": 5554,
      "Ġshakatawa": 5555,
      "ĠMill": 5556,
      "Ġkirk": 5557,
      "ĠRet": 5558,
      "ify": 5559,
      "ĠTex": 5560,
      "ĠMutanen": 5561,
      "Ġannoun": 5562,
      "Ġposition": 5563,
      "Ġreleased": 5564,
      "Ġdri": 5565,
      "ĠAbi": 5566,
      "Ã¤": 5567,
      "Ġima": 5568,
      "imin": 5569,
      "tuka": 5570,
      "hon": 5571,
      "chukwu": 5572,
      "Ġtakard": 5573,
      "ĠNd": 5574,
      "ĠIll": 5575,
      "ishop": 5576,
      "usi": 5577,
      "70": 5578,
      "ĠMari": 5579,
      "ĠPers": 5580,
      "Ġkujer": 5581,
      "aikatan": 5582,
      "abannin": 5583,
      "ĠKula": 5584,
      "Éĵa": 5585,
      "Ġgudumma": 5586,
      "ĠMel": 5587,
      "Ġfurther": 5588,
      "Ġokike": 5589,
      "ĠAlgeria": 5590,
      "ĠIII": 5591,
      "ĠChel": 5592,
      "Ġlim": 5593,
      "ĠGlobal": 5594,
      "ette": 5595,
      "hapá»¥": 5596,
      "Ġsqu": 5597,
      "ĠFM": 5598,
      "ĠApollo": 5599,
      "ĠAgb": 5600,
      "ĠMur": 5601,
      "chitect": 5602,
      "ĠMr": 5603,
      "ingu": 5604,
      "Ġpas": 5605,
      "Ġant": 5606,
      "Ġkau": 5607,
      "ĠExternal": 5608,
      "Ġarewacin": 5609,
      "ĠCroat": 5610,
      "Ġchi": 5611,
      "Ġrike": 5612,
      "ĠGabas": 5613,
      "dis": 5614,
      "mÃ¹": 5615,
      "abe": 5616,
      "Ġede": 5617,
      "ĠEducation": 5618,
      "Ġizu": 5619,
      "site": 5620,
      "itu": 5621,
      "ĠOg": 5622,
      "Ġdisc": 5623,
      "Ch": 5624,
      "Ġaj": 5625,
      "Ġliss": 5626,
      "ĠCamp": 5627,
      "Ġmmetá»į": 5628,
      "gige": 5629,
      "Ġ1959": 5630,
      "edo": 5631,
      "ands": 5632,
      "Ġsanda": 5633,
      "ugal": 5634,
      "orobá»ĭa": 5635,
      "ĠSea": 5636,
      "ĠHealth": 5637,
      "ofin": 5638,
      "Ġgudun": 5639,
      "ysis": 5640,
      "ĠOrder": 5641,
      "Ġkom": 5642,
      "Ġnkeji": 5643,
      "Ġyankunan": 5644,
      "ĠBorn": 5645,
      "ivishá»įn": 5646,
      "ĠShugaba": 5647,
      "ĠAC": 5648,
      "Ġwasansa": 5649,
      "ĠMartin": 5650,
      "wari": 5651,
      "ĠEnugu": 5652,
      "Ġcy": 5653,
      "leg": 5654,
      "ĠPublic": 5655,
      "ĠÃģ": 5656,
      "ĠYawancin": 5657,
      "Ġdays": 5658,
      "Ġbl": 5659,
      "Ġezumike": 5660,
      "embly": 5661,
      "ĠCongo": 5662,
      "Ġfall": 5663,
      "Ġá»įdá»¥": 5664,
      "jects": 5665,
      "ellow": 5666,
      "ĠIke": 5667,
      "ĠOba": 5668,
      "Ġkwagara": 5669,
      "Ġsakandare": 5670,
      "Ġinside": 5671,
      "Ġseká»įndrá»ĭ": 5672,
      "ewe": 5673,
      "yoyi": 5674,
      "ĠNaija": 5675,
      "ná»¥zá»¥": 5676,
      "orth": 5677,
      "ream": 5678,
      "Ã¨rÃ¨": 5679,
      "Ġplayed": 5680,
      "ng": 5681,
      "Ġkwatan": 5682,
      "Ġá»įch": 5683,
      "ĠÃ¬já»įba": 5684,
      "ĠYear": 5685,
      "Ġnitori": 5686,
      "Ġbá»į": 5687,
      "ults": 5688,
      "2015": 5689,
      "Ġdescribed": 5690,
      "abata": 5691,
      "Ġforces": 5692,
      "Ġadawa": 5693,
      "Ġdest": 5694,
      "Ġham": 5695,
      "Ġchildren": 5696,
      "hel": 5697,
      "Ġasib": 5698,
      "Ä«": 5699,
      "ĠAnambra": 5700,
      "zá»¥zá»¥": 5701,
      "39": 5702,
      "ututtuka": 5703,
      "ï¿": 5704,
      "Ġplayers": 5705,
      "pha": 5706,
      "ĠAS": 5707,
      "Ġgine": 5708,
      "afar": 5709,
      "ĠMiddle": 5710,
      "ĠOld": 5711,
      "Ġuri": 5712,
      "Ġ1957": 5713,
      "ĠFur": 5714,
      "Ġá»ĭkwa": 5715,
      "Ġarr": 5716,
      "ĠCarol": 5717,
      "Ġten": 5718,
      "Ġyiri": 5719,
      "ï¿¼": 5720,
      "tÃłn": 5721,
      "ĠShari": 5722,
      "Ġcompet": 5723,
      "mÃŃ": 5724,
      "Ġeither": 5725,
      "Ġmem": 5726,
      "ĠArg": 5727,
      "Ġtest": 5728,
      "ĠyÃ³Ã²": 5729,
      "Ġomenala": 5730,
      "Ġmaz": 5731,
      "ĠAlthough": 5732,
      "Ġoriláº¹": 5733,
      "ĠVirgin": 5734,
      "ĠRussian": 5735,
      "Ġrev": 5736,
      "ĠMinistan": 5737,
      "imá»į": 5738,
      "Ihe": 5739,
      "Ġtá»¥": 5740,
      "Ġtinyere": 5741,
      "ÙĬ": 5742,
      "ques": 5743,
      "ĠUsoro": 5744,
      "ĠManu": 5745,
      "bor": 5746,
      "Ġradi": 5747,
      "Ġkayayya": 5748,
      "ss": 5749,
      "Ġbest": 5750,
      "Ġeff": 5751,
      "Ġzur": 5752,
      "lÃ¨": 5753,
      "Ġsassan": 5754,
      "asing": 5755,
      "Ġmataimakin": 5756,
      "imar": 5757,
      "back": 5758,
      "Ġlaun": 5759,
      "Ġmkpá»į": 5760,
      "Ġinye": 5761,
      "abá»¥ghá»ĭ": 5762,
      "vy": 5763,
      "ances": 5764,
      "verage": 5765,
      "Ġheav": 5766,
      "ius": 5767,
      "utere": 5768,
      "aign": 5769,
      "Ġvi": 5770,
      "tor": 5771,
      "Ġewu": 5772,
      "ĠKn": 5773,
      "Ġjere": 5774,
      "Ġcib": 5775,
      "ĠResearch": 5776,
      "Ġ1956": 5777,
      "ym": 5778,
      "ĠNether": 5779,
      "Ġmahimmanci": 5780,
      "Ġipinláº¹": 5781,
      "arkar": 5782,
      "itzer": 5783,
      "ĠStreet": 5784,
      "Ġkiyaye": 5785,
      "kpá»¥": 5786,
      "Ġ1940": 5787,
      "Na": 5788,
      "Ġtushen": 5789,
      "egun": 5790,
      "Ġobserv": 5791,
      "Ġ1930": 5792,
      "Ġwid": 5793,
      "urar": 5794,
      "urity": 5795,
      "ĠYah": 5796,
      "liament": 5797,
      "Ġ1952": 5798,
      "Ġijá»įba": 5799,
      "istics": 5800,
      "Ġdanganta": 5801,
      "ĠPrize": 5802,
      "Ġzamantakewa": 5803,
      "cu": 5804,
      "afawa": 5805,
      "Ġkwesá»ĭrá»ĭ": 5806,
      "Ġ1948": 5807,
      "ters": 5808,
      "wer": 5809,
      "Ġtant": 5810,
      "abere": 5811,
      "iyon": 5812,
      "Ġgive": 5813,
      "ads": 5814,
      "akari": 5815,
      "ĠÆĻasashen": 5816,
      "Ġdauka": 5817,
      "asta": 5818,
      "Ġbazara": 5819,
      "Ġlau": 5820,
      "Ġtar": 5821,
      "ĠBol": 5822,
      "ized": 5823,
      "Ġhanya": 5824,
      "Ġamsa": 5825,
      "zine": 5826,
      "Ġaikinsa": 5827,
      "Ġchange": 5828,
      "Ġká»įm": 5829,
      "ĠfÃŃ": 5830,
      "ĠSouthern": 5831,
      "Ġtura": 5832,
      "ĠAfghan": 5833,
      "zabeth": 5834,
      "ĠyÃŃ": 5835,
      "Ġcire": 5836,
      "ĠSl": 5837,
      "Ġgabashin": 5838,
      "Ġ90": 5839,
      "Ġrange": 5840,
      "Ġzamanin": 5841,
      "uture": 5842,
      "Ġá»ĭhá»¥": 5843,
      "den": 5844,
      "Ġagbe": 5845,
      "46": 5846,
      "Ġmeas": 5847,
      "anding": 5848,
      "ĠJar": 5849,
      "Ġcombin": 5850,
      "izon": 5851,
      "Ġná»įrá»į": 5852,
      "ĠKáº¹": 5853,
      "Ġkewa": 5854,
      "Ġmesá»ĭrá»ĭ": 5855,
      "Ġá»įwá»¥wa": 5856,
      "eeji": 5857,
      "Ġleast": 5858,
      "Ġhukumomin": 5859,
      "Ġsonyere": 5860,
      "play": 5861,
      "ĠÆĻarfi": 5862,
      "Ġversion": 5863,
      "ĠYayin": 5864,
      "Ġtsari": 5865,
      "sin": 5866,
      "ĠTanz": 5867,
      "wamna": 5868,
      "bÃ¹n": 5869,
      "Ġyoung": 5870,
      "ĠCanadian": 5871,
      "abo": 5872,
      "Ġsinger": 5873,
      "ĠEbensidee": 5874,
      "Ã©e": 5875,
      "ĠTare": 5876,
      "ĠImo": 5877,
      "Ġ70": 5878,
      "enced": 5879,
      "2019": 5880,
      "Ġá»įkachasá»ĭ": 5881,
      "Ġkullun": 5882,
      "Ġ+": 5883,
      "ĠRasha": 5884,
      "ensive": 5885,
      "ubar": 5886,
      "Ġdauke": 5887,
      "Ġtoo": 5888,
      "ĠWhite": 5889,
      "Ġsauransu": 5890,
      "ĠGudanar": 5891,
      "ĠWhile": 5892,
      "2006": 5893,
      "ante": 5894,
      "Ġlafiyar": 5895,
      "leji": 5896,
      "ifi": 5897,
      "ĠJanar": 5898,
      "Ġnext": 5899,
      "2007": 5900,
      "ĠItalian": 5901,
      "Ġmakwa": 5902,
      "ĠFark": 5903,
      "ĠWá»į": 5904,
      "ategory": 5905,
      "Ġnazarin": 5906,
      "Ġword": 5907,
      "Ġadá»ĭgide": 5908,
      "itch": 5909,
      "ĠEv": 5910,
      "Ġzin": 5911,
      "zuzu": 5912,
      "ĠChelsea": 5913,
      "Ġmember": 5914,
      "wÃº": 5915,
      "ewere": 5916,
      "ĠNetherlands": 5917,
      "ĠWork": 5918,
      "Ġtsare": 5919,
      "Ġsometimes": 5920,
      "finan": 5921,
      "Ġhalit": 5922,
      "Ġmodel": 5923,
      "Ġlib": 5924,
      "ftware": 5925,
      "Ġklá»įb": 5926,
      "wall": 5927,
      "ĠScotland": 5928,
      "ength": 5929,
      "Ġrights": 5930,
      "ĠRah": 5931,
      "Ġmaima": 5932,
      "Ġlura": 5933,
      "gium": 5934,
      "ĠBor": 5935,
      "Ġá»ĭme": 5936,
      "ĠAth": 5937,
      "Ġcreated": 5938,
      "use": 5939,
      "Ġká»įwara": 5940,
      "Ġpap": 5941,
      "athan": 5942,
      "Ġnleká»įta": 5943,
      "ĠzaÉĵen": 5944,
      "ĠDistrict": 5945,
      "ĠPre": 5946,
      "ctic": 5947,
      "Ġdefe": 5948,
      "iff": 5949,
      "Ġexpress": 5950,
      "stitution": 5951,
      "Ġnatara": 5952,
      "rial": 5953,
      "rÃł": 5954,
      "Ùħ": 5955,
      "Ġtype": 5956,
      "ĠAlb": 5957,
      "Ġngwaahá»ĭa": 5958,
      "ĠIndian": 5959,
      "ĠkÃº": 5960,
      "Ġfood": 5961,
      "2018": 5962,
      "Ġappear": 5963,
      "Ġpossible": 5964,
      "ross": 5965,
      "ĠDarak": 5966,
      "iddi": 5967,
      "ĠnÃŃpa": 5968,
      "Ġdabere": 5969,
      "Ġput": 5970,
      "opia": 5971,
      "Ġenc": 5972,
      "Ġspecific": 5973,
      "ĠLouis": 5974,
      "agbanyeghá»ĭ": 5975,
      "itz": 5976,
      "Ġespecially": 5977,
      "ĠLes": 5978,
      "can": 5979,
      "Ġpress": 5980,
      "38": 5981,
      "pper": 5982,
      "ĠPortugal": 5983,
      "Ġfama": 5984,
      "Ġ1945": 5985,
      "jira": 5986,
      "Ġbal": 5987,
      "Ġjari": 5988,
      "ĠRadio": 5989,
      "ĠFina": 5990,
      "ounds": 5991,
      "like": 5992,
      "ĠFul": 5993,
      "ĠReal": 5994,
      "ĠjÃ¡": 5995,
      "Ġknow": 5996,
      "Ġmkpá»įrá»į": 5997,
      "á»įkwa": 5998,
      "Ġmurab": 5999,
      "ĠÆĻasashe": 6000,
      "kai": 6001,
      "ĠNollywood": 6002,
      "Ġazaman": 6003,
      "ĠbuÆĻatar": 6004,
      "Ġpá»į": 6005,
      "Ġgama": 6006,
      "kiyar": 6007,
      "Ġadminist": 6008,
      "ĠCatholic": 6009,
      "75": 6010,
      "Ġnigba": 6011,
      "ĠWilliams": 6012,
      "Ġina": 6013,
      "Ġá¹£áº¹": 6014,
      "ĠNw": 6015,
      "2016": 6016,
      "Ġmallakar": 6017,
      "Ġsil": 6018,
      "Ġavail": 6019,
      "ĠnkÃ¨": 6020,
      "ĠEnwere": 6021,
      "irarin": 6022,
      "pÃ¡": 6023,
      "Ġzargin": 6024,
      "Ġyawon": 6025,
      "Ãłráº¹": 6026,
      "Ġmepá»¥ta": 6027,
      "American": 6028,
      "ulla": 6029,
      "ĠArsen": 6030,
      "eball": 6031,
      "ĠAy": 6032,
      "Ġhapá»¥rá»¥": 6033,
      "ota": 6034,
      "Ġgandun": 6035,
      "Ġnwata": 6036,
      "Ġpriv": 6037,
      "align": 6038,
      "Ġwutar": 6039,
      "ĠNam": 6040,
      "Ġmarket": 6041,
      "Ġnever": 6042,
      "á¹¢": 6043,
      "Ġcomplet": 6044,
      "Ġ65": 6045,
      "Ġgenerally": 6046,
      "iyu": 6047,
      "ĠPrince": 6048,
      "Ġnipa": 6049,
      "onwealth": 6050,
      "Ġfilms": 6051,
      "Ġ#": 6052,
      "ilo": 6053,
      "ste": 6054,
      "Ġnumbers": 6055,
      "enweta": 6056,
      "ĠAnth": 6057,
      "ĠGwamnatin": 6058,
      "Ġbroad": 6059,
      "ĠÉĹauki": 6060,
      "Ġtelivishá»įn": 6061,
      "AM": 6062,
      "ĠGida": 6063,
      "ĠJim": 6064,
      "Ġeconomic": 6065,
      "igious": 6066,
      "Ġbattle": 6067,
      "rá»įfes": 6068,
      "Ad": 6069,
      "pool": 6070,
      "rÃ¡": 6071,
      "Ġ1954": 6072,
      "eter": 6073,
      "2005": 6074,
      "Ġaddition": 6075,
      "wh": 6076,
      "Ġsabbin": 6077,
      "ĠYoung": 6078,
      "ĠAsiya": 6079,
      "Ġrecog": 6080,
      "ez": 6081,
      "Ġgun": 6082,
      "Ġtemper": 6083,
      "ĠElizabeth": 6084,
      "Ġmarasa": 6085,
      "ĠOxford": 6086,
      "á»ĭs": 6087,
      "Ġgizon": 6088,
      "ging": 6089,
      "Ġdoub": 6090,
      "2017": 6091,
      "Ġfem": 6092,
      "Ġparts": 6093,
      "ĠJohannes": 6094,
      "self": 6095,
      "uti": 6096,
      "erika": 6097,
      "Ġgovern": 6098,
      "Ġtsohuwar": 6099,
      "Ġfita": 6100,
      "han": 6101,
      "adá»ĭgide": 6102,
      "Ġgom": 6103,
      "ĠSarkin": 6104,
      "ĠwÃŃ": 6105,
      "bendá»ĭ": 6106,
      "Ġreceived": 6107,
      "ĠCambridge": 6108,
      "49": 6109,
      "ĠNazarin": 6110,
      "Ġcomplex": 6111,
      "ĠCourt": 6112,
      "ĠRam": 6113,
      "Ġtro": 6114,
      "ghere": 6115,
      "Ġgyara": 6116,
      "ĠÉĵangare": 6117,
      "ĠFrom": 6118,
      "inrin": 6119,
      "itude": 6120,
      "ĠTom": 6121,
      "ĠKur": 6122,
      "Ġaircraft": 6123,
      "ayer": 6124,
      "Ġplan": 6125,
      "Ġzauna": 6126,
      "ĠWaÉĹ": 6127,
      "ĠJamhuriyar": 6128,
      "Ġkungiyoyin": 6129,
      "used": 6130,
      "Ġnga": 6131,
      "Ġtitle": 6132,
      "Ġcop": 6133,
      "left": 6134,
      "Ġokporo": 6135,
      "usu": 6136,
      "Ġabs": 6137,
      "ĠAmma": 6138,
      "ĠBelgium": 6139,
      "Ġtelevision": 6140,
      "iwar": 6141,
      "Ġgirm": 6142,
      "Ġsaba": 6143,
      "alo": 6144,
      "Ġste": 6145,
      "ĠStar": 6146,
      "Ġprevi": 6147,
      "ĠTai": 6148,
      "Ġofficial": 6149,
      "celona": 6150,
      "ĠCommonwealth": 6151,
      "Ġpeeji": 6152,
      "Ġcapital": 6153,
      "emporary": 6154,
      "ĠÃ¬wÃ©": 6155,
      "Ġur": 6156,
      "Ġsat": 6157,
      "ĠPop": 6158,
      "ĠayÃ©": 6159,
      "ĠAF": 6160,
      "amu": 6161,
      "ĠMem": 6162,
      "rá»įfesá»į": 6163,
      "ĠBos": 6164,
      "ĠFasaha": 6165,
      "nye": 6166,
      "ĠIv": 6167,
      "hiyar": 6168,
      "Ġzura": 6169,
      "edebe": 6170,
      "ĠISBN": 6171,
      "ĠBusiness": 6172,
      "ĠKotun": 6173,
      "ĠÃ¨tÃ²": 6174,
      "ĠTim": 6175,
      "chitere": 6176,
      "iku": 6177,
      "Ġpred": 6178,
      "ĠÆ³": 6179,
      "ubuce": 6180,
      "ĠColumbia": 6181,
      "Ġlalata": 6182,
      "Ġmedia": 6183,
      "Ġpen": 6184,
      "ĠAlexand": 6185,
      "ocal": 6186,
      "Ð°": 6187,
      "Ġfind": 6188,
      "Ġcontinued": 6189,
      "ĠYulin": 6190,
      "Ġgoyon": 6191,
      "ĠCos": 6192,
      "gbochi": 6193,
      "ĠpÃ¨": 6194,
      "Ġzum": 6195,
      "Ġomo": 6196,
      "ĠItaly": 6197,
      "Ġ45": 6198,
      "ĠFootball": 6199,
      "Ã¹bÃ¡": 6200,
      "eds": 6201,
      "ror": 6202,
      "Ġhara": 6203,
      "Ġfaruwa": 6204,
      "ĠDu": 6205,
      "Ġwurare": 6206,
      "bci": 6207,
      "ulo": 6208,
      "Ġfasalin": 6209,
      "emokwu": 6210,
      "Ġiá¹£": 6211,
      "Ġculture": 6212,
      "ĠÃ¬tá»į": 6213,
      "Ġdakatar": 6214,
      "Ġá»įzá»¥zá»¥": 6215,
      "ĠMalays": 6216,
      "Ġawa": 6217,
      "ĠTas": 6218,
      "ols": 6219,
      "Ġnatural": 6220,
      "Ġcolon": 6221,
      "Ġfight": 6222,
      "Ġ1920": 6223,
      "ĠKwamitin": 6224,
      "ĠKamar": 6225,
      "fl": 6226,
      "Ġzara": 6227,
      "Ġlaghachiri": 6228,
      "ĠYammacin": 6229,
      "Ġcikakken": 6230,
      "ires": 6231,
      "Ġmaá»į": 6232,
      "Ġhukuncin": 6233,
      "ĠÆĻoÆĻ": 6234,
      "pped": 6235,
      "Ġmajalisa": 6236,
      "mark": 6237,
      "atives": 6238,
      "ĠService": 6239,
      "Ġmbipá»¥ta": 6240,
      "ĠSok": 6241,
      "Ġ...": 6242,
      "Ġ1955": 6243,
      "Ġcourt": 6244,
      "Ġfull": 6245,
      "Ġrather": 6246,
      "Ġdied": 6247,
      "Ġaccording": 6248,
      "ĠEastern": 6249,
      "ĠAba": 6250,
      "allace": 6251,
      "Ġmicro": 6252,
      "oint": 6253,
      "amare": 6254,
      "Ġjig": 6255,
      "Ġziri": 6256,
      "inka": 6257,
      "ĠMark": 6258,
      "olf": 6259,
      "Ġinvest": 6260,
      "ĠMars": 6261,
      "Ãºká»į": 6262,
      "á¹£Ãł": 6263,
      "ĠNnyocha": 6264,
      "ittee": 6265,
      "Ġgaf": 6266,
      "ĠInt": 6267,
      "ĠProgress": 6268,
      "Ġattempt": 6269,
      "Ġmatar": 6270,
      "Ġformed": 6271,
      "ĠStudies": 6272,
      "Ġexperi": 6273,
      "Ġtaimakawa": 6274,
      "ĠSweden": 6275,
      "no": 6276,
      "Ġtinye": 6277,
      "lee": 6278,
      "ĠFi": 6279,
      "ĠNchá»ĭ": 6280,
      "zobe": 6281,
      "ĠIlÃ©": 6282,
      "Ġestim": 6283,
      "Th": 6284,
      "anian": 6285,
      "iddigar": 6286,
      "Ġtekná»¥zá»¥": 6287,
      "aut": 6288,
      "bÃł": 6289,
      "Ġground": 6290,
      "Ġá»įkpá»¥": 6291,
      "Ġwah": 6292,
      "Ġreal": 6293,
      "Ġyaren": 6294,
      "ĠRights": 6295,
      "Ġpati": 6296,
      "ady": 6297,
      "ĠPrim": 6298,
      "ghá»įta": 6299,
      "edy": 6300,
      "ER": 6301,
      "ĠBern": 6302,
      "ĠTinubu": 6303,
      "ĠAmerika": 6304,
      "rup": 6305,
      "Ġlit": 6306,
      "ĠTexas": 6307,
      "ekw": 6308,
      "biri": 6309,
      "uhu": 6310,
      "aráº¹": 6311,
      "ĠMand": 6312,
      "Ġjini": 6313,
      "Ġisa": 6314,
      "Ġiskar": 6315,
      "Ġforms": 6316,
      "sÃłn": 6317,
      "Ġlaunin": 6318,
      "Ġelements": 6319,
      "34": 6320,
      "ĠIg": 6321,
      "ĠVictoria": 6322,
      "ĠConserv": 6323,
      "aden": 6324,
      "rich": 6325,
      "hens": 6326,
      "Ġnwekwara": 6327,
      "Ġactress": 6328,
      "Ã£": 6329,
      "ĠAle": 6330,
      "ĠTri": 6331,
      "bs": 6332,
      "Ġmiss": 6333,
      "arsu": 6334,
      "ĠKá»įmitii": 6335,
      "ĠLitt": 6336,
      "Ġá»ĭrá»¥": 6337,
      "ĠShah": 6338,
      "ĠMala": 6339,
      "Ġhapp": 6340,
      "Ġwakilci": 6341,
      "Ġterms": 6342,
      "Ġfri": 6343,
      "ĠBlo": 6344,
      "kwupá»¥ta": 6345,
      "ambaya": 6346,
      "olk": 6347,
      "Ġimpro": 6348,
      "ĠKudancin": 6349,
      "atre": 6350,
      "ĠGi": 6351,
      "Ġkpatara": 6352,
      "Ġliter": 6353,
      "nÃŃ": 6354,
      "ĠDire": 6355,
      "ĠOlu": 6356,
      "ĠMusa": 6357,
      "Ġmaking": 6358,
      "2011": 6359,
      "ĠArsenal": 6360,
      "kÃłn": 6361,
      "Ġmeet": 6362,
      "bai": 6363,
      "irik": 6364,
      "tÃ³": 6365,
      "xed": 6366,
      "Ġcontain": 6367,
      "ifa": 6368,
      "Ġmanufa": 6369,
      "Ġlai": 6370,
      "adesh": 6371,
      "Ġacross": 6372,
      "ĠEnvironment": 6373,
      "ĠJapanese": 6374,
      "Ġmbá»į": 6375,
      "á»¥ba": 6376,
      "Ġvideo": 6377,
      "Ġtaur": 6378,
      "ĠAngola": 6379,
      "Ġhard": 6380,
      "ĠMaur": 6381,
      "Ġmbido": 6382,
      "dÃŃn": 6383,
      "Ġgbá»į": 6384,
      "otswana": 6385,
      "Ġgwiwar": 6386,
      "ĠBarcelona": 6387,
      "Ġiyaka": 6388,
      "ĠzaÉĵi": 6389,
      "wÃł": 6390,
      "ango": 6391,
      "Ġgaskiya": 6392,
      "Ġborn": 6393,
      "hib": 6394,
      "Ġmoto": 6395,
      "31": 6396,
      "32": 6397,
      "Ġsuff": 6398,
      "ĠForest": 6399,
      "Ġarzikin": 6400,
      "Ġattack": 6401,
      "zen": 6402,
      "icial": 6403,
      "2008": 6404,
      "ĠBaba": 6405,
      "ĠYorÃ¹bÃ¡": 6406,
      "xi": 6407,
      "Ġá»ĭgá»¥": 6408,
      "Ġkaro": 6409,
      "Ġenergy": 6410,
      "allacin": 6411,
      "táº¹": 6412,
      "ĠWales": 6413,
      "Ġforce": 6414,
      "Ġtext": 6415,
      "ĠKamaru": 6416,
      "Ma": 6417,
      "etary": 6418,
      "Ġkey": 6419,
      "ketball": 6420,
      "Ġscient": 6421,
      "Ġmahaifiyar": 6422,
      "Ġbatun": 6423,
      "ĠJean": 6424,
      "bÃ²": 6425,
      "Ġkur": 6426,
      "Ġwhe": 6427,
      "iverpool": 6428,
      "Ġtag": 6429,
      "ĠMuhalli": 6430,
      "ĠAhmad": 6431,
      "Ġshare": 6432,
      "ĠÆĻwararren": 6433,
      "Ġavailable": 6434,
      "Ġjuyin": 6435,
      "Ġtw": 6436,
      "Ġshaida": 6437,
      "utan": 6438,
      "odes": 6439,
      "Ġkasashe": 6440,
      "kuma": 6441,
      "ĠAri": 6442,
      "Ġfig": 6443,
      "01": 6444,
      "ĠHung": 6445,
      "Ġmakam": 6446,
      "Ġtu": 6447,
      "ĠSince": 6448,
      "eda": 6449,
      "ĠSon": 6450,
      "ĠBob": 6451,
      "Ġkyautar": 6452,
      "Ġjarida": 6453,
      "erous": 6454,
      "cific": 6455,
      "Ġkada": 6456,
      "osph": 6457,
      "Ġarmy": 6458,
      "ĠAlha": 6459,
      "yer": 6460,
      "pts": 6461,
      "ĠBayanan": 6462,
      "ĠProject": 6463,
      "well": 6464,
      "Ġntá»ĭ": 6465,
      "ĠFer": 6466,
      "Ġkwallo": 6467,
      "Ġpipul": 6468,
      "Ġcomputer": 6469,
      "onal": 6470,
      "Ġlower": 6471,
      "Ġmatakan": 6472,
      "2010": 6473,
      "ĠWin": 6474,
      "2004": 6475,
      "ĠNk": 6476,
      "oles": 6477,
      "istance": 6478,
      "Ġkalmar": 6479,
      "á»¥dá»ĭ": 6480,
      "ĠSah": 6481,
      "ĠQueen": 6482,
      "zy": 6483,
      "Ġafta": 6484,
      "NC": 6485,
      "Ġfad": 6486,
      "Ġinformation": 6487,
      "ĠBoard": 6488,
      "ĠUnivers": 6489,
      "dÃº": 6490,
      "Ġunivers": 6491,
      "ĠAgha": 6492,
      "Ġissu": 6493,
      "cal": 6494,
      "ground": 6495,
      "Ġá»įdá»į": 6496,
      "Ø§ÙĦ": 6497,
      "2012": 6498,
      "Ġsauya": 6499,
      "Ġnab": 6500,
      "ĠBattle": 6501,
      "Ġoffer": 6502,
      "04": 6503,
      "Ġfather": 6504,
      "pite": 6505,
      "Ġbiya": 6506,
      "Ġwats": 6507,
      "Ġfif": 6508,
      "Ġrá»į": 6509,
      "ĠÃĮtá»į": 6510,
      "Ġdangane": 6511,
      "Ġhigher": 6512,
      "ĠGeorg": 6513,
      "ĠHabasha": 6514,
      "ĠâĢĻ": 6515,
      "Ġemume": 6516,
      "kya": 6517,
      "ĠCivil": 6518,
      "uments": 6519,
      "ĠÎ": 6520,
      "Ġkak": 6521,
      "Ġduziri": 6522,
      "td": 6523,
      "Ġá¹¢": 6524,
      "Ġewe": 6525,
      "ĠÆĻaddamar": 6526,
      "08": 6527,
      "bour": 6528,
      "Ġcur": 6529,
      "ĠRivers": 6530,
      "ĠCentre": 6531,
      "vis": 6532,
      "igu": 6533,
      "ĠCy": 6534,
      "ĠPost": 6535,
      "2013": 6536,
      "Ġkimanin": 6537,
      "Ġtaa": 6538,
      "oshin": 6539,
      "ĠRel": 6540,
      "Ġsabuwar": 6541,
      "ĠIndones": 6542,
      "omy": 6543,
      "Ġtrade": 6544,
      "Ġomi": 6545,
      "ĠBankin": 6546,
      "ĠÃ²á¹£Ã¨rÃ©": 6547,
      "Ġvict": 6548,
      "Ġ1953": 6549,
      "Ġaward": 6550,
      "ĠYunin": 6551,
      "Ġsyn": 6552,
      "wuwar": 6553,
      "ĠMinister": 6554,
      "Ġhealth": 6555,
      "akai": 6556,
      "ĠDef": 6557,
      "ĠBotswana": 6558,
      "anies": 6559,
      "Ġthroughout": 6560,
      "Ġgáº¹gáº¹": 6561,
      "ÆĻoÆĻin": 6562,
      "ĠCas": 6563,
      "ĠAlf": 6564,
      "Ġbangare": 6565,
      "Ġfadin": 6566,
      "Ġá»įgb": 6567,
      "Ġdeg": 6568,
      "Ġ1947": 6569,
      "ĠForce": 6570,
      "Ġ500": 6571,
      "Ġindic": 6572,
      "ĠDaniel": 6573,
      "DC": 6574,
      "ĠpÃł": 6575,
      "bá»ĭa": 6576,
      "egbu": 6577,
      "Ġcommunity": 6578,
      "Ġschol": 6579,
      "Ġmaá»įbá»¥": 6580,
      "Ġnews": 6581,
      "ennis": 6582,
      "Ġyáº¹": 6583,
      "2009": 6584,
      "As": 6585,
      "pÃ©": 6586,
      "rÃ³": 6587,
      "ĠMedia": 6588,
      "Ġkallon": 6589,
      "Ġgá»įvaná»į": 6590,
      "ĠJournal": 6591,
      "rad": 6592,
      "Ġpast": 6593,
      "chen": 6594,
      "2014": 6595,
      "ĠJer": 6596,
      "Ġneg": 6597,
      "ĠÃ¬dÃŃ": 6598,
      "Ġntorobá»ĭa": 6599,
      "writer": 6600,
      "sá»ĭrá»ĭ": 6601,
      "Ġsus": 6602,
      "Ġancient": 6603,
      "65": 6604,
      "Sh": 6605,
      "Ġhorar": 6606,
      "orun": 6607,
      "Ġisland": 6608,
      "rik": 6609,
      "Ġcertain": 6610,
      "Ġjuna": 6611,
      "ĠTunisia": 6612,
      "Ġauri": 6613,
      "Ġdala": 6614,
      "Ġfollowed": 6615,
      "ĠMadrid": 6616,
      "Ġ()": 6617,
      "athon": 6618,
      "Ġabove": 6619,
      "Ġlocated": 6620,
      "Ġalmost": 6621,
      "Ġtantance": 6622,
      "Ġbá»ĭanyere": 6623,
      "aniya": 6624,
      "Ġcross": 6625,
      "antun": 6626,
      "Ġstandard": 6627,
      "Ġngwá»¥": 6628,
      "ĠHaka": 6629,
      "Ġstory": 6630,
      "oston": 6631,
      "ĠNtá»¥": 6632,
      "RC": 6633,
      "Ġnkwá»¥": 6634,
      "mah": 6635,
      "Ġalh": 6636,
      "ĠTsakiya": 6637,
      "07": 6638,
      "rÃ¬n": 6639,
      "Ġhá»¥": 6640,
      "cean": 6641,
      "ĠlÃ©": 6642,
      "Ġexper": 6643,
      "Ġfrequ": 6644,
      "ds": 6645,
      "onia": 6646,
      "Ġcases": 6647,
      "ÉĹaya": 6648,
      "itted": 6649,
      "Ġntá»įala": 6650,
      "IV": 6651,
      "year": 6652,
      "ĠLi": 6653,
      "Ġgidajen": 6654,
      "cked": 6655,
      "fai": 6656,
      "Ġoju": 6657,
      "Ġgban": 6658,
      "Ġ400": 6659,
      "gbá»įghá»į": 6660,
      "ĠTechnology": 6661,
      "rated": 6662,
      "Ã¯": 6663,
      "Ġfarar": 6664,
      "ĠLiverpool": 6665,
      "lete": 6666,
      "zech": 6667,
      "Ġ1949": 6668,
      "Ġá»įdá»ĭbendá»ĭ": 6669,
      "ĠÂ°": 6670,
      "gether": 6671,
      "lan": 6672,
      "attara": 6673,
      "asá»¥sá»¥": 6674,
      "Ġodeakwá»¥kwá»į": 6675,
      "Ġregard": 6676,
      "ĠWaÉĹannan": 6677,
      "Ġburu": 6678,
      "Ġtogether": 6679,
      "osis": 6680,
      "ensu": 6681,
      "ĠMats": 6682,
      "vey": 6683,
      "Ġsuccessful": 6684,
      "ux": 6685,
      "Ġzira": 6686,
      "SC": 6687,
      "Ġpers": 6688,
      "Ġbur": 6689,
      "ĠClass": 6690,
      "ĠAyyuka": 6691,
      "Ġreported": 6692,
      "Ġyada": 6693,
      "Ġseen": 6694,
      "Ġbayanin": 6695,
      "Ġprot": 6696,
      "aká»įwa": 6697,
      "Ġtre": 6698,
      "Ġdim": 6699,
      "ĠBan": 6700,
      "angar": 6701,
      "Ġkwado": 6702,
      "'t": 6703,
      "IN": 6704,
      "isk": 6705,
      "etter": 6706,
      "emetá»¥ta": 6707,
      "ĠKimiyya": 6708,
      "ability": 6709,
      "Ġdepend": 6710,
      "Ġrelated": 6711,
      "lem": 6712,
      "ará»ĭta": 6713,
      "Ġindustry": 6714,
      "Ġyaki": 6715,
      "ĠFabrairun": 6716,
      "ĠJohannesburg": 6717,
      "ĠDomin": 6718,
      "Ġhimself": 6719,
      "mÃ¬n": 6720,
      "Ġconsist": 6721,
      "ĠMinistry": 6722,
      "Ġeniyan": 6723,
      "Ġbiri": 6724,
      "fects": 6725,
      "Ġwatanni": 6726,
      "ghi": 6727,
      "ĠPoland": 6728,
      "Ġsadarwa": 6729,
      "Ġgod": 6730,
      "Ġrate": 6731,
      "Ġmmá»¥á»į": 6732,
      "09": 6733,
      "Ġakwá»¥": 6734,
      "ĠFA": 6735,
      "ĠKem": 6736,
      "Ġimm": 6737,
      "inci": 6738,
      "gbÃ²": 6739,
      "Ġamaala": 6740,
      "Ġevidence": 6741,
      "500": 6742,
      "Ġabokin": 6743,
      "ĠArgent": 6744,
      "Ġmovement": 6745,
      "ĠmÃ©jÃ¬": 6746,
      "Ġfire": 6747,
      "ĠMot": 6748,
      "ÉĵÉĵ": 6749,
      "ĠLarabawa": 6750,
      "nel": 6751,
      "Ġmaf": 6752,
      "Ġweebá»¥": 6753,
      "ospital": 6754,
      "pas": 6755,
      "Ġfore": 6756,
      "Ġá»įjá»įá»į": 6757,
      "Ġjefa": 6758,
      "cher": 6759,
      "ores": 6760,
      "Ġcoronavirus": 6761,
      "ĠGames": 6762,
      "ĠLam": 6763,
      "Ġassociated": 6764,
      "isation": 6765,
      "ĠKid": 6766,
      "Ġspeak": 6767,
      "Ġchá»įpá»¥tara": 6768,
      "board": 6769,
      "05": 6770,
      "Ġdoc": 6771,
      "ĠSarki": 6772,
      "ought": 6773,
      "eli": 6774,
      "ĠMaga": 6775,
      "Ġcover": 6776,
      "witter": 6777,
      "eso": 6778,
      "ĠSeries": 6779,
      "hÃ¨": 6780,
      "Ġgona": 6781,
      "Ġziyar": 6782,
      "ĠRos": 6783,
      "ĠSwitzer": 6784,
      "Ġpá»¥ta": 6785,
      "Ġfund": 6786,
      "Ġbillion": 6787,
      "Ġjikin": 6788,
      "Ġcentral": 6789,
      "Ġminista": 6790,
      "ĠAiki": 6791,
      "ĠHad": 6792,
      "ĠFred": 6793,
      "BS": 6794,
      "Ġsuper": 6795,
      "Ġstar": 6796,
      "Ġvan": 6797,
      "ĠSwitzerland": 6798,
      "ĠNas": 6799,
      "Ġngaghará»ĭ": 6800,
      "ciyar": 6801,
      "ĠSub": 6802,
      "Ġsex": 6803,
      "ĠIslands": 6804,
      "Ġabokan": 6805,
      "ĠÆĻidayar": 6806,
      "ĠIdan": 6807,
      "Ġeducation": 6808,
      "Ġbiyan": 6809,
      "Ġnauyin": 6810,
      "hab": 6811,
      "Ġmeans": 6812,
      "Ġkudancin": 6813,
      "ĠgurÉĵ": 6814,
      "Ġkor": 6815,
      "ican": 6816,
      "ĠSokoto": 6817,
      "ĠSannan": 6818,
      "06": 6819,
      "lies": 6820,
      "Ġ1951": 6821,
      "Ġtunanin": 6822,
      "Ġlive": 6823,
      "ĠAssembly": 6824,
      "bÃ©": 6825,
      "2003": 6826,
      "Ġestablish": 6827,
      "ĠWind": 6828,
      "ĠMmiri": 6829,
      "Ġhon": 6830,
      "Ġ1946": 6831,
      "arn": 6832,
      "ĠKor": 6833,
      "Ġkokarin": 6834,
      "ĠJes": 6835,
      "tered": 6836,
      "Ġmujall": 6837,
      "Ġbangaren": 6838,
      "Ġx": 6839,
      "Ġetu": 6840,
      "Ġaná»¥maná»¥": 6841,
      "ĠKore": 6842,
      "eyi": 6843,
      "Ġfav": 6844,
      "Ġmor": 6845,
      "wale": 6846,
      "Ġwo": 6847,
      "ĠCov": 6848,
      "ĠTattalin": 6849,
      "west": 6850,
      "Ġtashin": 6851,
      "ĠCorpor": 6852,
      "ĠRecords": 6853,
      "akes": 6854,
      "Ġkwang": 6855,
      "ĠOrgani": 6856,
      "ĠAfghanistan": 6857,
      "44": 6858,
      "Ġthus": 6859,
      "Ġcoast": 6860,
      "ĠApple": 6861,
      "ĠChild": 6862,
      "Ġkundin": 6863,
      "oples": 6864,
      "Ġarm": 6865,
      "Ġwor": 6866,
      "ĠOpen": 6867,
      "bal": 6868,
      "ĠCzech": 6869,
      "ĠSystem": 6870,
      "Ġkiwon": 6871,
      "Ġnemi": 6872,
      "Ġcoun": 6873,
      "alized": 6874,
      "Ġbecom": 6875,
      "Â°": 6876,
      "ĠBoston": 6877,
      "odaya": 6878,
      "ĠInc": 6879,
      "Ġinteg": 6880,
      "ĠKyautar": 6881,
      "itor": 6882,
      "eni": 6883,
      "Ġmuhimman": 6884,
      "Ġajá»¥já»¥": 6885,
      "Ġipa": 6886,
      "ĠUmar": 6887,
      "reedom": 6888,
      "99": 6889,
      "kÃ¡": 6890,
      "Ġkwatanta": 6891,
      "Ġbig": 6892,
      "Ġesemokwu": 6893,
      "ĠbÃŃi": 6894,
      "Ġaccess": 6895,
      "ĠMun": 6896,
      "Ġtour": 6897,
      "ugun": 6898,
      "ners": 6899,
      "Ġláº¹yin": 6900,
      "ĠAtlantic": 6901,
      "yaya": 6902,
      "03": 6903,
      "Ġtala": 6904,
      "Ġabáº¹": 6905,
      "rÃ¬": 6906,
      "ĠSultan": 6907,
      "Ġmkpebi": 6908,
      "Ġjinsi": 6909,
      "ĠCop": 6910,
      "ĠStand": 6911,
      "Ġoriri": 6912,
      "ĠJac": 6913,
      "Ġaverage": 6914,
      "iding": 6915,
      "Ġyankuna": 6916,
      "ĠlÃ¡ra": 6917,
      "ĠSunday": 6918,
      "hest": 6919,
      "Ġabá»įm": 6920,
      "ĠÉĹalib": 6921,
      "Ġspecial": 6922,
      "ization": 6923,
      "pro": 6924,
      "ĠGram": 6925,
      "Ġupon": 6926,
      "Ġdogara": 6927,
      "ĠManagement": 6928,
      "Ġshugabannin": 6929,
      "ĠmÃŃ": 6930,
      "ĠImp": 6931,
      "Ġrauni": 6932,
      "Ġnwaanyá»ĭ": 6933,
      "Ġvid": 6934,
      "ĠVirginia": 6935,
      "IA": 6936,
      "pol": 6937,
      "Ġkwayoyin": 6938,
      "Ġaccept": 6939,
      "ĠMalaysia": 6940,
      "Ya": 6941,
      "ĠNna": 6942,
      "abu": 6943,
      "Ġacadem": 6944,
      "ĠÃ¬pÃŃnláº¹": 6945,
      "Ã´": 6946,
      "Ġiru": 6947,
      "ĠSus": 6948,
      "Ġá»įbara": 6949,
      "2020": 6950,
      "ĠYarjejeniyar": 6951,
      "ĠAst": 6952,
      "Ġlamba": 6953,
      "ĠOut": 6954,
      "Ġtsan": 6955,
      "hy": 6956,
      "erule": 6957,
      "bayan": 6958,
      "unde": 6959,
      "bra": 6960,
      "ĠTem": 6961,
      "Ġdeterm": 6962,
      "Ġá»¥ká»į": 6963,
      "Ġmataki": 6964,
      "Ġgwara": 6965,
      "aná»įchite": 6966,
      "ĠDivision": 6967,
      "ĠSiya": 6968,
      "stant": 6969,
      "Ġmeji": 6970,
      "ĠUSA": 6971,
      "ĠLibrary": 6972,
      "uck": 6973,
      "aching": 6974,
      "ĠPacific": 6975,
      "ĠOsun": 6976,
      "Ġoccur": 6977,
      "Ġjiká»įtara": 6978,
      "Ġcampaign": 6979,
      "covered": 6980,
      "itaya": 6981,
      "ĠMuslim": 6982,
      "Ġsom": 6983,
      "istry": 6984,
      "ĠDá»ĭka": 6985,
      "Ã±": 6986,
      "Ġgajer": 6987,
      "ĠArmen": 6988,
      "ĠMataimakin": 6989,
      "roy": 6990,
      "Ġservices": 6991,
      "hat": 6992,
      "Ìģ,": 6993,
      "ego": 6994,
      "Ġbul": 6995,
      "Ġlayin": 6996,
      "ĠAnton": 6997,
      "Ġmaimakon": 6998,
      "eje": 6999,
      "Ġrai": 7000,
      "ĠIsi": 7001,
      "Ġneeded": 7002,
      "Ġbuilding": 7003,
      "Ġhous": 7004,
      "Ġmathem": 7005,
      "Ġgbaa": 7006,
      "Ġmkpá»įsa": 7007,
      "Ġyun": 7008,
      "ĠdÃ©": 7009,
      "ĠPen": 7010,
      "ĠSamuel": 7011,
      "Ġdashi": 7012,
      "Ġipo": 7013,
      "Ġcode": 7014,
      "Ġgudana": 7015,
      "Ġtilasta": 7016,
      "Ġphilosoph": 7017,
      "vard": 7018,
      "Ġ^": 7019,
      "arily": 7020,
      "ilishi": 7021,
      "ogen": 7022,
      "illar": 7023,
      "ĠgbÃł": 7024,
      "ĠFort": 7025,
      "ancial": 7026,
      "ĠGá»įvaná»į": 7027,
      "Ġrikodin": 7028,
      "kn": 7029,
      "Ġrin": 7030,
      "ĠMovement": 7031,
      "Ġnovel": 7032,
      "ending": 7033,
      "medi": 7034,
      "Ġnuc": 7035,
      "Ġadop": 7036,
      "bell": 7037,
      "mir": 7038,
      "ĠAlbert": 7039,
      "Ġcommer": 7040,
      "Ġfasahar": 7041,
      "Ġá»įlá»į": 7042,
      "Ġesi": 7043,
      "Ġagwa": 7044,
      "Ġrasa": 7045,
      "Éĵe": 7046,
      "ises": 7047,
      "Ġemer": 7048,
      "inois": 7049,
      "95": 7050,
      "Ġiyak": 7051,
      "ĠEdward": 7052,
      "Ġcapt": 7053,
      "aika": 7054,
      "á»įná»įdá»¥": 7055,
      "Ġá¹£iá¹£áº¹": 7056,
      "Ġtraditional": 7057,
      "Ġintroduced": 7058,
      "ĠGáº¹": 7059,
      "ĠEnter": 7060,
      "Ġrespect": 7061,
      "Ġdirector": 7062,
      "ĠdÃŃ": 7063,
      "Ġhost": 7064,
      "Ġmatan": 7065,
      "Ġcele": 7066,
      "Ġmgbakwunye": 7067,
      "Ġsharar": 7068,
      "Ġ36": 7069,
      "Ġsoftware": 7070,
      "ĠPas": 7071,
      "soshi": 7072,
      "Ġaji": 7073,
      "Ġenwe": 7074,
      "Ġ32": 7075,
      "Ġinstead": 7076,
      "ĠJonathan": 7077,
      "shek": 7078,
      "Ġowo": 7079,
      "ĠLand": 7080,
      "clus": 7081,
      "ĠKhan": 7082,
      "100": 7083,
      "het": 7084,
      "iting": 7085,
      "Ġnetwork": 7086,
      "ká»įrá»į": 7087,
      "chá»ĭchá»ĭ": 7088,
      "Ġclose": 7089,
      "ĠNetwork": 7090,
      "dam": 7091,
      "enyocha": 7092,
      "ĠWad": 7093,
      "Ġá»¤fá»įdá»¥": 7094,
      "ĠUsman": 7095,
      "bas": 7096,
      "eror": 7097,
      "Ġsauri": 7098,
      "ĠIrish": 7099,
      "lere": 7100,
      "Ġudo": 7101,
      "Ã¡ra": 7102,
      "Ġmuhim": 7103,
      "ĠPeace": 7104,
      "ĠÆĻauyen": 7105,
      "Ġstructure": 7106,
      "dan": 7107,
      "odayake": 7108,
      "Ġradio": 7109,
      "cons": 7110,
      "ndá»¥": 7111,
      "atively": 7112,
      "Ġatom": 7113,
      "ĠSheikh": 7114,
      "iles": 7115,
      "Ġá»Įjá»į": 7116,
      "Ġfiramare": 7117,
      "ĠÆĻaramin": 7118,
      "unicip": 7119,
      "ĠCast": 7120,
      "Ġsiyasan": 7121,
      "ĠnaÉĹa": 7122,
      "anted": 7123,
      "ataccen": 7124,
      "ien": 7125,
      "Ġ]": 7126,
      "ĠIgb": 7127,
      "Ġelement": 7128,
      "Ġmagn": 7129,
      "ĠJackson": 7130,
      "ĠWay": 7131,
      "ĠUnder": 7132,
      "Ġevents": 7133,
      "inton": 7134,
      "Ġdangi": 7135,
      "chá»¥": 7136,
      "Ġrule": 7137,
      "Ġfice": 7138,
      "opher": 7139,
      "ĠRoad": 7140,
      "Ġmakaranta": 7141,
      "ĠModern": 7142,
      "Ġlokuta": 7143,
      "inger": 7144,
      "ĠLew": 7145,
      "manuel": 7146,
      "ĠOke": 7147,
      "ĠLake": 7148,
      "Ġfafut": 7149,
      "GO": 7150,
      "ĠAlhaji": 7151,
      "ray": 7152,
      "Ġleague": 7153,
      "Ġkimiyyar": 7154,
      "Ġachie": 7155,
      "Ġhaya": 7156,
      "www": 7157,
      "Ġritaya": 7158,
      "ĠÂ£": 7159,
      "Ġsla": 7160,
      "Ġscience": 7161,
      "Ġlost": 7162,
      "Ġmeaning": 7163,
      "kewar": 7164,
      "Ġaccount": 7165,
      "Ġnká»įwa": 7166,
      "Ġhars": 7167,
      "anded": 7168,
      "Ġnnwere": 7169,
      "Ġmisali": 7170,
      "ĠKans": 7171,
      "Ġndu": 7172,
      "Ġrail": 7173,
      "ĠBauchi": 7174,
      "Ġclos": 7175,
      "Ġsources": 7176,
      "Ġbase": 7177,
      "iano": 7178,
      "Ġver": 7179,
      "ĠRome": 7180,
      "rice": 7181,
      "Ġincludes": 7182,
      "rd": 7183,
      "ĠPenn": 7184,
      "Ġalam": 7185,
      "Ġntinye": 7186,
      "á»ĭhá»ĭa": 7187,
      "ĠPap": 7188,
      "sau": 7189,
      "ĠStan": 7190,
      "Ġfounded": 7191,
      "lar": 7192,
      "ibility": 7193,
      "ĠAnt": 7194,
      "Ġ1944": 7195,
      "Ġmagance": 7196,
      "Ġsurv": 7197,
      "Ġconcern": 7198,
      "Ġká»įmitii": 7199,
      "Ġsound": 7200,
      "Ġkyauta": 7201,
      "ĠÃĪkÃ³": 7202,
      "kwo": 7203,
      "Ġanwá»¥": 7204,
      "Ġalaka": 7205,
      "á¹£á»į": 7206,
      "pere": 7207,
      "change": 7208,
      "ĠÆĻarancin": 7209,
      "ĠIngilishi": 7210,
      "ecutive": 7211,
      "eze": 7212,
      "Ġkuwa": 7213,
      "ĠKoyaya": 7214,
      "ĠAccra": 7215,
      "Ġinfluence": 7216,
      "Ġkotun": 7217,
      "ĠSA": 7218,
      "Ġrap": 7219,
      "Ġbiyo": 7220,
      "rÃŃn": 7221,
      "Ġodun": 7222,
      "Ġfoc": 7223,
      "ĠTour": 7224,
      "ĠWood": 7225,
      "Ġá»ĭgb": 7226,
      "ova": 7227,
      "Ġcanjin": 7228,
      "Ġkananan": 7229,
      "Ġdabbobi": 7230,
      "Ġbreak": 7231,
      "uries": 7232,
      "ĠLafiya": 7233,
      "Ġalk": 7234,
      "ĠIndepend": 7235,
      "ĠLeban": 7236,
      "eleká»įta": 7237,
      "Ġvalue": 7238,
      "Ġkamfanoni": 7239,
      "RA": 7240,
      "Ġmukamin": 7241,
      "Ġnorm": 7242,
      "Ġkont": 7243,
      "Ġash": 7244,
      "ĠInjin": 7245,
      "Ġá»ĭkpa": 7246,
      "Ġnchá»įpá»¥ta": 7247,
      "Ġwen": 7248,
      "ĠCorn": 7249,
      "yÃ¡": 7250,
      "ĠDepart": 7251,
      "Ġlá»įwá»į": 7252,
      "ĠArticles": 7253,
      "banye": 7254,
      "Ġthought": 7255,
      "Ġinj": 7256,
      "Ġitself": 7257,
      "He": 7258,
      "uci": 7259,
      "ĠOper": 7260,
      "Ã¹nrin": 7261,
      "ĠRock": 7262,
      "ĠriÆĻe": 7263,
      "Ġsassa": 7264,
      "oted": 7265,
      "Ġobinrin": 7266,
      "ĠKhal": 7267,
      "Ġhijira": 7268,
      "88": 7269,
      "ĠBorno": 7270,
      "ĠCommunity": 7271,
      "Ġhaziri": 7272,
      "Ġcondu": 7273,
      "attafai": 7274,
      "Ġfuskantar": 7275,
      "aring": 7276,
      "opp": 7277,
      "ĠEngine": 7278,
      "ĠOsimiri": 7279,
      "DA": 7280,
      "Ġcann": 7281,
      "ĠKr": 7282,
      "Ġtsof": 7283,
      "Ġexcept": 7284,
      "ĠAdd": 7285,
      "Ġincrease": 7286,
      "ĠMohamed": 7287,
      "ĠTogo": 7288,
      "Ġcompos": 7289,
      "kina": 7290,
      "Ġwords": 7291,
      "Ġá»¥ra": 7292,
      "á»įá»įlu": 7293,
      "Ġincreased": 7294,
      "Ġcibiyoyin": 7295,
      "Ġcities": 7296,
      "ĠKenn": 7297,
      "jide": 7298,
      "ĠCE": 7299,
      "head": 7300,
      "ĠDig": 7301,
      "ĠEkiti": 7302,
      "ountain": 7303,
      "Ð¾": 7304,
      "arkatun": 7305,
      "undunar": 7306,
      "Ġsize": 7307,
      "ĠProdu": 7308,
      "ĠProgram": 7309,
      "Ġtransport": 7310,
      "02": 7311,
      "Ġbon": 7312,
      "ĠPla": 7313,
      "ĠMi": 7314,
      "ĠYus": 7315,
      "Ġmazauna": 7316,
      "ĠLong": 7317,
      "pasáº¹": 7318,
      "ened": 7319,
      "ĠLat": 7320,
      "Ġginin": 7321,
      "ĠLáº¹": 7322,
      "Ġhaihuwa": 7323,
      "gwar": 7324,
      "lahi": 7325,
      "akarun": 7326,
      "Ġnation": 7327,
      "Ġmanufofin": 7328,
      "lÃ²": 7329,
      "ĠOlympic": 7330,
      "inct": 7331,
      "Ġjima": 7332,
      "Ġtradition": 7333,
      "káº¹": 7334,
      "Ġcour": 7335,
      "Ġagbab": 7336,
      "uguese": 7337,
      "Africa": 7338,
      "ÙĨ": 7339,
      "Ġgef": 7340,
      "ciences": 7341,
      "Ġalhakin": 7342,
      "Ġuwan": 7343,
      "Is": 7344,
      "dÃł": 7345,
      "chus": 7346,
      "Ġfootballer": 7347,
      "HO": 7348,
      "ros": 7349,
      "ĠKy": 7350,
      "ĠBron": 7351,
      "ĠItaliya": 7352,
      "Ġá»ĭtá»¥": 7353,
      "ĠÃ¬hÃ¨": 7354,
      "ÃĢ": 7355,
      "ador": 7356,
      "etur": 7357,
      "ĠTarayya": 7358,
      "ozuzu": 7359,
      "Ġmonths": 7360,
      "IT": 7361,
      "rá»¥ndá»¥": 7362,
      "Ġang": 7363,
      "elling": 7364,
      "__": 7365,
      "Ġmfe": 7366,
      "Ġshawar": 7367,
      "Ġcommun": 7368,
      "ubochi": 7369,
      "Ġtá»¥rá»¥": 7370,
      "Ġonwun": 7371,
      "ĠAfro": 7372,
      "ĠVen": 7373,
      "hips": 7374,
      "Ġunderst": 7375,
      "ĠSav": 7376,
      "ront": 7377,
      "ĠLG": 7378,
      "royin": 7379,
      "Ġá»¥gbá»įala": 7380,
      "ĠIsa": 7381,
      "Ġonce": 7382,
      "mat": 7383,
      "Ġizi": 7384,
      "Ġfran": 7385,
      "ĠÃ²kÃ¨": 7386,
      "Ġreligious": 7387,
      "Ġwi": 7388,
      "joba": 7389,
      "á»¥ná»¥": 7390,
      "ĠAlliance": 7391,
      "ĠCarl": 7392,
      "Ġgizo": 7393,
      "ĠIfe": 7394,
      "ĠMasana": 7395,
      "Ġá»Įgá»įstá»¥": 7396,
      "mond": 7397,
      "Ġopt": 7398,
      "ĠIts": 7399,
      ".âĢĿ": 7400,
      "LA": 7401,
      "Ġhum": 7402,
      "ĠFun": 7403,
      "Ġzabi": 7404,
      "Ġsource": 7405,
      "ĠTwitter": 7406,
      "ider": 7407,
      "ĠDub": 7408,
      "ĠÆĻirÆĻirar": 7409,
      "ĠBirtaniya": 7410,
      "uer": 7411,
      "zane": 7412,
      "imara": 7413,
      "Ġmale": 7414,
      "ĠyaÆĻi": 7415,
      "esá»ĭ": 7416,
      "ĠWak": 7417,
      "Ġtattara": 7418,
      "owers": 7419,
      "Ġwhite": 7420,
      "Ġwhose": 7421,
      "ĠAgustan": 7422,
      "oxide": 7423,
      "cell": 7424,
      "gian": 7425,
      "Ġkarin": 7426,
      "ĠGabashin": 7427,
      "Ġitace": 7428,
      "Ġnhá»įpá»¥ta": 7429,
      "UN": 7430,
      "based": 7431,
      "Ġgasa": 7432,
      "annel": 7433,
      "bile": 7434,
      "ĠBall": 7435,
      "Ġamincewa": 7436,
      "ret": 7437,
      "Ġtoday": 7438,
      "Ġtsibirin": 7439,
      "Ġapproxim": 7440,
      "Ġmahaifinsa": 7441,
      "Ġcause": 7442,
      "isl": 7443,
      "Ġwet": 7444,
      "agas": 7445,
      "ĠâĢĶ": 7446,
      "Ġmotsa": 7447,
      "Ġbá»ĭara": 7448,
      "ech": 7449,
      "Ġdiffic": 7450,
      "Ġprovide": 7451,
      "Ġparticularly": 7452,
      "BT": 7453,
      "Ġprimary": 7454,
      "ekpo": 7455,
      "ĠRuwa": 7456,
      "rought": 7457,
      "42": 7458,
      "ĠNic": 7459,
      "Ġjud": 7460,
      "ĠProt": 7461,
      "Ġcareer": 7462,
      "Ġngwá»¥cha": 7463,
      "imo": 7464,
      "fÃł": 7465,
      "Ġoil": 7466,
      "Ġmatch": 7467,
      "Ġjuya": 7468,
      "Ġkaratunsa": 7469,
      "Ġbambanta": 7470,
      "kkya": 7471,
      "ĠDC": 7472,
      "Ġcompanies": 7473,
      "cop": 7474,
      "ambar": 7475,
      "ĠAv": 7476,
      "Ġpad": 7477,
      "ayoyi": 7478,
      "Le": 7479,
      "Ġemepe": 7480,
      "ĠDepartment": 7481,
      "ĠGal": 7482,
      "Ġuses": 7483,
      "ĠOndo": 7484,
      "Ġ1942": 7485,
      "ĠMayun": 7486,
      "gwarma": 7487,
      "\"),": 7488,
      "ĠEp": 7489,
      "ĠForm": 7490,
      "Ġá»¥kwá»¥": 7491,
      "Ġrock": 7492,
      "Ġnorthern": 7493,
      "Ġmatsalar": 7494,
      "Ġkilled": 7495,
      "kor": 7496,
      "ĠBroad": 7497,
      "ĠAM": 7498,
      "ĠAfá»į": 7499,
      "ĠLabour": 7500,
      "ighest": 7501,
      "ĠAbia": 7502,
      "jirimara": 7503,
      "Ġweek": 7504,
      "ĠGovern": 7505,
      "Ġbooks": 7506,
      "Ġforeign": 7507,
      "55": 7508,
      "hood": 7509,
      "time": 7510,
      "ĠViet": 7511,
      "chae": 7512,
      "67": 7513,
      "Ġsáº¹": 7514,
      "Ġmetal": 7515,
      "ĠIlimin": 7516,
      "ĠAda": 7517,
      "ĠÆĻare": 7518,
      "ĠÃĢÃłráº¹": 7519,
      "ĠFarfesa": 7520,
      "Ġdigirin": 7521,
      "Ġshaharar": 7522,
      "Ġmerie": 7523,
      "arter": 7524,
      "Ġcikinsu": 7525,
      "Ġá»įkara": 7526,
      "Ġfada": 7527,
      "Ġhadin": 7528,
      "Ġinstr": 7529,
      "ĠIllinois": 7530,
      "Ġagbá»įghá»į": 7531,
      "Ġdaular": 7532,
      "ĠAljeriya": 7533,
      "Ġhau": 7534,
      "ĠSaud": 7535,
      "ĠHistor": 7536,
      "akoso": 7537,
      "ĠWanda": 7538,
      "ĠFran": 7539,
      "Ġresults": 7540,
      "Ġaltern": 7541,
      "Ġgefen": 7542,
      "ĠCroatia": 7543,
      "Ġwahala": 7544,
      "Ġonwunwe": 7545,
      "Ġfo": 7546,
      "Ġtax": 7547,
      "Ġyawanci": 7548,
      "Ġaway": 7549,
      "aly": 7550,
      "Ġwal": 7551,
      "ĠPub": 7552,
      "Ġá»¤wa": 7553,
      "ĠÆĻaura": 7554,
      "ĠMcC": 7555,
      "pos": 7556,
      "ĠAndrew": 7557,
      "ĠOtt": 7558,
      "Ġwatsi": 7559,
      "rel": 7560,
      "Ġbukatar": 7561,
      "Ġprofessional": 7562,
      "rÃº": 7563,
      "IP": 7564,
      "ĠEqu": 7565,
      "Ġarri": 7566,
      "ĠConf": 7567,
      "Ġreferred": 7568,
      "kÃº": 7569,
      "tukan": 7570,
      "ukun": 7571,
      "file": 7572,
      "Ġcritic": 7573,
      "Ġmother": 7574,
      "Ġrequired": 7575,
      "ĠClimate": 7576,
      "rieved": 7577,
      "Ġcurrent": 7578,
      "mÃ¡": 7579,
      "ĠAare": 7580,
      "ĠChile": 7581,
      "Ġbirth": 7582,
      "Ġquest": 7583,
      "met": 7584,
      "ygen": 7585,
      "kawa": 7586,
      "igen": 7587,
      "Ġnje": 7588,
      "Ġgave": 7589,
      "Ġable": 7590,
      "Ġwebsite": 7591,
      "odu": 7592,
      "dar": 7593,
      "Ġarchitect": 7594,
      "Ġrespons": 7595,
      "esin": 7596,
      "ĠtaÉĵa": 7597,
      "Ġsanarwar": 7598,
      "illage": 7599,
      "ĠBangl": 7600,
      "amo": 7601,
      "stra": 7602,
      "Ġshafin": 7603,
      "Ġ1939": 7604,
      "Ġpoet": 7605,
      "Ġwest": 7606,
      "ĠEst": 7607,
      "Ġargu": 7608,
      "á»¥nta": 7609,
      "Ġfarashin": 7610,
      "Ġezigbo": 7611,
      "Ġeconomy": 7612,
      "Ġnrá»¥á»įrá»¥": 7613,
      "ĠÆ³an": 7614,
      "Ġoutside": 7615,
      "Ġapplic": 7616,
      "zing": 7617,
      "omm": 7618,
      "Ġnká»¥": 7619,
      "Ġá»¤dá»ĭ": 7620,
      "Ġrarraba": 7621,
      "sÃ¹": 7622,
      "irit": 7623,
      "havi": 7624,
      "ĠGuard": 7625,
      "Ġshahara": 7626,
      "Ġop": 7627,
      "Ġren": 7628,
      "ĠMalam": 7629,
      "ĠYun": 7630,
      "Ġsiyasar": 7631,
      "Ġbaiwa": 7632,
      "sych": 7633,
      "Ġey": 7634,
      "ĠKafin": 7635,
      "text": 7636,
      "ĠPolit": 7637,
      "Ġadá»ĭghá»ĭ": 7638,
      "Ġannounced": 7639,
      "ĠÅ": 7640,
      "onse": 7641,
      "ĠojÃº": 7642,
      "ĠFarans": 7643,
      "ribution": 7644,
      "Ġoffice": 7645,
      "Ġkariya": 7646,
      "Ġsanann": 7647,
      "Ġdesigned": 7648,
      "ciya": 7649,
      "inal": 7650,
      "Ġhom": 7651,
      "ateau": 7652,
      "ĠChad": 7653,
      "Ġkwanaki": 7654,
      "á»¥ma": 7655,
      "Ġfá»įrá»į": 7656,
      "udawa": 7657,
      "ĠCharl": 7658,
      "Ġallowed": 7659,
      "Ġgold": 7660,
      "ĠÃłrÃ¹n": 7661,
      "Ġbatut": 7662,
      "Ġsaf": 7663,
      "ĠCla": 7664,
      "Ġá»ĭma": 7665,
      "ĠMajor": 7666,
      "Ġinterest": 7667,
      "Ġremained": 7668,
      "Ġhighest": 7669,
      "ĠTime": 7670,
      "Ġmkpará»ĭta": 7671,
      "Ġibn": 7672,
      "ĠAbdullahi": 7673,
      "%.": 7674,
      "bia": 7675,
      "don": 7676,
      "Ġnkan": 7677,
      "Ġsojoji": 7678,
      "ĠOrganization": 7679,
      "Ġmart": 7680,
      "ummomin": 7681,
      "Ġviol": 7682,
      "ĠJr": 7683,
      "Ġmmebi": 7684,
      "Ġdise": 7685,
      "ĠPortuguese": 7686,
      "ique": 7687,
      "ĠArz": 7688,
      "Ġkasancewa": 7689,
      "2000": 7690,
      "ĠEll": 7691,
      "bian": 7692,
      "ĠzaÉĵa": 7693,
      "Ġmoved": 7694,
      "Ġbiliyan": 7695,
      "esote": 7696,
      "ĠSand": 7697,
      "ĠSani": 7698,
      "ĠTam": 7699,
      "ĠRail": 7700,
      "amako": 7701,
      "Ġbaraz": 7702,
      "ĠDangane": 7703,
      "Ġsauyin": 7704,
      "ĠAction": 7705,
      "á»¥nye": 7706,
      "Ġserved": 7707,
      "ĠGolden": 7708,
      "Ġsinad": 7709,
      "Ġharam": 7710,
      "Ġghara": 7711,
      "Ġfeatures": 7712,
      "ĠkÃ¡": 7713,
      "ĠMassa": 7714,
      "Ġrukuni": 7715,
      "Ġeight": 7716,
      "Ġbelata": 7717,
      "Ġastron": 7718,
      "mas": 7719,
      "Ġnahiyar": 7720,
      "Ġoyi": 7721,
      "ĠFat": 7722,
      "ivity": 7723,
      "43": 7724,
      "nanya": 7725,
      "inar": 7726,
      "Ġaik": 7727,
      "Ġká»įrá»į": 7728,
      "Ġjá»į": 7729,
      "afra": 7730,
      "ĠStep": 7731,
      "ĠLtd": 7732,
      "ghará»ĭrá»ĭ": 7733,
      "mann": 7734,
      "nic": 7735,
      "ales": 7736,
      "ĠOkp": 7737,
      "ĠTheatre": 7738,
      "Ġkasuwancin": 7739,
      "ĠHin": 7740,
      "ĠFree": 7741,
      "gawa": 7742,
      "Ġsurface": 7743,
      "Ġalama": 7744,
      "loma": 7745,
      "ĠÆĻwayoyin": 7746,
      "Ġleading": 7747,
      "Ġá»įbá»¥la": 7748,
      "insa": 7749,
      "ĠAgba": 7750,
      "ĠwaÆĻar": 7751,
      "ĠDur": 7752,
      "ension": 7753,
      "raá»ĭm": 7754,
      "Ġjagorancin": 7755,
      "Ġahá»ĭhá»ĭa": 7756,
      "ĠJewish": 7757,
      "ĠKasuwanci": 7758,
      "Ġprivate": 7759,
      "cular": 7760,
      "Ġogige": 7761,
      "Ġgang": 7762,
      "ĠKwara": 7763,
      "Ġmaterial": 7764,
      "Ġmagung": 7765,
      "Ġguitar": 7766,
      "aká»¥ká»į": 7767,
      "Ġrelease": 7768,
      "reme": 7769,
      "Ġhop": 7770,
      "idge": 7771,
      "ĠBurkina": 7772,
      "ĠISO": 7773,
      "ĠFurther": 7774,
      "Ġamsoshi": 7775,
      "41": 7776,
      "Ġá»įgba": 7777,
      "icine": 7778,
      "Ġmaki": 7779,
      "chni": 7780,
      "Ġamá»¥rá»¥": 7781,
      "Ġhttps": 7782,
      "ĠVietnam": 7783,
      "85": 7784,
      "ĠBil": 7785,
      "ĠAdminist": 7786,
      "Ġ1943": 7787,
      "fun": 7788,
      "Ġwent": 7789,
      "ĠSk": 7790,
      "ĠWik": 7791,
      "FL": 7792,
      "Ġofishin": 7793,
      "Ġgosipá»¥ta": 7794,
      "ĠÃŃgwÃ¨": 7795,
      "Ġogun": 7796,
      "ĠSummer": 7797,
      "ĠFam": 7798,
      "86": 7799,
      "ĠGreg": 7800,
      "Ġá»ĭchá»į": 7801,
      "Ġchurch": 7802,
      "ĠMasarautar": 7803,
      "Ġmgbalá»ĭ": 7804,
      "Ġsouthern": 7805,
      "lock": 7806,
      "ledge": 7807,
      "Ġncheta": 7808,
      "Ġaini": 7809,
      "arib": 7810,
      "riculture": 7811,
      "ĠIbn": 7812,
      "Ġparticip": 7813,
      "á»¥l": 7814,
      "Ġlardin": 7815,
      "ĠEarly": 7816,
      "Ġokenye": 7817,
      "SS": 7818,
      "afukan": 7819,
      "throp": 7820,
      "ilipp": 7821,
      "ĠSashen": 7822,
      "astic": 7823,
      "Ġdarak": 7824,
      "ĠFederation": 7825,
      "court": 7826,
      "oya": 7827,
      "Ġkisan": 7828,
      "ĠMatt": 7829,
      "idu": 7830,
      "anny": 7831,
      "Ã¨gbÃ¨": 7832,
      "Ġappoint": 7833,
      "Ġgrowth": 7834,
      "ĠWater": 7835,
      "Ġproject": 7836,
      "Ġiz": 7837,
      "Ġehi": 7838,
      "ĠOst": 7839,
      "ĠCommittee": 7840,
      "Ġproducer": 7841,
      "Ġugbua": 7842,
      "sun": 7843,
      "elves": 7844,
      "ĠFaso": 7845,
      "iah": 7846,
      "ternet": 7847,
      "ganihu": 7848,
      "Ġcult": 7849,
      "ĠIra": 7850,
      "oti": 7851,
      "anguage": 7852,
      "Ġelectron": 7853,
      "%,": 7854,
      "Ġhoto": 7855,
      "jejeniya": 7856,
      "ĠOfishin": 7857,
      "ĠIvory": 7858,
      "tra": 7859,
      "ination": 7860,
      "Ġdand": 7861,
      "pring": 7862,
      "Ġá»Įlá»į": 7863,
      "ĠTso": 7864,
      "ughter": 7865,
      "Ġnjedebe": 7866,
      "Ġtayi": 7867,
      "Ġalways": 7868,
      "Ġgbanwere": 7869,
      "Ġmel": 7870,
      "ĠYouth": 7871,
      "ĠFace": 7872,
      "ĠCorporation": 7873,
      "Ġamfanin": 7874,
      "ĠegwÃº": 7875,
      "Ġgwagwarma": 7876,
      "rÃ²yÃ¬n": 7877,
      "asanjo": 7878,
      "Ġay": 7879,
      "Ġpay": 7880,
      "Ġedo": 7881,
      "Ġhoton": 7882,
      "ĠPhilip": 7883,
      "ĠRetrieved": 7884,
      "ĠMike": 7885,
      "ĠSay": 7886,
      "Ġeast": 7887,
      "Ġmmanye": 7888,
      "Ndá»ĭ": 7889,
      "lÃŃ": 7890,
      "rÃ¡n": 7891,
      "Ġbene": 7892,
      "Ġgra": 7893,
      "ĠElect": 7894,
      "ĠSports": 7895,
      "ĠNat": 7896,
      "Ġjournal": 7897,
      "EP": 7898,
      "cs": 7899,
      "ĠTop": 7900,
      "Ġbasketball": 7901,
      "lÃ³gÃºn": 7902,
      "ĠPower": 7903,
      "onds": 7904,
      "ĠMmalite": 7905,
      "Ġlarger": 7906,
      "Ġincreasing": 7907,
      "Ġmanufact": 7908,
      "vest": 7909,
      "warsa": 7910,
      "ĠfaÉĹa": 7911,
      "ĠChap": 7912,
      "ĠTanzania": 7913,
      "Ġá»įchá»¥nta": 7914,
      "ĠDip": 7915,
      "quot": 7916,
      "Ġoffici": 7917,
      "Ġstarted": 7918,
      "Ġprovided": 7919,
      "Ġbáº¹ráº¹": 7920,
      "Ġjaridar": 7921,
      "Ġwel": 7922,
      "Ġyu": 7923,
      "ĠAthlet": 7924,
      "erese": 7925,
      "ĠMoz": 7926,
      "Ġtravel": 7927,
      "ututtukan": 7928,
      "Ġzagaye": 7929,
      "Ġowu": 7930,
      "Ġmab": 7931,
      "pact": 7932,
      "ĠSqu": 7933,
      "Ġrasu": 7934,
      "Ġpoints": 7935,
      "ĠShehu": 7936,
      "thur": 7937,
      "Ġkwupá»¥tara": 7938,
      "Ġeffects": 7939,
      "Ġcand": 7940,
      "Ã©rÃ©": 7941,
      "Ġshan": 7942,
      "ributed": 7943,
      "ĠSel": 7944,
      "Ġ1938": 7945,
      "jiká»įta": 7946,
      "ootu": 7947,
      "ÙĪ": 7948,
      "allah": 7949,
      "Ġmasarautar": 7950,
      "kins": 7951,
      "Ġayáº¹": 7952,
      "amur": 7953,
      "Ġshafe": 7954,
      "oku": 7955,
      "usun": 7956,
      "adel": 7957,
      "Ġ33": 7958,
      "ĠChampionships": 7959,
      "ĠØ§ÙĦ": 7960,
      "aton": 7961,
      "Ġfed": 7962,
      "ĠFlorida": 7963,
      "ĠÆĻoÆĻarin": 7964,
      "Ta": 7965,
      "Ġnjirimara": 7966,
      "Ġdum": 7967,
      "urg": 7968,
      "Ġscreen": 7969,
      "Ġdamuwa": 7970,
      "nia": 7971,
      "Ġdeal": 7972,
      "Ġkwant": 7973,
      "Ġsymb": 7974,
      "ĠJustice": 7975,
      "lines": 7976,
      "Ġagbegbe": 7977,
      "ĠBet": 7978,
      "má»¥ta": 7979,
      "Ġfafata": 7980,
      "Ġohu": 7981,
      "wararru": 7982,
      "Ġsoldi": 7983,
      "yonyo": 7984,
      "Ġmatsalolin": 7985,
      "Ġkawar": 7986,
      "ĠUE": 7987,
      "pret": 7988,
      "Ġsaw": 7989,
      "Ġbugawa": 7990,
      "Ġzubar": 7991,
      "ĠVan": 7992,
      "Ġmoney": 7993,
      "Ġself": 7994,
      "Ġkad": 7995,
      "ĠMid": 7996,
      "Ġezu": 7997,
      "Ìģ.": 7998,
      "fit": 7999,
      "ĠAch": 8000,
      "ĠIndi": 8001,
      "Ġtallafawa": 8002,
      "Ġhukumomi": 8003,
      "Ġhalittu": 8004,
      "bury": 8005,
      "ĠÉĹayan": 8006,
      "Ġifo": 8007,
      "imb": 8008,
      "ctors": 8009,
      "ĠAtlanta": 8010,
      "ĠAnnabi": 8011,
      "Ġdarek": 8012,
      "iddiga": 8013,
      "ĠjÃ¡de": 8014,
      "LC": 8015,
      "Ġaye": 8016,
      "Ġmission": 8017,
      "Ġalamar": 8018,
      "Ġ37": 8019,
      "ĠObasanjo": 8020,
      "Ġdokoki": 8021,
      "kere": 8022,
      "ĠMore": 8023,
      "ĠSant": 8024,
      "Ġstri": 8025,
      "ĠAustria": 8026,
      "ĠBoy": 8027,
      "ĠParliament": 8028,
      "Ġeventually": 8029,
      "ĠÆĻayya": 8030,
      "Ġquant": 8031,
      "ĠAhmadu": 8032,
      "Ġegbu": 8033,
      "Ã¹gbá»į": 8034,
      "ebo": 8035,
      "ararin": 8036,
      "ierra": 8037,
      "Ġmajority": 8038,
      "Ġkwá»¥sá»ĭrá»ĭ": 8039,
      "ÃĮ": 8040,
      "Ġsarak": 8041,
      "edu": 8042,
      "Ġbaseball": 8043,
      "Ġproduce": 8044,
      "Ġess": 8045,
      "Ġlaarin": 8046,
      "range": 8047,
      "Ġsea": 8048,
      "ĠBangladesh": 8049,
      "arl": 8050,
      "Ġkid": 8051,
      "á»ĭka": 8052,
      "Ġjade": 8053,
      "egwuregwu": 8054,
      "ĠDaular": 8055,
      "Ġfili": 8056,
      "Ġiwa": 8057,
      "Ġenvironment": 8058,
      "ĠNorway": 8059,
      "ĠFrancisco": 8060,
      "Ġindividual": 8061,
      "Ġnames": 8062,
      "ĠAge": 8063,
      "racy": 8064,
      "Ġnature": 8065,
      "Ġnabatara": 8066,
      "oon": 8067,
      "Ġapa": 8068,
      "Ġzartar": 8069,
      "Ġprobab": 8070,
      "ĠHarvard": 8071,
      "Ġmbara": 8072,
      "ĠBla": 8073,
      "Ġkasuwar": 8074,
      "Ġtuntun": 8075,
      "St": 8076,
      "ĠTwo": 8077,
      "imal": 8078,
      "ĠOnyinye": 8079,
      "Ġbii": 8080,
      "ebu": 8081,
      "Ġtypically": 8082,
      "Un": 8083,
      "ĠÆĻan": 8084,
      "ĠÆĻab": 8085,
      "ĠÃłwon": 8086,
      "ĠNne": 8087,
      "Ġvootu": 8088,
      "Ø±": 8089,
      "igion": 8090,
      "ebute": 8091,
      "ĠagbÃ¨gbÃ¨": 8092,
      "Ġabá»¥ghá»ĭ": 8093,
      "elekwasá»ĭ": 8094,
      "Ġbidiyo": 8095,
      "Ġtambaya": 8096,
      "Ġrigaka": 8097,
      "IM": 8098,
      "arma": 8099,
      "ĠOko": 8100,
      "ĠJones": 8101,
      "Ġmalamin": 8102,
      "ugbá»įn": 8103,
      "Ġaction": 8104,
      "Ġá»Įdá»ĭ": 8105,
      "pping": 8106,
      "ahá»¥kará»ĭ": 8107,
      "Ġproblem": 8108,
      "ĠAbe": 8109,
      "Ġfish": 8110,
      "ĠOkwu": 8111,
      "Ġmakwaara": 8112,
      "pÃ²": 8113,
      "Ġdyn": 8114,
      "Ġice": 8115,
      "Ġgoal": 8116,
      "ule": 8117,
      "Ġ1941": 8118,
      "Ġstudio": 8119,
      "hol": 8120,
      "wanyá»ĭ": 8121,
      "Ġkamuwa": 8122,
      "gÃ¹n": 8123,
      "Ġnasa": 8124,
      "Ġmechan": 8125,
      "fairs": 8126,
      "ĠMaster": 8127,
      "ĠLibya": 8128,
      "Ġbelieved": 8129,
      "tanetá»ĭ": 8130,
      "alci": 8131,
      "Ġwife": 8132,
      "Ġakaebe": 8133,
      "ĠngwÃ¡": 8134,
      "ĠhaÉĹari": 8135,
      "Ġdisp": 8136,
      "yte": 8137,
      "Ġseven": 8138,
      "Ġcommonly": 8139,
      "Ġá»įmá»¥maatá»¥": 8140,
      "Ġstation": 8141,
      "asty": 8142,
      "agbanwe": 8143,
      "Ġá»ĭmepá»¥ta": 8144,
      "ĠGarin": 8145,
      "ĠÆĻungiyoyi": 8146,
      "warin": 8147,
      "Ã³kÃ¨": 8148,
      "lues": 8149,
      "ockey": 8150,
      "Ġpaint": 8151,
      "Ġsarki": 8152,
      "Ġekwu": 8153,
      "ĠHarkokin": 8154,
      "ĠSatum": 8155,
      "Ġtattauna": 8156,
      "city": 8157,
      "Ġdraw": 8158,
      "aben": 8159,
      "ario": 8160,
      "Ġsey": 8161,
      "Ġmaganin": 8162,
      "Ġkarantawa": 8163,
      "Ġlaka": 8164,
      "ĠCategory": 8165,
      "gbon": 8166,
      "Sc": 8167,
      "kets": 8168,
      "jib": 8169,
      "Ġeziokwu": 8170,
      "known": 8171,
      "||": 8172,
      "ĠHas": 8173,
      "Ġsalon": 8174,
      "Ġconsider": 8175,
      "ready": 8176,
      "Ġterritory": 8177,
      "Ġcelebr": 8178,
      "Ġtsere": 8179,
      "Ġwidely": 8180,
      "Ġacademic": 8181,
      "Ġreason": 8182,
      "Ġbayi": 8183,
      "Ġrecorded": 8184,
      "á¸": 8185,
      "Ġeru": 8186,
      "utes": 8187,
      "Ġ300": 8188,
      "2002": 8189,
      "Ġacikin": 8190,
      "Ã£o": 8191,
      "Ġmight": 8192,
      "akh": 8193,
      "ulty": 8194,
      "ĠBlue": 8195,
      "á¹£i": 8196,
      "Ġcenter": 8197,
      "Ġproduct": 8198,
      "ĠSenate": 8199,
      "Ġcaused": 8200,
      "ezi": 8201,
      "Ġlalace": 8202,
      "igned": 8203,
      "Ġconditions": 8204,
      "asion": 8205,
      "omon": 8206,
      "ĠJan": 8207,
      "Ġleader": 8208,
      "Ġgudummawa": 8209,
      "ĠGeorgia": 8210,
      "98": 8211,
      "ĠUp": 8212,
      "ĠPhilipp": 8213,
      "ĠSecr": 8214,
      "ĠMusulmi": 8215,
      "Ba": 8216,
      "Ġoá¹£u": 8217,
      "gor": 8218,
      "Ġobject": 8219,
      "Ġsubject": 8220,
      "Ġlikely": 8221,
      "ĠSiyasa": 8222,
      "Ġdoro": 8223,
      "Ġcreat": 8224,
      "Ġchanges": 8225,
      "Ġkari": 8226,
      "Ġcarry": 8227,
      "ropol": 8228,
      "ĠAfrilun": 8229,
      "Ġtypes": 8230,
      "Niger": 8231,
      "oyi": 8232,
      "ĠLord": 8233,
      "agu": 8234,
      "Ġaikinta": 8235,
      "resp": 8236,
      "Ġokpukpe": 8237,
      "ĠPrimary": 8238,
      "ink": 8239,
      "ĠChadi": 8240,
      "ologist": 8241,
      "Ġoy": 8242,
      "ĠHow": 8243,
      "Ġndepá»¥ta": 8244,
      "ĠBrook": 8245,
      "Ġcharacters": 8246,
      "unication": 8247,
      "Ġidije": 8248,
      "Ġtarg": 8249,
      "ĠOlus": 8250,
      "Ġbeginning": 8251,
      "Ġajá»į": 8252,
      "Ġbrought": 8253,
      "Ġhá»į": 8254,
      "emen": 8255,
      "Ġzanga": 8256,
      "ĠÃłmÃ¬": 8257,
      "ĠTrust": 8258,
      "Ġzinare": 8259,
      "1999": 8260,
      "Ġearlier": 8261,
      "enty": 8262,
      "Ġonyonyo": 8263,
      "ulpt": 8264,
      "Ġhawa": 8265,
      "oca": 8266,
      "ĠIbom": 8267,
      "shekara": 8268,
      "En": 8269,
      "uch": 8270,
      "oration": 8271,
      "irikpi": 8272,
      "ĠkarÉĵi": 8273,
      "Ġliving": 8274,
      "ikip": 8275,
      "Ġsoke": 8276,
      "ĠHaus": 8277,
      "ĠBirnin": 8278,
      "ĠsÃŃláº¹": 8279,
      "ĠVictor": 8280,
      "akpata": 8281,
      "ĠArgentina": 8282,
      "isions": 8283,
      "Ġpara": 8284,
      "ĠTor": 8285,
      "Ġnká»ĭtá»ĭ": 8286,
      "ĠZambia": 8287,
      "Ġeserese": 8288,
      "Ġtell": 8289,
      "orough": 8290,
      "ĠShow": 8291,
      "Ġredio": 8292,
      "Ġdalib": 8293,
      "Ġchá»¥": 8294,
      "Ġcost": 8295,
      "Ġwuru": 8296,
      "ĠIndust": 8297,
      "á»įká»ĭta": 8298,
      "sue": 8299,
      "ziaka": 8300,
      "ĠPara": 8301,
      "ĠChris": 8302,
      "alia": 8303,
      "Ġcrew": 8304,
      "ĠTekun": 8305,
      "Ġbayani": 8306,
      "Ġ75": 8307,
      "pá»¥tala": 8308,
      "bean": 8309,
      "bat": 8310,
      "Ġratta": 8311,
      "berede": 8312,
      "Ġschools": 8313,
      "water": 8314,
      "imma": 8315,
      "agun": 8316,
      "ĠPrime": 8317,
      "Ġlittle": 8318,
      "ĠRik": 8319,
      "odox": 8320,
      "ĠSaudi": 8321,
      "Ġá»įgbá»į": 8322,
      "Ġntá»¥rá»¥ndá»¥": 8323,
      "Ġjera": 8324,
      "ĠÉĹau": 8325,
      "Ġmako": 8326,
      "Ġjoin": 8327,
      "Ġsiláº¹": 8328,
      "ikun": 8329,
      "ĠKel": 8330,
      "Ġmkpirikpi": 8331,
      "Ġblood": 8332,
      "Ġsanin": 8333,
      "Ġremains": 8334,
      "Ġumarnin": 8335,
      "76": 8336,
      "Ġubochi": 8337,
      "ĠUl": 8338,
      "Ġtunani": 8339,
      "ande": 8340,
      "main": 8341,
      "cies": 8342,
      "Ġhari": 8343,
      "Ġpesin": 8344,
      "ĠHarr": 8345,
      "lying": 8346,
      "Ġregions": 8347,
      "ĠCarolina": 8348,
      "ĠStandard": 8349,
      "Ġagbabá»įá»įlu": 8350,
      "wat": 8351,
      "Ġhit": 8352,
      "ĠEag": 8353,
      "Ġnile": 8354,
      "Ġproducts": 8355,
      "Ġmanufar": 8356,
      "Ġreturned": 8357,
      "Ġindependent": 8358,
      "Ã¢": 8359,
      "Ġbada": 8360,
      "Ġfitowa": 8361,
      "Ġlonger": 8362,
      "Ġtattaunawa": 8363,
      "96": 8364,
      "bes": 8365,
      "nor": 8366,
      "Ġrabin": 8367,
      "Ġpp": 8368,
      "cycl": 8369,
      "ĠBiafra": 8370,
      "ricket": 8371,
      "Ġepis": 8372,
      "Ġsunayen": 8373,
      "Ġsubsequ": 8374,
      "stagram": 8375,
      "Ġoxygen": 8376,
      "Ġconcent": 8377,
      "Ġmostly": 8378,
      "ĠYusuf": 8379,
      "Ġbehavi": 8380,
      "ĠHaram": 8381,
      "mselves": 8382,
      "pected": 8383,
      "ĠAnglic": 8384,
      "ographic": 8385,
      "ĠorÃºká»į": 8386,
      "Ġvia": 8387,
      "burgh": 8388,
      "ĠEthi": 8389,
      "Ġwhether": 8390,
      "etts": 8391,
      "Ġoccup": 8392,
      "TO": 8393,
      "Ġloss": 8394,
      "Ġ978": 8395,
      "wararrun": 8396,
      "Ġhid": 8397,
      "ĠAbubuwan": 8398,
      "achá»ĭkwa": 8399,
      "ying": 8400,
      "Ġsuf": 8401,
      "ĠLead": 8402,
      "Ġconstruction": 8403,
      "Ġkpe": 8404,
      "Ġtowards": 8405,
      "hind": 8406,
      "Ġarun": 8407,
      "Ġ38": 8408,
      "Ġkamfani": 8409,
      "dium": 8410,
      "Ġwriting": 8411,
      "chem": 8412,
      "Ġ34": 8413,
      "Ġikirarin": 8414,
      "ĠÆĺasa": 8415,
      "Ġphot": 8416,
      "Ġwakilai": 8417,
      "Ġhankalin": 8418,
      "Ġmbu": 8419,
      "isms": 8420,
      "band": 8421,
      "fara": 8422,
      "idodin": 8423,
      "ĠUEFA": 8424,
      "oper": 8425,
      "ĠStat": 8426,
      "Ġsabis": 8427,
      "Ġidibo": 8428,
      "Ġashirin": 8429,
      "kel": 8430,
      "okwa": 8431,
      "Ġiyali": 8432,
      "arun": 8433,
      "ĠTak": 8434,
      "ĠRub": 8435,
      "Ġappeared": 8436,
      "ae": 8437,
      "igr": 8438,
      "Ġcut": 8439,
      "Ġrout": 8440,
      "ĠSaboda": 8441,
      "ĠBatman": 8442,
      "nest": 8443,
      "ĠKare": 8444,
      "Ġijá»į": 8445,
      "ĠIN": 8446,
      "ĠWeb": 8447,
      "ĠÉĹauke": 8448,
      "inter": 8449,
      "Ġbanye": 8450,
      "Ġthemselves": 8451,
      "ĠCat": 8452,
      "ĠLiter": 8453,
      "afo": 8454,
      "ĠOrth": 8455,
      "zerbai": 8456,
      "ĠIjipt": 8457,
      "rane": 8458,
      "ĠCle": 8459,
      "omer": 8460,
      "Ġbetter": 8461,
      "ĠMusulmai": 8462,
      "cement": 8463,
      "Ġour": 8464,
      "Ġjá»¥rá»¥": 8465,
      "anks": 8466,
      "Ġstudies": 8467,
      "ĠBooks": 8468,
      "Ġlamarin": 8469,
      "ĠFulani": 8470,
      "Ġsitu": 8471,
      "ĠJud": 8472,
      "ĠkiÉĹan": 8473,
      "Ġpersonal": 8474,
      "Ġbayy": 8475,
      "Ġadded": 8476,
      "Ġexpla": 8477,
      "ĠShekara": 8478,
      "apá»¥ta": 8479,
      "Ġauren": 8480,
      "Ġá»įba": 8481,
      "igwe": 8482,
      "Ġahá»¥há»¥": 8483,
      "ĠkejÃ¬": 8484,
      "Ġreplaced": 8485,
      "ĠNchá»ĭká»įta": 8486,
      "Ġtagulla": 8487,
      "wide": 8488,
      "Ġmberede": 8489,
      "Ġigbu": 8490,
      "Ġhula": 8491,
      "usoro": 8492,
      "akpa": 8493,
      "Ġpractice": 8494,
      "jÃ²": 8495,
      "Ġbugun": 8496,
      "Ġzuc": 8497,
      "ĠAnyanwá»¥": 8498,
      "ĠAsá»¥sá»¥": 8499,
      "Ġrubutu": 8500,
      "aká»įta": 8501,
      "EA": 8502,
      "%)": 8503,
      "uw": 8504,
      "ulated": 8505,
      "allen": 8506,
      "gwÃł": 8507,
      "ĠRevolution": 8508,
      "ĠBaya": 8509,
      "ĠDuke": 8510,
      "ĠEme": 8511,
      "tainment": 8512,
      "Ġá»įdá»ĭdá»ĭ": 8513,
      "ĠLewis": 8514,
      "hold": 8515,
      "ĠSar": 8516,
      "Ġriver": 8517,
      "ĠBugu": 8518,
      "Ġinwe": 8519,
      "Ð¸": 8520,
      "ĠSi": 8521,
      "ulá»į": 8522,
      "Ġmazabar": 8523,
      "Ġhoro": 8524,
      "ĠNs": 8525,
      "Ġguzobe": 8526,
      "Ġkayayyaki": 8527,
      "torÃŃ": 8528,
      "ĠTre": 8529,
      "Ġnecess": 8530,
      "Ġdie": 8531,
      "itage": 8532,
      "Ġtechni": 8533,
      "ĠTuranci": 8534,
      "Ġrubutun": 8535,
      "Ġstage": 8536,
      "Ġaká»įká»į": 8537,
      "ĠInstagram": 8538,
      "Ġartist": 8539,
      "Ġreading": 8540,
      "Ġjihohin": 8541,
      "stan": 8542,
      "Ġrikicin": 8543,
      "rupt": 8544,
      "\").": 8545,
      "net": 8546,
      "zens": 8547,
      "Ġnketa": 8548,
      "umá»į": 8549,
      "reement": 8550,
      "Ġdeta": 8551,
      "SP": 8552,
      "Ġregular": 8553,
      "Ġtafiyar": 8554,
      "ĠÆĻwararrun": 8555,
      "Ġaikata": 8556,
      "oji": 8557,
      "Ġburin": 8558,
      "Ġiká»į": 8559,
      "tage": 8560,
      "Ġkaron": 8561,
      "ĠEnd": 8562,
      "ĠMichi": 8563,
      "Ġjihohi": 8564,
      "chusetts": 8565,
      "Ġcultural": 8566,
      "Ġclear": 8567,
      "Ġever": 8568,
      "ĠKwan": 8569,
      "Ġrecent": 8570,
      "unications": 8571,
      "ará»ĭa": 8572,
      "Ġmots": 8573,
      "Ġnata": 8574,
      "Ġlegal": 8575,
      "ĠWel": 8576,
      "ĠIraq": 8577,
      "irag": 8578,
      "estic": 8579,
      "2001": 8580,
      "ĠMgbanwe": 8581,
      "Ġsararin": 8582,
      "Ġalready": 8583,
      "Ġlines": 8584,
      "Ã«": 8585,
      "ĠTay": 8586,
      "ĠWrit": 8587,
      "Ġ44": 8588,
      "Ġbankin": 8589,
      "Ġhistorical": 8590,
      "Ġpasent": 8591,
      "ĠOttoman": 8592,
      "Sa": 8593,
      "assu": 8594,
      "Ġmesá»ĭa": 8595,
      "ikipedia": 8596,
      "enni": 8597,
      "ĠSong": 8598,
      "ĠBib": 8599,
      "ental": 8600,
      "ĠÉĹari": 8601,
      "Ġelectric": 8602,
      "Ġchemical": 8603,
      "ĠMir": 8604,
      "Ġubi": 8605,
      "Ġmumm": 8606,
      "ĠIns": 8607,
      "Ġá»ĭm": 8608,
      "ĠAzerbai": 8609,
      "Ġlimited": 8610,
      "Ġmkpuchi": 8611,
      "ĠBenue": 8612,
      "Ġproblems": 8613,
      "esh": 8614,
      "ĠÆĻware": 8615,
      "aribbean": 8616,
      "WA": 8617,
      "kwÃł": 8618,
      "ĠJi": 8619,
      "ĠnÃŃbi": 8620,
      "ills": 8621,
      "ylvan": 8622,
      "Ġdescription": 8623,
      "Ġtakardar": 8624,
      "ĠÃģf": 8625,
      "ĠAka": 8626,
      "shire": 8627,
      "Ġgwajin": 8628,
      "Ġcat": 8629,
      "ĠNj": 8630,
      "Ġnauyi": 8631,
      "ĠBinciken": 8632,
      "ĠPublish": 8633,
      "Ġkog": 8634,
      "ĠRwanda": 8635,
      "Ġemploy": 8636,
      "ËĪ": 8637,
      "Ġuwa": 8638,
      "ĠTi": 8639,
      "imu": 8640,
      "Ġbox": 8641,
      "Ġtaimakon": 8642,
      "97": 8643,
      "Ġcry": 8644,
      "Ġá»įwá»į": 8645,
      "ĠGb": 8646,
      "Ġtekun": 8647,
      "Ġface": 8648,
      "km": 8649,
      "Ġaaráº¹": 8650,
      "Ġbran": 8651,
      "edi": 8652,
      "Ġshafukan": 8653,
      "alled": 8654,
      "ashion": 8655,
      "zinin": 8656,
      "Ġreach": 8657,
      "Ġtsayi": 8658,
      "ĠagbÃ¡": 8659,
      "Ġpolicy": 8660,
      "á»¤": 8661,
      "Ġá»įbá»ĭa": 8662,
      "cking": 8663,
      "ĠfaÉĹin": 8664,
      "ĠgabaÉĹaya": 8665,
      "Ġká»įwa": 8666,
      "atorial": 8667,
      "ĠInn": 8668,
      "ambodo": 8669,
      "emic": 8670,
      "ĠFour": 8671,
      "Ġcig": 8672,
      "Ġlaif": 8673,
      "Ġaká»¥rá»¥": 8674,
      "ĠScottish": 8675,
      "fen": 8676,
      "ambi": 8677,
      "Ġabalá»ĭ": 8678,
      "ĠAnother": 8679,
      "Ġiyal": 8680,
      "ĠlÃ¡Ãł": 8681,
      "Ġá»įgwá»¥gwá»į": 8682,
      "Ġrattaba": 8683,
      "ĠTel": 8684,
      "ĠLig": 8685,
      "ĠYak": 8686,
      "Ġá»Įzá»į": 8687,
      "ograp": 8688,
      "ĠAmer": 8689,
      "Ġzutere": 8690,
      "Ġsequ": 8691,
      "Ġeletr": 8692,
      "Ġtiti": 8693,
      "ngwa": 8694,
      "Ġfuture": 8695,
      "ĠProfess": 8696,
      "Ġoá¹£elu": 8697,
      "Ġlissafi": 8698,
      "ĠDor": 8699,
      "Ġbidiyon": 8700,
      "ĠMassachusetts": 8701,
      "ĠAga": 8702,
      "Ġsans": 8703,
      "iland": 8704,
      "ĠLÃ¡": 8705,
      "anned": 8706,
      "Ġmek": 8707,
      "Ġfassara": 8708,
      "etters": 8709,
      "Ġveh": 8710,
      "ĠNan": 8711,
      "áº¹ráº¹": 8712,
      "ĠAdamawa": 8713,
      "jikará»ĭ": 8714,
      "Ġworking": 8715,
      "idents": 8716,
      "ĠGame": 8717,
      "ĠWell": 8718,
      "hua": 8719,
      "Ġ1937": 8720,
      "Ġlauya": 8721,
      "ĠEU": 8722,
      "Ġjan": 8723,
      "ĠRog": 8724,
      "Ġá»Įná»¥": 8725,
      "ED": 8726,
      "Ġlay": 8727,
      "ĠÆĻungiya": 8728,
      "ĠNavy": 8729,
      "ption": 8730,
      "Ġmove": 8731,
      "Ġhotunan": 8732,
      "Ġanalysis": 8733,
      "Ġgan": 8734,
      "omo": 8735,
      "Ã¬mÃ¹": 8736,
      "Ġmagani": 8737,
      "Ġstudents": 8738,
      "ring": 8739,
      "ĠwÃ³n": 8740,
      "Ġami": 8741,
      "ET": 8742,
      "Å«": 8743,
      "Ġoda": 8744,
      "Ġizinin": 8745,
      "asashen": 8746,
      "Ġfid": 8747,
      "rah": 8748,
      "Ã³mÃ¬n": 8749,
      "Ġbelow": 8750,
      "Ġshugabar": 8751,
      "ĠWasannin": 8752,
      "ĠjÃ¹lá»į": 8753,
      "Ġgomina": 8754,
      "Ġnson": 8755,
      "Ã²rÃ¹n": 8756,
      "ĠProv": 8757,
      "Ġejiji": 8758,
      "ĠCovid": 8759,
      "Ġboard": 8760,
      "xon": 8761,
      "uruwan": 8762,
      "Ġizizi": 8763,
      "Yancin": 8764,
      "here": 8765,
      "Ð½": 8766,
      "Ġaba": 8767,
      "olowo": 8768,
      "ĠEti": 8769,
      "Ã³gbÃ¨": 8770,
      "Ġá»ĭká»¥": 8771,
      "ocracy": 8772,
      "ĠrÃ¨": 8773,
      "ĠFund": 8774,
      "Ġdá»ĭghá»ĭ": 8775,
      "Ġkere": 8776,
      "ĠEconomic": 8777,
      "Ġainihin": 8778,
      "ON": 8779,
      "Ġtheor": 8780,
      "iday": 8781,
      "ĠHy": 8782,
      "ĠHassan": 8783,
      "Ġung": 8784,
      "Ġflu": 8785,
      "ĠKon": 8786,
      "ĠSanata": 8787,
      "gwÃ¹": 8788,
      "ĠIslamic": 8789,
      "Ġtemperature": 8790,
      "Ġsw": 8791,
      "Ġsoya": 8792,
      "Ġdogon": 8793,
      "Ġvidiyo": 8794,
      "erá»¥": 8795,
      "Ġpada": 8796,
      "Ġmasara": 8797,
      "FC": 8798,
      "Ġmwe": 8799,
      "ĠSierra": 8800,
      "ĠBou": 8801,
      "Ġ1935": 8802,
      "Ġacqu": 8803,
      "Ġmbelata": 8804,
      "gon": 8805,
      "kanci": 8806,
      "Ġcos": 8807,
      "ĠCel": 8808,
      "ĠnkÃ¡": 8809,
      "ambance": 8810,
      "Ġcomplete": 8811,
      "ancan": 8812,
      "Ġdegree": 8813,
      "aw": 8814,
      "ichi": 8815,
      "ĠHu": 8816,
      "Ġmijin": 8817,
      "verse": 8818,
      "Ġft": 8819,
      "Ġharkar": 8820,
      "Ġwayar": 8821,
      "ĠAnne": 8822,
      "ĠOfficial": 8823,
      "ĠBuddha": 8824,
      "kh": 8825,
      "inda": 8826,
      "ĠKong": 8827,
      "ĠFre": 8828,
      "Ġtechn": 8829,
      "egosipá»¥ta": 8830,
      "Ġdalilin": 8831,
      "ekp": 8832,
      "Ðµ": 8833,
      "ĠHus": 8834,
      "2021": 8835,
      "erials": 8836,
      "Ġleav": 8837,
      "ĠkiÉĹa": 8838,
      "Ġdocument": 8839,
      "Ġtol": 8840,
      "Ġsold": 8841,
      "Ġfetur": 8842,
      "ĠWall": 8843,
      "ĠEmmanuel": 8844,
      "Ġazá»¥maahá»ĭa": 8845,
      "Ġprincip": 8846,
      "Ġsarauta": 8847,
      "ĠKemgbe": 8848,
      "Ġnomin": 8849,
      "ĠAP": 8850,
      "Ġsoci": 8851,
      "Ġtreatment": 8852,
      "Ġkewaye": 8853,
      "cos": 8854,
      "Ġkolin": 8855,
      "Ġmamaki": 8856,
      "Ġmarubuci": 8857,
      "Ġmarta": 8858,
      "ĠAha": 8859,
      "agwo": 8860,
      "Ġstated": 8861,
      "Ġlook": 8862,
      "kwanci": 8863,
      "chaa": 8864,
      "Ġlabari": 8865,
      "aazá»¥": 8866,
      "ĠTro": 8867,
      "ĠFine": 8868,
      "ayayya": 8869,
      "ĠÆĻarfafa": 8870,
      "Ġayyana": 8871,
      "ĠkÃ³pa": 8872,
      "sÃ¬n": 8873,
      "ĠOcean": 8874,
      "obo": 8875,
      "Ġ1936": 8876,
      "ĠAirport": 8877,
      "ESCO": 8878,
      "cles": 8879,
      "ĠMaria": 8880,
      "ĠÆĻaramar": 8881,
      "ĠÃłÃ¬": 8882,
      "ombia": 8883,
      "ĠCountry": 8884,
      "ĠBoko": 8885,
      "ĠBapt": 8886,
      "Ġcandid": 8887,
      "via": 8888,
      "Ġoghere": 8889,
      "ĠDJ": 8890,
      "umo": 8891,
      "Ġ55": 8892,
      "ĠColor": 8893,
      "ĠÆ´ar": 8894,
      "93": 8895,
      "ĠHaÆĻ": 8896,
      "Ġdefined": 8897,
      "ĠEric": 8898,
      "kunrin": 8899,
      "rons": 8900,
      "urt": 8901,
      "ĠKul": 8902,
      "ersey": 8903,
      "Ġbatt": 8904,
      "Ġkarfi": 8905,
      "kara": 8906,
      "och": 8907,
      "ĠsÃ¡": 8908,
      "Ġbad": 8909,
      "aska": 8910,
      "ĠÆĻirar": 8911,
      "Ġkarfin": 8912,
      "ensus": 8913,
      "Ġcenturies": 8914,
      "Ġmultiple": 8915,
      "jeri": 8916,
      "ĠTurkey": 8917,
      "Ġharin": 8918,
      "ĠGas": 8919,
      "dex": 8920,
      "arria": 8921,
      "Ġkind": 8922,
      "edic": 8923,
      "Ġtechnology": 8924,
      "Ġmamb": 8925,
      "ĠDat": 8926,
      "Ġakpá»¥": 8927,
      "Ġminor": 8928,
      "Ġalbarkatun": 8929,
      "Ġanimals": 8930,
      "Ġdiscuss": 8931,
      "ĠAja": 8932,
      "Ġiye": 8933,
      "asons": 8934,
      "iji": 8935,
      "Ġnight": 8936,
      "Ġ1933": 8937,
      "Ġphysical": 8938,
      "ĠYahudawa": 8939,
      "Ġnchebe": 8940,
      "bul": 8941,
      "ĠSciences": 8942,
      "ĠOp": 8943,
      "stone": 8944,
      "ĠMarathon": 8945,
      "ĠâĢ¢": 8946,
      "Ġ1929": 8947,
      "Ġwallafa": 8948,
      "66": 8949,
      "with": 8950,
      "ĠCaribbean": 8951,
      "ĠDNA": 8952,
      "Ġelected": 8953,
      "Ġvariety": 8954,
      "ĠÃĴtÃ¹": 8955,
      "Ġkoyarwa": 8956,
      "agwoju": 8957,
      "heast": 8958,
      "bie": 8959,
      "Ġmakon": 8960,
      "ĠGabon": 8961,
      "Ġadapt": 8962,
      "ĠIndonesia": 8963,
      "bata": 8964,
      "Ġgwamna": 8965,
      "umn": 8966,
      "covery": 8967,
      "Ġseparate": 8968,
      "Ġestimated": 8969,
      "ezie": 8970,
      "ĠÃī": 8971,
      "ĠÆĻauye": 8972,
      "ĠTw": 8973,
      "fufe": 8974,
      "Ġkwá»¥sá»ĭ": 8975,
      "Ġkifi": 8976,
      "Ġhan": 8977,
      "ĠobÃ¬nrin": 8978,
      "Ġkasancewar": 8979,
      "Ġká»įleji": 8980,
      "ĠSojojin": 8981,
      "ĠTrump": 8982,
      "ĠpadÃł": 8983,
      "Ġpraá»ĭm": 8984,
      "ogue": 8985,
      "orship": 8986,
      "ĠMadagas": 8987,
      "Ġdirectly": 8988,
      "Ġinvolved": 8989,
      "ĠAnthony": 8990,
      "yun": 8991,
      "ĠAber": 8992,
      "Ġzasu": 8993,
      "yanci": 8994,
      "Ġunits": 8995,
      "ĠWarri": 8996,
      "ĠAlfred": 8997,
      "aur": 8998,
      "ĠHospital": 8999,
      "Ġinterpret": 9000,
      "Ġtallafin": 9001,
      "ĠManyan": 9002,
      "SM": 9003,
      "Ġround": 9004,
      "ĠÉĹauka": 9005,
      "ĠTelevision": 9006,
      "--": 9007,
      "Ġwuta": 9008,
      "ĠShort": 9009,
      "Ġremov": 9010,
      "ylvania": 9011,
      "Ġnaira": 9012,
      "ĠPlateau": 9013,
      "ĠAnti": 9014,
      "Ġaikace": 9015,
      "Ġtroops": 9016,
      "ĠDal": 9017,
      "itoci": 9018,
      "citation": 9019,
      "ĪĴ": 9020,
      "elle": 9021,
      "Ġ1934": 9022,
      "ĠGirkanci": 9023,
      "á»ĭkal": 9024,
      "ĠChem": 9025,
      "ĠInf": 9026,
      "Ġwok": 9027,
      "ĠBru": 9028,
      "Ġdioxide": 9029,
      "ahar": 9030,
      "ounts": 9031,
      "wayen": 9032,
      "Ġkamfanonin": 9033,
      "ká»ĭrá»ĭ": 9034,
      "ĠÃ¬má»į": 9035,
      "Ġiyayen": 9036,
      "Ġmole": 9037,
      "Ġsmaller": 9038,
      "ejikará»ĭ": 9039,
      "ucin": 9040,
      "ÌŁ": 9041,
      "Ġigbe": 9042,
      "ĠJuli": 9043,
      "okan": 9044,
      "Ġprevent": 9045,
      "Ġjimillar": 9046,
      "Ġmurabba": 9047,
      "ĠTot": 9048,
      "ubal": 9049,
      "Ġdiscovered": 9050,
      "Ġcommand": 9051,
      "life": 9052,
      "Ġcoach": 9053,
      "Ġpercent": 9054,
      "Ġcommercial": 9055,
      "87": 9056,
      "bibi": 9057,
      "ĠConvention": 9058,
      "Ġmarubucin": 9059,
      "Ġmakamashi": 9060,
      "Ġsoro": 9061,
      "Ġbarin": 9062,
      "ĠFore": 9063,
      "Ġshigo": 9064,
      "Ġplant": 9065,
      "Ġproperties": 9066,
      "ĠOstir": 9067,
      "ĠFacebook": 9068,
      "cia": 9069,
      "Ġsif": 9070,
      "Ġflo": 9071,
      "Ġislands": 9072,
      "ĠAnglican": 9073,
      "Ġtry": 9074,
      "Ġrubuce": 9075,
      "venue": 9076,
      "ĠPatri": 9077,
      "ĠMichigan": 9078,
      "amá»¥": 9079,
      "Ġjulá»į": 9080,
      "Ġakoko": 9081,
      "Ġsports": 9082,
      "Ġkomawa": 9083,
      "ĠIá¹£áº¹": 9084,
      "anning": 9085,
      "ift": 9086,
      "ĠContemporary": 9087,
      "erede": 9088,
      "Ġmp": 9089,
      "Ġojo": 9090,
      "rown": 9091,
      "aling": 9092,
      "Ġkafofin": 9093,
      "Ġkwantirag": 9094,
      "orpor": 9095,
      "Ġá»įá¹ħá»¥": 9096,
      "ĠÆĻuri": 9097,
      "ĠkaÉĹan": 9098,
      "Ġnipasáº¹": 9099,
      "ĠÃ¬bÃŃ": 9100,
      "ĠSaudiyya": 9101,
      "Ġtaro": 9102,
      "ĠLebanon": 9103,
      "vement": 9104,
      "Ġtrib": 9105,
      "Ġká»¥": 9106,
      "Ġwind": 9107,
      "uliaka": 9108,
      "ctive": 9109,
      "ĠUmu": 9110,
      "Ġá»įdá»ĭiche": 9111,
      "Ġscholars": 9112,
      "Ġaw": 9113,
      "raá»ĭst": 9114,
      "Ġgos": 9115,
      "Ġlayi": 9116,
      "elled": 9117,
      "ĠgbajÃº": 9118,
      "Ġ1914": 9119,
      "ĠAlber": 9120,
      "kwado": 9121,
      "comm": 9122,
      "Ġperformance": 9123,
      "phia": 9124,
      "Ġdate": 9125,
      "ĠRab": 9126,
      "Ġbaje": 9127,
      "ĠMmetá»¥ta": 9128,
      "wÃ¡jÃº": 9129,
      "ĠLarabci": 9130,
      "ĠMovie": 9131,
      "Ġhy": 9132,
      "ĠCD": 9133,
      "Ġwaka": 9134,
      "ĠWild": 9135,
      "ĠÆĻarfin": 9136,
      "Ġlambobin": 9137,
      "Ġbarkwanci": 9138,
      "ipp": 9139,
      "ĠNasara": 9140,
      "ĠÆĻari": 9141,
      "vanced": 9142,
      "Ġoperations": 9143,
      "ĠOffice": 9144,
      "ĠEntertainment": 9145,
      "Ġkungiyoyi": 9146,
      "Ġmatter": 9147,
      "ĠIsl": 9148,
      "1998": 9149,
      "ĠPlay": 9150,
      "ĠJoe": 9151,
      "ĠSama": 9152,
      "ĠTod": 9153,
      "ĠLady": 9154,
      "odies": 9155,
      "US": 9156,
      "Ġhanci": 9157,
      "indin": 9158,
      "Ġpin": 9159,
      "ĠSpace": 9160,
      "92": 9161,
      "ĠVis": 9162,
      "ĠAdeb": 9163,
      "ĠGwamnati": 9164,
      "Ġreached": 9165,
      "uals": 9166,
      "ĠKraá»ĭst": 9167,
      "ĠOver": 9168,
      "Ġ48": 9169,
      "Ġproposed": 9170,
      "Ġrecogni": 9171,
      "efe": 9172,
      "ĠSas": 9173,
      "ĠTok": 9174,
      "Ġ64": 9175,
      "Ġsamarwa": 9176,
      "Ġhul": 9177,
      "Ġzakarun": 9178,
      "odia": 9179,
      "Ġkemá»ĭkal": 9180,
      "Ġakpa": 9181,
      "Ġbáº¹áº¹": 9182,
      "Ġkudaden": 9183,
      "ĠDarakta": 9184,
      "Ġnkwupá»¥ta": 9185,
      "asy": 9186,
      "ĠTha": 9187,
      "Ġmataima": 9188,
      "ibá»ĭa": 9189,
      "Ġkyakkya": 9190,
      "garia": 9191,
      "Ġnjá»į": 9192,
      "ĠÃ¹": 9193,
      "Ġagbanwe": 9194,
      "ĠSuf": 9195,
      "coln": 9196,
      "ĠDenmark": 9197,
      "ĠGombe": 9198,
      "coh": 9199,
      "etro": 9200,
      "Ġgradu": 9201,
      "Ġcreate": 9202,
      "Ġrundunar": 9203,
      "Ġá»ĭkwá»¥": 9204,
      "Ġunit": 9205,
      "Ġroad": 9206,
      "Ø¯": 9207,
      "usar": 9208,
      "ĠLiga": 9209,
      "rea": 9210,
      "odun": 9211,
      "Ġconcept": 9212,
      "ĠChukwu": 9213,
      "Ġflight": 9214,
      "ĠOrthodox": 9215,
      "ezo": 9216,
      "Ġlog": 9217,
      "cht": 9218,
      "Ġsociety": 9219,
      "Ġcollection": 9220,
      "ĠMagazine": 9221,
      "tim": 9222,
      "Ġbound": 9223,
      "ĠSem": 9224,
      "abá»ĭa": 9225,
      "ctoral": 9226,
      "ĠGwamnan": 9227,
      "á»ĭná»ĭ": 9228,
      "ĠOá¹£u": 9229,
      "Ġá»įkpá»¥kpá»¥": 9230,
      "Ġrinj": 9231,
      "iwe": 9232,
      "Ġdub": 9233,
      "Ġbunk": 9234,
      "Ġmatukar": 9235,
      "Ġcoup": 9236,
      "Ġtitin": 9237,
      "ÃłÃł": 9238,
      "ĠAbá»¥á»į": 9239,
      "Ġspread": 9240,
      "ĠHong": 9241,
      "Ġasambodo": 9242,
      "ĠAbra": 9243,
      "Ġindependence": 9244,
      "chell": 9245,
      "Ġcorresp": 9246,
      "adelphia": 9247,
      "77": 9248,
      "tob": 9249,
      "Ġera": 9250,
      "Ġnakas": 9251,
      "Ġfarin": 9252,
      "ĠBeng": 9253,
      "ĠNeja": 9254,
      "itaniya": 9255,
      "Äĩ": 9256,
      "Ġcontin": 9257,
      "á»įá»įmenti": 9258,
      "RI": 9259,
      "heim": 9260,
      "ĠowÃ³": 9261,
      "Ġmaj": 9262,
      "Ġmmá»¥ba": 9263,
      "attafan": 9264,
      "ĠValley": 9265,
      "It": 9266,
      "obe": 9267,
      "abtar": 9268,
      "ĠGene": 9269,
      "ĠMaza": 9270,
      "Ġwetin": 9271,
      "Ġyuwuwar": 9272,
      "enh": 9273,
      "Ġciti": 9274,
      "ayyar": 9275,
      "emegide": 9276,
      "Ġissue": 9277,
      "Ġmalami": 9278,
      "pir": 9279,
      "Åį": 9280,
      "Ġthreat": 9281,
      "ĠKorea": 9282,
      "bed": 9283,
      "sylvania": 9284,
      "Ġgag": 9285,
      "ĠArthur": 9286,
      "ĠMall": 9287,
      "Ġthous": 9288,
      "ĠMaj": 9289,
      "ĠAthens": 9290,
      "Ġgreater": 9291,
      "ĠFarkon": 9292,
      "kÃ¹": 9293,
      "Ġcentre": 9294,
      "Ġdistinct": 9295,
      "itocin": 9296,
      "Ġsaki": 9297,
      "Ġiman": 9298,
      "Ġcimma": 9299,
      "ĠhaÉĹu": 9300,
      "Ġntuliaka": 9301,
      "ĠGirls": 9302,
      "Ġ*": 9303,
      "Ġmention": 9304,
      "ĠAT": 9305,
      "usta": 9306,
      "Ġmalamai": 9307,
      "jamin": 9308,
      "mÃł": 9309,
      "Ġcust": 9310,
      "Ġrat": 9311,
      "Ġshugaba": 9312,
      "EN": 9313,
      "].": 9314,
      "Ġlength": 9315,
      "ĠKos": 9316,
      "ĠOrÃŃ": 9317,
      "phy": 9318,
      "Ġraga": 9319,
      "Ġida": 9320,
      "ĠTupu": 9321,
      "ĠÃłÃł": 9322,
      "ĠMoon": 9323,
      "Ġclimate": 9324,
      "ĠCard": 9325,
      "Ġshaidar": 9326,
      "unior": 9327,
      "ĠArea": 9328,
      "ĠHelen": 9329,
      "Ġcast": 9330,
      "cious": 9331,
      "ugg": 9332,
      "Ġjawo": 9333,
      "ĠEgwuregwu": 9334,
      "ĠJesus": 9335,
      "ĠMpaghara": 9336,
      "ĠSC": 9337,
      "Ġbanki": 9338,
      "yam": 9339,
      "ĠSuna": 9340,
      "ccan": 9341,
      "ĠAgency": 9342,
      "ĠSecondary": 9343,
      "gir": 9344,
      "Ġfront": 9345,
      "ĠHor": 9346,
      "ĠWee": 9347,
      "ĠDev": 9348,
      "Ġstatus": 9349,
      "Ġbring": 9350,
      "ĠAdministration": 9351,
      "gidere": 9352,
      "Ġsá»įrá»į": 9353,
      "ĠBola": 9354,
      "ogle": 9355,
      "cciyar": 9356,
      "ĠThat": 9357,
      "ĠConference": 9358,
      "Ġresponse": 9359,
      "ĠCosta": 9360,
      "Ġcard": 9361,
      "Ġfans": 9362,
      "Ġá»įkan": 9363,
      "ithm": 9364,
      "Ġcoal": 9365,
      "á»¥kwaghá»ĭ": 9366,
      "ĠSport": 9367,
      "Ġkarya": 9368,
      "ĠDokokin": 9369,
      "Ġbrother": 9370,
      "Ġprevious": 9371,
      "wakpo": 9372,
      "Ġdika": 9373,
      "Ġsurround": 9374,
      "Ġrules": 9375,
      "Ġrelationship": 9376,
      "Ġcred": 9377,
      "ĠKara": 9378,
      "Ġkwando": 9379,
      "Ġgaske": 9380,
      "Ġfahimtar": 9381,
      "WF": 9382,
      "ĠBible": 9383,
      "ĠKongo": 9384,
      "rÃ¹": 9385,
      "urfa": 9386,
      "Ġtransfer": 9387,
      "Ġnumerous": 9388,
      "Ġpoor": 9389,
      "zari": 9390,
      "ĠMass": 9391,
      "ĠInternet": 9392,
      "ĠLittle": 9393,
      "ĠStephen": 9394,
      "Ġlargely": 9395,
      "Ġmembobin": 9396,
      "ĠLincoln": 9397,
      "efu": 9398,
      "Ġult": 9399,
      "Ġhali": 9400,
      "Ġpath": 9401,
      "Ġletter": 9402,
      "á»¥á»įgá»¥": 9403,
      "Ġfacil": 9404,
      "ĠOkÃ©": 9405,
      "wayon": 9406,
      "ĠArziki": 9407,
      "zaghachi": 9408,
      "Ġgirmamawa": 9409,
      "adiyya": 9410,
      "gebra": 9411,
      "Ġnearly": 9412,
      "ĠColombia": 9413,
      "Ġfemale": 9414,
      "Ġhá»įá»įrá»į": 9415,
      "uruwa": 9416,
      "ching": 9417,
      "Ġmarried": 9418,
      "Ġhukunci": 9419,
      "hist": 9420,
      "ĠAuthor": 9421,
      "rog": 9422,
      "á»įná»¥": 9423,
      "Ġneigh": 9424,
      "Ġemeela": 9425,
      "Ġ1927": 9426,
      "ĠLabor": 9427,
      "ĠKimiyyar": 9428,
      "ewu": 9429,
      "Ġoko": 9430,
      "Ġhours": 9431,
      "ĠAtt": 9432,
      "Ġkii": 9433,
      "Ġaddress": 9434,
      "Ġugo": 9435,
      "Ġkwanan": 9436,
      "Ġdivided": 9437,
      "Ġperformed": 9438,
      "ĠWilson": 9439,
      "Ġbishi": 9440,
      "Ġvir": 9441,
      "Ġplaced": 9442,
      "ĠmgbÃ¨": 9443,
      "others": 9444,
      "Ġkujerar": 9445,
      "ĠPennsylvania": 9446,
      "Ġapproximately": 9447,
      "mus": 9448,
      "oy": 9449,
      "eded": 9450,
      "ĠKun": 9451,
      "Ġ1900": 9452,
      "ĠGil": 9453,
      "Ġwhom": 9454,
      "Ġarg": 9455,
      "Ġdestroy": 9456,
      "Ġnakasassu": 9457,
      "Ġngá»¥": 9458,
      "alá»¥": 9459,
      "ellig": 9460,
[...]
