{
  "version": "1.0",
  "truncation": null,
  "padding": null,
  "added_tokens": [
    {
      "id": 0,
      "content": "[PAD]",
      "single_word": false,
      "lstrip": false,
      "rstrip": false,
      "normalized": false,
      "special": true
    },
    {
      "id": 1,
      "content": "[CLS]",
      "single_word": false,
      "lstrip": false,
      "rstrip": false,
      "normalized": false,
      "special": true
    },
    {
      "id": 2,
      "content": "[SEP]",
      "single_word": false,
      "lstrip": false,
      "rstrip": false,
      "normalized": false,
      "special": true
    },
    {
      "id": 3,
      "content": "[MASK]",
      "single_word": false,
      "lstrip": false,
      "rstrip": false,
      "normalized": false,
      "special": true
    }
  ],
  "normalizer": {
    "type": "NFC"
  },
  "pre_tokenizer": {
    "type": "ByteLevel",
    "add_prefix_space": false,
    "trim_offsets": true,
    "use_regex": true
  },
  "post_processor": null,
  "decoder": {
    "type": "ByteLevel",
    "add_prefix_space": true,
    "trim_offsets": true,
    "use_regex": true
  },
  "model": {
    "type": "BPE",
    "dropout": null,
    "unk_token": null,
    "continuing_subword_prefix": null,
    "end_of_word_suffix": null,
    "fuse_unk": false,
    "byte_fallback": false,
    "ignore_merges": false,
    "vocab": {
      "[PAD]": 0,
      "[CLS]": 1,
      "[SEP]": 2,
      "[MASK]": 3,
      "!": 4,
      "\"": 5,
      "#": 6,
      "$": 7,
      "%": 8,
      "&": 9,
      "'": 10,
      "(": 11,
      ")": 12,
      "*": 13,
      "+": 14,
      ",": 15,
      "-": 16,
      ".": 17,
      "/": 18,
      "0": 19,
      "1": 20,
      "2": 21,
      "3": 22,
      "4": 23,
      "5": 24,
      "6": 25,
      "7": 26,
      "8": 27,
      "9": 28,
      ":": 29,
      ";": 30,
      "<": 31,
      "=": 32,
      ">": 33,
      "?": 34,
      "@": 35,
      "A": 36,
      "B": 37,
      "C": 38,
      "D": 39,
      "E": 40,
      "F": 41,
      "G": 42,
      "H": 43,
      "I": 44,
      "J": 45,
      "K": 46,
      "L": 47,
      "M": 48,
      "N": 49,
      "O": 50,
      "P": 51,
      "Q": 52,
      "R": 53,
      "S": 54,
      "T": 55,
      "U": 56,
      "V": 57,
      "W": 58,
      "X": 59,
      "Y": 60,
      "Z": 61,
      "[": 62,
      "\\": 63,
      "]": 64,
      "^": 65,
      "_": 66,
      "`": 67,
      "a": 68,
      "b": 69,
      "c": 70,
      "d": 71,
      "e": 72,
      "f": 73,
      "g": 74,
      "h": 75,
      "i": 76,
      "j": 77,
      "k": 78,
      "l": 79,
      "m": 80,
      "n": 81,
      "o": 82,
      "p": 83,
      "q": 84,
      "r": 85,
      "s": 86,
      "t": 87,
      "u": 88,
      "v": 89,
      "w": 90,
      "x": 91,
      "y": 92,
      "z": 93,
      "{": 94,
      "|": 95,
      "}": 96,
      "~": 97,
      "¡": 98,
      "¢": 99,
      "£": 100,
      "¤": 101,
      "¥": 102,
      "¦": 103,
      "§": 104,
      "¨": 105,
      "©": 106,
      "ª": 107,
      "«": 108,
      "¬": 109,
      "®": 110,
      "¯": 111,
      "°": 112,
      "±": 113,
      "²": 114,
      "³": 115,
      "´": 116,
      "µ": 117,
      "¶": 118,
      "·": 119,
      "¸": 120,
      "¹": 121,
      "º": 122,
      "»": 123,
      "¼": 124,
      "½": 125,
      "¾": 126,
      "¿": 127,
      "Â": 128,
      "Ã": 129,
      "Ä": 130,
      "Å": 131,
      "Æ": 132,
      "Ç": 133,
      "È": 134,
      "É": 135,
      "Ê": 136,
      "Ë": 137,
      "Ì": 138,
      "Í": 139,
      "Î": 140,
      "Ï": 141,
      "Ð": 142,
      "Ñ": 143,
      "Ò": 144,
      "Ó": 145,
      "Ô": 146,
      "Õ": 147,
      "Ö": 148,
      "×": 149,
      "Ø": 150,
      "Ù": 151,
      "Ú": 152,
      "Û": 153,
      "Ü": 154,
      "Ý": 155,
      "ß": 156,
      "à": 157,
      "á": 158,
      "â": 159,
      "ã": 160,
      "ä": 161,
      "å": 162,
      "æ": 163,
      "ç": 164,
      "è": 165,
      "é": 166,
      "ê": 167,
      "ë": 168,
      "ì": 169,
      "í": 170,
      "ï": 171,
      "ð": 172,
      "Ċ": 173,
      "Ġ": 174,
      "Ģ": 175,
      "ģ": 176,
      "Ĥ": 177,
      "ĥ": 178,
      "Ħ": 179,
      "ħ": 180,
      "Ĩ": 181,
      "ĩ": 182,
      "Ī": 183,
      "ī": 184,
      "Ĭ": 185,
      "ĭ": 186,
      "Į": 187,
      "į": 188,
      "İ": 189,
      "ı": 190,
      "Ĳ": 191,
      "ĳ": 192,
      "Ĵ": 193,
      "ĵ": 194,
      "Ķ": 195,
      "ķ": 196,
      "ĸ": 197,
      "Ĺ": 198,
      "ĺ": 199,
      "Ļ": 200,
      "ļ": 201,
      "Ľ": 202,
      "ľ": 203,
      "Ŀ": 204,
      "ŀ": 205,
      "Ł": 206,
      "ł": 207,
      "Ń": 208,
      "á»": 209,
      "Ġn": 210,
      "á»¥": 211,
      "Ġa": 212,
      "á»į": 213,
      "he": 214,
      "Ġt": 215,
      "er": 216,
      "Ġo": 217,
      "in": 218,
      "Ġna": 219,
      "á»ĭ": 220,
      "Ġm": 221,
      "an": 222,
      "ar": 223,
      "on": 224,
      "en": 225,
      "Ġthe": 226,
      "Ġi": 227,
      "at": 228,
      "es": 229,
      "or": 230,
      "al": 231,
      "Ġb": 232,
      "Ġs": 233,
      "it": 234,
      "ed": 235,
      "ke": 236,
      "ĠA": 237,
      "Ġá»į": 238,
      "ch": 239,
      "Ġd": 240,
      "Ġan": 241,
      "re": 242,
      "Ġw": 243,
      "is": 244,
      "Ġof": 245,
      "ic": 246,
      "Ġe": 247,
      "Ġc": 248,
      "kw": 249,
      "as": 250,
      "Ġp": 251,
      "Ġin": 252,
      "Ġf": 253,
      "ka": 254,
      "Ġnke": 255,
      "ion": 256,
      "ĠN": 257,
      "ĠS": 258,
      "ri": 259,
      "le": 260,
      "Ġand": 261,
      "ro": 262,
      "ing": 263,
      "me": 264,
      "ĠM": 265,
      "ĠC": 266,
      "Ġh": 267,
      "ere": 268,
      "Ġ1": 269,
      "Ġg": 270,
      "dá»ĭ": 271,
      "ur": 272,
      "ye": 273,
      "ĠT": 274,
      "ĠB": 275,
      "rá»¥": 276,
      "us": 277,
      "Ġon": 278,
      "ent": 279,
      "ya": 280,
      "Ġ(": 281,
      "ta": 282,
      "Ġto": 283,
      "ara": 284,
      "ad": 285,
      "ĠI": 286,
      "gb": 287,
      "gh": 288,
      "Ġma": 289,
      "ol": 290,
      "un": 291,
      "el": 292,
      "Ġ2": 293,
      "il": 294,
      "ĠE": 295,
      "Ġbá»¥": 296,
      "Ġndá»ĭ": 297,
      "Ġya": 298,
      "om": 299,
      "et": 300,
      "Ġá»¥": 301,
      "ut": 302,
      "ĠP": 303,
      "os": 304,
      "ct": 305,
      "am": 306,
      "ĠO": 307,
      "Ġdá»ĭ": 308,
      "Ġis": 309,
      "id": 310,
      "Ġ20": 311,
      "Ġ19": 312,
      "Ġl": 313,
      "kp": 314,
      "ation": 315,
      "ul": 316,
      "Ġihe": 317,
      "ĠD": 318,
      "ĠG": 319,
      "ji": 320,
      "em": 321,
      "ĠF": 322,
      "ot": 323,
      "ĠL": 324,
      "há»¥": 325,
      "ĠH": 326,
      "Ġka": 327,
      "Ġth": 328,
      "we": 329,
      "Ġonye": 330,
      "ká»į": 331,
      "ĠR": 332,
      "ra": 333,
      "Ġas": 334,
      "ce": 335,
      "iv": 336,
      "pá»¥": 337,
      "Ġre": 338,
      "la": 339,
      "ly": 340,
      "ĠThe": 341,
      "gw": 342,
      "ter": 343,
      "um": 344,
      "ge": 345,
      "Ġá»": 346,
      "ir": 347,
      "Ġnw": 348,
      "ia": 349,
      "ba": 350,
      "fá»į": 351,
      "ĠW": 352,
      "iri": 353,
      "od": 354,
      "Ġfor": 355,
      "hi": 356,
      "ers": 357,
      "ma": 358,
      "st": 359,
      "Ġ\"": 360,
      "ist": 361,
      "Ġahá»¥": 362,
      "ĠJ": 363,
      "Ġr": 364,
      "ite": 365,
      "Ġbe": 366,
      "and": 367,
      "che": 368,
      "ith": 369,
      "Ġá»įrá»¥": 370,
      "be": 371,
      "ĠK": 372,
      "im": 373,
      "Ġá»Į": 374,
      "Ġha": 375,
      "tá»¥": 376,
      "tu": 377,
      "ow": 378,
      "ĠU": 379,
      "ká»¥": 380,
      "rá»ĭ": 381,
      "bá»¥": 382,
      "wa": 383,
      "her": 384,
      "Ġwas": 385,
      "ig": 386,
      "op": 387,
      "ĠIn": 388,
      "Ġwith": 389,
      "Ġnd": 390,
      "th": 391,
      "Ġmm": 392,
      "lá»į": 393,
      "Ġá»ĭ": 394,
      "Ġal": 395,
      "ts": 396,
      "kwá»¥": 397,
      "Ġmaka": 398,
      "ver": 399,
      "âĢ": 400,
      "Ġ201": 401,
      "Ġst": 402,
      "Ġcon": 403,
      "uru": 404,
      "kwa": 405,
      "ian": 406,
      "Ġby": 407,
      "est": 408,
      "chá»ĭ": 409,
      "pe": 410,
      "zi": 411,
      "'s": 412,
      "ess": 413,
      "gwu": 414,
      "kwu": 415,
      "Ġde": 416,
      "Ġat": 417,
      "ha": 418,
      "Ġthat": 419,
      "Ġu": 420,
      "ate": 421,
      "ag": 422,
      "kwá»į": 423,
      "ity": 424,
      "bi": 425,
      "Ġmgb": 426,
      "rá»į": 427,
      "any": 428,
      "Ġpro": 429,
      "kwá»¥kwá»į": 430,
      "oc": 431,
      "Ġv": 432,
      "ment": 433,
      "00": 434,
      "oun": 435,
      "ghá»ĭ": 436,
      "á»¥rá»¥": 437,
      "ĠNa": 438,
      "ard": 439,
      "og": 440,
      "if": 441,
      "rom": 442,
      "ee": 443,
      "âĢĵ": 444,
      "ew": 445,
      "tara": 446,
      "ies": 447,
      "má»¥": 448,
      "Ġcom": 449,
      "á»ĭa": 450,
      "lu": 451,
      "ay": 452,
      "ab": 453,
      "á»įrá»į": 454,
      "ĠSt": 455,
      "zá»į": 456,
      "Ġus": 457,
      "),": 458,
      "ric": 459,
      "pá»¥ta": 460,
      "Ġotu": 461,
      "ve": 462,
      "Ġ200": 463,
      "Ġare": 464,
      "ime": 465,
      "oro": 466,
      "Ġk": 467,
      "qu": 468,
      "Ġafá»į": 469,
      "Ġor": 470,
      "Ġsu": 471,
      "Ġfrom": 472,
      "all": 473,
      "ĠCh": 474,
      "ber": 475,
      "Ġá»¥lá»į": 476,
      "mer": 477,
      "cha": 478,
      "Ġisi": 479,
      "Ġex": 480,
      "ide": 481,
      "ial": 482,
      "Ġen": 483,
      "Ġnk": 484,
      "out": 485,
      "ĠAf": 486,
      "ish": 487,
      "ga": 488,
      "ine": 489,
      "art": 490,
      "Ġnwere": 491,
      "ran": 492,
      "afá»į": 493,
      "chi": 494,
      "so": 495,
      "pt": 496,
      "ará»ĭ": 497,
      "Ġakwá»¥kwá»į": 498,
      "ort": 499,
      "ical": 500,
      "ill": 501,
      "Ġhe": 502,
      "Ġsite": 503,
      "de": 504,
      "ive": 505,
      "Ġse": 506,
      "ary": 507,
      "Ġmme": 508,
      "eme": 509,
      "Ġike": 510,
      "Ġch": 511,
      "pp": 512,
      "ĠAn": 513,
      "Ġwhi": 514,
      "ala": 515,
      "Ġme": 516,
      "Ġga": 517,
      "Ġun": 518,
      "ĠMa": 519,
      "ĠV": 520,
      "our": 521,
      "Ġit": 522,
      "yere": 523,
      "Ġebe": 524,
      "mp": 525,
      "ck": 526,
      "ens": 527,
      "ĠUn": 528,
      "ĠAl": 529,
      "ated": 530,
      "ous": 531,
      "ant": 532,
      "ou": 533,
      "zá»¥": 534,
      "Ġgb": 535,
      "ast": 536,
      "ction": 537,
      "ike": 538,
      "ell": 539,
      "igh": 540,
      "Ġegwu": 541,
      "ĠÃ": 542,
      "Ġob": 543,
      "Ġaká»¥": 544,
      "ĠAr": 545,
      "ong": 546,
      "ome": 547,
      "adá»¥": 548,
      "Ġabá»¥": 549,
      "Ġnn": 550,
      "Ġhis": 551,
      "rit": 552,
      "gá»¥": 553,
      "ub": 554,
      "pá»¥tara": 555,
      "ust": 556,
      "ana": 557,
      "ore": 558,
      "ib": 559,
      "pa": 560,
      ").": 561,
      "Ġwere": 562,
      "ĠâĢĵ": 563,
      "ost": 564,
      "Ġmkp": 565,
      "Ġwhich": 566,
      "dá»¥": 567,
      "Ġ199": 568,
      "Ã©": 569,
      "há»ĭa": 570,
      "wu": 571,
      "ord": 572,
      "up": 573,
      "Ġiji": 574,
      "ry": 575,
      "19": 576,
      "Ġá»įn": 577,
      "se": 578,
      "ĠY": 579,
      "ov": 580,
      "ĠOn": 581,
      "Ġ.": 582,
      "Ġá»¥má»¥": 583,
      "Ġle": 584,
      "ok": 585,
      "end": 586,
      "ther": 587,
      "ie": 588,
      "Ġiche": 589,
      "cc": 590,
      "Ġaka": 591,
      "Ġmgbe": 592,
      "ata": 593,
      "iz": 594,
      "Ġndá»¥": 595,
      "Ġdi": 596,
      "meric": 597,
      "ff": 598,
      "Ġmba": 599,
      "á»įá»į": 600,
      "tern": 601,
      "Ġá»įzá»į": 602,
      "osi": 603,
      "Ġabá»¥á»į": 604,
      "odo": 605,
      "ations": 606,
      "asá»ĭ": 607,
      "ue": 608,
      "Ġcomp": 609,
      "ĠEn": 610,
      "Ġar": 611,
      "man": 612,
      "du": 613,
      "ld": 614,
      "hu": 615,
      "ĠRe": 616,
      "ass": 617,
      "ĠAfric": 618,
      "to": 619,
      "ence": 620,
      "Ġnkiri": 621,
      "ob": 622,
      "Ġiri": 623,
      "20": 624,
      "ang": 625,
      "ĠIhe": 626,
      "ition": 627,
      "ĠAmeric": 628,
      "ational": 629,
      "per": 630,
      "tá»¥tá»¥": 631,
      "Ġkw": 632,
      "ork": 633,
      "Ġnot": 634,
      "zu": 635,
      "gha": 636,
      "itere": 637,
      "Ġinc": 638,
      "land": 639,
      "te": 640,
      "gbu": 641,
      "Ã¨": 642,
      "gba": 643,
      "Ġab": 644,
      "ru": 645,
      "ond": 646,
      "les": 647,
      "ho": 648,
      "ory": 649,
      "Ġ18": 650,
      "Ġala": 651,
      "ak": 652,
      "ited": 653,
      "Ġmmadá»¥": 654,
      "Ġanya": 655,
      "ates": 656,
      "Ġmere": 657,
      "ph": 658,
      "iti": 659,
      "go": 660,
      "Ġ198": 661,
      "ign": 662,
      "Ġmbá»¥": 663,
      "Ġ3": 664,
      "ne": 665,
      "ure": 666,
      "res": 667,
      "ap": 668,
      "yo": 669,
      "anyá»ĭ": 670,
      "Ġalso": 671,
      "wo": 672,
      "ces": 673,
      "olog": 674,
      "Ãł": 675,
      "av": 676,
      "eb": 677,
      "ars": 678,
      "Ġhave": 679,
      "Ġmmiri": 680,
      "Ġad": 681,
      "ese": 682,
      "Ġj": 683,
      "ĠTh": 684,
      "Ġ-": 685,
      "fer": 686,
      "der": 687,
      "ze": 688,
      "ĠAs": 689,
      "ip": 690,
      "uo": 691,
      "kpe": 692,
      "ile": 693,
      "ress": 694,
      "Ġhas": 695,
      "ect": 696,
      "á»¥n": 697,
      "outh": 698,
      "ater": 699,
      "ult": 700,
      "lic": 701,
      "ions": 702,
      "ud": 703,
      "Ġhad": 704,
      "ĠSe": 705,
      "Ġ197": 706,
      "rá»ĭa": 707,
      "Ġits": 708,
      "hen": 709,
      "Ġkp": 710,
      "ree": 711,
      "á»įn": 712,
      "ans": 713,
      "Ġos": 714,
      "und": 715,
      "Ġres": 716,
      "ool": 717,
      "jiri": 718,
      "own": 719,
      "ally": 720,
      "Ġbut": 721,
      "ound": 722,
      "ede": 723,
      "Ġobodo": 724,
      "ku": 725,
      "irst": 726,
      "Ġaká»¥ká»į": 727,
      "Ġne": 728,
      "ghara": 729,
      "Ġpla": 730,
      "Ġtheir": 731,
      "ced": 732,
      "oge": 733,
      "ach": 734,
      "gosi": 735,
      "Ġá»¤": 736,
      "ĠCom": 737,
      "here": 738,
      "ĠNdá»ĭ": 739,
      "Ġeme": 740,
      "Ġá»įtá»¥tá»¥": 741,
      "Ġoge": 742,
      "Ġte": 743,
      "inye": 744,
      "Ġother": 745,
      "over": 746,
      "ys": 747,
      "da": 748,
      "Ġnwanyá»ĭ": 749,
      "ight": 750,
      "ĠAfrica": 751,
      "ron": 752,
      "vel": 753,
      "ahá»¥": 754,
      "Ġdis": 755,
      "oul": 756,
      "ount": 757,
      "na": 758,
      "Ġall": 759,
      "Ġcont": 760,
      "Ġá»įchá»ĭ": 761,
      "oh": 762,
      "ice": 763,
      "Ġ196": 764,
      "\".": 765,
      "ká»įta": 766,
      "wá»¥": 767,
      "gbe": 768,
      "ĠNew": 769,
      "Ġruo": 770,
      "ugh": 771,
      "Ġper": 772,
      "Ġbá»¥rá»¥": 773,
      "ĠDe": 774,
      "ins": 775,
      "á»¥s": 776,
      "orld": 777,
      "ame": 778,
      "Ġpart": 779,
      "ac": 780,
      "had": 781,
      "Ġusoro": 782,
      "aka": 783,
      "ume": 784,
      "erv": 785,
      "Ġ4": 786,
      "for": 787,
      "oll": 788,
      "ics": 789,
      "Ġcan": 790,
      "Ġfirst": 791,
      "Ġsi": 792,
      "Ġthis": 793,
      "ade": 794,
      "amp": 795,
      "ors": 796,
      "age": 797,
      "int": 798,
      "ĠHe": 799,
      "ĠUnited": 800,
      "gbo": 801,
      "Ġndá»įrá»į": 802,
      "ons": 803,
      "ĠAmerican": 804,
      "ĠZ": 805,
      "Ġiwu": 806,
      "ism": 807,
      "io": 808,
      "Ġany": 809,
      "ina": 810,
      "paghara": 811,
      "Ġy": 812,
      "iss": 813,
      "Ġwe": 814,
      "ding": 815,
      "ents": 816,
      "Ġbeen": 817,
      "ath": 818,
      "Ġone": 819,
      "á»ĭrá»ĭ": 820,
      "Ġá»įná»¥": 821,
      "Ġsh": 822,
      "ĠLe": 823,
      "ĠIt": 824,
      "Ã¡": 825,
      "Ġinclu": 826,
      "Ġed": 827,
      "ward": 828,
      "ĠMar": 829,
      "Ġro": 830,
      "use": 831,
      "Ġbec": 832,
      "Ġz": 833,
      "one": 834,
      "ral": 835,
      "Ġaf": 836,
      "Ġmal": 837,
      "eti": 838,
      "gbá»į": 839,
      "Ġele": 840,
      "li": 841,
      "iger": 842,
      "Ġnwe": 843,
      "ose": 844,
      "Ġye": 845,
      "Ġime": 846,
      "ance": 847,
      "Ġdes": 848,
      "Ġ5": 849,
      "ivers": 850,
      "ĠSouth": 851,
      "Ġobi": 852,
      "ould": 853,
      "rans": 854,
      "ely": 855,
      "ren": 856,
      "ado": 857,
      "á»¥nyere": 858,
      "Ġ[": 859,
      "ĠIs": 860,
      "ug": 861,
      "Ġozi": 862,
      "Ġmpaghara": 863,
      "Ġdá»ĭka": 864,
      "Ġla": 865,
      "Ġwee": 866,
      "Ġcomm": 867,
      "Ġá»įchá»ĭchá»ĭ": 868,
      "á»¥lá»į": 869,
      "bu": 870,
      "ire": 871,
      "Ġama": 872,
      "anye": 873,
      "isi": 874,
      "Ġam": 875,
      "hadum": 876,
      "are": 877,
      "ci": 878,
      "gwa": 879,
      "ĠNai": 880,
      "regwu": 881,
      "ms": 882,
      "Ġbu": 883,
      "ari": 884,
      "Ġwho": 885,
      "Ġso": 886,
      "ĠOnye": 887,
      "Ġsy": 888,
      "Ġ'": 889,
      "fe": 890,
      "gan": 891,
      "ĠCol": 892,
      "Ġaha": 893,
      "ft": 894,
      "Ġgá»¥nyere": 895,
      "yocha": 896,
      "akp": 897,
      "uring": 898,
      "Ġnt": 899,
      "Ġná»į": 900,
      "ĠPro": 901,
      "Ġcl": 902,
      "Ġsome": 903,
      "Ġom": 904,
      "Ġrec": 905,
      "ase": 906,
      "uro": 907,
      "hip": 908,
      "Ġsuch": 909,
      "Ġcent": 910,
      "\",": 911,
      "Ġá»¥wa": 912,
      "lo": 913,
      "Ġego": 914,
      "ener": 915,
      "jiká»į": 916,
      "Ġes": 917,
      "ik": 918,
      "gide": 919,
      "eeti": 920,
      "bá»į": 921,
      "ĠNiger": 922,
      "ĠCon": 923,
      "med": 924,
      "Ġatá»į": 925,
      "ĠAd": 926,
      "Ġused": 927,
      "ĠEng": 928,
      "jiria": 929,
      "Ġspe": 930,
      "Ġcons": 931,
      "tain": 932,
      "Ġsp": 933,
      "Ġni": 934,
      "orn": 935,
      "ton": 936,
      "red": 937,
      "ĠMm": 938,
      "yi": 939,
      "ĠEd": 940,
      "Ġá»Įrá»¥": 941,
      "ĠBe": 942,
      "Ġmma": 943,
      "ook": 944,
      "Ġndi": 945,
      "Ġnwa": 946,
      "ough": 947,
      "uz": 948,
      "Ġaga": 949,
      "reat": 950,
      "á»įá»įment": 951,
      "wn": 952,
      "ury": 953,
      "Ġmore": 954,
      "Ġikpe": 955,
      "Ġ195": 956,
      "Ġev": 957,
      "ĠBrit": 958,
      "old": 959,
      "Ġmost": 960,
      "000": 961,
      "als": 962,
      "anyere": 963,
      "ular": 964,
      "ks": 965,
      "Ġtwo": 966,
      "Ġniile": 967,
      "ute": 968,
      "ram": 969,
      "anwe": 970,
      "Ġonwe": 971,
      "Ġrep": 972,
      "ĠNaijiria": 973,
      "kwara": 974,
      "ise": 975,
      "Ġmet": 976,
      "ĠAt": 977,
      "enye": 978,
      "Ġimp": 979,
      "Ġbi": 980,
      "son": 981,
      "rá»ĭta": 982,
      "kike": 983,
      "Ġahá»ĭa": 984,
      "Ġinto": 985,
      "Ġpre": 986,
      "ublic": 987,
      "Ġthey": 988,
      "erm": 989,
      "ká»įrá»ĭta": 990,
      "gburu": 991,
      "vi": 992,
      "oci": 993,
      "act": 994,
      "Ġá»įdá»ĭ": 995,
      "etiti": 996,
      "Ġelu": 997,
      "mat": 998,
      "ĠMahadum": 999,
      "ble": 1000,
      "ihu": 1001,
      "Ġgburu": 1002,
      "ĠFor": 1003,
      "cy": 1004,
      "Ġnkw": 1005,
      "Ġegwuregwu": 1006,
      "emba": 1007,
      "Ġexp": 1008,
      "á»įá»įmentá»ĭ": 1009,
      "ific": 1010,
      "ĠNaá»ĭ": 1011,
      "Ġprodu": 1012,
      "Ġgro": 1013,
      "tÃ": 1014,
      "Ġokwu": 1015,
      "Ġ6": 1016,
      "Ġover": 1017,
      "gin": 1018,
      "hed": 1019,
      "Ġ202": 1020,
      "Ġrel": 1021,
      "eop": 1022,
      "Ġthan": 1023,
      "Ġtrans": 1024,
      "aa": 1025,
      "weghá»ĭ": 1026,
      "ll": 1027,
      "ihi": 1028,
      "ĠSch": 1029,
      "Ġreg": 1030,
      "lish": 1031,
      "ement": 1032,
      "ĠFran": 1033,
      "Ġbet": 1034,
      "ĠJoh": 1035,
      "Ġpl": 1036,
      "Ġgara": 1037,
      "alite": 1038,
      "Ġpol": 1039,
      "Ġá»¥dá»ĭ": 1040,
      "ĠNational": 1041,
      "Ġplay": 1042,
      "ghará»ĭ": 1043,
      "jirá»ĭa": 1044,
      "á»įdá»¥": 1045,
      "ern": 1046,
      "Ġact": 1047,
      "oth": 1048,
      "fá»įdá»¥": 1049,
      "Ġrá»¥": 1050,
      "Ġngosi": 1051,
      "tic": 1052,
      "ased": 1053,
      "ale": 1054,
      "Ġac": 1055,
      "ict": 1056,
      "ĠEuro": 1057,
      "Ġafter": 1058,
      "rough": 1059,
      "ember": 1060,
      "chasá»ĭ": 1061,
      "eri": 1062,
      "Ġ194": 1063,
      "ings": 1064,
      "Ġph": 1065,
      "con": 1066,
      "stit": 1067,
      "Ġká»į": 1068,
      "Ġcol": 1069,
      "Ġezi": 1070,
      "rib": 1071,
      "Ġout": 1072,
      "orth": 1073,
      "adá»ĭ": 1074,
      "Ġnum": 1075,
      "able": 1076,
      "ween": 1077,
      "fu": 1078,
      "ative": 1079,
      "Ġgburugburu": 1080,
      "tud": 1081,
      "velop": 1082,
      "Ġsub": 1083,
      "gwá»¥": 1084,
      "ind": 1085,
      "ternational": 1086,
      "Ġ7": 1087,
      "rad": 1088,
      "overn": 1089,
      "were": 1090,
      "ĠThis": 1091,
      "ah": 1092,
      "ood": 1093,
      "ists": 1094,
      "Ġke": 1095,
      "stem": 1096,
      "ĠAb": 1097,
      "Ġwork": 1098,
      "Ġkn": 1099,
      "Ġapp": 1100,
      "ĠStates": 1101,
      "ukwu": 1102,
      "ĠNaá»ĭjirá»ĭa": 1103,
      "ual": 1104,
      "ince": 1105,
      "ĠInd": 1106,
      "ark": 1107,
      "Ġobibi": 1108,
      "chara": 1109,
      "Ġmalitere": 1110,
      "Ġacc": 1111,
      "ten": 1112,
      "Ġra": 1113,
      "ará»¥": 1114,
      "ann": 1115,
      "á»įnwa": 1116,
      ".\"": 1117,
      "Ġkwuru": 1118,
      "Ġlar": 1119,
      "ional": 1120,
      "ities": 1121,
      "á»¥tara": 1122,
      "oke": 1123,
      "ĠEurope": 1124,
      "otu": 1125,
      "amb": 1126,
      "chie": 1127,
      "Ġnyere": 1128,
      "ĠMgbe": 1129,
      "Ġ|": 1130,
      "Ġnj": 1131,
      "ĠComm": 1132,
      "uzi": 1133,
      "cial": 1134,
      "ĠWorld": 1135,
      "ology": 1136,
      "arly": 1137,
      "Ġá»¥gbá»į": 1138,
      "Ġnche": 1139,
      "Ġtime": 1140,
      "asa": 1141,
      "Ġonly": 1142,
      "ele": 1143,
      "Ġbetween": 1144,
      "Ġinter": 1145,
      "urn": 1146,
      "ject": 1147,
      "á»įpá»¥tara": 1148,
      "á»¥sá»¥": 1149,
      "Ġmod": 1150,
      "Ġdo": 1151,
      "Ġwould": 1152,
      "ĠAm": 1153,
      "eople": 1154,
      "Ġaná»į": 1155,
      "ebe": 1156,
      "att": 1157,
      "200": 1158,
      "Ġnew": 1159,
      "ower": 1160,
      "Ġoke": 1161,
      "Ġdec": 1162,
      "iche": 1163,
      "ined": 1164,
      "Ġmana": 1165,
      "agba": 1166,
      "201": 1167,
      "Ġ17": 1168,
      "Ġmer": 1169,
      "Ġup": 1170,
      "Ġpop": 1171,
      "tá»¥ta": 1172,
      "iversity": 1173,
      "Ġá»įka": 1174,
      "Ġno": 1175,
      "bá»įchá»ĭ": 1176,
      "Ġá»¥zá»į": 1177,
      "sá»į": 1178,
      "Ġsc": 1179,
      "Ġagha": 1180,
      "Ġomume": 1181,
      "ene": 1182,
      "ĠMmadá»¥": 1183,
      "Ġkwa": 1184,
      "gwe": 1185,
      "Ġcount": 1186,
      "ĠNigeria": 1187,
      "ĠRo": 1188,
      "ĠPh": 1189,
      "Ġoff": 1190,
      "Ġri": 1191,
      "ily": 1192,
      "Ġass": 1193,
      "ĠCent": 1194,
      "Ġá»¥fá»įdá»¥": 1195,
      "Ġ8": 1196,
      "pá»¥rá»¥": 1197,
      "eji": 1198,
      "azá»¥": 1199,
      "Ġmkpa": 1200,
      "Ġokp": 1201,
      "Ġmá»¥rá»¥": 1202,
      "Ġwhen": 1203,
      "ium": 1204,
      "Ġikike": 1205,
      "aga": 1206,
      "Ġngwa": 1207,
      "Ġqu": 1208,
      "ĠAust": 1209,
      "uss": 1210,
      "Ġá»įhá»¥": 1211,
      "ack": 1212,
      "ank": 1213,
      "Ġmay": 1214,
      "iel": 1215,
      "lá»¥": 1216,
      "ĠLa": 1217,
      "Ġá»įgá»¥": 1218,
      "ture": 1219,
      "Ġsitere": 1220,
      "ĠSp": 1221,
      "Ġnso": 1222,
      "ĠArt": 1223,
      "ĠJohn": 1224,
      "ihe": 1225,
      "Ġmee": 1226,
      "Ġco": 1227,
      "ger": 1228,
      "Ġthere": 1229,
      "rist": 1230,
      "angu": 1231,
      "Ġgá»įá»įmentá»ĭ": 1232,
      "ters": 1233,
      "ĠHa": 1234,
      "Ġsteeti": 1235,
      "Ġá»įká»¥": 1236,
      "Ġwh": 1237,
      "Ġnde": 1238,
      "Ġson": 1239,
      "Ġform": 1240,
      "ished": 1241,
      "Ġá»įma": 1242,
      "cted": 1243,
      "upu": 1244,
      "ution": 1245,
      "Ġ9": 1246,
      "Ġise": 1247,
      "Ġatá»¥": 1248,
      "arch": 1249,
      "ĠEx": 1250,
      "ĠCan": 1251,
      "ris": 1252,
      "tá»į": 1253,
      "Ġpo": 1254,
      "ny": 1255,
      "raph": 1256,
      "Ġind": 1257,
      "Ġmany": 1258,
      "kará»ĭ": 1259,
      "Ġkachasá»ĭ": 1260,
      "Ġpos": 1261,
      "ife": 1262,
      "ilm": 1263,
      "lex": 1264,
      "anya": 1265,
      "ating": 1266,
      "Ġbanyere": 1267,
      "ural": 1268,
      "Ġ10": 1269,
      "ace": 1270,
      "Ġunder": 1271,
      "Ġá»įhá»¥rá»¥": 1272,
      "Ġdif": 1273,
      "ash": 1274,
      "Ġpres": 1275,
      "ali": 1276,
      "ain": 1277,
      "okwu": 1278,
      "Ġsystem": 1279,
      "Ġagá»¥": 1280,
      "uc": 1281,
      "ola": 1282,
      "Ġnyocha": 1283,
      "Ġcar": 1284,
      "atá»į": 1285,
      "ros": 1286,
      "Ġazá»¥": 1287,
      "ĠAfrican": 1288,
      "Ġnat": 1289,
      "Ġ15": 1290,
      "Ġmpá»¥": 1291,
      "Ġher": 1292,
      "ier": 1293,
      "ĠLag": 1294,
      "ĠÃ³": 1295,
      "etara": 1296,
      "ĠQ": 1297,
      "ures": 1298,
      "Ġduring": 1299,
      "akw": 1300,
      "zo": 1301,
      "Ġnwoke": 1302,
      "ted": 1303,
      "Ġnna": 1304,
      "Ġuse": 1305,
      "the": 1306,
      "uth": 1307,
      "Ġhim": 1308,
      "ollow": 1309,
      "Ġset": 1310,
      "Ġsec": 1311,
      "ied": 1312,
      "okp": 1313,
      "gy": 1314,
      "Ġyears": 1315,
      "Ġthrough": 1316,
      "ĠMin": 1317,
      "Ġji": 1318,
      "ĠState": 1319,
      "Ġ193": 1320,
      "ĠUS": 1321,
      "ada": 1322,
      "Ġukwu": 1323,
      "Ġgbas": 1324,
      "Ġag": 1325,
      "Ġabout": 1326,
      "cent": 1327,
      "Ġori": 1328,
      "Ġigwe": 1329,
      "ĠYork": 1330,
      "ock": 1331,
      "ick": 1332,
      "ĠSh": 1333,
      "ild": 1334,
      "Ġugbu": 1335,
      "Ġcall": 1336,
      "van": 1337,
      "Ġeb": 1338,
      "ĠJul": 1339,
      "Ġgh": 1340,
      "aká»¥": 1341,
      "Ġsa": 1342,
      "Ġkwu": 1343,
      "kara": 1344,
      "ÃŃ": 1345,
      "ote": 1346,
      "agb": 1347,
      "Ġfound": 1348,
      "Ġnye": 1349,
      "Ġwhere": 1350,
      "á»įrá»¥": 1351,
      "ĠCar": 1352,
      "zin": 1353,
      "Ġpri": 1354,
      "ĠInternational": 1355,
      "ley": 1356,
      "Ġinv": 1357,
      "ved": 1358,
      "ĠAmerica": 1359,
      "tab": 1360,
      "ĠLagos": 1361,
      "its": 1362,
      "ĠWar": 1363,
      "Ġ2019": 1364,
      "overnment": 1365,
      "Ġihu": 1366,
      "Ġknown": 1367,
      "ĠOr": 1368,
      "Ġsupp": 1369,
      "une": 1370,
      "Ġosisi": 1371,
      "ama": 1372,
      "Ġ16": 1373,
      "Ġca": 1374,
      "Ġoche": 1375,
      "ĠAward": 1376,
      "akpá»į": 1377,
      "yp": 1378,
      "gala": 1379,
      "Ġbel": 1380,
      "oman": 1381,
      "rench": 1382,
      "Ġnri": 1383,
      "Ġgosi": 1384,
      "Ġgbara": 1385,
      "round": 1386,
      "owe": 1387,
      "ĠTe": 1388,
      "ita": 1389,
      "emb": 1390,
      "á»įpá»¥ta": 1391,
      "Ġ2015": 1392,
      "very": 1393,
      "Ġgener": 1394,
      "Ġ,": 1395,
      "Ġtra": 1396,
      "ĠEnglish": 1397,
      "ĠUniversity": 1398,
      "Ġdevelop": 1399,
      "Ġman": 1400,
      "rop": 1401,
      "Ġap": 1402,
      "omen": 1403,
      "uch": 1404,
      "ĠBritish": 1405,
      "ision": 1406,
      "makwá»¥kwá»į": 1407,
      "ctions": 1408,
      "cess": 1409,
      "18": 1410,
      "galaba": 1411,
      "Ġinf": 1412,
      "ĠBo": 1413,
      "por": 1414,
      "ela": 1415,
      "Ġod": 1416,
      "Ġakp": 1417,
      "Ġfe": 1418,
      "min": 1419,
      "ĠNjiká»į": 1420,
      "Ġguz": 1421,
      "Ġá»¤lá»į": 1422,
      "Ġet": 1423,
      "ix": 1424,
      "lin": 1425,
      "nd": 1426,
      "Ġbá»įá»į": 1427,
      "ences": 1428,
      "ital": 1429,
      "Ġem": 1430,
      "Ġmin": 1431,
      "hern": 1432,
      "ĠChrist": 1433,
      "ĠSchool": 1434,
      "ards": 1435,
      "ages": 1436,
      "ized": 1437,
      "Ġdist": 1438,
      "ames": 1439,
      "ĠAp": 1440,
      "Ġmb": 1441,
      "gwá»į": 1442,
      "Ġá»įrá»ĭa": 1443,
      "owever": 1444,
      "rin": 1445,
      "ible": 1446,
      "lack": 1447,
      "els": 1448,
      "anwá»¥": 1449,
      "ĠFrench": 1450,
      "âĢĻ": 1451,
      "erman": 1452,
      "ĠMe": 1453,
      "Ġstud": 1454,
      "Ġ2016": 1455,
      "ko": 1456,
      "Ġagb": 1457,
      "Ġbá»¥la": 1458,
      "wará»ĭ": 1459,
      "ctor": 1460,
      "fore": 1461,
      "ered": 1462,
      "ĠCa": 1463,
      "imes": 1464,
      "ĠAká»¥": 1465,
      "ĠAss": 1466,
      "ail": 1467,
      "ather": 1468,
      "ety": 1469,
      "Ġhist": 1470,
      "Ġmmá»¥": 1471,
      "ti": 1472,
      "Ġcentury": 1473,
      "Ġthese": 1474,
      "Ġnwetara": 1475,
      "Ġ2014": 1476,
      "Ġprov": 1477,
      "enn": 1478,
      "ane": 1479,
      "mme": 1480,
      "Ġfollow": 1481,
      "Ġsur": 1482,
      "Ġnumber": 1483,
      "ically": 1484,
      "ians": 1485,
      "Ġint": 1486,
      "Ġatt": 1487,
      "Ġ2010": 1488,
      "..": 1489,
      "Ġhá»įpá»¥tara": 1490,
      "rite": 1491,
      "aná»ĭ": 1492,
      "inst": 1493,
      "Ġá»įmá»¥": 1494,
      "ange": 1495,
      "Ġá»įha": 1496,
      "led": 1497,
      "ries": 1498,
      "yn": 1499,
      "lor": 1500,
      "Ġmar": 1501,
      "Ġpeople": 1502,
      "ĠSc": 1503,
      "Ġ2017": 1504,
      "Ġ2018": 1505,
      "rab": 1506,
      "Ġmpá»¥ga": 1507,
      "gen": 1508,
      "ket": 1509,
      "á»įm": 1510,
      "my": 1511,
      "kÃł": 1512,
      "chn": 1513,
      "ually": 1514,
      "form": 1515,
      "Ġloc": 1516,
      "Ġ2011": 1517,
      "ĠSa": 1518,
      "rid": 1519,
      "ĠEl": 1520,
      "Ġgbasara": 1521,
      "ekwu": 1522,
      "Ġincluding": 1523,
      "Ġnnukwu": 1524,
      "ĠColle": 1525,
      "okpuru": 1526,
      "ĠCl": 1527,
      "Ġwell": 1528,
      "usic": 1529,
      "Ġmgbanwe": 1530,
      "Ġyana": 1531,
      "jor": 1532,
      "Ġdef": 1533,
      "Ġthem": 1534,
      "ments": 1535,
      "ĠRep": 1536,
      "alá»ĭ": 1537,
      "Ġ2012": 1538,
      "Ġche": 1539,
      "ĠGe": 1540,
      "Ġmade": 1541,
      "chite": 1542,
      "Ġlangu": 1543,
      "ograph": 1544,
      "Ġbá»įá»įlá»¥": 1545,
      "Ġbeing": 1546,
      "ĠAll": 1547,
      "Ġdiffer": 1548,
      "atic": 1549,
      "Ġagá»¥makwá»¥kwá»į": 1550,
      "way": 1551,
      "Ġwrit": 1552,
      "ility": 1553,
      "gu": 1554,
      "ĠKing": 1555,
      "Ġeff": 1556,
      "Ġsign": 1557,
      "Ġdep": 1558,
      "Ġext": 1559,
      "ery": 1560,
      "ja": 1561,
      "ĠSept": 1562,
      "Ġ2007": 1563,
      "ĠMan": 1564,
      "Ġserv": 1565,
      "já»¥": 1566,
      "oto": 1567,
      "ará»ĭa": 1568,
      "Ġnchá»ĭ": 1569,
      "unye": 1570,
      "Ġlater": 1571,
      "Ġwhile": 1572,
      "bo": 1573,
      "ep": 1574,
      "other": 1575,
      "ty": 1576,
      "ball": 1577,
      "Ġá»įgá»¥gá»¥": 1578,
      "cept": 1579,
      "pre": 1580,
      "Ġ2013": 1581,
      "ges": 1582,
      "ĠDá»ĭ": 1583,
      "Ġmon": 1584,
      "co": 1585,
      "ĠNorth": 1586,
      "erson": 1587,
      "Ġá»įkwa": 1588,
      "á»įmp": 1589,
      "ondon": 1590,
      "Ġ2020": 1591,
      "vent": 1592,
      "Ġent": 1593,
      "elf": 1594,
      "conom": 1595,
      "Ġog": 1596,
      "Ġ2009": 1597,
      "Ġthree": 1598,
      "Ġasá»¥sá»¥": 1599,
      "Ġthen": 1600,
      "á»¥zá»į": 1601,
      "com": 1602,
      "ĠOb": 1603,
      "Ġboth": 1604,
      "Ġnta": 1605,
      "Ġgroup": 1606,
      "Ġfin": 1607,
      "Ġobere": 1608,
      "ĠBar": 1609,
      "Ġspec": 1610,
      "ĠGu": 1611,
      "ich": 1612,
      "Ġaká»¥ká»¥": 1613,
      "ives": 1614,
      "Ġcalled": 1615,
      "ká»įwa": 1616,
      "Ġnka": 1617,
      "gram": 1618,
      "Ġhigh": 1619,
      "ission": 1620,
      "lished": 1621,
      "ven": 1622,
      "ulation": 1623,
      "matá»¥": 1624,
      "ident": 1625,
      "ield": 1626,
      "Ġadd": 1627,
      "Ġ&": 1628,
      "ĠAng": 1629,
      "amá»¥rá»¥": 1630,
      "ouse": 1631,
      "ham": 1632,
      "Ġnaaná»ĭ": 1633,
      "Ġbecame": 1634,
      "Ġ2008": 1635,
      "imiri": 1636,
      "199": 1637,
      "ĠLondon": 1638,
      "Ġ/": 1639,
      "ĠBen": 1640,
      "Ġá»įhá»ĭa": 1641,
      "Ġdire": 1642,
      "tÃº": 1643,
      "Ġ192": 1644,
      "Ġgba": 1645,
      "ract": 1646,
      "Ġtupu": 1647,
      "ĠNke": 1648,
      "Ġoji": 1649,
      "Ġpolit": 1650,
      "ĠAustral": 1651,
      "Ġworld": 1652,
      "do": 1653,
      "ĠPar": 1654,
      "Ġsim": 1655,
      "Ġ12": 1656,
      "ĠDis": 1657,
      "Ġcity": 1658,
      "que": 1659,
      "emede": 1660,
      "Ġkará»ĭ": 1661,
      "Ġend": 1662,
      "ĠHar": 1663,
      "Ġá»įgwá»¥": 1664,
      "Ġisii": 1665,
      "ache": 1666,
      "wara": 1667,
      "eder": 1668,
      "chiri": 1669,
      "ghachi": 1670,
      "ghá»į": 1671,
      "Ġeze": 1672,
      "ĠII": 1673,
      "Ġif": 1674,
      "Ġpar": 1675,
      "Ġcre": 1676,
      "ĠOs": 1677,
      "eries": 1678,
      "ibia": 1679,
      "Ġair": 1680,
      "xt": 1681,
      "ove": 1682,
      "oot": 1683,
      "itt": 1684,
      "zuká»į": 1685,
      "ziná»¥lá»į": 1686,
      "Ġdesc": 1687,
      "Ġbas": 1688,
      "je": 1689,
      "á»įmpi": 1690,
      "obere": 1691,
      "urch": 1692,
      "Ġearly": 1693,
      "useum": 1694,
      "Ġmain": 1695,
      "atara": 1696,
      "Ġaná»¥": 1697,
      "ague": 1698,
      "weta": 1699,
      "ĠWest": 1700,
      "Ġstate": 1701,
      "Ġdere": 1702,
      "ful": 1703,
      "ays": 1704,
      "Ġá»Ĭ": 1705,
      "Ġok": 1706,
      "Ġart": 1707,
      "za": 1708,
      "Ġnará»ĭ": 1709,
      "gest": 1710,
      "Ġá»įnwa": 1711,
      "oolu": 1712,
      "ĠKa": 1713,
      "chiche": 1714,
      "illion": 1715,
      "Ġgovernment": 1716,
      "The": 1717,
      "ðŁ": 1718,
      "Ġsm": 1719,
      "Ġinst": 1720,
      "yl": 1721,
      "Ġ14": 1722,
      "ĠGerman": 1723,
      "Ġter": 1724,
      "Ġukwuu": 1725,
      "Ġony": 1726,
      "Ġsing": 1727,
      "ps": 1728,
      "Ġpartic": 1729,
      "yd": 1730,
      "Ġnrite": 1731,
      "ature": 1732,
      "ĠCo": 1733,
      "iam": 1734,
      "Ġ2006": 1735,
      "bert": 1736,
      "ĠAnd": 1737,
      "Ġlead": 1738,
      "ator": 1739,
      "ĠBro": 1740,
      "Ġ2021": 1741,
      "ĠAká»¥ká»į": 1742,
      "ause": 1743,
      "Ġmmetá»¥ta": 1744,
      "Ġide": 1745,
      "ants": 1746,
      "ido": 1747,
      "ĠðŁ": 1748,
      "Ġmaara": 1749,
      "Ġcontin": 1750,
      "ĠPol": 1751,
      "Ġvari": 1752,
      "Ġzuru": 1753,
      "ently": 1754,
      "Ġnne": 1755,
      "Ġoper": 1756,
      "Ġá»įsá»į": 1757,
      "Ġred": 1758,
      "alth": 1759,
      "ĠEbe": 1760,
      "Ġmgbasa": 1761,
      "ĠEb": 1762,
      "Ġguzobere": 1763,
      "ived": 1764,
      "ĠCity": 1765,
      "Ġmgba": 1766,
      "ĠPri": 1767,
      "uman": 1768,
      "put": 1769,
      "Ġodide": 1770,
      "veral": 1771,
      "ony": 1772,
      "Ġá»¥bá»įchá»ĭ": 1773,
      "ines": 1774,
      "ĠNe": 1775,
      "ĠCal": 1776,
      "Ġsecond": 1777,
      "ode": 1778,
      "kpo": 1779,
      "Ġ11": 1780,
      "ĠGh": 1781,
      "reen": 1782,
      "Ġgaa": 1783,
      "ĠCollege": 1784,
      "ĠJune": 1785,
      "Ġrá»¥rá»¥": 1786,
      "sa": 1787,
      "Ġakara": 1788,
      "ross": 1789,
      "rá»ĭka": 1790,
      "Ġlong": 1791,
      "Ġpá»¥tara": 1792,
      "urg": 1793,
      "emepá»¥ta": 1794,
      "ju": 1795,
      "let": 1796,
      "Ġoften": 1797,
      "Ġexamp": 1798,
      "view": 1799,
      "Ġadá»ĭ": 1800,
      "Ġdisc": 1801,
      "vers": 1802,
      "dom": 1803,
      "egosi": 1804,
      "Ġsch": 1805,
      "ird": 1806,
      "til": 1807,
      "adá»ĭghá»ĭ": 1808,
      "ring": 1809,
      "ĠPart": 1810,
      "Ġanyanwá»¥": 1811,
      "ration": 1812,
      "Ġfilm": 1813,
      "Ġyear": 1814,
      "ccess": 1815,
      "ĠAir": 1816,
      "Ġá»¥má»¥aka": 1817,
      "Ġappe": 1818,
      "asá»ĭrá»ĭ": 1819,
      "cil": 1820,
      "ĠWill": 1821,
      "ared": 1822,
      "Ġcommon": 1823,
      "Ġatá»¥matá»¥": 1824,
      "abá»¥": 1825,
      "ĠPa": 1826,
      "Ġmed": 1827,
      "Ġlike": 1828,
      "ĠEdens": 1829,
      "Ġorigin": 1830,
      "Ġ13": 1831,
      "ox": 1832,
      "elu": 1833,
      "Ġkpá»įrá»į": 1834,
      "Ġnjem": 1835,
      "Ġiku": 1836,
      "âĢĶ": 1837,
      "Ġá»įná»įdá»¥": 1838,
      "Ġgosipá»¥tara": 1839,
      "ĠChi": 1840,
      "ĠBa": 1841,
      "gar": 1842,
      "Ġer": 1843,
      "Ġmov": 1844,
      "cl": 1845,
      "rand": 1846,
      "ilit": 1847,
      "aract": 1848,
      "lands": 1849,
      "Ġcor": 1850,
      "umn": 1851,
      "Ġwar": 1852,
      "Ġmmeká»įrá»ĭta": 1853,
      "BC": 1854,
      "ason": 1855,
      "enweghá»ĭ": 1856,
      "Ġntá»¥": 1857,
      "Ġret": 1858,
      "ahá»ĭa": 1859,
      "anda": 1860,
      "Ġfam": 1861,
      "ording": 1862,
      "Ġnsogbu": 1863,
      "cer": 1864,
      "Ġocc": 1865,
      "Ġahá»¥ike": 1866,
      "atá»¥": 1867,
      "Ġsame": 1868,
      "ki": 1869,
      "ization": 1870,
      "port": 1871,
      "sá»ĭ": 1872,
      "Ġfl": 1873,
      "Ġmeriri": 1874,
      "cient": 1875,
      "ices": 1876,
      "Ġmajor": 1877,
      "Ġome": 1878,
      "akwado": 1879,
      "Ġsiri": 1880,
      "ule": 1881,
      "iwu": 1882,
      "Ġmat": 1883,
      "Ġenweghá»ĭ": 1884,
      "Ġshe": 1885,
      "Ġconsid": 1886,
      "uthor": 1887,
      "Ġnchekwa": 1888,
      "Ġnná»į": 1889,
      "ĠMon": 1890,
      "osed": 1891,
      "king": 1892,
      "Ġnle": 1893,
      "gal": 1894,
      "ning": 1895,
      "Ġname": 1896,
      "oph": 1897,
      "iet": 1898,
      "ugust": 1899,
      "Ġown": 1900,
      "ĠChar": 1901,
      "Ġta": 1902,
      "Ġdesign": 1903,
      "ĠAlex": 1904,
      "ná»¥": 1905,
      "Ġsta": 1906,
      "Ġagainst": 1907,
      "Ã³": 1908,
      "iod": 1909,
      "ides": 1910,
      "ĠDav": 1911,
      "hazi": 1912,
      "ves": 1913,
      "ĠChina": 1914,
      "ĠRuss": 1915,
      "iter": 1916,
      "ival": 1917,
      "ĠMuseum": 1918,
      "Ġedemede": 1919,
      "ĠFrance": 1920,
      "Ġnweta": 1921,
      "Ġmmemme": 1922,
      "Ãº": 1923,
      "10": 1924,
      "ĠMed": 1925,
      "Ġcountry": 1926,
      "Ġcould": 1927,
      "ner": 1928,
      "Ġbro": 1929,
      "oon": 1930,
      "Ġlaw": 1931,
      "Ġcharact": 1932,
      "ticles": 1933,
      "tÃ¹": 1934,
      "Ġ2005": 1935,
      "Ġincre": 1936,
      "Ġnkuzi": 1937,
      "Ġngalaba": 1938,
      "Ġmara": 1939,
      "ĠRepublic": 1940,
      "Ġwill": 1941,
      "Ġbefore": 1942,
      "ĠAfrá»ĭka": 1943,
      "air": 1944,
      "Ġbuil": 1945,
      "ĠArab": 1946,
      "Ġfour": 1947,
      "orts": 1948,
      "ĠEdensibia": 1949,
      "Ġeji": 1950,
      "Ġsince": 1951,
      "Ġikuku": 1952,
      "ĠNn": 1953,
      "Ġcap": 1954,
      "aná»¥": 1955,
      "Ġsmall": 1956,
      "Ġrema": 1957,
      "icial": 1958,
      "ving": 1959,
      "mar": 1960,
      "estern": 1961,
      "adem": 1962,
      "esá»ĭrá»ĭ": 1963,
      "though": 1964,
      "su": 1965,
      "ĠInstit": 1966,
      "Ġmechara": 1967,
      "ĠAkwá»¥kwá»į": 1968,
      "kwe": 1969,
      "ĠUnion": 1970,
      "ĠHist": 1971,
      "ches": 1972,
      "ĠAc": 1973,
      "ĠJen": 1974,
      "Ġseveral": 1975,
      "Ġojii": 1976,
      "Ġdifferent": 1977,
      "ĠBer": 1978,
      "Ġland": 1979,
      "Ġsay": 1980,
      "Ġkará»ĭrá»ĭ": 1981,
      "pend": 1982,
      "ght": 1983,
      "kpá»¥": 1984,
      "Ġmegide": 1985,
      "ruct": 1986,
      "ott": 1987,
      "ĠCong": 1988,
      "ĠPl": 1989,
      "ively": 1990,
      "iver": 1991,
      "Ġeach": 1992,
      "Ġpublic": 1993,
      "Ġ$": 1994,
      "ili": 1995,
      "Ġ2000": 1996,
      ".,": 1997,
      "á¹": 1998,
      "raft": 1999,
      "Ġkacha": 2000,
      "ole": 2001,
      "Ġugwu": 2002,
      "ĠGhana": 2003,
      "ords": 2004,
      "ani": 2005,
      "nke": 2006,
      "ĠMor": 2007,
      "Ġazá»¥ma": 2008,
      "di": 2009,
      "Ġasaa": 2010,
      "itions": 2011,
      "get": 2012,
      "kÃ¨": 2013,
      "oss": 2014,
      "ows": 2015,
      "bit": 2016,
      "omin": 2017,
      "ĠThere": 2018,
      "ĠHowever": 2019,
      "Ġbecause": 2020,
      "Ġorgan": 2021,
      "nyÃ©": 2022,
      "Ġinclude": 2023,
      "Ġghá»įrá»į": 2024,
      "Ġexample": 2025,
      "ulture": 2026,
      "Ġnwá»¥rá»¥": 2027,
      "rol": 2028,
      "oy": 2029,
      "anu": 2030,
      "Ġnwee": 2031,
      "ged": 2032,
      "Ar": 2033,
      "val": 2034,
      "Ġemp": 2035,
      "ired": 2036,
      "Ġole": 2037,
      "á»¥á»į": 2038,
      "á»¥sá»ĭrá»ĭ": 2039,
      "pen": 2040,
      "Ġuntil": 2041,
      "Ġlarge": 2042,
      "au": 2043,
      "ĠSw": 2044,
      "resent": 2045,
      "ided": 2046,
      "attle": 2047,
      "ĠSteeti": 2048,
      "ull": 2049,
      "ised": 2050,
      "Ġsupport": 2051,
      "Ġasá»įmpi": 2052,
      "Ġ2004": 2053,
      "ouncil": 2054,
      "achá»ĭ": 2055,
      "ĠGree": 2056,
      "17": 2057,
      "ret": 2058,
      "ister": 2059,
      "par": 2060,
      "Ġkwá»¥": 2061,
      "ĠAugust": 2062,
      "Ġtrad": 2063,
      "Ġeffect": 2064,
      "ec": 2065,
      "ĠShe": 2066,
      "bon": 2067,
      "ĠMay": 2068,
      "Ġvi": 2069,
      "ril": 2070,
      "lay": 2071,
      "Ġfun": 2072,
      "Ġequ": 2073,
      "Ġins": 2074,
      "apan": 2075,
      "Ġperiod": 2076,
      "ĠGeor": 2077,
      "kpá»¥rá»¥": 2078,
      "kee": 2079,
      "ĠRoman": 2080,
      "Ġestab": 2081,
      "aká»¥ká»¥": 2082,
      "ried": 2083,
      "Ġcommun": 2084,
      "bá»ĭa": 2085,
      "uli": 2086,
      "Ġozu": 2087,
      "Ġuwe": 2088,
      "198": 2089,
      "ĠÃ²": 2090,
      "50": 2091,
      "Ġkará»ĭa": 2092,
      "Ġbook": 2093,
      "eth": 2094,
      "ĠAg": 2095,
      "ander": 2096,
      "ified": 2097,
      "ĠBel": 2098,
      "Ġ1990": 2099,
      "Ġana": 2100,
      "mon": 2101,
      "ocial": 2102,
      "row": 2103,
      "ĠBu": 2104,
      "Ġá»ĭgba": 2105,
      "rew": 2106,
      "Ġkem": 2107,
      "Ġeziná»¥lá»į": 2108,
      "Ġosimiri": 2109,
      "Ġsá»ĭ": 2110,
      "Ġasatá»į": 2111,
      "ological": 2112,
      "ĠChe": 2113,
      "rum": 2114,
      "esi": 2115,
      "Ġechiche": 2116,
      "abere": 2117,
      "ript": 2118,
      "Ġsuccess": 2119,
      "ef": 2120,
      "Ġ2003": 2121,
      "ĠCanada": 2122,
      "ĠAcc": 2123,
      "Ġá»ĭzá»¥": 2124,
      "line": 2125,
      "Ġclass": 2126,
      "Ġrefer": 2127,
      "pect": 2128,
      "Ġpat": 2129,
      "Ġval": 2130,
      "ĠX": 2131,
      "Ġará»¥": 2132,
      "ista": 2133,
      "Ġdeath": 2134,
      "ĠBC": 2135,
      "Ġinclud": 2136,
      "Ġresult": 2137,
      "ĠIgbo": 2138,
      "Ġelect": 2139,
      "Ġkwuo": 2140,
      "ĠPet": 2141,
      "Ġpower": 2142,
      "ody": 2143,
      "work": 2144,
      "ĠJapan": 2145,
      "aá»ĭ": 2146,
      "akwá»¥kwá»į": 2147,
      "Ġ190": 2148,
      "ĠOtu": 2149,
      "ĠBlack": 2150,
      "Ġmetá»¥tara": 2151,
      "ĠJená»¥": 2152,
      "ĠEast": 2153,
      "iness": 2154,
      "ĠEngland": 2155,
      "Ġid": 2156,
      "uku": 2157,
      "ats": 2158,
      "rodu": 2159,
      "Ġanyá»ĭ": 2160,
      "ining": 2161,
      "Ġeconom": 2162,
      "aster": 2163,
      "Ġback": 2164,
      "ize": 2165,
      "ĠÃ³nyÃ©": 2166,
      "Ġá»ĭn": 2167,
      "Ġimport": 2168,
      "ĠMme": 2169,
      "ĠBra": 2170,
      "ĠMee": 2171,
      "lect": 2172,
      "Ġtr": 2173,
      "Ġgu": 2174,
      "egwu": 2175,
      "ootball": 2176,
      "ĠCor": 2177,
      "idd": 2178,
      "Ġenye": 2179,
      "ĠWilliam": 2180,
      "Ġrad": 2181,
      "ociety": 2182,
      "uche": 2183,
      "Ġaround": 2184,
      "ourt": 2185,
      "ĠOk": 2186,
      "Ġtransl": 2187,
      "ensá»ĭ": 2188,
      "ilitary": 2189,
      "depend": 2190,
      "ĠEuropean": 2191,
      "Ġbá»¥kwa": 2192,
      "Ġrequ": 2193,
      "ĠLeague": 2194,
      "Ġlanguage": 2195,
      "olution": 2196,
      "Ġcur": 2197,
      "Ġauthor": 2198,
      "Ġnakwa": 2199,
      "ness": 2200,
      "ĠInstitute": 2201,
      "Ġpopulation": 2202,
      "iber": 2203,
      "ban": 2204,
      "ĠHer": 2205,
      "Ġbá»ĭ": 2206,
      "ĠSan": 2207,
      "ĠAla": 2208,
      "ĠJená»¥wará»ĭ": 2209,
      "Ġlife": 2210,
      "Ġ30": 2211,
      "ĠBritain": 2212,
      "á»¥kwa": 2213,
      "ots": 2214,
      "Ġmmá»¥ta": 2215,
      "Ġugbo": 2216,
      "by": 2217,
      "ĠDem": 2218,
      "Ġmusic": 2219,
      "Ġthough": 2220,
      "Ġmkpá»¥rá»¥": 2221,
      "Ġmmeri": 2222,
      "ius": 2223,
      "Ġprogram": 2224,
      "Ġrele": 2225,
      "Ġmmepe": 2226,
      "kpá»į": 2227,
      "orm": 2228,
      "ĠAfter": 2229,
      "ases": 2230,
      "gboro": 2231,
      "az": 2232,
      "ĠParty": 2233,
      "ple": 2234,
      "Ġsonye": 2235,
      "Ġiwe": 2236,
      "ica": 2237,
      "eneral": 2238,
      "ermany": 2239,
      "Ġ0": 2240,
      "á»įká»¥": 2241,
      "Ġmmepá»¥ta": 2242,
      "Ġref": 2243,
      "Ġmmeká»į": 2244,
      "Ġezie": 2245,
      "bara": 2246,
      "Ġá»¥gwá»į": 2247,
      "Ġbased": 2248,
      "aly": 2249,
      "Ġprocess": 2250,
      "ĠOl": 2251,
      "Ġseries": 2252,
      "Ġarea": 2253,
      "á¹ħ": 2254,
      "Ġnji": 2255,
      "eche": 2256,
      "Ġperson": 2257,
      "Ġdid": 2258,
      "adoro": 2259,
      "Ġá»¥ba": 2260,
      "Ġcontinu": 2261,
      "ĠNdá»¥": 2262,
      "chá»į": 2263,
      "Ġnon": 2264,
      "ĠIndia": 2265,
      "Ġfoto": 2266,
      "ĠNov": 2267,
      "ĠBy": 2268,
      "Ġteam": 2269,
      "ĠFe": 2270,
      "uta": 2271,
      "ography": 2272,
      "ington": 2273,
      "Ġgá»¥sá»ĭrá»ĭ": 2274,
      "Ġconst": 2275,
      "Ġmillion": 2276,
      "Ġmmalite": 2277,
      "Ġagba": 2278,
      "Ġmmaná»¥": 2279,
      "Ġthose": 2280,
      "Ġnkwado": 2281,
      "ternal": 2282,
      "zere": 2283,
      "Ġusing": 2284,
      "Ġconf": 2285,
      "Ġ1999": 2286,
      "Ġ1980": 2287,
      "ociation": 2288,
      "Ġappro": 2289,
      "ĠThey": 2290,
      "Ġterm": 2291,
      "ĠGermany": 2292,
      "ĠWomen": 2293,
      "cience": 2294,
      "Ġdiv": 2295,
      "zie": 2296,
      "ĠWal": 2297,
      "Ġstr": 2298,
      "ĠDisemba": 2299,
      "Ġnkwe": 2300,
      "ĠSec": 2301,
      "rict": 2302,
      "12": 2303,
      "pace": 2304,
      "16": 2305,
      "Ġamong": 2306,
      "Ġposs": 2307,
      "Ġ:": 2308,
      "Ġ2001": 2309,
      "Ġear": 2310,
      "ĠBas": 2311,
      "Ġmodern": 2312,
      "ologo": 2313,
      "ĠEmp": 2314,
      "ĠArts": 2315,
      "Ġah": 2316,
      "ones": 2317,
      "Ġá»įmá»¥má»¥": 2318,
      "eto": 2319,
      "Ġplayer": 2320,
      "Ġpub": 2321,
      "Ġann": 2322,
      "yal": 2323,
      "gn": 2324,
      "ately": 2325,
      "usiness": 2326,
      "Ġorder": 2327,
      "men": 2328,
      "Ġ100": 2329,
      "Ġwater": 2330,
      "embers": 2331,
      "Ġinflu": 2332,
      "aná»į": 2333,
      "ocr": 2334,
      "Ġmkpo": 2335,
      "ories": 2336,
      "Ġstat": 2337,
      "Ġuru": 2338,
      "ament": 2339,
      "iving": 2340,
      "laim": 2341,
      "Ġonyinye": 2342,
      "ĠComp": 2343,
      "day": 2344,
      "ality": 2345,
      "eng": 2346,
      "Ġeven": 2347,
      "agá»¥": 2348,
      "Ġnkweká»įrá»ĭta": 2349,
      "orthern": 2350,
      "ĠWh": 2351,
      "Ġbegan": 2352,
      "rian": 2353,
      "ĠEm": 2354,
      "ĠCentral": 2355,
      "ĠCouncil": 2356,
      "ids": 2357,
      "ĠSeptemba": 2358,
      "ended": 2359,
      "idi": 2360,
      "Ġikpeazá»¥": 2361,
      "astern": 2362,
      "Ġim": 2363,
      "obi": 2364,
      "urther": 2365,
      "ca": 2366,
      "Ġ2002": 2367,
      "bia": 2368,
      "lub": 2369,
      "ung": 2370,
      "Ġ2022": 2371,
      "maka": 2372,
      "uba": 2373,
      "ĠIb": 2374,
      "ĠEs": 2375,
      "ured": 2376,
      "Ġohere": 2377,
      "15": 2378,
      "ets": 2379,
      "Ġrun": 2380,
      "itii": 2381,
      "ula": 2382,
      "Ġugboro": 2383,
      "ĠThese": 2384,
      "ĠSite": 2385,
      "ourn": 2386,
      "ense": 2387,
      "bum": 2388,
      "Ġmuch": 2389,
      "Ġosise": 2390,
      "á»įvan": 2391,
      "esearch": 2392,
      "ubo": 2393,
      "Ġnrá»¥": 2394,
      "ĠSome": 2395,
      "ĠFeder": 2396,
      "ĠUs": 2397,
      "Ġvers": 2398,
      "Ġpass": 2399,
      "ille": 2400,
      "Ġcharacter": 2401,
      "Ġmepá»¥tara": 2402,
      "onwe": 2403,
      "cing": 2404,
      "Ġwithin": 2405,
      "bipá»¥ta": 2406,
      "ĠSy": 2407,
      "Ġ21": 2408,
      "yle": 2409,
      "ĠDavid": 2410,
      "gypt": 2411,
      "ria": 2412,
      "Ġbá»¥bu": 2413,
      "Ġstand": 2414,
      "á»įvaná»į": 2415,
      "Ġatta": 2416,
      "cto": 2417,
      "Ġnwunye": 2418,
      "Ġtechn": 2419,
      "197": 2420,
      "omá»įká»¥": 2421,
      "Ġibe": 2422,
      "burg": 2423,
      "Ġprop": 2424,
      "ĠBal": 2425,
      "Ġtem": 2426,
      "Ġkwadoro": 2427,
      "Ġfollowing": 2428,
      "lam": 2429,
      "oint": 2430,
      "Ġdue": 2431,
      "ĠChurch": 2432,
      "hips": 2433,
      "ĠHol": 2434,
      "Ġhistor": 2435,
      "ĠCount": 2436,
      "osp": 2437,
      "amara": 2438,
      "iron": 2439,
      "imate": 2440,
      "Ġexper": 2441,
      "itional": 2442,
      "of": 2443,
      "Ġgasá»ĭrá»ĭ": 2444,
      "hes": 2445,
      "Ġpuku": 2446,
      "ential": 2447,
      "atin": 2448,
      "Ġpá»¥rá»¥": 2449,
      "Ġ25": 2450,
      "iven": 2451,
      "Ġrecord": 2452,
      "ampions": 2453,
      "af": 2454,
      "ler": 2455,
      "gá»į": 2456,
      "Ġá»¥ka": 2457,
      "ateg": 2458,
      "Ġneed": 2459,
      "Ġdata": 2460,
      "anne": 2461,
      "Ġnh": 2462,
      "Ġlin": 2463,
      "ĠChristian": 2464,
      "tt": 2465,
      "Ġtyp": 2466,
      "amer": 2467,
      "outhern": 2468,
      "ivil": 2469,
      "á»¥wa": 2470,
      "ford": 2471,
      "prel": 2472,
      "lan": 2473,
      "used": 2474,
      "14": 2475,
      "Ġopp": 2476,
      "Ġchá»įrá»į": 2477,
      "Ġafo": 2478,
      "less": 2479,
      "Ġjiri": 2480,
      "ĠAustralia": 2481,
      "Ġ1970": 2482,
      "Ġbelie": 2483,
      "ĠBook": 2484,
      "Ġtak": 2485,
      "elata": 2486,
      "uf": 2487,
      "Ġpopular": 2488,
      "Ġ1960": 2489,
      "ĠKingdom": 2490,
      "Ġschool": 2491,
      "ĠPress": 2492,
      "Ġitoolu": 2493,
      "Ġrece": 2494,
      "ope": 2495,
      "ctober": 2496,
      "ĠNá»į": 2497,
      "Ġetiti": 2498,
      "Ġsayensá»ĭ": 2499,
      "itu": 2500,
      "Ġochie": 2501,
      "Ġ189": 2502,
      "ĠIwu": 2503,
      "ĠGl": 2504,
      "ĠGeneral": 2505,
      "ray": 2506,
      "Ġnzuká»į": 2507,
      "craft": 2508,
      "Ġnow": 2509,
      "ikpe": 2510,
      "Ġnzere": 2511,
      "Ġvery": 2512,
      "ĠMgb": 2513,
      "ĠAk": 2514,
      "Ġcomput": 2515,
      "Ġá»¥má»¥n": 2516,
      "ician": 2517,
      "ĠEgypt": 2518,
      "ĠGro": 2519,
      "Ġnduzi": 2520,
      "ched": 2521,
      "ior": 2522,
      "ious": 2523,
      "anish": 2524,
      "ert": 2525,
      "Ġazá»¥mahá»ĭa": 2526,
      "ĠEprel": 2527,
      "á»įtá»¥tá»¥": 2528,
      "Ġtri": 2529,
      "olic": 2530,
      "Ġshow": 2531,
      "wanye": 2532,
      "iforn": 2533,
      "etinye": 2534,
      "Ġled": 2535,
      "umnuche": 2536,
      "Ġhome": 2537,
      "Ġhistory": 2538,
      "ĠStud": 2539,
      "Ġdem": 2540,
      "Ġdeb": 2541,
      "Ġstill": 2542,
      "ĠÃ¡": 2543,
      "Ġá»įcha": 2544,
      "ino": 2545,
      "ĠBank": 2546,
      "Ġalong": 2547,
      "Ġá»įla": 2548,
      "ĠOne": 2549,
      "Cards": 2550,
      "tal": 2551,
      "13": 2552,
      "ĠhCards": 2553,
      "ĠHá»¥kwa": 2554,
      "ĠPhil": 2555,
      "ĠSm": 2556,
      "ĠUK": 2557,
      "ĠDay": 2558,
      "ĠGall": 2559,
      "ĠMc": 2560,
      "ĠUN": 2561,
      "Ġresp": 2562,
      "Ġallow": 2563,
      "ĠNá»įv": 2564,
      "viron": 2565,
      "Ġá»Įk": 2566,
      "ling": 2567,
      "Ġez": 2568,
      "reed": 2569,
      "Ġnchá»ĭká»įta": 2570,
      "Ġbo": 2571,
      "Ġda": 2572,
      "Ġpresent": 2573,
      "cip": 2574,
      "Ġmembers": 2575,
      "ney": 2576,
      "Ġav": 2577,
      "Ġread": 2578,
      "ĠPe": 2579,
      "Ġndeká»į": 2580,
      "Ġagbá»¥rá»¥": 2581,
      "tá»ĭ": 2582,
      "ĠNá»įvemba": 2583,
      "ĠMba": 2584,
      "onye": 2585,
      "Ġopen": 2586,
      "ĠAssociation": 2587,
      "Ġá»¥da": 2588,
      "Ġcomb": 2589,
      "Ġreturn": 2590,
      "ridge": 2591,
      "zer": 2592,
      "Ġfact": 2593,
      "ĠHis": 2594,
      "á»ĭta": 2595,
      "enwe": 2596,
      "ĠDec": 2597,
      "Ġuche": 2598,
      "ĠNet": 2599,
      "Ġconsidered": 2600,
      "ĠAct": 2601,
      "ĠJuly": 2602,
      "Ġeng": 2603,
      "ĠBr": 2604,
      "ilar": 2605,
      "Ġnational": 2606,
      "SA": 2607,
      "mes": 2608,
      "Ġgeneral": 2609,
      "ĠTa": 2610,
      "ĠCont": 2611,
      "vision": 2612,
      "ĠFeb": 2613,
      "ĠGod": 2614,
      "ida": 2615,
      "ĠDes": 2616,
      "ĠMu": 2617,
      "ems": 2618,
      "ĠCaliforn": 2619,
      "Ġvis": 2620,
      "ĠMi": 2621,
      "ĠOtÃº": 2622,
      "ĠReg": 2623,
      "Ġshort": 2624,
      "Ġokpomá»įká»¥": 2625,
      "pecial": 2626,
      "Ġá»ĭga": 2627,
      "ming": 2628,
      "ĠNde": 2629,
      "Ġogologo": 2630,
      "á¹ħá»¥": 2631,
      "ĠSam": 2632,
      "toba": 2633,
      "uel": 2634,
      "bab": 2635,
      "Ġbipá»¥tara": 2636,
      "Ġntuli": 2637,
      "ĠOther": 2638,
      "ĠSha": 2639,
      "Ġhig": 2640,
      "uchi": 2641,
      "ĠHigh": 2642,
      "Ġomeiwu": 2643,
      "ites": 2644,
      "ĠBur": 2645,
      "Ġ24": 2646,
      "wá»¥wa": 2647,
      "Ġcrit": 2648,
      "xic": 2649,
      "Ġnchá»ĭkwa": 2650,
      "ultural": 2651,
      "cle": 2652,
      "Ġprote": 2653,
      "ĠTV": 2654,
      "Ġá»ĭbá»¥": 2655,
      "chamara": 2656,
      "ĠHistory": 2657,
      "ĠGreek": 2658,
      "Ġrepresent": 2659,
      "ĠmÃł": 2660,
      "Ġá»įdá»ĭn": 2661,
      "ĠTur": 2662,
      "ĠCalifornia": 2663,
      "Af": 2664,
      "Ġhand": 2665,
      "Ġparticular": 2666,
      "ĠJulaá»ĭ": 2667,
      "reg": 2668,
      "Ġconc": 2669,
      "Ġline": 2670,
      "á»ĭn": 2671,
      "Ġchild": 2672,
      "kes": 2673,
      "ĠAwards": 2674,
      "beghá»ĭ": 2675,
      "Ġtele": 2676,
      "ting": 2677,
      "ĠSen": 2678,
      "Ġhuman": 2679,
      "ources": 2680,
      "Ġ1998": 2681,
      "Ġlast": 2682,
      "wood": 2683,
      "rap": 2684,
      "ĠâĢ": 2685,
      "ĠAcadem": 2686,
      "Ġdescrib": 2687,
      "Ġsho": 2688,
      "Articles": 2689,
      "Ġnear": 2690,
      "ald": 2691,
      "Ġold": 2692,
      "Ġimportant": 2693,
      "ishá»įn": 2694,
      "hod": 2695,
      "Ġpa": 2696,
      "ights": 2697,
      "lement": 2698,
      "Ġ||": 2699,
      "Ġphys": 2700,
      "istic": 2701,
      "Ġsol": 2702,
      "ĠCha": 2703,
      "Ġest": 2704,
      "Ġfil": 2705,
      "ĠNations": 2706,
      "Ã¼": 2707,
      "Ġmilitary": 2708,
      "ĠNo": 2709,
      "ĠMus": 2710,
      "ĠHouse": 2711,
      "Ġgame": 2712,
      "Ġwepá»¥tara": 2713,
      "ĠBBC": 2714,
      "Ġless": 2715,
      "Ġpoint": 2716,
      "Ġaff": 2717,
      "Ġkemgbe": 2718,
      "formation": 2719,
      "ĠEar": 2720,
      "Ġhead": 2721,
      "Ġcolle": 2722,
      "Ġsl": 2723,
      "Ġá»įmá»¥ma": 2724,
      "ĠSociety": 2725,
      "ĠYa": 2726,
      "xim": 2727,
      "Ġvarious": 2728,
      "Ġnjiká»į": 2729,
      "Ġrest": 2730,
      "gara": 2731,
      "vironment": 2732,
      "Ġplace": 2733,
      "ĠPres": 2734,
      "ige": 2735,
      "inyere": 2736,
      "Ġnet": 2737,
      "Ġattack": 2738,
      "inc": 2739,
      "illa": 2740,
      "alf": 2741,
      "Ġgo": 2742,
      "Ġgreat": 2743,
      "Ġwin": 2744,
      "ĠCape": 2745,
      "oma": 2746,
      "Ġspecies": 2747,
      "Ġprof": 2748,
      "ferences": 2749,
      "Ġá»¥kpá»¥rá»¥": 2750,
      "Ġbl": 2751,
      "ĠPaul": 2752,
      "ering": 2753,
      "ĠFin": 2754,
      "Ġgá»ĭ": 2755,
      "ĠOctober": 2756,
      "ĠWestern": 2757,
      "atter": 2758,
      "abalá»ĭ": 2759,
      "Ġá»įdá»ĭda": 2760,
      "Ġcha": 2761,
      "Ġdet": 2762,
      "mad": 2763,
      "Ġ1996": 2764,
      "ziri": 2765,
      "eliv": 2766,
      "ochi": 2767,
      "Ġndá»ĭda": 2768,
      "urs": 2769,
      "ware": 2770,
      "ĠPr": 2771,
      "Ġsignific": 2772,
      "Ġá»Įktoba": 2773,
      "Ġcountries": 2774,
      "Ġdevelopment": 2775,
      "á»¥bá»įchá»ĭ": 2776,
      "anyeghá»ĭ": 2777,
      "ĠMarch": 2778,
      "ergy": 2779,
      "Ġformer": 2780,
      "ĠKen": 2781,
      "bor": 2782,
      "ĠPre": 2783,
      "ĠParis": 2784,
      "Ġdirect": 2785,
      "ĠMo": 2786,
      "estival": 2787,
      "mb": 2788,
      "Ġwhat": 2789,
      "ĠChampions": 2790,
      "ghi": 2791,
      "Ġfamily": 2792,
      "Ġgá»¥rá»¥": 2793,
      "raá»ĭ": 2794,
      "iddle": 2795,
      "ĠÃ²tÃ¹": 2796,
      "á»Į": 2797,
      "Ġpract": 2798,
      "Ġident": 2799,
      "ribut": 2800,
      "Ġnjikwa": 2801,
      "read": 2802,
      "Ġsaid": 2803,
      "ĠRes": 2804,
      "Ġpolitical": 2805,
      "ĠMal": 2806,
      "Ġclaim": 2807,
      "DP": 2808,
      "Ġfootball": 2809,
      "achá»į": 2810,
      "Ġá»įbá»¥": 2811,
      "ournal": 2812,
      "Ġ1994": 2813,
      "Ġmult": 2814,
      "ency": 2815,
      "ither": 2816,
      "ĠSte": 2817,
      "ghachiri": 2818,
      "Ġ1997": 2819,
      "ano": 2820,
      "aria": 2821,
      "Ġofficial": 2822,
      "obodo": 2823,
      "Ġstart": 2824,
      "las": 2825,
      "ĠOff": 2826,
      "Ġenyemaka": 2827,
      "gwÃ¨": 2828,
      "30": 2829,
      "ĠDa": 2830,
      "Ġlargest": 2831,
      "Ġobs": 2832,
      "Ġitinye": 2833,
      "ĠChin": 2834,
      "Ġsimilar": 2835,
      "ĠKá»įm": 2836,
      "Ġalbum": 2837,
      "kpa": 2838,
      "Ġfeat": 2839,
      "idere": 2840,
      "Ġnhazi": 2841,
      "ĠotÃº": 2842,
      "Ġfield": 2843,
      "ĠCro": 2844,
      "istry": 2845,
      "ij": 2846,
      "ĠEbens": 2847,
      "ths": 2848,
      "ental": 2849,
      "Ġmmasá»ĭ": 2850,
      "Ġanother": 2851,
      "ĠokÃ©": 2852,
      "ĠJu": 2853,
      "Ġindust": 2854,
      "ĠDuring": 2855,
      "ĠCongress": 2856,
      "Ġlim": 2857,
      "ĠCommun": 2858,
      "ĠLaw": 2859,
      "ogn": 2860,
      "Ġ1992": 2861,
      "enyere": 2862,
      "Ġpublished": 2863,
      "Ġâ": 2864,
      "Ġá»įkachamara": 2865,
      "Ġlate": 2866,
      "196": 2867,
      "Ġá»ĭdá»ĭ": 2868,
      "Ġcarbon": 2869,
      "Ġstruct": 2870,
      "ends": 2871,
      "ĠCenter": 2872,
      "Ġlocal": 2873,
      "ruary": 2874,
      "ops": 2875,
      "ruction": 2876,
      "11": 2877,
      "rÃ¨": 2878,
      "ĠKh": 2879,
      "Ġevery": 2880,
      "Ġkill": 2881,
      "rael": 2882,
      "ocratic": 2883,
      "pl": 2884,
      "ĠGallery": 2885,
      "rote": 2886,
      "Ġ188": 2887,
      "Ġleft": 2888,
      "anuary": 2889,
      "rá»¥n": 2890,
      "berg": 2891,
      "Ġmake": 2892,
      "Ġbecome": 2893,
      "ush": 2894,
      "Ġlevel": 2895,
      "ĠQu": 2896,
      "ĠFound": 2897,
      "Ġproper": 2898,
      "Ġregion": 2899,
      "Ġwithout": 2900,
      "Ġ)": 2901,
      "ĠJe": 2902,
      "ĠApp": 2903,
      "ĠAccording": 2904,
      "key": 2905,
      "Ġdown": 2906,
      "Ġgiven": 2907,
      "ĠÃŃ": 2908,
      "oung": 2909,
      "Ġomen": 2910,
      "Ġ1995": 2911,
      "Ġpá»¥": 2912,
      "Ġdeveloped": 2913,
      "á»ĭtá»ĭ": 2914,
      "ĠJames": 2915,
      "ĠWe": 2916,
      "Ġseká»į": 2917,
      "Ġosote": 2918,
      "Ġsingle": 2919,
      "Ġreport": 2920,
      "Ġ22": 2921,
      "Ġcal": 2922,
      "ĠMod": 2923,
      "ĠSeptember": 2924,
      "ĠPer": 2925,
      "Ġstates": 2926,
      "Ġanim": 2927,
      "já»¥já»¥": 2928,
      "Ġactiv": 2929,
      "ĠPeople": 2930,
      "Ġlá»¥rá»¥": 2931,
      "lymp": 2932,
      "Ġcond": 2933,
      "obal": 2934,
      "Ġ1993": 2935,
      "ĠMad": 2936,
      "cts": 2937,
      "Ġdisp": 2938,
      "Ġvo": 2939,
      "Ġmen": 2940,
      "Ġvol": 2941,
      "Ġokpu": 2942,
      "ĠGeorge": 2943,
      "Ġpe": 2944,
      "obe": 2945,
      "ders": 2946,
      "ĠTr": 2947,
      "Ġgen": 2948,
      "ĠFilm": 2949,
      "side": 2950,
      "Ġperfor": 2951,
      "kwasá»ĭ": 2952,
      "ĠÃ¬": 2953,
      "Ġcontrol": 2954,
      "ĠUg": 2955,
      "Ġfew": 2956,
      "Ġintrodu": 2957,
      "Ġday": 2958,
      "aterial": 2959,
      "ĠOg": 2960,
      "ĠOlymp": 2961,
      "Ġrelig": 2962,
      "ĠPat": 2963,
      "Ġ(\"": 2964,
      "Ġtook": 2965,
      "va": 2966,
      "Ġestablished": 2967,
      "ĠFebruary": 2968,
      "ĠAcademy": 2969,
      "ĠAbu": 2970,
      "ebi": 2971,
      "á»įk": 2972,
      "idence": 2973,
      "ky": 2974,
      "idee": 2975,
      "ollo": 2976,
      "ĠApril": 2977,
      "ĠPark": 2978,
      "ĠThom": 2979,
      "ĠJanuary": 2980,
      "ĠBekee": 2981,
      "ona": 2982,
      "ĠTrans": 2983,
      "ways": 2984,
      "ĠGá»įá»įmentá»ĭ": 2985,
      "ests": 2986,
      "Ġmmeká»įahá»¥": 2987,
      "Ġtit": 2988,
      "ĠCons": 2989,
      "ĠReferences": 2990,
      "ĠBud": 2991,
      "Ġruru": 2992,
      "Ġlow": 2993,
      "ĠWash": 2994,
      "ĠJew": 2995,
      "Ġinvol": 2996,
      "ĠWhen": 2997,
      "Ġ1991": 2998,
      "bers": 2999,
      "ĠNor": 3000,
      "ĠBi": 3001,
      "Ġá»įdá»ĭnala": 3002,
      "ĠGreen": 3003,
      "ĠDel": 3004,
      ");": 3005,
      "dá»į": 3006,
      "iaka": 3007,
      "ĠmÃłkÃł": 3008,
      "jo": 3009,
      "lim": 3010,
      "Ġseká»įnd": 3011,
      "chá»įpá»¥ta": 3012,
      "Ġfar": 3013,
      "Ġevent": 3014,
      "Ġview": 3015,
      "Ġusually": 3016,
      "Ġmkpofu": 3017,
      "ead": 3018,
      "ĠMachá»ĭ": 3019,
      "ues": 3020,
      "Ġheld": 3021,
      "minist": 3022,
      "ĠDecember": 3023,
      "utch": 3024,
      "ĠAh": 3025,
      "Ġincluded": 3026,
      "Ġsignificant": 3027,
      "Ġexist": 3028,
      "ivid": 3029,
      "Ġ23": 3030,
      "ĠDevelop": 3031,
      "istan": 3032,
      "Ġleg": 3033,
      "icro": 3034,
      "ĠSup": 3035,
      "Ġhel": 3036,
      "Ġchang": 3037,
      "ĠGreat": 3038,
      "=\"": 3039,
      "ĠQue": 3040,
      "Ġrul": 3041,
      "wards": 3042,
      "ĠWashington": 3043,
      "Ġindepend": 3044,
      "ype": 3045,
      "Ġize": 3046,
      "acha": 3047,
      "arian": 3048,
      "ĠSim": 3049,
      "Ġhowever": 3050,
      "Ġbá»¥ghá»ĭ": 3051,
      "iction": 3052,
      "stitut": 3053,
      "oms": 3054,
      "ena": 3055,
      "Ġcell": 3056,
      "Ġ186": 3057,
      "most": 3058,
      "ĠRiver": 3059,
      "Ġnwanne": 3060,
      "ĠÃ³kÃ¨": 3061,
      "FA": 3062,
      "Ġant": 3063,
      "Ġway": 3064,
      "Ġebubo": 3065,
      "ydro": 3066,
      "Ġmean": 3067,
      "ĠLu": 3068,
      "rain": 3069,
      "hile": 3070,
      "anet": 3071,
      "rated": 3072,
      "ira": 3073,
      "Ġjust": 3074,
      "Ġgrow": 3075,
      "Ġband": 3076,
      "Ġeduc": 3077,
      "ĠLou": 3078,
      "ĠRoyal": 3079,
      "ĠCharles": 3080,
      "Ġweb": 3081,
      "ention": 3082,
      "ĠGroup": 3083,
      "Ġnorth": 3084,
      "ker": 3085,
      "ben": 3086,
      "zil": 3087,
      "itive": 3088,
      "Ġsonyeere": 3089,
      "Ġá»įkÃł": 3090,
      "Ġakpá»įrá»į": 3091,
      "cul": 3092,
      "ĠLatin": 3093,
      "Ġproduction": 3094,
      "gá»įst": 3095,
      "Ġbuilding": 3096,
      "Ã¶": 3097,
      "Ġge": 3098,
      "Ġ50": 3099,
      "aries": 3100,
      "Ġá»¤má»¥": 3101,
      "Ġnamed": 3102,
      "Ġder": 3103,
      "Ġgas": 3104,
      "ĠTo": 3105,
      "ĠNw": 3106,
      "Ġlanguages": 3107,
      "Ġprin": 3108,
      "sh": 3109,
      "ination": 3110,
      "Ġareas": 3111,
      "Ġfunction": 3112,
      "mo": 3113,
      "ago": 3114,
      "Ġmalite": 3115,
      "ĠMart": 3116,
      "Ġnná»įchi": 3117,
      "Ã¹": 3118,
      "Ġ26": 3119,
      "table": 3120,
      "Ġenwere": 3121,
      "Ġsold": 3122,
      "ĠFoundation": 3123,
      "Ġep": 3124,
      "sequ": 3125,
      "cher": 3126,
      "Ġbody": 3127,
      "Ġ27": 3128,
      "ici": 3129,
      "Ġtimes": 3130,
      "Ġmgbochi": 3131,
      "Ġwrote": 3132,
      "ĠNovember": 3133,
      "reet": 3134,
      "Ġaut": 3135,
      "ĠGold": 3136,
      "Ġking": 3137,
      "ĠDevelopment": 3138,
      "Ġtreat": 3139,
      "ĠAustralian": 3140,
      ".)": 3141,
      "Ġ187": 3142,
      "ĠFebá»¥": 3143,
      "ĠRa": 3144,
      "rag": 3145,
      "ĠÂ": 3146,
      "ĠRed": 3147,
      "Ġphil": 3148,
      "ĠIndian": 3149,
      "Ġalthough": 3150,
      "Ġchar": 3151,
      "Ġport": 3152,
      "lá»įb": 3153,
      "ĠNdepá»¥ta": 3154,
      "asá»¥": 3155,
      "Ġseason": 3156,
      "tains": 3157,
      "Ġmass": 3158,
      "ĠIji": 3159,
      "Ġsug": 3160,
      "Ġtotal": 3161,
      "ĠLab": 3162,
      "century": 3163,
      "Ġproble": 3164,
      "ĠSer": 3165,
      "Ġibu": 3166,
      "ĠWith": 3167,
      "ĠNgalaba": 3168,
      "Ġá»Įgá»įst": 3169,
      "ously": 3170,
      "ification": 3171,
      "right": 3172,
      "ours": 3173,
      "tained": 3174,
      "ibr": 3175,
      "Ġsent": 3176,
      "ĠObodo": 3177,
      "má»įdá»¥": 3178,
      "Ġfive": 3179,
      "Ġcase": 3180,
      "Ġtop": 3181,
      "Ġproduced": 3182,
      "Ġeto": 3183,
      "Äģ": 3184,
      "Ġrá»¥á»į": 3185,
      "Ġattem": 3186,
      "ĠTown": 3187,
      "ĠYe": 3188,
      "Ġrem": 3189,
      "Ġtheory": 3190,
      "adian": 3191,
      "Ġá»Įtá»¥tá»¥": 3192,
      "ored": 3193,
      "ĠFebá»¥wará»ĭ": 3194,
      "Ġmahadum": 3195,
      "Ġenyi": 3196,
      "sy": 3197,
      "ĠHen": 3198,
      "mi": 3199,
      "now": 3200,
      "Ġebumnuche": 3201,
      "Ġisiokwu": 3202,
      "25": 3203,
      "CA": 3204,
      "Ġprom": 3205,
      "times": 3206,
      "Ġ1989": 3207,
      "Ġmanag": 3208,
      "esa": 3209,
      "Ġgroups": 3210,
      "ĠSee": 3211,
      "ls": 3212,
      "Ġjiká»į": 3213,
      "ĠBell": 3214,
      "Ġode": 3215,
      "Ġfre": 3216,
      "uld": 3217,
      "Ġume": 3218,
      "ĠAny": 3219,
      "mary": 3220,
      "oviet": 3221,
      "Ġá»įnwá»¥": 3222,
      "ĠLee": 3223,
      "Ġsee": 3224,
      "ĠCup": 3225,
      "ĠMusic": 3226,
      "ĠEmpire": 3227,
      "eg": 3228,
      "ĠFestival": 3229,
      "ĠRich": 3230,
      "Ġoriginal": 3231,
      "Ġá»¥tá»į": 3232,
      "Ġanaghá»ĭ": 3233,
      "ĠBl": 3234,
      "ĠNzuká»į": 3235,
      "Ġmaterial": 3236,
      "umike": 3237,
      "Ġhaving": 3238,
      "ĠAbd": 3239,
      "ĠSal": 3240,
      "ĠMy": 3241,
      "ĠUganda": 3242,
      "ĠÃł": 3243,
      "Ġsystems": 3244,
      "ĠCamer": 3245,
      "Ġsepar": 3246,
      "Ġwritten": 3247,
      "ades": 3248,
      "Ġlinks": 3249,
      "CO": 3250,
      "Ġgames": 3251,
      "ĠArmy": 3252,
      "Ġsocial": 3253,
      "Ġreal": 3254,
      "Ġ28": 3255,
      "ĠTra": 3256,
      "Ġunre": 3257,
      "ĠSpanish": 3258,
      "ĠCap": 3259,
      "Ġntá»į": 3260,
      "Ġozuzo": 3261,
      "Ġá»įgba": 3262,
      "ĠMer": 3263,
      "Ġoyi": 3264,
      "ĠAlexander": 3265,
      "hie": 3266,
      "Ġsix": 3267,
      "Ġinternational": 3268,
      "Ġindivid": 3269,
      "Ġekw": 3270,
      "Ġá»ĭrá»ĭ": 3271,
      "Ġstudy": 3272,
      "ĠBest": 3273,
      "Ġconne": 3274,
      "Ġndá»¥má»įdá»¥": 3275,
      "Ġsal": 3276,
      "ements": 3277,
      "Ġrole": 3278,
      "maná»¥": 3279,
      "Ġblack": 3280,
      "ĠOge": 3281,
      "ĠDemocratic": 3282,
      "ĠFederal": 3283,
      ",\"": 3284,
      "Ġsouth": 3285,
      "Ġnsá»į": 3286,
      "ĠDutch": 3287,
      "Ġturn": 3288,
      "Ġox": 3289,
      "ĠBay": 3290,
      "Ġcir": 3291,
      "Ġhá»¥rá»¥": 3292,
      "Ġdoes": 3293,
      "ummer": 3294,
      "Ġdev": 3295,
      "mit": 3296,
      "Ġib": 3297,
      "Ġcompany": 3298,
      "face": 3299,
      "ertain": 3300,
      "ĠnkÃł": 3301,
      "ĠEarth": 3302,
      "ĠMary": 3303,
      "Ġcame": 3304,
      "ĠBab": 3305,
      "ĠZe": 3306,
      "ĠMaka": 3307,
      "ras": 3308,
      "una": 3309,
      "Ġgl": 3310,
      "Ġappear": 3311,
      "tar": 3312,
      "ini": 3313,
      "icy": 3314,
      "Ġstrong": 3315,
      "Ġ1986": 3316,
      "ĠDan": 3317,
      "Ġassoci": 3318,
      "Ġokike": 3319,
      "ĠKe": 3320,
      "ĠIsrael": 3321,
      "Ġthird": 3322,
      "Ġobject": 3323,
      "\")": 3324,
      "uri": 3325,
      "Ġtá»¥": 3326,
      "ĠIsland": 3327,
      "reak": 3328,
      "Ġmethod": 3329,
      "Ġterrit": 3330,
      "ĠPort": 3331,
      "Ġanti": 3332,
      "gbÃ¨": 3333,
      "Ġcy": 3334,
      "ĠSoviet": 3335,
      "osa": 3336,
      "Ġspace": 3337,
      "ĠPages": 3338,
      "ĠDist": 3339,
      "aso": 3340,
      "Ġrelations": 3341,
      "CC": 3342,
      "omb": 3343,
      "emi": 3344,
      "Ġmmetá»į": 3345,
      "gress": 3346,
      "Ġmita": 3347,
      "orobá»ĭa": 3348,
      "Ġtranslations": 3349,
      "Ġwomen": 3350,
      "Ġworks": 3351,
      "Ġlet": 3352,
      "ument": 3353,
      "Ġnkeji": 3354,
      "Ġbuilt": 3355,
      "loy": 3356,
      "Ġlight": 3357,
      "ĠBrazil": 3358,
      "Ġizu": 3359,
      "raw": 3360,
      "cis": 3361,
      "elivishá»įn": 3362,
      "chael": 3363,
      "Ġ1950": 3364,
      "lear": 3365,
      "Ġrepla": 3366,
      "etic": 3367,
      "Ġezumike": 3368,
      "Ġservice": 3369,
      "rik": 3370,
      "ĠCath": 3371,
      "Ġkwagara": 3372,
      "kná»¥": 3373,
      "Ġseká»įndrá»ĭ": 3374,
      "overed": 3375,
      "ĠCommission": 3376,
      "Ġá»įdá»¥": 3377,
      "ĠCamb": 3378,
      "ittle": 3379,
      "ison": 3380,
      "Ġchem": 3381,
      "aut": 3382,
      "ĠMexic": 3383,
      "utere": 3384,
      "Ġ1988": 3385,
      "kná»¥zá»¥": 3386,
      "zá»¥zá»¥": 3387,
      "Ġengine": 3388,
      "Ġyiri": 3389,
      "Ġuri": 3390,
      "PA": 3391,
      "Ġomenala": 3392,
      "Ġá»Įn": 3393,
      "ictor": 3394,
      "ĠSta": 3395,
      "Ġreleased": 3396,
      "Ġtinyere": 3397,
      "empor": 3398,
      "ien": 3399,
      "Ġothers": 3400,
      "atal": 3401,
      "Ġstyle": 3402,
      "Ihe": 3403,
      "Americ": 3404,
      "Ġiyi": 3405,
      "Ġdri": 3406,
      "Ġinye": 3407,
      "Ġmkpá»į": 3408,
      "viewed": 3409,
      "abá»¥ghá»ĭ": 3410,
      "lite": 3411,
      "Ġ1985": 3412,
      "Ġtake": 3413,
      "Ġcurr": 3414,
      "Ġmy": 3415,
      "ators": 3416,
      "ulf": 3417,
      "II": 3418,
      "ĠApollo": 3419,
      "ĠMb": 3420,
      "ĠUsoro": 3421,
      "Ġsett": 3422,
      "antic": 3423,
      "ĠAngel": 3424,
      "ances": 3425,
      "ront": 3426,
      "Ġ29": 3427,
      "vin": 3428,
      "ĠPo": 3429,
      "ĠPor": 3430,
      "Ġkpá»į": 3431,
      "Ġgoolu": 3432,
      "Ġkwesá»ĭrá»ĭ": 3433,
      "Ġcare": 3434,
      "ĠPresident": 3435,
      "Ġphilos": 3436,
      "ID": 3437,
      "Ġ1987": 3438,
      "fes": 3439,
      "Ġdescribed": 3440,
      "40": 3441,
      "Ġplayed": 3442,
      "chan": 3443,
      "iga": 3444,
      "ĠRobert": 3445,
      "ĠChinese": 3446,
      "21": 3447,
      "born": 3448,
      "ila": 3449,
      "ĠRec": 3450,
      "rest": 3451,
      "Ġbusiness": 3452,
      "pecially": 3453,
      "Ġright": 3454,
      "Ġfa": 3455,
      "Ġfurther": 3456,
      "uk": 3457,
      "Ġá»ĭhá»¥": 3458,
      "Ġearli": 3459,
      "order": 3460,
      "Ġforces": 3461,
      "Ġanal": 3462,
      "Ġná»įrá»į": 3463,
      "Ġmesá»ĭrá»ĭ": 3464,
      "Ġsk": 3465,
      "Ġá»įwá»¥wa": 3466,
      "ĠNigerian": 3467,
      "eeji": 3468,
      "Ġsonyere": 3469,
      "ĠVal": 3470,
      "kwado": 3471,
      "lood": 3472,
      "Ġpot": 3473,
      "ĠServ": 3474,
      "ĠExternal": 3475,
      "Ġeither": 3476,
      "ĠDi": 3477,
      "hapá»¥": 3478,
      "ĠInter": 3479,
      "ĠChic": 3480,
      "Ġdel": 3481,
      "Ġdu": 3482,
      "rial": 3483,
      "utu": 3484,
      "ĠEbensidee": 3485,
      "Ġspecial": 3486,
      "Ġá»įkachasá»ĭ": 3487,
      "pha": 3488,
      "Ġtown": 3489,
      "Ġngw": 3490,
      "Ġbar": 3491,
      "ĠColum": 3492,
      "Ġeth": 3493,
      "itation": 3494,
      "Ġwon": 3495,
      "Ġá»ĭme": 3496,
      "Ġká»įm": 3497,
      "ĠBudd": 3498,
      "Ġhelp": 3499,
      "ĠAde": 3500,
      "Ġpost": 3501,
      "Ġkama": 3502,
      "ising": 3503,
      "Ġadá»ĭgide": 3504,
      "Ġmot": 3505,
      "ĠFrank": 3506,
      "ĠItal": 3507,
      "ĠMichael": 3508,
      "part": 3509,
      "Ġpolitician": 3510,
      "á»įkwa": 3511,
      "ecut": 3512,
      "Ġklá»įb": 3513,
      "Ġcompet": 3514,
      "ĠPeter": 3515,
      "Ġredu": 3516,
      "Ġmid": 3517,
      "ewere": 3518,
      "ĠNorthern": 3519,
      "ĠJo": 3520,
      "Ġcomple": 3521,
      "Ġká»įwara": 3522,
      "Ġshould": 3523,
      "itial": 3524,
      "Ġnleká»įta": 3525,
      "lied": 3526,
      "ĠJose": 3527,
      "lue": 3528,
      "Ġdest": 3529,
      "Ġnatara": 3530,
      "Ġrev": 3531,
      "ource": 3532,
      "Ġobserv": 3533,
      "Ġcapital": 3534,
      "Ġngwaahá»ĭa": 3535,
      "Ġwid": 3536,
      "ĠEdu": 3537,
      "Ġhalf": 3538,
      "ream": 3539,
      "Ġdabere": 3540,
      "ĠDon": 3541,
      "Ġsong": 3542,
      "ampa": 3543,
      "Ġ1983": 3544,
      "iro": 3545,
      "rika": 3546,
      "agbanyeghá»ĭ": 3547,
      "ĠAlthough": 3548,
      "sá»¥": 3549,
      "gwÃº": 3550,
      "Ġhydro": 3551,
      "ĠRussia": 3552,
      "Ġrange": 3553,
      "eso": 3554,
      "Ġbir": 3555,
      "isc": 3556,
      "asing": 3557,
      "self": 3558,
      "Ġsw": 3559,
      "ideo": 3560,
      "Ġage": 3561,
      "Ġmkpá»įrá»į": 3562,
      "ĠSea": 3563,
      "Ġmust": 3564,
      "22": 3565,
      "ek": 3566,
      "ewe": 3567,
      "ĠKenya": 3568,
      "Ġpur": 3569,
      "pper": 3570,
      "ending": 3571,
      "ĠSol": 3572,
      "rÃ©": 3573,
      "otes": 3574,
      "iles": 3575,
      "ique": 3576,
      "Ġast": 3577,
      "ription": 3578,
      "ĠnÃ¡": 3579,
      "ĠnkÃ¨": 3580,
      "Ġaro": 3581,
      "chitere": 3582,
      "ĠBul": 3583,
      "ingu": 3584,
      "Ġmepá»¥ta": 3585,
      "):": 3586,
      "ĠMost": 3587,
      "Ġhapá»¥rá»¥": 3588,
      "Ġoccur": 3589,
      "Ġnwata": 3590,
      "ĠRad": 3591,
      "ĠList": 3592,
      "hemat": 3593,
      "edu": 3594,
      "Ġcreated": 3595,
      "enweta": 3596,
      "Ġtelivishá»įn": 3597,
      "ption": 3598,
      "Ġliter": 3599,
      "Ġacid": 3600,
      "rá»įfes": 3601,
      "abata": 3602,
      "Ġheav": 3603,
      "Ġversion": 3604,
      "ĠTechn": 3605,
      "ender": 3606,
      "Ġposition": 3607,
      "chitect": 3608,
      "BA": 3609,
      "Ġ40": 3610,
      "ĠSmith": 3611,
      "chá»¥": 3612,
      "ĠEnwere": 3613,
      "Ġsometimes": 3614,
      "osition": 3615,
      "Ġmeas": 3616,
      "ĠSpa": 3617,
      "ania": 3618,
      "asc": 3619,
      "Ġver": 3620,
      "Ġword": 3621,
      "ounds": 3622,
      "Ġgenerally": 3623,
      "anc": 3624,
      "adá»ĭgide": 3625,
      "ols": 3626,
      "bendá»ĭ": 3627,
      "ĠLiber": 3628,
      "ference": 3629,
      "edebe": 3630,
      "ĠBat": 3631,
      "ĠArabic": 3632,
      "ĠSu": 3633,
      "ĠMov": 3634,
      "ĠIslam": 3635,
      "off": 3636,
      "ÌĢ": 3637,
      "gbochi": 3638,
      "ĠFirst": 3639,
      "Ġ1984": 3640,
      "Ġokporo": 3641,
      "ĠScience": 3642,
      "Ġenc": 3643,
      "ĠTer": 3644,
      "ĠAma": 3645,
      "ĠBill": 3646,
      "ĠDr": 3647,
      "Ġnga": 3648,
      "Ġsuff": 3649,
      "har": 3650,
      "Ġpeeji": 3651,
      "ify": 3652,
      "ĠMag": 3653,
      "ĠOri": 3654,
      "ĠJack": 3655,
      "rá»įfesá»į": 3656,
      "ked": 3657,
      "Ġaddition": 3658,
      "udi": 3659,
      "Ġnumbers": 3660,
      "ĠRussian": 3661,
      "Ġproject": 3662,
      "Ġunreviewed": 3663,
      "ĠÃ©": 3664,
      "apt": 3665,
      "á»įbá»¥": 3666,
      "Ġol": 3667,
      "Ġleast": 3668,
      "ĠScott": 3669,
      "Ġlist": 3670,
      "ĠWhile": 3671,
      "Ġstar": 3672,
      "ĠDu": 3673,
      "nye": 3674,
      "ĠPal": 3675,
      "emokwu": 3676,
      "oko": 3677,
      "Ġexpress": 3678,
      "Ġima": 3679,
      "Ġá»įzá»¥zá»¥": 3680,
      "Ġpriv": 3681,
      "Ġtinye": 3682,
      "ĠThomas": 3683,
      "Ġaircraft": 3684,
      "ĠIf": 3685,
      "Ġlaghachiri": 3686,
      "ĠOrgan": 3687,
      "ensive": 3688,
      "mara": 3689,
      "Ġhow": 3690,
      "omp": 3691,
      "Ġside": 3692,
      "rug": 3693,
      "Ġmbipá»¥ta": 3694,
      "Ġnov": 3695,
      "ĠCO": 3696,
      "ĠAsia": 3697,
      "uziri": 3698,
      "Ġcolon": 3699,
      "Ġnatural": 3700,
      "ĠTun": 3701,
      "Ġcontinued": 3702,
      "ĠJohann": 3703,
      "Ġzá»¥": 3704,
      "ĠMinista": 3705,
      "ĠNnyocha": 3706,
      "Ġreceived": 3707,
      "Ġve": 3708,
      "Ġnkwu": 3709,
      "Ġziri": 3710,
      "NA": 3711,
      "Ġtest": 3712,
      "Ġcomplex": 3713,
      "Ġonw": 3714,
      "ĠNchá»ĭ": 3715,
      "ĠSouthern": 3716,
      "hib": 3717,
      "Ġ1979": 3718,
      "ults": 3719,
      "Ġtekná»¥zá»¥": 3720,
      "roll": 3721,
      "Ġá»įkpá»¥": 3722,
      "ĠCanadian": 3723,
      "ĠMany": 3724,
      "zuzu": 3725,
      "ghá»įta": 3726,
      "erve": 3727,
      "Ġespecially": 3728,
      "rus": 3729,
      "Ġbattle": 3730,
      "ĠCompany": 3731,
      "Ġá»įká»į": 3732,
      "liament": 3733,
      "ĠCameroon": 3734,
      "ĠSpe": 3735,
      "Ġrecogn": 3736,
      "atory": 3737,
      "Ġparts": 3738,
      "Ġabs": 3739,
      "war": 3740,
      "ounced": 3741,
      "Ġnwekwara": 3742,
      "Ġeconomic": 3743,
      "ĠKá»įmitii": 3744,
      "Ġá»ĭrá»¥": 3745,
      "ĠVictor": 3746,
      "ĠLouis": 3747,
      "ken": 3748,
      "Ġfree": 3749,
      "Ġkpatara": 3750,
      "Ġewu": 3751,
      "sen": 3752,
      "ura": 3753,
      "ika": 3754,
      "Ġpossible": 3755,
      "ĠKar": 3756,
      "ĠGovernment": 3757,
      "Ġgood": 3758,
      "Ġonyeisi": 3759,
      "Ġcop": 3760,
      "ĠObi": 3761,
      "ĠVir": 3762,
      "Ġbroad": 3763,
      "Ġchildren": 3764,
      "ĠEconom": 3765,
      "Ġmbido": 3766,
      "ex": 3767,
      "ká»įrá»į": 3768,
      "Ġrather": 3769,
      "Ġpresident": 3770,
      "Ġmbá»į": 3771,
      "Ġprevi": 3772,
      "Ġakwa": 3773,
      "adan": 3774,
      "ero": 3775,
      "ĠGra": 3776,
      "Ġ1976": 3777,
      "Ġtype": 3778,
      "ĠIr": 3779,
      "Ġá»ĭgá»¥": 3780,
      "ulu": 3781,
      "Ġ1975": 3782,
      "adi": 3783,
      "ĠEze": 3784,
      "ĠVol": 3785,
      "ĠEduc": 3786,
      "ĠEgwu": 3787,
      "Ġtemper": 3788,
      "ategory": 3789,
      "emporary": 3790,
      "like": 3791,
      "ĠHam": 3792,
      "Ġavail": 3793,
      "Ġelectron": 3794,
      "Ġformed": 3795,
      "Ġ1981": 3796,
      "ĠCatholic": 3797,
      "ĠWil": 3798,
      "ville": 3799,
      "Ġlab": 3800,
      "ership": 3801,
      "Ġdied": 3802,
      "ĠItalian": 3803,
      "Ġmaá»įbá»¥": 3804,
      "Ġelements": 3805,
      "oo": 3806,
      "ĠHall": 3807,
      "rison": 3808,
      "iqu": 3809,
      "fa": 3810,
      "ugu": 3811,
      "ibrary": 3812,
      "Ġforms": 3813,
      "ĠAbá»¥": 3814,
      "ĠSpain": 3815,
      "ĠMiddle": 3816,
      "Ġtw": 3817,
      "edia": 3818,
      "Ġntá»ĭ": 3819,
      "ĠLos": 3820,
      "oney": 3821,
      "Ġfail": 3822,
      "Ġkil": 3823,
      "Ġ1982": 3824,
      "edo": 3825,
      "ĠSwed": 3826,
      "Afric": 3827,
      "23": 3828,
      "á»¥dá»ĭ": 3829,
      "Ġsqu": 3830,
      "Ġá»įj": 3831,
      "Ġcivil": 3832,
      "An": 3833,
      "Ġaver": 3834,
      "pped": 3835,
      "ĠTele": 3836,
      "ads": 3837,
      "Ġfilms": 3838,
      "Ġinj": 3839,
      "teg": 3840,
      "lywood": 3841,
      "Ġmodel": 3842,
      "Ġemume": 3843,
      "',": 3844,
      "Ġlaun": 3845,
      "Ġfood": 3846,
      "ĠAnn": 3847,
      "Ġduziri": 3848,
      "Ġká»¥": 3849,
      "Ġculture": 3850,
      "aba": 3851,
      "embly": 3852,
      "ĠAgha": 3853,
      "ĠHuman": 3854,
      "site": 3855,
      "Ġmember": 3856,
      "uses": 3857,
      "ĠSun": 3858,
      "Ġ1978": 3859,
      "field": 3860,
      "inary": 3861,
      "eball": 3862,
      "ES": 3863,
      "reme": 3864,
      "iance": 3865,
      "Ġterms": 3866,
      "Ġattempt": 3867,
      "ĠChief": 3868,
      "iers": 3869,
      "kal": 3870,
      "Ġnab": 3871,
      "Ġpress": 3872,
      "Ġcomputer": 3873,
      "Ġfinal": 3874,
      "Ġmaga": 3875,
      "ĠOm": 3876,
      "'.": 3877,
      "ĠMos": 3878,
      "ĠGrand": 3879,
      "ĠRev": 3880,
      "ĠNwa": 3881,
      "AS": 3882,
      "Ġir": 3883,
      "Ġmaking": 3884,
      "ĠMiss": 3885,
      "tala": 3886,
      "ĠMoh": 3887,
      "unic": 3888,
      "ysis": 3889,
      "Ġlower": 3890,
      "Ġpas": 3891,
      "ett": 3892,
      "riter": 3893,
      "Ġarmy": 3894,
      "itch": 3895,
      "Ġdays": 3896,
      "Ġgá»įvaná»į": 3897,
      "Ġenergy": 3898,
      "ĠRichard": 3899,
      "Ġwhe": 3900,
      "Ġntorobá»ĭa": 3901,
      "Ġ1977": 3902,
      "ampaign": 3903,
      "Ġ1972": 3904,
      "vention": 3905,
      "ĠBelg": 3906,
      "Ġhá»¥": 3907,
      "Ġdecl": 3908,
      "ĠPortu": 3909,
      "Ġimpro": 3910,
      "ĠFrancis": 3911,
      "Ġpati": 3912,
      "Ġfem": 3913,
      "Ġresearch": 3914,
      "anding": 3915,
      "Ġpr": 3916,
      "Ġprincip": 3917,
      "Ġnever": 3918,
      "Ġcentral": 3919,
      "Ġagain": 3920,
      "stitution": 3921,
      "cks": 3922,
      "Ġinvest": 3923,
      "Ġbá»ĭanyere": 3924,
      "American": 3925,
      "...": 3926,
      "si": 3927,
      "Ġinitial": 3928,
      "ands": 3929,
      "ĠNtá»¥": 3930,
      "Ġnkwá»¥": 3931,
      "mw": 3932,
      "ĠGo": 3933,
      "Ġtext": 3934,
      "Ġntá»įala": 3935,
      "sá»ĭrá»ĭ": 3936,
      "Ġmp": 3937,
      "Ġemer": 3938,
      "gbá»įghá»į": 3939,
      "Ġsyn": 3940,
      "Ġdiff": 3941,
      "erial": 3942,
      "Ġden": 3943,
      "ĠLim": 3944,
      "Ġá»įdá»ĭbendá»ĭ": 3945,
      "asá»¥sá»¥": 3946,
      "Ġsuggest": 3947,
      "Ġodeakwá»¥kwá»į": 3948,
      "egbu": 3949,
      "ĠEastern": 3950,
      "ĠPan": 3951,
      "ont": 3952,
      "ĠCroat": 3953,
      "ĠMac": 3954,
      "Ġmem": 3955,
      "Ġcontain": 3956,
      "ĠPrize": 3957,
      "Ġhigher": 3958,
      "ĠHenry": 3959,
      "Ġscient": 3960,
      "ará»ĭta": 3961,
      "ĠFlor": 3962,
      "Ġbegin": 3963,
      "aká»įwa": 3964,
      "emetá»¥ta": 3965,
      "Ġsubject": 3966,
      "Ġtro": 3967,
      "195": 3968,
      "Ġtelevision": 3969,
      "ocal": 3970,
      "asi": 3971,
      "Ġunivers": 3972,
      "Ġkwado": 3973,
      "Ã¬": 3974,
      "ĠSecond": 3975,
      "ĠAmer": 3976,
      "Ġpred": 3977,
      "Ġthroughout": 3978,
      "Ġmmá»¥á»į": 3979,
      "pts": 3980,
      "Ġnext": 3981,
      "Ġakwá»¥": 3982,
      "ebu": 3983,
      "Ġcertain": 3984,
      "ceed": 3985,
      "Ġamaala": 3986,
      "Ġfollowed": 3987,
      "ĠPublic": 3988,
      "Ġfrequ": 3989,
      "ati": 3990,
      "ghts": 3991,
      "Ġisland": 3992,
      "Ø§": 3993,
      "Ġweebá»¥": 3994,
      "ĠCounty": 3995,
      "Ġbest": 3996,
      "otic": 3997,
      "ww": 3998,
      "Ġancient": 3999,
      "sp": 4000,
      "ĠSud": 4001,
      "olu": 4002,
      "Ġchá»įpá»¥tara": 4003,
      "hÃ¨": 4004,
      "Ġgaf": 4005,
      "Ġ=": 4006,
      "rel": 4007,
      "Ġseen": 4008,
      "Ġabove": 4009,
      "Ġá»įjá»įá»į": 4010,
      "ĠPers": 4011,
      "uto": 4012,
      "ĠSince": 4013,
      "24": 4014,
      "ĠBan": 4015,
      "Ġdeg": 4016,
      "arn": 4017,
      "Ġschol": 4018,
      "Ġstandard": 4019,
      "Ġpá»¥ta": 4020,
      "Ġprofess": 4021,
      "ties": 4022,
      "Ġburu": 4023,
      "ĠWork": 4024,
      "Ġclub": 4025,
      "Ġconsist": 4026,
      "Ġindic": 4027,
      "Ġngaghará»ĭ": 4028,
      "zine": 4029,
      "ĠScot": 4030,
      "ĠJoseph": 4031,
      "Ġoffer": 4032,
      "Ã¨rÃ¨": 4033,
      "ĠâĢľ": 4034,
      "Ġjo": 4035,
      "Ġ2023": 4036,
      "inal": 4037,
      "ĠSocial": 4038,
      "Ġcirc": 4039,
      "Ġrelated": 4040,
      "Ġdefe": 4041,
      "oid": 4042,
      "ĠResearch": 4043,
      "Ġchange": 4044,
      "ĠMmiri": 4045,
      "pite": 4046,
      "ĠAngeles": 4047,
      "In": 4048,
      "Ġregard": 4049,
      "Ġtrade": 4050,
      "Ġfig": 4051,
      "Ġkm": 4052,
      "Ġaná»¥maná»¥": 4053,
      "nam": 4054,
      "Ġforce": 4055,
      "opher": 4056,
      "ĠGa": 4057,
      "mercial": 4058,
      "Ġetu": 4059,
      "Ġfac": 4060,
      "isation": 4061,
      "Ġinformation": 4062,
      "ĠFrom": 4063,
      "cast": 4064,
      "Ġfri": 4065,
      "ils": 4066,
      "Ġsuper": 4067,
      "Ġparty": 4068,
      "den": 4069,
      "ĠMet": 4070,
      "Ġfather": 4071,
      "ĠStreet": 4072,
      "Ġreported": 4073,
      "Ġassociated": 4074,
      "Ġavailable": 4075,
      "Ġpen": 4076,
      "Ġissu": 4077,
      "ĠDo": 4078,
      "uma": 4079,
      "Ġajá»¥já»¥": 4080,
      "atives": 4081,
      "istics": 4082,
      "ĠAD": 4083,
      "chukwu": 4084,
      "Ġkey": 4085,
      "Ġhimself": 4086,
      "Ġmultip": 4087,
      "Ġesemokwu": 4088,
      ".[": 4089,
      "Ġlocated": 4090,
      "Ġball": 4091,
      "lav": 4092,
      "Ġ1974": 4093,
      "ĠJapanese": 4094,
      "rast": 4095,
      "ĠMana": 4096,
      "Ġmkpebi": 4097,
      "á»¥nta": 4098,
      "Ġoriri": 4099,
      "PC": 4100,
      "istance": 4101,
      "Ġabá»įm": 4102,
      "uture": 4103,
      "ĠHealth": 4104,
      "Ġacross": 4105,
      "Ġá»įbara": 4106,
      "Ġnwaanyá»ĭ": 4107,
      "Ġneg": 4108,
      "ĠBrown": 4109,
      "ston": 4110,
      "Ġplayers": 4111,
      "Ġ31": 4112,
      "ym": 4113,
      "Ġtaa": 4114,
      "Ġrate": 4115,
      "ĠOny": 4116,
      "Ġground": 4117,
      "Ġthus": 4118,
      "Ġmeans": 4119,
      "ophy": 4120,
      "Ġfull": 4121,
      "Ġcompan": 4122,
      "Ġ1969": 4123,
      "ĠDistrict": 4124,
      "erous": 4125,
      "Ġá»¥ká»į": 4126,
      "aná»įchite": 4127,
      "Ġewe": 4128,
      "Ġjiká»įtara": 4129,
      "80": 4130,
      "Ġevidence": 4131,
      "yer": 4132,
      "ĠDá»ĭka": 4133,
      "ĠAtl": 4134,
      "Ġsuccessful": 4135,
      "ĠBerlin": 4136,
      "ĠTex": 4137,
      "Ġhard": 4138,
      "ĠBattle": 4139,
      "opia": 4140,
      "ĠBig": 4141,
      "Ġlo": 4142,
      "orial": 4143,
      "Ġhouse": 4144,
      "Ġmkpá»įsa": 4145,
      "Ġolu": 4146,
      "Ġmgbakw": 4147,
      "En": 4148,
      "ĠIS": 4149,
      "aland": 4150,
      "Ġanwá»¥": 4151,
      "ĠMexico": 4152,
      "ĠAfrika": 4153,
      "Ġaccording": 4154,
      "Ġalmost": 4155,
      "ĠGá»įvaná»į": 4156,
      "vy": 4157,
      "org": 4158,
      "stant": 4159,
      "Ġtaken": 4160,
      "rate": 4161,
      "ink": 4162,
      "ĠFar": 4163,
      "Ġmovement": 4164,
      "enyocha": 4165,
      "Ġ1966": 4166,
      "Ġgwara": 4167,
      "ĠJohnson": 4168,
      "Ġtre": 4169,
      "ĠItaly": 4170,
      "idoro": 4171,
      "Ġcommunity": 4172,
      "atch": 4173,
      "ĠNA": 4174,
      "Ġhar": 4175,
      "60": 4176,
      "á»įná»įdá»¥": 4177,
      "Ġsoft": 4178,
      "ghan": 4179,
      "Ġmarket": 4180,
      "ĠJohannes": 4181,
      "//": 4182,
      "Ġnuc": 4183,
      "erule": 4184,
      "Ġcoast": 4185,
      "Ġmgbakwunye": 4186,
      "47": 4187,
      "chib": 4188,
      "ints": 4189,
      "cies": 4190,
      "Ġá»įbá»¥la": 4191,
      "eje": 4192,
      "ĠIre": 4193,
      "chá»ĭchá»ĭ": 4194,
      "Ġenwe": 4195,
      "âĢĿ": 4196,
      "Ġá»¤fá»įdá»¥": 4197,
      "Ġsinger": 4198,
      "itz": 4199,
      "Ġogb": 4200,
      "Ġudo": 4201,
      "ĠEnvironment": 4202,
      "itude": 4203,
      "ogo": 4204,
      "Ġ1967": 4205,
      "ĠDef": 4206,
      "ĠTimes": 4207,
      "Ġadv": 4208,
      "Ġintroduced": 4209,
      "ĠJust": 4210,
      "Ġ1971": 4211,
      "aring": 4212,
      "urity": 4213,
      "Ġ1968": 4214,
      "ĠHun": 4215,
      "Ġbiri": 4216,
      "Ġmix": 4217,
      "ĠMas": 4218,
      "ĠDiv": 4219,
      "Ġstory": 4220,
      "Ġbecom": 4221,
      "gidere": 4222,
      "ĠClub": 4223,
      "not": 4224,
      "Ġtoget": 4225,
      "Ġru": 4226,
      "Ġfund": 4227,
      "bra": 4228,
      "Ġtogether": 4229,
      "ĠChicago": 4230,
      "Ġsat": 4231,
      "ĠEle": 4232,
      "Ġarm": 4233,
      "Ġadvan": 4234,
      "Ġnká»įwa": 4235,
      "Ġnnwere": 4236,
      "Ġamá»¥": 4237,
      "Ġmes": 4238,
      "Ġentire": 4239,
      "Ġaverage": 4240,
      "Ġndu": 4241,
      "gwá»¥cha": 4242,
      "Ġntinye": 4243,
      "light": 4244,
      "á»ĭhá»ĭa": 4245,
      "Ġ1973": 4246,
      "ales": 4247,
      "ĠHill": 4248,
      "Ġestablish": 4249,
      "rig": 4250,
      "ĠCross": 4251,
      "Ġkans": 4252,
      "Ġgbaa": 4253,
      "ĠEducation": 4254,
      "iment": 4255,
      "Ġupon": 4256,
      "Ġneeded": 4257,
      "Ġká»įmitii": 4258,
      "dis": 4259,
      "ĠFa": 4260,
      "gwo": 4261,
      "rey": 4262,
      "ought": 4263,
      "ss": 4264,
      "Ġij": 4265,
      "ĠAlexand": 4266,
      "EC": 4267,
      "cel": 4268,
      "Ġactor": 4269,
      "ministration": 4270,
      "Ġekwu": 4271,
      "Ġwa": 4272,
      "atively": 4273,
      "ging": 4274,
      "win": 4275,
      "eleká»įta": 4276,
      "á»¥l": 4277,
      "Ġgovern": 4278,
      "Ġstri": 4279,
      "Ġnchá»įpá»¥ta": 4280,
      "Ġill": 4281,
      "Ġdoc": 4282,
      "kn": 4283,
      "ror": 4284,
      "Ġadop": 4285,
      "ĠIsi": 4286,
      "Ġrights": 4287,
      "ato": 4288,
      "Ġ+": 4289,
      "Ġmiss": 4290,
      "ĠLife": 4291,
      "ĠOld": 4292,
      "Ġfore": 4293,
      "Ġmathemat": 4294,
      "tage": 4295,
      "Ġhaziri": 4296,
      "Ġstructure": 4297,
      "inct": 4298,
      "Ġfire": 4299,
      "Ġaccept": 4300,
      "ĠOsimiri": 4301,
      "throp": 4302,
      "Ġel": 4303,
      "Ġaccess": 4304,
      "Ġá»¥ra": 4305,
      "ĠAthen": 4306,
      "Ġestim": 4307,
      "Ġelement": 4308,
      "Ġincludes": 4309,
      "ĠMass": 4310,
      "ĠMuham": 4311,
      "igu": 4312,
      "ora": 4313,
      "Ġezu": 4314,
      "Ġmeaning": 4315,
      "Ġsla": 4316,
      "Ġ185": 4317,
      "ĠGlobal": 4318,
      "ground": 4319,
      "ĠEt": 4320,
      "Ġcross": 4321,
      "Ġtour": 4322,
      "Ġitself": 4323,
      "Ġfav": 4324,
      "oper": 4325,
      "Ġservices": 4326,
      "Ġagwa": 4327,
      "ĠMill": 4328,
      "TA": 4329,
      "ĠIII": 4330,
      "ication": 4331,
      "ĠÃ¬hÃ¨": 4332,
      "Ġá»ĭtá»¥": 4333,
      "Ġfounded": 4334,
      "rá»¥ndá»¥": 4335,
      "Ġdou": 4336,
      "ĠAlger": 4337,
      "Ġrespect": 4338,
      "Ġindustry": 4339,
      "ozuzu": 4340,
      "ĠAli": 4341,
      "Ġspeak": 4342,
      "ĠMoham": 4343,
      "Ġtá»¥rá»¥": 4344,
      "Ġacadem": 4345,
      "ĠBulgar": 4346,
      "Ġá»¥gbá»įala": 4347,
      "Ġinstead": 4348,
      "Ġinfluence": 4349,
      "Ġonwun": 4350,
      "Ġmfe": 4351,
      "oted": 4352,
      "onyo": 4353,
      "ĠMil": 4354,
      "ĠDen": 4355,
      "ĠBoard": 4356,
      "Ġincreased": 4357,
      "ĠCarol": 4358,
      "ĠNna": 4359,
      "Ġinterest": 4360,
      "Ġdeterm": 4361,
      "Ġeducation": 4362,
      "Ġá»ĭkpa": 4363,
      "ounter": 4364,
      "Ġthought": 4365,
      "Ġnetwork": 4366,
      "Ġá»Įgá»įstá»¥": 4367,
      "Ġmus": 4368,
      "ĠCourt": 4369,
      "Ġunders": 4370,
      "á»¥ná»¥": 4371,
      "Ġmor": 4372,
      "Ġpasent": 4373,
      "Ġpers": 4374,
      "Ġjere": 4375,
      "eleb": 4376,
      "Ġtraditional": 4377,
      "nel": 4378,
      "esá»ĭ": 4379,
      "ĠAC": 4380,
      "ĠSudan": 4381,
      "hal": 4382,
      "hest": 4383,
      "ĠOx": 4384,
      "Ġnhá»įpá»¥ta": 4385,
      "ĠZim": 4386,
      "27": 4387,
      "Ġput": 4388,
      "Ġpercent": 4389,
      "Ġbá»ĭara": 4390,
      "Ġimm": 4391,
      "Ġbase": 4392,
      "acy": 4393,
      "Ġdomin": 4394,
      "Ġlost": 4395,
      "ĠLove": 4396,
      "ekpo": 4397,
      "Ġcourt": 4398,
      "urban": 4399,
      "lere": 4400,
      "Ġngwá»¥cha": 4401,
      "Ġhol": 4402,
      "back": 4403,
      "ĠProject": 4404,
      "Ġviol": 4405,
      "Ġvalue": 4406,
      "ĠNews": 4407,
      "Ġsurv": 4408,
      "IC": 4409,
      "bs": 4410,
      "ĠIslands": 4411,
      "medi": 4412,
      "omet": 4413,
      "á»įgá»¥": 4414,
      "Ġsize": 4415,
      "ĠMat": 4416,
      "Ġemepe": 4417,
      "agement": 4418,
      "Ġá»¥kwá»¥": 4419,
      "iff": 4420,
      "xi": 4421,
      "Ġang": 4422,
      "Ġtitle": 4423,
      "enced": 4424,
      "mahá»¥": 4425,
      "jirimara": 4426,
      "Ġclos": 4427,
      "Ġmagn": 4428,
      "Ġtradition": 4429,
      "Ġ1964": 4430,
      "Ġevents": 4431,
      "Ġwhose": 4432,
      "Ġreligious": 4433,
      "Ġmerie": 4434,
      "eze": 4435,
      "Ġá»įkara": 4436,
      "Ġcities": 4437,
      "Ġagbá»įghá»į": 4438,
      "Ġhum": 4439,
      "ufact": 4440,
      "eru": 4441,
      "ĠSing": 4442,
      "spe": 4443,
      "ibility": 4444,
      "ĠWhite": 4445,
      "Ġonwunwe": 4446,
      "ĠYear": 4447,
      "itar": 4448,
      "lee": 4449,
      "Ġste": 4450,
      "Ġsex": 4451,
      "ishop": 4452,
      "Ġá»¤wa": 4453,
      "ĠIreland": 4454,
      "atre": 4455,
      "ĠAth": 4456,
      "eror": 4457,
      "Ġtá»į": 4458,
      "elling": 4459,
      "aching": 4460,
      "ĠForest": 4461,
      "Ġuses": 4462,
      "Ġexcept": 4463,
      "ached": 4464,
      "hic": 4465,
      "ĠJournal": 4466,
      "Ġwords": 4467,
      "Ġparticularly": 4468,
      "Ġtar": 4469,
      "kwaara": 4470,
      "Ġhost": 4471,
      "OS": 4472,
      "litere": 4473,
      "airs": 4474,
      "Ġnká»¥": 4475,
      "ancial": 4476,
      "AF": 4477,
      "anwere": 4478,
      "ranch": 4479,
      "Ġten": 4480,
      "Ġfall": 4481,
      "ĠBut": 4482,
      "ctic": 4483,
      "Ġezigbo": 4484,
      "Ġnrá»¥á»įrá»¥": 4485,
      "ĠAre": 4486,
      "Ġcode": 4487,
      "ĠTor": 4488,
      "á»¥nye": 4489,
      "Ġá»¤dá»ĭ": 4490,
      "ittee": 4491,
      "Ġpast": 4492,
      "ĠEv": 4493,
      "Ġcompos": 4494,
      "Ġcases": 4495,
      "Ġ1963": 4496,
      "ĠPac": 4497,
      "rought": 4498,
      "ĠColumbia": 4499,
      "sc": 4500,
      "ĠSur": 4501,
      "Ġachie": 4502,
      "chá»¥nta": 4503,
      "Ġadá»ĭghá»ĭ": 4504,
      "ĠKem": 4505,
      "ĠIbadan": 4506,
      "ĠNche": 4507,
      "amá»¥": 4508,
      "ĠRel": 4509,
      "Ġargu": 4510,
      "ĠHistor": 4511,
      "Ġreferred": 4512,
      "iting": 4513,
      "ĠKn": 4514,
      "Ġá»ĭma": 4515,
      "Ġaltern": 4516,
      "Ġmkpará»ĭta": 4517,
      "Ġcampaign": 4518,
      "ĠForce": 4519,
      "Ġtransport": 4520,
      "wan": 4521,
      "Ġizi": 4522,
      "west": 4523,
      "Ġmmebi": 4524,
      "raá»ĭm": 4525,
      "ĠÎ": 4526,
      "Ġehi": 4527,
      "ĠAfá»į": 4528,
      "esote": 4529,
      "Ġnje": 4530,
      "Ġghara": 4531,
      "mm": 4532,
      "Ġesi": 4533,
      "Ġaccount": 4534,
      "Ġ()": 4535,
      "Ġvict": 4536,
      "sych": 4537,
      "Ġsil": 4538,
      "'t": 4539,
      "Ġbelata": 4540,
      "Ġcondu": 4541,
      "Ġkilled": 4542,
      "ĠService": 4543,
      "rick": 4544,
      "nanya": 4545,
      "Ġrail": 4546,
      "ĠVirgin": 4547,
      "Ġmicro": 4548,
      "roy": 4549,
      "Ġá»ĭgb": 4550,
      "ĠModern": 4551,
      "://": 4552,
      "á»įtara": 4553,
      "Ġká»įrá»į": 4554,
      "Ġahá»ĭhá»ĭa": 4555,
      "Ġfoc": 4556,
      "iala": 4557,
      "Ġogige": 4558,
      "cean": 4559,
      "ĠSaint": 4560,
      "AC": 4561,
      "leg": 4562,
      "ĠBos": 4563,
      "ĠArch": 4564,
      "Ġamá»¥rá»¥": 4565,
      "itiz": 4566,
      "Ġremained": 4567,
      "Ġbooks": 4568,
      "ened": 4569,
      "aká»¥ká»į": 4570,
      "itor": 4571,
      "icult": 4572,
      "Ġgosipá»¥ta": 4573,
      "ĠÃŃgwÃ¨": 4574,
      "ĠPen": 4575,
      "babwe": 4576,
      "Ġsus": 4577,
      "Ġfá»įrá»į": 4578,
      "ĠAnt": 4579,
      "ĠVer": 4580,
      "ĠYor": 4581,
      "Ġcour": 4582,
      "Ġonce": 4583,
      "ĠHon": 4584,
      "Ġá»ĭchá»į": 4585,
      "Ġannounced": 4586,
      "Ġmgbalá»ĭ": 4587,
      "ĠJohannesburg": 4588,
      "reater": 4589,
      "Ġncheta": 4590,
      "ĠCongo": 4591,
      "Ġnovel": 4592,
      "ii": 4593,
      "Ġchi": 4594,
      "Ġscience": 4595,
      "Ġokenye": 4596,
      "ey": 4597,
      "Ġdesigned": 4598,
      "Ġelection": 4599,
      "ĠMont": 4600,
      "action": 4601,
      "Ġsources": 4602,
      "Ġhi": 4603,
      "Ġ...": 4604,
      "Ġcommand": 4605,
      "Ġconcern": 4606,
      "vey": 4607,
      "ĠBusiness": 4608,
      "ganihu": 4609,
      "Ġugbua": 4610,
      "Ġconsider": 4611,
      "Ġcritic": 4612,
      "Ġnorthern": 4613,
      "ĠSil": 4614,
      "ĠAlf": 4615,
      "ĠSystem": 4616,
      "Ġhealth": 4617,
      "Ġ1930": 4618,
      "Ġsource": 4619,
      "isl": 4620,
      "time": 4621,
      "ĠSo": 4622,
      "ires": 4623,
      "tin": 4624,
      "ĠFurther": 4625,
      "Ġarchitect": 4626,
      "Ġnjedebe": 4627,
      "Ġowu": 4628,
      "ĠHel": 4629,
      "thing": 4630,
      "Ġgbanwere": 4631,
      "ĠCivil": 4632,
      "ams": 4633,
      "ein": 4634,
      "Ġborn": 4635,
      "ĠegwÃº": 4636,
      "usi": 4637,
      "Ġapplic": 4638,
      "Ġallowed": 4639,
      "ĠPrince": 4640,
      "Ġfeatures": 4641,
      "Ġcompanies": 4642,
      "ketball": 4643,
      "gun": 4644,
      "Ġmark": 4645,
      "imi": 4646,
      "rant": 4647,
      "ĠMinistry": 4648,
      "ĠTexas": 4649,
      "Ġmmanye": 4650,
      "Ġknow": 4651,
      "ĠSuper": 4652,
      "Ndá»ĭ": 4653,
      "á»ĭs": 4654,
      "ĠRob": 4655,
      "gency": 4656,
      "Ġdirector": 4657,
      "ĠCentre": 4658,
      "ĠStudies": 4659,
      "kh": 4660,
      "leji": 4661,
      "Ġ1965": 4662,
      "ĠEme": 4663,
      "ĠÃĴ": 4664,
      "ĠMmalite": 4665,
      "Ġ60": 4666,
      "ĠZimbabwe": 4667,
      "Ġmetal": 4668,
      "Ġá»įchá»¥nta": 4669,
      "lace": 4670,
      "Ġrule": 4671,
      "ekw": 4672,
      "ezi": 4673,
      "ĠCoast": 4674,
      "Ġradio": 4675,
      "ĠImp": 4676,
      "omy": 4677,
      "ĠMoroc": 4678,
      "change": 4679,
      "rich": 4680,
      "ĠFI": 4681,
      "ĠWik": 4682,
      "má»¥ta": 4683,
      "ĠMinister": 4684,
      "Ġinstrum": 4685,
      "Ch": 4686,
      "193": 4687,
      "ghará»ĭrá»ĭ": 4688,
      "Ġrespons": 4689,
      "ĠDelta": 4690,
      "Ġdifficult": 4691,
      "onst": 4692,
      "Ġnews": 4693,
      "ĠDou": 4694,
      "Ġreb": 4695,
      "ĠJos": 4696,
      "havi": 4697,
      "Ġ1962": 4698,
      "Ġgave": 4699,
      "Ġkwupá»¥tara": 4700,
      "Ġcommercial": 4701,
      "Ġmoved": 4702,
      "ĠLibrary": 4703,
      "Ġmother": 4704,
      "Ġbillion": 4705,
      "Ġable": 4706,
      "Ġprovide": 4707,
      "ĠConserv": 4708,
      "ĠMartin": 4709,
      "ĠTunis": 4710,
      "ĠMuhammad": 4711,
      "Ġnjirimara": 4712,
      "anz": 4713,
      "ĠYou": 4714,
      "ĠAssembly": 4715,
      "Ġsurface": 4716,
      "Ġegbu": 4717,
      "utes": 4718,
      "ĠYoung": 4719,
      "Ġmeet": 4720,
      "based": 4721,
      "Ġtoo": 4722,
      "Ġedo": 4723,
      "ĠUm": 4724,
      "Ġfootballer": 4725,
      "ĠBak": 4726,
      "ĠGar": 4727,
      "irus": 4728,
      "zy": 4729,
      "Ġvideo": 4730,
      "ambra": 4731,
      "Ġserved": 4732,
      "wer": 4733,
      "ï¿": 4734,
      "Ġpara": 4735,
      "ema": 4736,
      "Ġohu": 4737,
      "owers": 4738,
      "ĠClass": 4739,
      "Ġincreasing": 4740,
      "olk": 4741,
      "ĠOf": 4742,
      "ï¿¼": 4743,
      "hel": 4744,
      "pu": 4745,
      "agbanwe": 4746,
      "Ġleading": 4747,
      "Ġwent": 4748,
      "Ġkwá»¥sá»ĭrá»ĭ": 4749,
      "ĠAS": 4750,
      "him": 4751,
      "Ġwhite": 4752,
      "Ġapproxim": 4753,
      "oston": 4754,
      "erese": 4755,
      "onds": 4756,
      "Ġlarger": 4757,
      "Ġforeign": 4758,
      "28": 4759,
      "kor": 4760,
      "ilities": 4761,
      "ĠLad": 4762,
      "egwuregwu": 4763,
      "Ġgrowth": 4764,
      "hol": 4765,
      "Ġarri": 4766,
      "Ġmbara": 4767,
      "ĠJud": 4768,
      "mance": 4769,
      "Ġprovided": 4770,
      "Ġnabatara": 4771,
      "Ġtax": 4772,
      "ĠApple": 4773,
      "ĠCambridge": 4774,
      "Ġastron": 4775,
      "ĠIke": 4776,
      "Ġmach": 4777,
      "wakpo": 4778,
      "ributed": 4779,
      "kere": 4780,
      "á»įta": 4781,
      "ĠProf": 4782,
      "Ġeconomy": 4783,
      "ores": 4784,
      "Ġsha": 4785,
      "Ġvootu": 4786,
      "á»ĭka": 4787,
      "ĠNd": 4788,
      "Ġabá»¥ghá»ĭ": 4789,
      "ebute": 4790,
      "anna": 4791,
      "elekwasá»ĭ": 4792,
      "ĠBenin": 4793,
      "Ġstarted": 4794,
      "Ġaward": 4795,
      "kpu": 4796,
      "Ġsea": 4797,
      "ĠSom": 4798,
      "Ġinteg": 4799,
      "ĠBern": 4800,
      "kpi": 4801,
      "ĠKore": 4802,
      "Ġá»Įdá»ĭ": 4803,
      "ĠAfghan": 4804,
      "ibo": 4805,
      "ahá»¥kará»ĭ": 4806,
      "78": 4807,
      "itzer": 4808,
      "Ġmakwaara": 4809,
      "zech": 4810,
      "bochi": 4811,
      "Ġsouthern": 4812,
      "ĠMur": 4813,
      "Ġnkwa": 4814,
      "vert": 4815,
      "ĠOnyinye": 4816,
      "wanyá»ĭ": 4817,
      "ĠCop": 4818,
      "ĠProgram": 4819,
      "Ġplan": 4820,
      "anetá»ĭ": 4821,
      "ĠInc": 4822,
      "Ġvan": 4823,
      "ĠAtlantic": 4824,
      "AR": 4825,
      "aged": 4826,
      "Ġakaebe": 4827,
      "ĠngwÃ¡": 4828,
      "Ġ1940": 4829,
      "ribution": 4830,
      "Ġá»įmá»¥maatá»¥": 4831,
      "Ġjud": 4832,
      "Ġsymb": 4833,
      "Ġspecific": 4834,
      "Ġá»ĭmepá»¥ta": 4835,
      "ength": 4836,
      "kin": 4837,
      "Ã¤": 4838,
      "irit": 4839,
      "Ġprot": 4840,
      "Ġmechan": 4841,
      "isiala": 4842,
      "Ġcri": 4843,
      "ĠQueen": 4844,
      "Ġris": 4845,
      "ĠStar": 4846,
      "akpata": 4847,
      "Ġeziokwu": 4848,
      "Ġeffects": 4849,
      "Ġrequired": 4850,
      "Ġindividual": 4851,
      "Ġcult": 4852,
      "ĠBron": 4853,
      "abeth": 4854,
      "alk": 4855,
      "odes": 4856,
      "ĠJon": 4857,
      "Ġdefin": 4858,
      "Ġnzu": 4859,
      "ĠExp": 4860,
      "Ġtypically": 4861,
      "Ġeventually": 4862,
      "ĠZealand": 4863,
      "Ġ#": 4864,
      "edy": 4865,
      "ĠIts": 4866,
      "Ġclose": 4867,
      "elves": 4868,
      "ĠOd": 4869,
      "ĠRom": 4870,
      "ĠTom": 4871,
      "iding": 4872,
      "Ġmanufact": 4873,
      "book": 4874,
      "Ġwest": 4875,
      "ĠRadio": 4876,
      "Ġprivate": 4877,
      "uns": 4878,
      "Ġprobab": 4879,
      "ĠOkwu": 4880,
      "kwalite": 4881,
      "ulated": 4882,
      "ivity": 4883,
      "onia": 4884,
      "ĠUnivers": 4885,
      "Ġquant": 4886,
      "ĠGeorg": 4887,
      "Ġhold": 4888,
      "olo": 4889,
      "yan": 4890,
      "Ġchá»ĭ": 4891,
      "Ġokpukpe": 4892,
      "Ġbelieved": 4893,
      "rie": 4894,
      "Ġrap": 4895,
      "Ġndepá»¥ta": 4896,
      "ĠEarly": 4897,
      "igned": 4898,
      "ĠCos": 4899,
      "Ġ1920": 4900,
      "ĠDire": 4901,
      "herlands": 4902,
      "Ġcommonly": 4903,
      "26": 4904,
      "ĠTw": 4905,
      "Ġmkpiri": 4906,
      "Ġonyonyo": 4907,
      "Ġincrease": 4908,
      "achá»ĭkwa": 4909,
      "Ġbara": 4910,
      "á»įká»ĭta": 4911,
      "Ġnature": 4912,
      "Ġmight": 4913,
      "Ġdoro": 4914,
      "Ġmale": 4915,
      "Ġifo": 4916,
      "Ġnká»ĭtá»ĭ": 4917,
      "Ġeserese": 4918,
      "sá»ĭa": 4919,
      "ospital": 4920,
      "Ġgod": 4921,
      "ĠProt": 4922,
      "Ġrecorded": 4923,
      "ziaka": 4924,
      "pá»¥tala": 4925,
      "hire": 4926,
      "Ġhighest": 4927,
      "ĠJewish": 4928,
      "Ġnames": 4929,
      "ĠLeg": 4930,
      "Ġsaw": 4931,
      "board": 4932,
      "ĠBang": 4933,
      "Ġwidely": 4934,
      "BN": 4935,
      "cell": 4936,
      "Ġá»Įná»¥": 4937,
      "inia": 4938,
      "ĠAha": 4939,
      "berede": 4940,
      "ĠArmen": 4941,
      "Ġcharacters": 4942,
      "AM": 4943,
      "ae": 4944,
      "Ġ;": 4945,
      "Ġigbu": 4946,
      "Ġmonths": 4947,
      "Ġntá»¥rá»¥ndá»¥": 4948,
      "Ġcurrent": 4949,
      "Ġgrad": 4950,
      "IS": 4951,
      "Ġeast": 4952,
      "hood": 4953,
      "Ġmajority": 4954,
      "Ġmkpirikpi": 4955,
      "alo": 4956,
      "Ġwuru": 4957,
      "Ġdise": 4958,
      "ĠAlgeria": 4959,
      "Ġubochi": 4960,
      "Ġquest": 4961,
      "Ġ1958": 4962,
      "Ġcaused": 4963,
      "Ġlive": 4964,
      "ĠConf": 4965,
      "Ġdara": 4966,
      "ĠCzech": 4967,
      "Ġeru": 4968,
      "known": 4969,
      "Ġpoet": 4970,
      "ĠOrder": 4971,
      "Ġtypes": 4972,
      "ĠBoston": 4973,
      "29": 4974,
      "ĠJer": 4975,
      "text": 4976,
      "Ġparticip": 4977,
      "Ġdig": 4978,
      "rane": 4979,
      "ĠAba": 4980,
      "ĠHu": 4981,
      "kwo": 4982,
      "Africa": 4983,
      "Ġgra": 4984,
      "Ġproduct": 4985,
      "ĠYoruba": 4986,
      "apá»¥ta": 4987,
      "col": 4988,
      "Ġbrought": 4989,
      "Ġhá»į": 4990,
      "gs": 4991,
      "resp": 4992,
      "Ġresults": 4993,
      "Ġmbu": 4994,
      "Ġaway": 4995,
      "ĠEr": 4996,
      "ability": 4997,
      "Ġ|-": 4998,
      "Ġterritory": 4999,
      "á»¥m": 5000,
      "Ġmission": 5001,
      "ĠMem": 5002,
      "ĠPost": 5003,
      "Ġlack": 5004,
      "ĠNetherlands": 5005,
      "usion": 5006,
      "ĠIjipt": 5007,
      "ĠScotland": 5008,
      "hari": 5009,
      "ĠGood": 5010,
      "Ġremains": 5011,
      "Ġbanye": 5012,
      "Ġchurch": 5013,
      "cement": 5014,
      "ni": 5015,
      "Ġexecut": 5016,
      "Ġcrew": 5017,
      "Ġess": 5018,
      "gwÃł": 5019,
      "itan": 5020,
      "ĠSummer": 5021,
      "year": 5022,
      "ĠGames": 5023,
      "ĠInt": 5024,
      "Ġchanges": 5025,
      "vis": 5026,
      "Ġdyn": 5027,
      "ountain": 5028,
      "anks": 5029,
      "usoro": 5030,
      "amin": 5031,
      "ĠGir": 5032,
      "70": 5033,
      "lov": 5034,
      "ĠCategory": 5035,
      "Ġnorm": 5036,
      "ká»įtara": 5037,
      "Ġjá»¥rá»¥": 5038,
      "Ġprimary": 5039,
      "Ġbrother": 5040,
      "Ġacademic": 5041,
      "Ġjournal": 5042,
      "bour": 5043,
      "ĠBor": 5044,
      "olf": 5045,
      "Ġoutside": 5046,
      "Ġice": 5047,
      "Ġahá»¥há»¥": 5048,
      "Ġsubsequ": 5049,
      "Ġlikely": 5050,
      "ĠNchá»ĭká»įta": 5051,
      "Ġmberede": 5052,
      "ĠRights": 5053,
      "ĠAsá»¥sá»¥": 5054,
      "ĠAnyanwá»¥": 5055,
      "Ġinterpre": 5056,
      "ledge": 5057,
      "TV": 5058,
      "Ġconcent": 5059,
      "Ġconditions": 5060,
      "ghe": 5061,
      "ĠMel": 5062,
      "lying": 5063,
      "Ġá»įdá»ĭdá»ĭ": 5064,
      "och": 5065,
      "Ġmas": 5066,
      "Ġinwe": 5067,
      "Ġreturned": 5068,
      "wana": 5069,
      "ĠPop": 5070,
      "Ġvia": 5071,
      "Ġ1945": 5072,
      "GO": 5073,
      "oses": 5074,
      "isms": 5075,
      "Ġguzobe": 5076,
      "Ġsum": 5077,
      "Ġcover": 5078,
      "poration": 5079,
      "Ġdial": 5080,
      "Ġbank": 5081,
      "Ġself": 5082,
      "idiyo": 5083,
      "ogen": 5084,
      "gins": 5085,
      "Ġnketa": 5086,
      "omm": 5087,
      "Ġenvironment": 5088,
      "45": 5089,
      "ĠNne": 5090,
      "osis": 5091,
      "ĠIrish": 5092,
      "ĠEp": 5093,
      "Ġproducer": 5094,
      "ĠBatman": 5095,
      "Ġsoftware": 5096,
      "inet": 5097,
      "Ġcreat": 5098,
      "aves": 5099,
      "ĠMgbanwe": 5100,
      "ĠTechnology": 5101,
      "Ġmesá»ĭa": 5102,
      "ience": 5103,
      "rs": 5104,
      "nic": 5105,
      "ĠCast": 5106,
      "omer": 5107,
      "car": 5108,
      "Ġappeared": 5109,
      "iled": 5110,
      "Ġliving": 5111,
      "Ġrock": 5112,
      "stra": 5113,
      "mselves": 5114,
      "Ġlonger": 5115,
      "Ġtheor": 5116,
      "Ġ1961": 5117,
      "Ġmostly": 5118,
      "Ġoccup": 5119,
      "onse": 5120,
      "irin": 5121,
      "Ġmkpuchi": 5122,
      "Ġelet": 5123,
      "uries": 5124,
      "asion": 5125,
      "bie": 5126,
      "guz": 5127,
      "kan": 5128,
      "mark": 5129,
      "rd": 5130,
      "ĠOut": 5131,
      "ump": 5132,
      "Ġscreen": 5133,
      "ĠUSA": 5134,
      "umin": 5135,
      "ĠMah": 5136,
      "Ġcome": 5137,
      "Ġubi": 5138,
      "alled": 5139,
      "Ġminista": 5140,
      "Ìģ": 5141,
      "kwÃł": 5142,
      "Ġlegal": 5143,
      "Ġconstruction": 5144,
      "ĠPeace": 5145,
      "Ġpotential": 5146,
      "NC": 5147,
      "Ġregions": 5148,
      "Ġaction": 5149,
      "Ġwriting": 5150,
      "Ġthemselves": 5151,
      "Ġcamp": 5152,
      "ĠSir": 5153,
      "Ġlittle": 5154,
      "ĠChild": 5155,
      "á»¤": 5156,
      "Ġá»įbá»ĭa": 5157,
      "ĠTri": 5158,
      "ĠRome": 5159,
      "Ġproducts": 5160,
      "Ġ80": 5161,
      "Ġblood": 5162,
      "ĠBon": 5163,
      "Ġren": 5164,
      "ibá»ĭa": 5165,
      "ambodo": 5166,
      "mier": 5167,
      "Ġcos": 5168,
      "Ġhon": 5169,
      "ĠEliz": 5170,
      "Ġabalá»ĭ": 5171,
      "Ġcause": 5172,
      "Ġreading": 5173,
      "ĠRecords": 5174,
      "Ġá»įgwá»¥gwá»į": 5175,
      "90": 5176,
      "Ġsound": 5177,
      "Ġá»Įzá»į": 5178,
      "oud": 5179,
      "Ġzutere": 5180,
      "Ġadded": 5181,
      "Ġindependent": 5182,
      "48": 5183,
      "Ġoil": 5184,
      "ĠSus": 5185,
      "adu": 5186,
      "ĠLiter": 5187,
      "ĠSub": 5188,
      "chaa": 5189,
      "Al": 5190,
      "ĠBir": 5191,
      "ograp": 5192,
      "ughter": 5193,
      "Ġreplaced": 5194,
      "pping": 5195,
      "ĠAlbert": 5196,
      "Ġká»įwa": 5197,
      "vo": 5198,
      "isions": 5199,
      "ĠJac": 5200,
      "ĠTurk": 5201,
      "gwÃ¹": 5202,
      "can": 5203,
      "dam": 5204,
      "gor": 5205,
      "rative": 5206,
      "Ġbehavi": 5207,
      "Ġnecess": 5208,
      "Ã§": 5209,
      "Ġdom": 5210,
      "Ġbirth": 5211,
      "tam": 5212,
      "Ġá»ĭká»¥": 5213,
      "riculture": 5214,
      "pro": 5215,
      "ĠWin": 5216,
      "Ġstation": 5217,
      "Ġnson": 5218,
      "Ġejiji": 5219,
      "ners": 5220,
      "Ġceleb": 5221,
      "aving": 5222,
      "Ġizizi": 5223,
      "Ġik": 5224,
      "ension": 5225,
      "Ġpurp": 5226,
      "unicip": 5227,
      "Ġactress": 5228,
      "ĠParliament": 5229,
      "Ġchemical": 5230,
      "ÙĦ": 5231,
      "Ġ<": 5232,
      "Ġdá»ĭghá»ĭ": 5233,
      "Ġ183": 5234,
      "Ã³gbÃ¨": 5235,
      "Ġearlier": 5236,
      "gon": 5237,
      "ká»ĭrá»ĭ": 5238,
      "mma": 5239,
      "Ġgold": 5240,
      "Ġproduce": 5241,
      "Ġregular": 5242,
      "Ġguitar": 5243,
      "kar": 5244,
      "omita": 5245,
      "ĠDepart": 5246,
      "ĠClimate": 5247,
      "aká»į": 5248,
      "Ġdia": 5249,
      "imal": 5250,
      "Ġpractice": 5251,
      "Ġmwe": 5252,
      "Ġshi": 5253,
      "ĠOba": 5254,
      "Ġmbelata": 5255,
      "ĠnkÃ¡": 5256,
      "Ġtoday": 5257,
      "Ġvidiyo": 5258,
      "Ġcho": 5259,
      "Ġwhether": 5260,
      "ĠBol": 5261,
      "egosipá»¥ta": 5262,
      "tanetá»ĭ": 5263,
      "Ġlines": 5264,
      "Ġyoung": 5265,
      "Ġcenter": 5266,
      "akwá»¥": 5267,
      "Ġhom": 5268,
      "Ġtowards": 5269,
      "Ġemploy": 5270,
      "ĠKemgbe": 5271,
      "Ġop": 5272,
      "eds": 5273,
      "Ġazá»¥maahá»ĭa": 5274,
      "Ġcareer": 5275,
      "Ġbreak": 5276,
      "Ġsequ": 5277,
      "ounts": 5278,
      "Ġbaseball": 5279,
      "Ġawa": 5280,
      "ella": 5281,
      "ĠPak": 5282,
      "ĠPrin": 5283,
      "Ġphot": 5284,
      "ĠWales": 5285,
      "Ġschools": 5286,
      "ĠFC": 5287,
      "Ġkwe": 5288,
      "aazá»¥": 5289,
      "Ġredio": 5290,
      "Ġbeginning": 5291,
      "Ġlimited": 5292,
      "Ġleague": 5293,
      "Ġcolla": 5294,
      "annel": 5295,
      "Ġgbo": 5296,
      "Ġoghere": 5297,
      "ĠId": 5298,
      "ĠChampionship": 5299,
      "Ġara": 5300,
      "aru": 5301,
      "Ġfight": 5302,
      "Ġlay": 5303,
      "bur": 5304,
      "eria": 5305,
      "Ġtarget": 5306,
      "iation": 5307,
      "aters": 5308,
      "astic": 5309,
      "Ã©e": 5310,
      "ĠOxford": 5311,
      "Ġpraá»ĭm": 5312,
      "ĠChampionships": 5313,
      "hy": 5314,
      "tra": 5315,
      "Ġbelow": 5316,
      "Ġwebsite": 5317,
      "ĠPacific": 5318,
      "Ġchá»¥": 5319,
      "Ġhistorical": 5320,
      "ĠBah": 5321,
      "ĠWa": 5322,
      "Ġpoints": 5323,
      "Ġpersonal": 5324,
      "sis": 5325,
      "Ġmel": 5326,
      "ĠSenate": 5327,
      "ĠNetwork": 5328,
      "Ġnchebe": 5329,
      "ĠOlympics": 5330,
      "gwoju": 5331,
      "ĠGen": 5332,
      "het": 5333,
      "ĠÃĴtÃ¹": 5334,
      "ekp": 5335,
      "ĠAw": 5336,
      "Ġcultural": 5337,
      "Ġelectric": 5338,
      "Ġhor": 5339,
      "abá»ĭa": 5340,
      "ĠManagement": 5341,
      "Ġkwá»¥sá»ĭ": 5342,
      "ĠCommunity": 5343,
      "ezie": 5344,
      "Ġpain": 5345,
      "ider": 5346,
      "Ġstated": 5347,
      "ĠAnother": 5348,
      "Ġ1959": 5349,
      "Ġká»įleji": 5350,
      "Ġstudies": 5351,
      "ĠMuslim": 5352,
      "Ġproblems": 5353,
      "Ġvehic": 5354,
      "fufe": 5355,
      "Ġakpá»¥": 5356,
      "ĠSara": 5357,
      "ĠMajor": 5358,
      "Ġloss": 5359,
      "Ġ1956": 5360,
      "uals": 5361,
      "Ã©rÃ©": 5362,
      "inds": 5363,
      "ĠMore": 5364,
      "Ġdefined": 5365,
      "Ġdescription": 5366,
      "Ġmedia": 5367,
      "reedom": 5368,
      "ĠDepartment": 5369,
      "reement": 5370,
      "ĠBob": 5371,
      "Ġ1957": 5372,
      "bus": 5373,
      "ĠFred": 5374,
      "Ġopt": 5375,
      "isa": 5376,
      "ĠMen": 5377,
      "ĠIran": 5378,
      "Ġacqu": 5379,
      "Ġcenturies": 5380,
      "Ġ1948": 5381,
      "Ġappoint": 5382,
      "ĠWilliams": 5383,
      "rá»¥ngwa": 5384,
      "á»ĭkal": 5385,
      "Ġworking": 5386,
      "ejikará»ĭ": 5387,
      "lines": 5388,
      "ĠKans": 5389,
      "Ġ1952": 5390,
      "Ġpaint": 5391,
      "Ġkilomita": 5392,
      "RA": 5393,
      "icine": 5394,
      "ĠUnder": 5395,
      "ĠCommonwe": 5396,
      "ĠCur": 5397,
      "ewu": 5398,
      "Ġvariety": 5399,
      "ĠCommonwealth": 5400,
      "bro": 5401,
      "ded": 5402,
      "ression": 5403,
      "Ġrequire": 5404,
      "IV": 5405,
      "Ġoffice": 5406,
      "pected": 5407,
      "Ġpolicy": 5408,
      "uer": 5409,
      "ĠFell": 5410,
      "Ġá»įá¹ħá»¥": 5411,
      "athon": 5412,
      "irds": 5413,
      "ĠNob": 5414,
      "uliaka": 5415,
      "igwe": 5416,
      "izing": 5417,
      "Ġá»įdá»ĭiche": 5418,
      "anned": 5419,
      "ĠTem": 5420,
      "ĠTwo": 5421,
      "ĠBet": 5422,
      "ĠPlay": 5423,
      "ĠOper": 5424,
      "raá»ĭst": 5425,
      "aw": 5426,
      "ezo": 5427,
      "ĠMovement": 5428,
      "ĠElizabeth": 5429,
      "Ġalways": 5430,
      "Ġatom": 5431,
      "ĠMmetá»¥ta": 5432,
      "Ġestimated": 5433,
      "ĠSeries": 5434,
      "Ġislands": 5435,
      "ĠArticles": 5436,
      "Ġdiscovered": 5437,
      "Ġriver": 5438,
      "Ġtravel": 5439,
      "ĠCyp": 5440,
      "Ġdeta": 5441,
      "Ġsmaller": 5442,
      "ĠLimited": 5443,
      "Ġtroops": 5444,
      "Ġdam": 5445,
      "ando": 5446,
      "ĠKad": 5447,
      "ĠChap": 5448,
      "iana": 5449,
      "BS": 5450,
      "city": 5451,
      "ĠKraá»ĭst": 5452,
      "Ġyou": 5453,
      "Ġphysical": 5454,
      "ez": 5455,
      "Ġeche": 5456,
      "ĠTime": 5457,
      "Ġbeh": 5458,
      "ĠOtt": 5459,
      "Ġkemá»ĭkal": 5460,
      "Ġanalysis": 5461,
      "ios": 5462,
      "uck": 5463,
      "lah": 5464,
      "athan": 5465,
      "ĠJean": 5466,
      "Ġnkwupá»¥ta": 5467,
      "head": 5468,
      "ĠCard": 5469,
      "ĠGal": 5470,
      "Ġagbanwe": 5471,
      "Ġdirectly": 5472,
      "Ġbul": 5473,
      "ĠInf": 5474,
      "Ġá»ĭkwá»¥": 5475,
      "ĠAri": 5476,
      "Ġsoro": 5477,
      "ĠAlban": 5478,
      "Ġrecent": 5479,
      "Ġremov": 5480,
      "ĠMorocco": 5481,
      "Ġeas": 5482,
      "igen": 5483,
      "Ġá»įkpá»¥kpá»¥": 5484,
      "Ġunits": 5485,
      "ĠDaniel": 5486,
      "Ġx": 5487,
      "Ġamp": 5488,
      "Ġsitu": 5489,
      "Ġnjá»į": 5490,
      "lia": 5491,
      "isher": 5492,
      "Ġasambodo": 5493,
      "ciences": 5494,
      "Ġproperties": 5495,
      "ĠAbá»¥á»į": 5496,
      "ĠCorn": 5497,
      "ĠLes": 5498,
      "era": 5499,
      "ori": 5500,
      "á»įá»įmenti": 5501,
      "Ġcard": 5502,
      "ĠBre": 5503,
      "Ġproblem": 5504,
      "ented": 5505,
      "emegide": 5506,
      "ĠAnambra": 5507,
      "Ġmmá»¥ba": 5508,
      "Ġflu": 5509,
      "allen": 5510,
      "nia": 5511,
      "Ġnar": 5512,
      "chae": 5513,
      "sec": 5514,
      "ĠEdward": 5515,
      "gely": 5516,
      "aram": 5517,
      "ux": 5518,
      "usa": 5519,
      "ĠLew": 5520,
      "ĠTupu": 5521,
      "ĠGreg": 5522,
      "Ġreached": 5523,
      "ĠTheatre": 5524,
      "Ġunit": 5525,
      "Ġntuliaka": 5526,
      "Ġ35": 5527,
      "ĠCamp": 5528,
      "Ġdeal": 5529,
      "chapá»¥": 5530,
      "ĠAnton": 5531,
      "Ġ1955": 5532,
      "wale": 5533,
      "ĠSund": 5534,
      "akpa": 5535,
      "Ġinvolved": 5536,
      "anguage": 5537,
      "Ġminor": 5538,
      "Ġproposed": 5539,
      "ĠMedia": 5540,
      "Ġede": 5541,
      "ĠEgwuregwu": 5542,
      "ĠMpaghara": 5543,
      "ĠFer": 5544,
      "anyi": 5545,
      "ographic": 5546,
      "Ġmultiple": 5547,
      "Ġconcept": 5548,
      "Ġseven": 5549,
      "water": 5550,
      "opp": 5551,
      "Ġvir": 5552,
      "Ġplant": 5553,
      "ĠBuhari": 5554,
      "Ġakpa": 5555,
      "ĠCroatia": 5556,
      "sue": 5557,
      "ologist": 5558,
      "idents": 5559,
      "ĠAM": 5560,
      "ĠLin": 5561,
      "ĠChile": 5562,
      "Ã±": 5563,
      "ĠUr": 5564,
      "Ġdika": 5565,
      "Ġboard": 5566,
      "Ġaffect": 5567,
      "ĠScottish": 5568,
      "Ġtemperature": 5569,
      "Ġscholars": 5570,
      "anded": 5571,
      "ĠChad": 5572,
      "Ġhous": 5573,
      "ĠDam": 5574,
      "ready": 5575,
      "\"),": 5576,
      "efu": 5577,
      "Ġseparate": 5578,
      "Ġprevent": 5579,
      "ĠCommittee": 5580,
      "ĠOkÃ©": 5581,
      "Ġanimals": 5582,
      "ygen": 5583,
      "Â°": 5584,
      "Ġelected": 5585,
      "Ġstudents": 5586,
      "zaghachi": 5587,
      "verse": 5588,
      "heast": 5589,
      "ĠNic": 5590,
      "Ġadapt": 5591,
      "Ġhá»įá»įrá»į": 5592,
      "eyi": 5593,
      "Ġfuture": 5594,
      "ĠJim": 5595,
      "ĠIndepend": 5596,
      "rice": 5597,
      "Ġreason": 5598,
      "inea": 5599,
      "Ġemeela": 5600,
      "Ġtreatment": 5601,
      "aled": 5602,
      "Ġbene": 5603,
      "Ġlook": 5604,
      "Ġugo": 5605,
      "ĠmgbÃ¨": 5606,
      "Ġdistinct": 5607,
      "Ġcorresp": 5608,
      "Ġdocument": 5609,
      "erede": 5610,
      "ĠBall": 5611,
      "Ġlength": 5612,
      "estic": 5613,
      "icient": 5614,
      "Ġgreater": 5615,
      "ĠElect": 5616,
      "ĠLord": 5617,
      "Ġá»ĭm": 5618,
      "Ã²": 5619,
      "Ġngá»¥": 5620,
      "ĠÃ¹": 5621,
      "FL": 5622,
      "oji": 5623,
      "Ġmole": 5624,
      "oting": 5625,
      "umba": 5626,
      "á»įná»¥": 5627,
      "Ġfell": 5628,
      "Ġhyp": 5629,
      "Ġnation": 5630,
      "Ġcomplete": 5631,
      "Ġogbenye": 5632,
      "ĪĴ": 5633,
      "Ġfront": 5634,
      "ube": 5635,
      "ĠWay": 5636,
      "Ġederede": 5637,
      "Ġexpla": 5638,
      "ĠRevolution": 5639,
      "ĠDivision": 5640,
      "49": 5641,
      "lem": 5642,
      "putara": 5643,
      "Ġtechnology": 5644,
      "hat": 5645,
      "Ġoperations": 5646,
      "azz": 5647,
      "Ġmagazin": 5648,
      "Ġhit": 5649,
      "ghá»ĭm": 5650,
      "2015": 5651,
      "Ġá»¥má»¥nwanyá»ĭ": 5652,
      "ĠRail": 5653,
      "ej": 5654,
      "Ġbatt": 5655,
      "Ġaká»¥rá»¥ngwa": 5656,
      "ĠðŁİ": 5657,
      "Ġbound": 5658,
      "Ġera": 5659,
      "ĠRoad": 5660,
      "Ġijeri": 5661,
      "Ġeight": 5662,
      "ĠSA": 5663,
      "ĠUk": 5664,
      "Ġoffic": 5665,
      "illage": 5666,
      "biri": 5667,
      "Ġeg": 5668,
      "asons": 5669,
      "Ġwhom": 5670,
      "Ġhiwere": 5671,
      "Ġnghá»įta": 5672,
      "Ġlog": 5673,
      "46": 5674,
      "ĠAgb": 5675,
      "ĠMaga": 5676,
      "Ġlargely": 5677,
      "Ġcollection": 5678,
      "ĠVictoria": 5679,
      "onic": 5680,
      "ĠHow": 5681,
      "43": 5682,
      "Ġemere": 5683,
      "Ġdiscuss": 5684,
      "Ġá»įganihu": 5685,
      "Ġlatter": 5686,
      "ambia": 5687,
      "Ġcat": 5688,
      "ĠEngine": 5689,
      "gent": 5690,
      "nes": 5691,
      "Ġpay": 5692,
      "ĠBad": 5693,
      "umb": 5694,
      "Ġplaced": 5695,
      "wide": 5696,
      "ĠCla": 5697,
      "ĠWater": 5698,
      "Ġnumerous": 5699,
      "Ġbasketball": 5700,
      "ĠContemporary": 5701,
      "ĠOlympic": 5702,
      "eduga": 5703,
      "Ġapproximately": 5704,
      "ĠJes": 5705,
      "ebiri": 5706,
      "ĠMark": 5707,
      "ĠBla": 5708,
      "ĠPolit": 5709,
      "ĠVirginia": 5710,
      "kins": 5711,
      "Ġagaghá»ĭ": 5712,
      "Ġsupported": 5713,
      "Ġperformed": 5714,
      "75": 5715,
      "Ġgive": 5716,
      "ĠRam": 5717,
      "hapá»¥rá»¥": 5718,
      "ĠProdu": 5719,
      "</": 5720,
      "Ġ1954": 5721,
      "ĠNtá»¥aka": 5722,
      "tery": 5723,
      "ĠWood": 5724,
      "Ġremain": 5725,
      "coh": 5726,
      "Ġbetter": 5727,
      "2018": 5728,
      "ech": 5729,
      "Ġcut": 5730,
      "Ġfish": 5731,
      "Ġfeder": 5732,
      "ĠSay": 5733,
      "Ġrelatively": 5734,
      "ĠLake": 5735,
      "Ġoriginally": 5736,
      "lanta": 5737,
      "ĠMbido": 5738,
      "atá»ĭ": 5739,
      "Ġrank": 5740,
      "iano": 5741,
      "ierra": 5742,
      "ietnam": 5743,
      "Ġinstitut": 5744,
      "ĠPub": 5745,
      "aha": 5746,
      "ĠAy": 5747,
      "Ġ70": 5748,
      "Ġmention": 5749,
      "ĠNat": 5750,
      "ĠTim": 5751,
      "ĠLong": 5752,
      "ĠFort": 5753,
      "Ġnearly": 5754,
      "2007": 5755,
      "vard": 5756,
      "Ġ1949": 5757,
      "Ġflight": 5758,
      "wi": 5759,
      "Ġikwu": 5760,
      "guese": 5761,
      "puta": 5762,
      "ĠFund": 5763,
      "ká»¥ba": 5764,
      "2006": 5765,
      "IA": 5766,
      "han": 5767,
      "Ġklas": 5768,
      "ĠProv": 5769,
      "eoples": 5770,
      "ĠBelgium": 5771,
      "ndá»ĭ": 5772,
      "ĠCy": 5773,
      "Ġnnu": 5774,
      "ĠYouth": 5775,
      "Ġprevious": 5776,
      "kwem": 5777,
      "ĠDar": 5778,
      "ĠStand": 5779,
      "ĠMaachá»ĭ": 5780,
      "ette": 5781,
      "ĠNavy": 5782,
      "ĠBooks": 5783,
      "ejiká»įta": 5784,
      "ĠCarl": 5785,
      "Ġprimar": 5786,
      "Ġtrib": 5787,
      "á»ĭbá»¥": 5788,
      "oxide": 5789,
      "Ġadopted": 5790,
      "Ġpath": 5791,
      "ughe": 5792,
      "ĠNj": 5793,
      "ĠMars": 5794,
      "rass": 5795,
      "ying": 5796,
      "ĠAmaz": 5797,
      "bed": 5798,
      "Ġsurround": 5799,
      "Ġfinancial": 5800,
      "ĠBroad": 5801,
      "Ġnleta": 5802,
      "á»įd": 5803,
      "erá»¥": 5804,
      "Ġá»įdá»į": 5805,
      "osiri": 5806,
      "ĠFree": 5807,
      "has": 5808,
      "hia": 5809,
      "using": 5810,
      "ĠHous": 5811,
      "Ġwriters": 5812,
      "Ġcred": 5813,
      "Ġprá»įfesá»į": 5814,
      "ĠAff": 5815,
      "Ġdivided": 5816,
      "ĠEnter": 5817,
      "Ġadditional": 5818,
      "ĠTurkey": 5819,
      "ĠJews": 5820,
      "pere": 5821,
      "Ġá»ĭb": 5822,
      "Ġleader": 5823,
      "35": 5824,
      "Ġiko": 5825,
      "ultan": 5826,
      "Ġidea": 5827,
      "ĠÃ¹gwÃ¹": 5828,
      "citation": 5829,
      "Ġrá»ĭ": 5830,
      "kets": 5831,
      "Ġwestern": 5832,
      "Ġalready": 5833,
      "Ġcoal": 5834,
      "ĠAber": 5835,
      "oli": 5836,
      "Ġdiss": 5837,
      "Ġresponse": 5838,
      "odia": 5839,
      "Ġ1947": 5840,
      "Ġstatus": 5841,
      "Ġá»Įná»įdá»¥": 5842,
      "Ġmá»¥": 5843,
      "Ġcost": 5844,
      "alls": 5845,
      "Ġepis": 5846,
      "ĠAtlanta": 5847,
      "ĠCorporation": 5848,
      "ĠAge": 5849,
      "ĠFl": 5850,
      "ronic": 5851,
      "Ġhighly": 5852,
      "Ġdestroy": 5853,
      "Ġhtt": 5854,
      "ĠAmericans": 5855,
      "2017": 5856,
      "á»įmkwem": 5857,
      "MA": 5858,
      "Ġkwenyere": 5859,
      "ĠAlliance": 5860,
      "Ġfunctions": 5861,
      "zuru": 5862,
      "Ġneigh": 5863,
      "ĠPrime": 5864,
      "mas": 5865,
      "olved": 5866,
      "overy": 5867,
      "ĠSweden": 5868,
      "500": 5869,
      "ensus": 5870,
      "Ġmarried": 5871,
      "ĠOgun": 5872,
      "ĠTal": 5873,
      "ĠFootball": 5874,
      "ĠUp": 5875,
      "2005": 5876,
      "2016": 5877,
      "__": 5878,
      "odies": 5879,
      "Ġcolor": 5880,
      "ilipp": 5881,
      "Ġletter": 5882,
      "td": 5883,
      "orough": 5884,
      "Ġwife": 5885,
      "2010": 5886,
      "Ġindependence": 5887,
      "ĠÂ°": 5888,
      "ĠNká»įwa": 5889,
      "iah": 5890,
      "Ġ180": 5891,
      "Ġcust": 5892,
      "Ġperformance": 5893,
      "zz": 5894,
      "gebra": 5895,
      "ĠCE": 5896,
      "ĠGab": 5897,
      "Ġclimate": 5898,
      "adá»ĭbeghá»ĭ": 5899,
      "Ġstage": 5900,
      "Ġsie": 5901,
      "Ġwood": 5902,
      "Ġfle": 5903,
      "lected": 5904,
      "dex": 5905,
      "ĠIndust": 5906,
      "Ġcapt": 5907,
      "ĠJun": 5908,
      "Ġkará»ĭsá»ĭa": 5909,
      "itter": 5910,
      "Ġexc": 5911,
      "Ġincor": 5912,
      "Ġrelease": 5913,
      "Ġconflic": 5914,
      "Ġá»įá¹ħá»¥á¹ħá»¥": 5915,
      "bar": 5916,
      "mond": 5917,
      "Ġnlere": 5918,
      "ĠMand": 5919,
      "ĠMaster": 5920,
      "ills": 5921,
      "ĠVietnam": 5922,
      "chief": 5923,
      "aches": 5924,
      "ĠAbuja": 5925,
      "bÃ©": 5926,
      "Ġthous": 5927,
      "ellig": 5928,
      "ĠJackson": 5929,
      "Ġikpo": 5930,
      "Ġsociety": 5931,
      "Ġever": 5932,
      "izations": 5933,
      "Ã¡n": 5934,
      "reng": 5935,
      "ĠAndrew": 5936,
      "Ġgran": 5937,
      "Ġonwa": 5938,
      "ulations": 5939,
      "asty": 5940,
      "ferred": 5941,
      "Ġnchara": 5942,
      "Ġcry": 5943,
      "ĠOlu": 5944,
      "Ġkwalite": 5945,
      "Ġnit": 5946,
      "ĠSat": 5947,
      "olis": 5948,
      "ĠTour": 5949,
      "Ġimplement": 5950,
      "má»įrá»¥": 5951,
      "Ġmainly": 5952,
      "Ġot": 5953,
      "Ġbache": 5954,
      "Ġdee": 5955,
      "Ã³n": 5956,
      "alá»¥": 5957,
      "ĠTha": 5958,
      "Ġjidere": 5959,
      "well": 5960,
      "ĠDie": 5961,
      "ĠAsh": 5962,
      "Ġá»įgbá»į": 5963,
      "Ġdraw": 5964,
      "Ġfla": 5965,
      "agá»¥nye": 5966,
      "Ġamount": 5967,
      "Ġactive": 5968,
      "Ġfra": 5969,
      "ĠOfficial": 5970,
      "mal": 5971,
      "Ġdá»įká»ĭta": 5972,
      "lues": 5973,
      "ressed": 5974,
      "Ġmgbagwoju": 5975,
      "2012": 5976,
      "Ġozugbo": 5977,
      "obile": 5978,
      "ĠFederation": 5979,
      "ĠBible": 5980,
      "2011": 5981,
      "onav": 5982,
      "Ġifufe": 5983,
      "ĠSqu": 5984,
      "Ġbekee": 5985,
      "Ġnsá»įpá»¥rá»¥": 5986,
      "ipp": 5987,
      "Ġult": 5988,
      "riage": 5989,
      "ĠPortuguese": 5990,
      "Ġships": 5991,
      "Ġpun": 5992,
      "Ġá»¤lá»įikpe": 5993,
      "chester": 5994,
      "Ġprint": 5995,
      "Ġdialect": 5996,
      "arter": 5997,
      "Ġofesi": 5998,
      "Ġmepere": 5999,
      "Ġcompon": 6000,
      "iki": 6001,
      "hem": 6002,
      "Ġthreat": 6003,
      "Ġcomplet": 6004,
      "Ġcreate": 6005,
      "33": 6006,
      "kpere": 6007,
      "ĠKano": 6008,
      "ĠVen": 6009,
      "2019": 6010,
      "Ġplants": 6011,
      "Ġtherefore": 6012,
      "Ġcentre": 6013,
      "asá»įmpi": 6014,
      "Ġconsum": 6015,
      "osing": 6016,
      "ĠOrganization": 6017,
      "já»į": 6018,
      "ĠEti": 6019,
      "ĠFine": 6020,
      "Ġreview": 6021,
      "bean": 6022,
      "rá»ĭrá»ĭ": 6023,
      "Ġ90": 6024,
      "zerba": 6025,
      "terdam": 6026,
      "ĠImo": 6027,
      "ĠPla": 6028,
      "Ġcontains": 6029,
      "elled": 6030,
      "Ġ1944": 6031,
      "2008": 6032,
      "itzerland": 6033,
      "rete": 6034,
      "ĠTop": 6035,
      "Ġmkpesa": 6036,
      "Ġowuwu": 6037,
      "zerbaij": 6038,
      "vest": 6039,
      "ĠGovern": 6040,
      "ĠSecret": 6041,
      "Ġcast": 6042,
      "ĠMot": 6043,
      "ĠHot": 6044,
      "ĠRu": 6045,
      "ĠTai": 6046,
      "\">": 6047,
      "á»įdá»ĭ": 6048,
      "Ġcou": 6049,
      "mem": 6050,
      "Ġconqu": 6051,
      "mann": 6052,
      "Ġju": 6053,
      "ansion": 6054,
      "99": 6055,
      "uate": 6056,
      "Ġlara": 6057,
      "ĠLand": 6058,
      "uments": 6059,
      "range": 6060,
      "ternet": 6061,
      "Ġ1953": 6062,
      "Ġará»¥má»įrá»¥": 6063,
      "ĠEconomic": 6064,
      "ĠLewis": 6065,
      "agha": 6066,
      "ĠAch": 6067,
      "Ġlevels": 6068,
      "má»ĭ": 6069,
      "ĠFrancisco": 6070,
      "mir": 6071,
      "Ġkpá»įmkwem": 6072,
      "As": 6073,
      "gwriter": 6074,
      "Ġkpebiri": 6075,
      "Ġamá»¥ma": 6076,
      "Ġunderst": 6077,
      "Ġpp": 6078,
      "kwaa": 6079,
      "Ġextreme": 6080,
      "Ġojiji": 6081,
      "ĠSierra": 6082,
      "Ġpoor": 6083,
      "Ġmethods": 6084,
      "gorith": 6085,
      "alle": 6086,
      "Ġget": 6087,
      "ĠSene": 6088,
      "thur": 6089,
      "Ġshows": 6090,
      "Ġhá»įpá»¥ta": 6091,
      "ĠFam": 6092,
      "ege": 6093,
      "igan": 6094,
      "otswana": 6095,
      "ares": 6096,
      "Ġpie": 6097,
      "ĠDC": 6098,
      "ĠVan": 6099,
      "Ġopened": 6100,
      "ĠBuddha": 6101,
      "Ġwant": 6102,
      "ami": 6103,
      "ĠOver": 6104,
      "ĠFollow": 6105,
      "Ġissue": 6106,
      "Ġchá»įpá»¥ta": 6107,
      "ennis": 6108,
      "Ġartists": 6109,
      "Ġwide": 6110,
      "eld": 6111,
      "Ġweek": 6112,
      "Ġcells": 6113,
      "fra": 6114,
      "Ġcitiz": 6115,
      "ĠPala": 6116,
      "okporo": 6117,
      "ĠCountry": 6118,
      "Ġmeasure": 6119,
      "igara": 6120,
      "ĠGuinea": 6121,
      "Ġimmedi": 6122,
      "ĠAmerá»ĭka": 6123,
      "Ġnsonaazá»¥": 6124,
      "Ġnaghá»ĭ": 6125,
      "ĠMoon": 6126,
      "unar": 6127,
      "Ġtraining": 6128,
      "iji": 6129,
      "ĠFore": 6130,
      "ĠStep": 6131,
      "ĠPhilipp": 6132,
      "65": 6133,
      "vement": 6134,
      "ĠAgá»¥": 6135,
      "woke": 6136,
      "Ġbri": 6137,
      "rying": 6138,
      "ĠBuddh": 6139,
      "ĠOt": 6140,
      "ticle": 6141,
      "Ġ1946": 6142,
      "Ġprior": 6143,
      "Ġrules": 6144,
      "ĠAzerbaij": 6145,
      "adel": 6146,
      "inton": 6147,
      "ĠAnglic": 6148,
      "ĠSwitzerland": 6149,
      "Ġinfluenced": 6150,
      "Ġdisplay": 6151,
      "Ġdegree": 6152,
      "Ġdram": 6153,
      "Ġarg": 6154,
      "Ġachá»ĭ": 6155,
      "ĠRos": 6156,
      "ĠAhmed": 6157,
      "Ġekwesá»ĭ": 6158,
      "lies": 6159,
      "ĠAz": 6160,
      "usal": 6161,
      "Ġoxygen": 6162,
      "Ä«": 6163,
      "Ġcounter": 6164,
      "Ġcompared": 6165,
      "Ġsoon": 6166,
      "gasá»ĭ": 6167,
      "Ġdrug": 6168,
      "ĠBlue": 6169,
      "ĠFil": 6170,
      "ĠThat": 6171,
      "Ġissues": 6172,
      "onavirus": 6173,
      "ete": 6174,
      "ĠRock": 6175,
      "Ġshown": 6176,
      "ĠirÃŃ": 6177,
      "ĠOttoman": 6178,
      "zÃŃ": 6179,
      "Ġebi": 6180,
      "ĠStan": 6181,
      "Ġperform": 6182,
      "Ġ1951": 6183,
      "ĠCharl": 6184,
      "ĠJustice": 6185,
      "nov": 6186,
      "oe": 6187,
      "tation": 6188,
      "ancy": 6189,
      "Ġdate": 6190,
      "Ġmmeghará»ĭ": 6191,
      "Ġnetw": 6192,
      "ĠAga": 6193,
      "ĠPDP": 6194,
      "Ġnoted": 6195,
      "ĠBrook": 6196,
      "Ġá»įgbaká»į": 6197,
      "Ġchere": 6198,
      "ĠIll": 6199,
      "Ġná»įchiri": 6200,
      "Ġnyochaa": 6201,
      "Ġappears": 6202,
      "Ġmatter": 6203,
      "ĠGeorgia": 6204,
      "Ġhop": 6205,
      "ĠOcean": 6206,
      "Ġprimarily": 6207,
      "life": 6208,
      "waanyá»ĭ": 6209,
      "ogue": 6210,
      "ĠBec": 6211,
      "Ġebere": 6212,
      "Ġartist": 6213,
      "Ġclaimed": 6214,
      "Ġpressure": 6215,
      "ĠAhá»¥": 6216,
      "Ġcand": 6217,
      "ĠAfro": 6218,
      "Ġná»įgidere": 6219,
      "Ġhydrogen": 6220,
      "Ġship": 6221,
      "Ġsports": 6222,
      "Ġquick": 6223,
      "Ġactivity": 6224,
      "ĠTanz": 6225,
      "oment": 6226,
      "Ġá»įká»¥ká»¥": 6227,
      "ned": 6228,
      "Ġefu": 6229,
      "Ġmakes": 6230,
      "uls": 6231,
      "2004": 6232,
      "Ġstudio": 6233,
      "Ġpraá»ĭmará»ĭ": 6234,
      "Un": 6235,
      "bet": 6236,
      "ĠAv": 6237,
      "Ġkpo": 6238,
      "cious": 6239,
      "Ġspect": 6240,
      "Ġchanged": 6241,
      "Ġbact": 6242,
      "Ġborder": 6243,
      "Ġpromin": 6244,
      "Ġwhole": 6245,
      "Ġcompleted": 6246,
      "left": 6247,
      "ĠEc": 6248,
      "lá»įtá»į": 6249,
      "Ġconta": 6250,
      "Ġinsp": 6251,
      "Ġtable": 6252,
      "asá»į": 6253,
      "ĠTre": 6254,
      "Ġspread": 6255,
      "anning": 6256,
      "Ġkwaga": 6257,
      "ĠAfghanistan": 6258,
      "Ġclear": 6259,
      "Ġcannot": 6260,
      "2013": 6261,
      "gi": 6262,
      "mitted": 6263,
      "Ġliterature": 6264,
      "Ġbenef": 6265,
      "Ġeastern": 6266,
      "Ġbasis": 6267,
      "ĠOffice": 6268,
      "Ġlegisl": 6269,
      "Ġgbochie": 6270,
      "bury": 6271,
      "ĠPenn": 6272,
      "ĠColor": 6273,
      "Ġfemale": 6274,
      "Ġjoined": 6275,
      "itors": 6276,
      "Ġonyeisiala": 6277,
      "ĠWrit": 6278,
      "okÃ©": 6279,
      "Ġá»įná»¥á»įgá»¥": 6280,
      "Ġá»¥gbá»įelu": 6281,
      "ĠÃ²kÃ¨": 6282,
      "100": 6283,
      "eke": 6284,
      "Ġsamp": 6285,
      "ĠCle": 6286,
      "urches": 6287,
      "2009": 6288,
      "ĠShar": 6289,
      "Ġfamous": 6290,
      "Ġrepresented": 6291,
      "ĠPremier": 6292,
      "Ġsuggested": 6293,
      "ĠFollowing": 6294,
      "yes": 6295,
      "uset": 6296,
      "ibbean": 6297,
      "icted": 6298,
      "Ġaccomp": 6299,
      "ER": 6300,
      "ĠAtá»¥": 6301,
      "rown": 6302,
      "raq": 6303,
      "racy": 6304,
      "ĠGreece": 6305,
      "TO": 6306,
      "mers": 6307,
      "ĠAnth": 6308,
      "rupt": 6309,
      "Ġ500": 6310,
      "Ġnzuzo": 6311,
      "Ġprobably": 6312,
      "ĠNobel": 6313,
      "Ġsens": 6314,
      "eda": 6315,
      "ĠDip": 6316,
      "ĠJuun": 6317,
      "Ġproperty": 6318,
      "usc": 6319,
      "ĠKenn": 6320,
      "Ġnná»įchite": 6321,
      "67": 6322,
      "ĠSon": 6323,
      "Ġgá»¥": 6324,
      "Ġprofessional": 6325,
      "á»¥mdi": 6326,
      "ises": 6327,
      "Ġenough": 6328,
      "Ġheavy": 6329,
      "Ġmemory": 6330,
      "Ġmusical": 6331,
      "Ġwind": 6332,
      "kwasá»ĭrá»ĭ": 6333,
      "ĠTreat": 6334,
      "ĠBotswana": 6335,
      "ĠShort": 6336,
      "efe": 6337,
      "Ġcontroll": 6338,
      "ĠAustria": 6339,
      "Ġeriri": 6340,
      "iques": 6341,
      "Ġforced": 6342,
      "ante": 6343,
      "ixed": 6344,
      "yond": 6345,
      "alia": 6346,
      "ĠNt": 6347,
      "ĠNol": 6348,
      "Ġimpact": 6349,
      "Ġbuildings": 6350,
      "95": 6351,
      "aling": 6352,
      "ĠBru": 6353,
      "Ġlif": 6354,
      "Ġá»ĭmá»¥": 6355,
      "Ġworked": 6356,
      "Ġlocation": 6357,
      "LA": 6358,
      "bÃ¡": 6359,
      "fect": 6360,
      "ĠAj": 6361,
      "olite": 6362,
      "Ġconver": 6363,
      "Ġcarried": 6364,
      "cape": 6365,
      "Onye": 6366,
      "Ġnan": 6367,
      "ĠCairo": 6368,
      "ĠMich": 6369,
      "Ġwegha": 6370,
      "uputa": 6371,
      "Ġinjinia": 6372,
      "rine": 6373,
      "Ġsac": 6374,
      "ĠSar": 6375,
      "ockey": 6376,
      "oken": 6377,
      "ĠEnd": 6378,
      "ĠEdems": 6379,
      "Ġsquare": 6380,
      "itage": 6381,
      "Ġdone": 6382,
      "ĠLeb": 6383,
      "Ġ400": 6384,
      "undred": 6385,
      "á»¥sá»į": 6386,
      "Ġresulting": 6387,
      "Ġfederal": 6388,
      "cus": 6389,
      "ilding": 6390,
      "ĠFA": 6391,
      "Ġite": 6392,
      "ĠKorea": 6393,
      "Ġbehind": 6394,
      "44": 6395,
      "atures": 6396,
      "Ġinweta": 6397,
      "ĠEst": 6398,
      "ĠLi": 6399,
      "mÃ¡": 6400,
      "comm": 6401,
      "Ġglobal": 6402,
      "orph": 6403,
      "Ġbal": 6404,
      "Ġstreng": 6405,
      "Ġnkatá»į": 6406,
      "Ġregional": 6407,
      "ĠSamuel": 6408,
      "unt": 6409,
      "raf": 6410,
      "Ġbelief": 6411,
      "Ġearliest": 6412,
      "korita": 6413,
      "ai": 6414,
      "Ã¯": 6415,
      "ĠNGO": 6416,
      "Ġnnyocha": 6417,
      "Ġdaughter": 6418,
      "ĠTanzania": 6419,
      "ĠDuke": 6420,
      "\").": 6421,
      "fin": 6422,
      "itic": 6423,
      "ĠPrá»įfesá»į": 6424,
      "iring": 6425,
      "2020": 6426,
      "ĠPakistan": 6427,
      "rovers": 6428,
      "Ġbá»¥rá»¥kwa": 6429,
      "Ġ1943": 6430,
      "ĠFlorida": 6431,
      "ĠAlfred": 6432,
      "eral": 6433,
      "ĠSpace": 6434,
      "Ġnhá»įrá»į": 6435,
      "Ġá»¥daume": 6436,
      "edic": 6437,
      "ĠAst": 6438,
      "Ġkeep": 6439,
      "2014": 6440,
      "edemede": 6441,
      "ĠFIFA": 6442,
      "Ġcorrespond": 6443,
      "Ġmgbaká»į": 6444,
      "Ġderived": 6445,
      "Ġrelationship": 6446,
      "ĠHospital": 6447,
      "ught": 6448,
      "Ġdivision": 6449,
      "ikpeazá»¥": 6450,
      "Ġnomin": 6451,
      "Ġalpha": 6452,
      "Ã¨zÃŃ": 6453,
      "Ġsimp": 6454,
      "ĠÂ£": 6455,
      "ĠTunisia": 6456,
      "SC": 6457,
      "Ġmá»¥á»į": 6458,
      "ĠAda": 6459,
      "odox": 6460,
      "ĠConference": 6461,
      "Ġ1942": 6462,
      "Ġwriter": 6463,
      "Ġscientific": 6464,
      "GA": 6465,
      "lit": 6466,
      "ĠSand": 6467,
      "igeria": 6468,
      "Ġpaper": 6469,
      "fá»ĭs": 6470,
      "Ġnor": 6471,
      "Ġmwakpo": 6472,
      "ĠHor": 6473,
      "irs": 6474,
      "ountains": 6475,
      "sey": 6476,
      "ĠLabor": 6477,
      "ĠBulgaria": 6478,
      "ojii": 6479,
      "ĠAirport": 6480,
      "ĠAgency": 6481,
      "ĠGram": 6482,
      "Ġalcoh": 6483,
      "ricultural": 6484,
      "ĠLead": 6485,
      "Ġpresence": 6486,
      "Ġdisease": 6487,
      "apá»¥": 6488,
      "pers": 6489,
      "ĠNotes": 6490,
      "ĠCulture": 6491,
      "olar": 6492,
      "Ġcreation": 6493,
      "Ġmaterials": 6494,
      "Ġrisk": 6495,
      "rat": 6496,
      "ĠCat": 6497,
      "Ġlaws": 6498,
      "ĠEnvironmental": 6499,
      "Ġquestion": 6500,
      "wise": 6501,
      "asan": 6502,
      "elt": 6503,
      "ÙĬ": 6504,
      "Ġá»įdá»ĭmma": 6505,
      "ĠBapt": 6506,
      "Ġalternative": 6507,
      "his": 6508,
      "xts": 6509,
      "ombia": 6510,
      "Ġhapá»¥": 6511,
      "Ġgbasaa": 6512,
      "Ġannual": 6513,
      "Ġakwá»¥na": 6514,
      "ĠTurkish": 6515,
      "Ġnlereanya": 6516,
      "Ġstep": 6517,
      "ĠComput": 6518,
      "ĠDespite": 6519,
      "ĠÃ¬gwÃ¨": 6520,
      "bell": 6521,
      "Ġpsych": 6522,
      "ador": 6523,
      "ĠPower": 6524,
      "ĠFour": 6525,
      "Ġrapid": 6526,
      "ibly": 6527,
      "Ġá»ĭrá»ĭba": 6528,
      "2000": 6529,
      "hich": 6530,
      "Ġens": 6531,
      "sea": 6532,
      "ĠIv": 6533,
      "Ġkpá»įá»į": 6534,
      "ĠAdam": 6535,
      "Ġhours": 6536,
      "ĠLy": 6537,
      "Ġrat": 6538,
      "ocol": 6539,
      "luding": 6540,
      "Ġkat": 6541,
      "Ġweap": 6542,
      "Ġround": 6543,
      "Ġzá»¥rá»¥": 6544,
      "Ġmove": 6545,
      "ĠHome": 6546,
      "orders": 6547,
      "Ġplaces": 6548,
      "Ġsoldiers": 6549,
      "Ġcru": 6550,
      "chem": 6551,
      "Ġprovides": 6552,
      "ĠTro": 6553,
      "rac": 6554,
      "venue": 6555,
      "ĠMgbasa": 6556,
      "ĠCarolina": 6557,
      "rier": 6558,
      "enth": 6559,
      "buru": 6560,
      "190": 6561,
      "Ġ1939": 6562,
      "Ġdistrict": 6563,
      "Ġobjects": 6564,
      "Ġtá»įhapá»¥rá»¥": 6565,
      "bes": 6566,
      "Ġoku": 6567,
      "Ġcoach": 6568,
      "ĠHarvard": 6569,
      "Ġphilosopher": 6570,
      "39": 6571,
      "Ġbin": 6572,
      "etro": 6573,
      "ĠÅ": 6574,
      "Ġurban": 6575,
      "ĠJones": 6576,
      "ested": 6577,
      "Ġgbanwe": 6578,
      "Ġsigned": 6579,
      "ĠBello": 6580,
      "ĠJr": 6581,
      "Ġá»ĭba": 6582,
      "Ġwepá»¥rá»¥": 6583,
      "Ġmig": 6584,
      "oni": 6585,
      "Ġá»įká»įlá»įtá»į": 6586,
      "itted": 6587,
      "ulp": 6588,
      "ĠCaribbean": 6589,
      "Ġdemonst": 6590,
      "Ġpeace": 6591,
      "Ġeletrik": 6592,
      "Ġmur": 6593,
      "alu": 6594,
      "irm": 6595,
      "stitu": 6596,
      "ĠAká»¥ká»¥": 6597,
      "rahim": 6598,
      "Ġcompounds": 6599,
      "Ġweak": 6600,
      "ĠIndones": 6601,
      "clus": 6602,
      "Ġá»ĭhá»¥nanya": 6603,
      "Ġogo": 6604,
      "ĠAP": 6605,
      "chirin": 6606,
      "ebo": 6607,
      "ĠAbdul": 6608,
      "ĠSum": 6609,
      "ographer": 6610,
      "chiriná»¥": 6611,
      "azá»į": 6612,
      "Ġach": 6613,
      "ession": 6614,
      "akwadoghá»ĭ": 6615,
      "Ġeke": 6616,
      "rif": 6617,
      "Ġalgorith": 6618,
      "with": 6619,
      "Ġchief": 6620,
      "ĠVi": 6621,
      "Ġgraph": 6622,
      "ctors": 6623,
      "ĠWee": 6624,
      "Ġnkwenye": 6625,
      "Ġá»¥má»¥nne": 6626,
      "ĠNam": 6627,
      "uda": 6628,
      "Ġlands": 6629,
      "Ġindividuals": 6630,
      "hibition": 6631,
      "Ġbecoming": 6632,
      "actions": 6633,
      "cest": 6634,
      "ĠMilitary": 6635,
      "ĠOke": 6636,
      "Ġá»ĭchá»¥": 6637,
      "Ġtaking": 6638,
      "Ġreligion": 6639,
      "ĠSenegal": 6640,
      "inu": 6641,
      "bá»¥rá»¥": 6642,
      "taramahá»¥": 6643,
      "Ġoyiyi": 6644,
      "alism": 6645,
      "Ġuniversity": 6646,
      "resh": 6647,
      "Ġcontract": 6648,
      "Ġgafere": 6649,
      "band": 6650,
      "Ġtá»¥nyere": 6651,
      "Ġpron": 6652,
      "ĠElu": 6653,
      "Ġsubs": 6654,
      "Ġtrue": 6655,
      "%,": 6656,
      "Ġonline": 6657,
      "Ġstars": 6658,
      "Ġamb": 6659,
      "2003": 6660,
      "ĠAlaká»¥ba": 6661,
      "ĠGolden": 6662,
      "Ġvictory": 6663,
      "á»įla": 6664,
      "chen": 6665,
      "ĠEnugu": 6666,
      "ĠSports": 6667,
      "ĠÃ³kÃ¨ala": 6668,
      "Ġinha": 6669,
      "ĠLabour": 6670,
      "Ġletters": 6671,
      "42": 6672,
      "ĠJa": 6673,
      "Ġexperience": 6674,
      "oria": 6675,
      "Ġanthrop": 6676,
      "Ġcle": 6677,
      "ĠSunday": 6678,
      "ĠEtiopia": 6679,
      "bles": 6680,
      "Ġmoney": 6681,
      "ĠShow": 6682,
      "rations": 6683,
      "ĠNk": 6684,
      "ĠnwÃ¨rÃ¨": 6685,
      "ĠWell": 6686,
      "thodox": 6687,
      "Ġcomposed": 6688,
      "Ġekwuola": 6689,
      "taramahá»¥há»¥": 6690,
      "kel": 6691,
      "ĠBia": 6692,
      "ĠIraq": 6693,
      "ĠColombia": 6694,
      "Ġmanager": 6695,
      "Ġbomb": 6696,
      "ĠSong": 6697,
      "uts": 6698,
      "ĠIns": 6699,
      "Ġshare": 6700,
      "Ġdecre": 6701,
      "enha": 6702,
      "Ġsense": 6703,
      "Ġalgebra": 6704,
      "Ġsochiriná»¥": 6705,
      "akpali": 6706,
      "Ġphilosophy": 6707,
      "juputa": 6708,
      "ĠMid": 6709,
      "ĠBoth": 6710,
      "eties": 6711,
      "Ġrise": 6712,
      "ĠKab": 6713,
      "peace": 6714,
      "Ġlekwasá»ĭrá»ĭ": 6715,
      "Ġintended": 6716,
      "Ġreduced": 6717,
      "86": 6718,
      "Ġpil": 6719,
      "oln": 6720,
      "ensity": 6721,
      "Ġdecided": 6722,
      "Ġidentified": 6723,
      "Ġut": 6724,
      "Ġachá»į": 6725,
      "Ġmmekorita": 6726,
      "ĠConfeder": 6727,
      "ĠMagazine": 6728,
      "gÃ¨": 6729,
      "esta": 6730,
      "ĠAction": 6731,
      "Ġcere": 6732,
      "agafe": 6733,
      "ĠAthens": 6734,
      "41": 6735,
      "cop": 6736,
      "ĠOkp": 6737,
      "Ġdeep": 6738,
      "Ġheart": 6739,
      "achuset": 6740,
      "Ġcontrast": 6741,
      "achusetts": 6742,
      "align": 6743,
      "Ġbre": 6744,
      "ĠIkpe": 6745,
      "Ġteams": 6746,
      "Ġindustrial": 6747,
      "Ġá»Įzá»įkwa": 6748,
      "igenous": 6749,
      "%.": 6750,
      "ua": 6751,
      "iling": 6752,
      "ĠBrother": 6753,
      "ĠEthi": 6754,
      "Ġcomposer": 6755,
      "Ġbehavior": 6756,
      "mission": 6757,
      "Ġour": 6758,
      "ĠSpecial": 6759,
      "gby": 6760,
      "Ġexpansion": 6761,
      "ashion": 6762,
      "eziná»¥lá»į": 6763,
      "Ġblue": 6764,
      "Ġá»Įhá»ĭa": 6765,
      "Ġmeju": 6766,
      "Ġvalues": 6767,
      "Ġcombined": 6768,
      "Ġnzaghachi": 6769,
      "ĠRod": 6770,
      "raine": 6771,
      "Ġdipl": 6772,
      "Ġkpal": 6773,
      "agbasa": 6774,
      "ĠPoland": 6775,
      "Ġconstant": 6776,
      "IM": 6777,
      "ebelata": 6778,
      "Ġpassed": 6779,
      "ĠTelevision": 6780,
      "Is": 6781,
      "Ġile": 6782,
      "Ġyet": 6783,
      "msterdam": 6784,
      "ĠProgress": 6785,
      "itting": 6786,
      "ĠDesign": 6787,
      "grad": 6788,
      "Ġtree": 6789,
      "Ġire": 6790,
      "ĠVo": 6791,
      "Ġroad": 6792,
      "ĠAhmad": 6793,
      "85": 6794,
      "play": 6795,
      "ĠirÃ¨": 6796,
      "ĠSciences": 6797,
      "ĠFal": 6798,
      "ĠEdo": 6799,
      "Ġassum": 6800,
      "ĠPhilip": 6801,
      "ĠRegion": 6802,
      "Ġnha": 6803,
      "atu": 6804,
      "ications": 6805,
      "Ġhy": 6806,
      "ĠLater": 6807,
      "Ġhapp": 6808,
      "ĠNap": 6809,
      "phia": 6810,
      "Ġrace": 6811,
      "Ġaccepted": 6812,
      "onso": 6813,
      "Ġá»Įmá»¥": 6814,
      "Ġnetwá»įk": 6815,
      "urus": 6816,
      "ĠRay": 6817,
      "Ġspirit": 6818,
      "ĠGuard": 6819,
      "Ġbasic": 6820,
      "Ġuweojii": 6821,
      "Ġcalcul": 6822,
      "court": 6823,
      "Ġnight": 6824,
      "lik": 6825,
      "lishing": 6826,
      "ĠEbumnuche": 6827,
      "garian": 6828,
      "des": 6829,
      "oti": 6830,
      "ndá»įrá»į": 6831,
      "Ġdouble": 6832,
      "ĠArea": 6833,
      "burgh": 6834,
      "IP": 6835,
      "ĠConstant": 6836,
      "ĠIslamic": 6837,
      "ĠMassachusetts": 6838,
      "Ġbachelá»į": 6839,
      "ilies": 6840,
      "Ġprograms": 6841,
      "Ġmachib": 6842,
      "ĠFre": 6843,
      "Ġreaction": 6844,
      "ĠTrust": 6845,
      "dium": 6846,
      "Ġsummer": 6847,
      "ĠOpen": 6848,
      "ĠRuth": 6849,
      "Ġdepá»¥tara": 6850,
      "ctorate": 6851,
      "Ġfailed": 6852,
      "ĠAlexandria": 6853,
      "ĠJesus": 6854,
      "ugwu": 6855,
      "vere": 6856,
      "ĠSav": 6857,
      "ĠTod": 6858,
      "ĠWat": 6859,
      "Ġ1941": 6860,
      "ĠÐ": 6861,
      "arus": 6862,
      "ĠMatt": 6863,
      "Ġntá»¥ghará»ĭ": 6864,
      "Ġlaunched": 6865,
      "BM": 6866,
      "which": 6867,
      "zant": 6868,
      "Ġfif": 6869,
      "oles": 6870,
      "Ġetinye": 6871,
      "ĠIbrahim": 6872,
      "incoln": 6873,
      "Ġsynthe": 6874,
      "Ġmachine": 6875,
      "ĠNile": 6876,
      "ĠShi": 6877,
      "Ġrespectively": 6878,
      "ĠKaduna": 6879,
      "ĠBecause": 6880,
      "fá»¥": 6881,
      "ito": 6882,
      "ĠSel": 6883,
      "ĠSem": 6884,
      "no": 6885,
      "ĠRog": 6886,
      "ylvan": 6887,
      "ĠCosta": 6888,
      "Ġappointed": 6889,
      "ĠAnglican": 6890,
      "ĠLib": 6891,
      "Ġmgbaru": 6892,
      "Ġvaria": 6893,
      "ĠConvention": 6894,
      "ĠAdd": 6895,
      "Ġremaining": 6896,
      "Ġpattern": 6897,
      "Ġsongs": 6898,
      "Ġpreviously": 6899,
      "more": 6900,
      "ĠMgba": 6901,
      "ĠVis": 6902,
      "Ġinvestig": 6903,
      "Ġargued": 6904,
      "Ġará»į": 6905,
      "Ġfind": 6906,
      "Ġdá»ĭgasá»ĭ": 6907,
      "ĠLtd": 6908,
      "Ġclassical": 6909,
      "eduzi": 6910,
      "Ġnkewa": 6911,
      "ĠMmá»¥ta": 6912,
      "ĠEqu": 6913,
      "ĠKwa": 6914,
      "Ġfeature": 6915,
      "ĠMicro": 6916,
      "ĠTheir": 6917,
      "letics": 6918,
      "ully": 6919,
      "ector": 6920,
      "Ġextra": 6921,
      "Arab": 6922,
      "nyere": 6923,
      "Ġtá»įrá»į": 6924,
      "Ġbidoro": 6925,
      "ĠLocal": 6926,
      "Ġgafee": 6927,
      "Ġejiri": 6928,
      "uther": 6929,
      "ĠUgwu": 6930,
      "Ġchlor": 6931,
      "Ġconsists": 6932,
      "Ġauthority": 6933,
      "Ġnrá»¥gide": 6934,
      "bama": 6935,
      "see": 6936,
      "ĠOzi": 6937,
      "ĠRivers": 6938,
      "ĠKanu": 6939,
      "Ġdecision": 6940,
      "Ġended": 6941,
      "IT": 6942,
      "pson": 6943,
      "Ġnative": 6944,
      "ctoral": 6945,
      "Ġmedical": 6946,
      "Ġolder": 6947,
      "ĠEdemsibá»ĭa": 6948,
      "FC": 6949,
      "á»¥ka": 6950,
      "ĠArk": 6951,
      "Ġ32": 6952,
      "ĠPhilos": 6953,
      "ably": 6954,
      "arser": 6955,
      "Ġhistorian": 6956,
      "adelphia": 6957,
      "eff": 6958,
      "Ġekwe": 6959,
      "imp": 6960,
      "Ġcontrovers": 6961,
      "adebe": 6962,
      "ĠAdministration": 6963,
      "Ġá»ĭkp": 6964,
      "Ġconce": 6965,
      "Ġspeed": 6966,
      "ĠAmsterdam": 6967,
      "Ġdum": 6968,
      "ĠChange": 6969,
      "Ġability": 6970,
      "orship": 6971,
      "Ġrecords": 6972,
      "ĠðŁĴ": 6973,
      "Ġhumans": 6974,
      "ĠSab": 6975,
      "emebi": 6976,
      "ĠISBN": 6977,
      "Ġgbanwee": 6978,
      "Ġsere": 6979,
      "met": 6980,
      "Ġgosiri": 6981,
      "ĠMichigan": 6982,
      "SM": 6983,
      "rong": 6984,
      "Ġmiddle": 6985,
      "ĠAuthor": 6986,
      "olitan": 6987,
      "Ġlived": 6988,
      "jiji": 6989,
      "Ġsubst": 6990,
      "55": 6991,
      "ocracy": 6992,
      "Ġvarian": 6993,
      "Ġdefeated": 6994,
      "ĠSk": 6995,
      "ĠLincoln": 6996,
      "ĠKu": 6997,
      "ieval": 6998,
      "Ġconserv": 6999,
      "ekpuchi": 7000,
      "ĠnÃł": 7001,
      "ĠSultan": 7002,
      "ineke": 7003,
      "Ġweight": 7004,
      "Ġ150": 7005,
      "Ġeffective": 7006,
      "Ġimage": 7007,
      "ĠStephen": 7008,
      "ĠGri": 7009,
      "ĠArthur": 7010,
      "Ġappar": 7011,
      "Ġscript": 7012,
      "Ġdeaths": 7013,
      "ozi": 7014,
      "ĠAle": 7015,
      "ĠStat": 7016,
      "ĠChris": 7017,
      "Ġattacks": 7018,
      "Ġcandid": 7019,
      "Ġec": 7020,
      "ĠLittle": 7021,
      "Ġnway": 7022,
      "Ġconstitut": 7023,
      "Ġbutere": 7024,
      "Ġedition": 7025,
      "Ġpoly": 7026,
      "Ġinitially": 7027,
      "Ġ),": 7028,
      "Ġbox": 7029,
      "Ġliber": 7030,
      "ribe": 7031,
      "ĠMike": 7032,
      "Ġá»¥lá»įá»įrá»¥": 7033,
      "ongo": 7034,
      "Ġnweghá»ĭ": 7035,
      "Ġmonarch": 7036,
      "Ġphen": 7037,
      "Ġá»¤zá»į": 7038,
      "Ġcommunities": 7039,
      "Ġslow": 7040,
      "Ġethnic": 7041,
      "BT": 7042,
      "po": 7043,
      "Åį": 7044,
      "asts": 7045,
      "ĠCre": 7046,
      "Ġmmanya": 7047,
      "Ġstor": 7048,
      "Ġformation": 7049,
      "Ġá»ĭnweta": 7050,
      "ĠMala": 7051,
      "kwuo": 7052,
      "Ġmgbu": 7053,
      "Ġneut": 7054,
      "formed": 7055,
      "Ġmodels": 7056,
      "ĠHoly": 7057,
      "37": 7058,
      "PP": 7059,
      "cs": 7060,
      "cular": 7061,
      "Ġkwukwara": 7062,
      "Ġfrequently": 7063,
      "eus": 7064,
      "ogy": 7065,
      "output": 7066,
      "ungary": 7067,
      "Ġcontaining": 7068,
      "ĠNollywood": 7069,
      "fl": 7070,
      "ĠDig": 7071,
      "Ġvary": 7072,
      "ĠPhiladelphia": 7073,
      "kiri": 7074,
      "parser": 7075,
      "Ġhot": 7076,
      "ĠLam": 7077,
      "Ġsecret": 7078,
      "ĠByzant": 7079,
      "ahazi": 7080,
      "Ġdon": 7081,
      "Ġgun": 7082,
      "Ġá»ĭda": 7083,
      "ĠEnergy": 7084,
      "ambigu": 7085,
      "heim": 7086,
      "Ġbor": 7087,
      "Ġcab": 7088,
      "ĠThus": 7089,
      "Ġjournalist": 7090,
      "Ġaspect": 7091,
      "Ġnchegbu": 7092,
      "Ġactivities": 7093,
      "DA": 7094,
      "Ġax": 7095,
      "adabere": 7096,
      "Ġsection": 7097,
      "Ġmmegbu": 7098,
      "ĠArgent": 7099,
      "Ġdepart": 7100,
      "36": 7101,
      "egbochi": 7102,
      "rates": 7103,
      "emic": 7104,
      "ova": 7105,
      "chers": 7106,
      "St": 7107,
      "Ġbá»ĭa": 7108,
      "ĠBib": 7109,
      "ĠProte": 7110,
      "ĠAtá»¥matá»¥": 7111,
      "fere": 7112,
      "Ġsexual": 7113,
      "Ġburn": 7114,
      "Ġfeatured": 7115,
      "ĠTrade": 7116,
      "Ġincorpor": 7117,
      "Ġsen": 7118,
      "ĠLo": 7119,
      "Ġblock": 7120,
      "Ġlaunch": 7121,
      "Ġidei": 7122,
      "ĠPolish": 7123,
      "bata": 7124,
      "ĠCuba": 7125,
      "utions": 7126,
      "ĠGDP": 7127,
      "stone": 7128,
      "Ġá»ĭkwalite": 7129,
      "Ġparties": 7130,
      "Ġ1938": 7131,
      "Ġá»ĭná»į": 7132,
      "DC": 7133,
      "UN": 7134,
      "Ġprison": 7135,
      "unk": 7136,
      "ĠReview": 7137,
      "ipment": 7138,
      "88": 7139,
      "ĠAut": 7140,
      "tá»¥rá»¥": 7141,
      "Ġspoken": 7142,
      "Ġplaying": 7143,
      "Ġkansa": 7144,
      "ĠWeb": 7145,
      "bibi": 7146,
      "ĠArsen": 7147,
      "ĠBCE": 7148,
      "Ġapproach": 7149,
      "Ġngá»¥ká»įta": 7150,
      "oration": 7151,
      "á»¥si": 7152,
      "Ġndá»įrá»įndá»įrá»į": 7153,
      "Ġapplied": 7154,
      "ĠEgyptian": 7155,
      "Ġobserved": 7156,
      "ylvania": 7157,
      "32": 7158,
      "Ġpoll": 7159,
      "lyn": 7160,
      "Ġarran": 7161,
      "ĠDeath": 7162,
      "ĠGreenpeace": 7163,
      "dy": 7164,
      "Ġcric": 7165,
      "ĠNdi": 7166,
      "Ġprogress": 7167,
      "Ġá»¤gbá»į": 7168,
      "ará»¥ká»į": 7169,
      "ĠValley": 7170,
      "Ġntaramahá»¥há»¥": 7171,
      "á»įchá»ĭchá»ĭ": 7172,
      "Ġomebe": 7173,
      "Ġfourth": 7174,
      "ĠEmperor": 7175,
      "ĠÃłgwÃł": 7176,
      "Ġnucle": 7177,
      "ĠJonathan": 7178,
      "Ġmejupá»¥tara": 7179,
      "isters": 7180,
      "ico": 7181,
      "ĠAlas": 7182,
      "Ġtend": 7183,
      "Ġiru": 7184,
      "ican": 7185,
      "Ġalaka": 7186,
      "inson": 7187,
      "Ġemphas": 7188,
      "Ġequal": 7189,
      "má»ĭhe": 7190,
      "Ġcompar": 7191,
      "tably": 7192,
      "Ġdirected": 7193,
      "ructure": 7194,
      "Ġorganization": 7195,
      "Ġcitizens": 7196,
      "ĠAbi": 7197,
      "ĠInternet": 7198,
      "aking": 7199,
      "Ġkansá»¥l": 7200,
      "mosp": 7201,
      "ĠAT": 7202,
      "ĠEth": 7203,
      "Ġ45": 7204,
      "EA": 7205,
      "pr": 7206,
      "zara": 7207,
      "ĠEU": 7208,
      "ĠGer": 7209,
      "ĠKy": 7210,
      "edozi": 7211,
      "ĠSwedish": 7212,
      "ault": 7213,
      "Ġpan": 7214,
      "amalite": 7215,
      "ĠArist": 7216,
      "tainment": 7217,
      "Ġtakes": 7218,
      "ĠSenator": 7219,
      "Le": 7220,
      "lock": 7221,
      "nihu": 7222,
      "orian": 7223,
      "ĠCas": 7224,
      "etu": 7225,
      "Ġformal": 7226,
      "Ġideas": 7227,
      "Ġexamples": 7228,
      "Ġnsá»ĭ": 7229,
      "enant": 7230,
      "Ġfá»įd": 7231,
      "ips": 7232,
      "Ġcollect": 7233,
      "--": 7234,
      "ET": 7235,
      "house": 7236,
      "Ġinternal": 7237,
      "kweká»įrá»ĭta": 7238,
      "Ġresulted": 7239,
      "ĠPortugal": 7240,
      "VID": 7241,
      "lar": 7242,
      "rence": 7243,
      "ĠFood": 7244,
      "Ġvon": 7245,
      "Ġorbit": 7246,
      "Ġsector": 7247,
      "ubu": 7248,
      "Ġná»įchitere": 7249,
      "Ġngwaká»įta": 7250,
      "imens": 7251,
      "ĠAtt": 7252,
      "Ġfá»įdá»¥rá»¥": 7253,
      "Ġaim": 7254,
      "Ġmis": 7255,
      "Ġmunicip": 7256,
      "Ġsuc": 7257,
      "Ġprovince": 7258,
      "Ġreject": 7259,
      "Ġahá»¥má»ĭhe": 7260,
      "pacity": 7261,
      "Ã£": 7262,
      "Ġbig": 7263,
      "urá»ĭta": 7264,
      "Ġrain": 7265,
      "Ġentered": 7266,
      "ĠAgá»¥makwá»¥kwá»į": 7267,
      "Ġhundred": 7268,
      "Ġgrand": 7269,
      "izes": 7270,
      "ception": 7271,
      "Ġcorre": 7272,
      "Ġappearance": 7273,
      "Ġdefinition": 7274,
      "tered": 7275,
      "Ġá»Įwá»¥wa": 7276,
      "Ġcomment": 7277,
      "ĠAnne": 7278,
      "2001": 7279,
      "Ġdistance": 7280,
      "Ġdistribution": 7281,
      "Ġmonth": 7282,
      "Ġsimple": 7283,
      "Ġknowledge": 7284,
      "UC": 7285,
      "Ġaghara": 7286,
      "ĠNri": 7287,
      "Ġmmegide": 7288,
      "Ġaddress": 7289,
      "afo": 7290,
      "ĠColorado": 7291,
      "rade": 7292,
      "ĠDJ": 7293,
      "rone": 7294,
      "Ġpositive": 7295,
      "ĠCri": 7296,
      "Ġreve": 7297,
      "ĠUkwu": 7298,
      "akes": 7299,
      "Ġfriend": 7300,
      "lisher": 7301,
      "oured": 7302,
      "Ġdespite": 7303,
      "ĠAustin": 7304,
      "ĠChem": 7305,
      "Ġoffered": 7306,
      "Ġquickly": 7307,
      "SS": 7308,
      "tali": 7309,
      "á»¥gbá»į": 7310,
      "Ġpurch": 7311,
      "lection": 7312,
      "Ġsearch": 7313,
      "mph": 7314,
      "ĠÃĵ": 7315,
      "Ġá»ĭbanye": 7316,
      "RC": 7317,
      "Ġbring": 7318,
      "ĠBou": 7319,
      "Ġlit": 7320,
      "Ġreact": 7321,
      "ople": 7322,
      "Ġresponsible": 7323,
      "ará»¥si": 7324,
      "Ġá»Įchá»ĭchá»ĭ": 7325,
      "Ġdead": 7326,
      "ocks": 7327,
      "ĠÃ¡mÃ¡": 7328,
      "din": 7329,
      "Ùħ": 7330,
      "Ġancest": 7331,
      "ĠNot": 7332,
      "Ġtolitere": 7333,
      "olia": 7334,
      "Ġá»ĭkpá»į": 7335,
      "ructed": 7336,
      "azá»ĭ": 7337,
      "Ġoccurred": 7338,
      "Ġere": 7339,
      "ĠâĢĶ": 7340,
      "Ġenem": 7341,
      "emepe": 7342,
      "oku": 7343,
      "Ġoperating": 7344,
      "ĠPrimary": 7345,
      "Ġmkpá»¥rá»¥edemede": 7346,
      "cons": 7347,
      "isted": 7348,
      "Ġnhata": 7349,
      "Ġfigures": 7350,
      "ĠForeign": 7351,
      "Ġuto": 7352,
      "eter": 7353,
      "amaghá»ĭ": 7354,
      "ĠBoy": 7355,
      "Ġextended": 7356,
      "ĠCOVID": 7357,
      "hibit": 7358,
      "Ġdioxide": 7359,
      "ĠMarathon": 7360,
      "Ġcontinue": 7361,
      "agwa": 7362,
      "Ġiniti": 7363,
      "Ġmaintain": 7364,
      "Ġmanagement": 7365,
      "Ġnuclear": 7366,
      "Ġinstitutions": 7367,
      "IN": 7368,
      "uit": 7369,
      "itable": 7370,
      "Ġmmerá»¥": 7371,
      "ĠCorps": 7372,
      "alty": 7373,
      "ĠNature": 7374,
      "Ġupper": 7375,
      "ĠAlber": 7376,
      "ĠÃ©bÃ©": 7377,
      "ebipá»¥ta": 7378,
      "mic": 7379,
      "iform": 7380,
      "Ġ36": 7381,
      "ĠTransport": 7382,
      "ĠBosnia": 7383,
      "Ġnecessary": 7384,
      "ĠFair": 7385,
      "Ġconsequ": 7386,
      "Ġmebiri": 7387,
      "ĠMediter": 7388,
      "Ġfigure": 7389,
      "Ġfavor": 7390,
      "lades": 7391,
      "alt": 7392,
      "ordin": 7393,
      "Ġearth": 7394,
      "Ġdeclared": 7395,
      "owo": 7396,
      "ques": 7397,
      "Ġresistance": 7398,
      "Ġkewara": 7399,
      "Ġreference": 7400,
      "Ġautom": 7401,
      "ĠPenns": 7402,
      "38": 7403,
      "dÃ©": 7404,
      "ĠJam": 7405,
      "ĠAtari": 7406,
      "Ġrá»¥kwara": 7407,
      "mÃł": 7408,
      "ĠKasá»ĭ": 7409,
      "ĠndÃº": 7410,
      "ĠAlso": 7411,
      "Ġá»įchá»ĭchá»į": 7412,
      "Ġmatch": 7413,
      "usalem": 7414,
      "zen": 7415,
      "Ġaudi": 7416,
      "ersey": 7417,
      "garanya": 7418,
      "Ġagh": 7419,
      "ĠAncient": 7420,
      "aux": 7421,
      "Ġtechniques": 7422,
      "Ġbirths": 7423,
      "hold": 7424,
      "Ġarticle": 7425,
      "Ġroyal": 7426,
      "Ġsets": 7427,
      "cap": 7428,
      "arters": 7429,
      "ĠAzá»¥": 7430,
      "ĠBrand": 7431,
      "ĠLar": 7432,
      "Ġritere": 7433,
      "ĠKent": 7434,
      "imb": 7435,
      "ortun": 7436,
      "Ġgaghá»ĭ": 7437,
      "Ġadministration": 7438,
      "ĠOrthodox": 7439,
      "abá»¥kará»ĭ": 7440,
      "Ġelectro": 7441,
      "Ġordered": 7442,
      "Ġturned": 7443,
      "ĠPalest": 7444,
      "EP": 7445,
      "ĠHeb": 7446,
      "ĠPhys": 7447,
      "Ġruns": 7448,
      "Ġcolonial": 7449,
      "ceeded": 7450,
      "31": 7451,
      "ading": 7452,
      "ĠWild": 7453,
      "Ġnwereike": 7454,
      "Ġplast": 7455,
      "ropical": 7456,
      "Ġdepend": 7457,
      "ĠAzerbaijan": 7458,
      "Ġdoll": 7459,
      "Ġcouncil": 7460,
      "ĠCatal": 7461,
      "ĠPope": 7462,
      "cycl": 7463,
      "Ġexperim": 7464,
      "Ġavoid": 7465,
      "Ġcompetition": 7466,
      "Ġbecomes": 7467,
      "ĠStandard": 7468,
      "Ġmill": 7469,
      "Ġmoment": 7470,
      "Ġsnow": 7471,
      "ĠMak": 7472,
      "ussels": 7473,
      "Ġ1929": 7474,
      "ĠAlabama": 7475,
      "Ġpresented": 7476,
      "Ø§ÙĦ": 7477,
      "Ġboro": 7478,
      "aded": 7479,
      "ctive": 7480,
      "ĠUl": 7481,
      "ĠMaazá»ĭ": 7482,
      "ĠÃ³gÃ¨": 7483,
      "ambiguation": 7484,
      "ĠPennsylvania": 7485,
      "zá»ĭ": 7486,
      "Ġmess": 7487,
      "Ġá»įgb": 7488,
      "emis": 7489,
      "bakar": 7490,
      "ially": 7491,
      "manuel": 7492,
      "Ġdistingu": 7493,
      "comp": 7494,
      "Ġmpi": 7495,
      "Ġará»ĭrá»ĭ": 7496,
      "Ġaná»¥ná»¥": 7497,
      "Ġpá»¥á»į": 7498,
      "Ġshot": 7499,
      "ĠJeff": 7500,
      "ĠProvince": 7501,
      "ED": 7502,
      "icians": 7503,
      "ĠHay": 7504,
      "Ġrang": 7505,
      "2002": 7506,
      "1999": 7507,
      "Ġdirection": 7508,
      "Ġoperation": 7509,
      "ĠChristianity": 7510,
      "Ġallowing": 7511,
      "Ġá»įbá»¥na": 7512,
      "ĠCapital": 7513,
      "Ġcurrently": 7514,
      "Ġsymbol": 7515,
      "Ġanw": 7516,
      "teen": 7517,
      "Ġnná»įká»į": 7518,
      "Ġillust": 7519,
      "wet": 7520,
      "encies": 7521,
      "ĠPara": 7522,
      "Ġfort": 7523,
      "agle": 7524,
      "Ġadminist": 7525,
      "Ġlaghachi": 7526,
      "Ġ75": 7527,
      "ĠLady": 7528,
      "Ġessential": 7529,
      "98": 7530,
      "Ġbrain": 7531,
      "Ġspent": 7532,
      "Ġagreement": 7533,
      "onian": 7534,
      "Ġchurches": 7535,
      "Ġelections": 7536,
      "Ġclaims": 7537,
      "Ġá»¥ká»įchukwu": 7538,
      "Ġnná»įchiteanya": 7539,
      "ave": 7540,
      "Ġnile": 7541,
      "ask": 7542,
      "ĠColon": 7543,
      "Ġmarriage": 7544,
      "Ġ).": 7545,
      "Ġiron": 7546,
      "ĠTay": 7547,
      "ĠGre": 7548,
      "ĠShah": 7549,
      "ĠAffairs": 7550,
      "kará»ĭa": 7551,
      "ĠMali": 7552,
      "Ġstra": 7553,
      "songwriter": 7554,
      "ĠAbra": 7555,
      "Ġpair": 7556,
      "luded": 7557,
      "viation": 7558,
      "onym": 7559,
      "Ġbroadcast": 7560,
      "ghará»ĭa": 7561,
      "ĠLet": 7562,
      "ĠKhan": 7563,
      "ĠAthletics": 7564,
      "Ġwepá»¥": 7565,
      "Ġdynasty": 7566,
      "Ġfully": 7567,
      "ĠNight": 7568,
      "Ġlat": 7569,
      "chestra": 7570,
      "ĠChineke": 7571,
      "obs": 7572,
      "forms": 7573,
      "ĠArmenia": 7574,
      "%)": 7575,
      "bal": 7576,
      "Am": 7577,
      "Ap": 7578,
      "anga": 7579,
      "Ġbio": 7580,
      "omi": 7581,
      "ĠKam": 7582,
      "Ġvow": 7583,
      "Ġstructures": 7584,
      "Ġcondition": 7585,
      "echiche": 7586,
      "ĠBorn": 7587,
      "ĠDick": 7588,
      "Ġchá»įá»į": 7589,
      "risis": 7590,
      "Ġ1937": 7591,
      "Ġple": 7592,
      "Ġresources": 7593,
      "Ġslight": 7594,
      "ĠBiafra": 7595,
      "Ġtun": 7596,
      "Ġmuseum": 7597,
      "ĠNon": 7598,
      "má»¥ka": 7599,
      "ĠAsian": 7600,
      "kota": 7601,
      "www": 7602,
      "Ġnewspa": 7603,
      "eni": 7604,
      "ione": 7605,
      "ĠLike": 7606,
      "Ġalle": 7607,
      "Ġexpected": 7608,
      "Ġmeg": 7609,
      "Ġbelong": 7610,
      "Ġcharge": 7611,
      "ĠEntertainment": 7612,
      "entá»ĭ": 7613,
      "umber": 7614,
      "Ġwithd": 7615,
      "ĠMach": 7616,
      "Ġcontemporary": 7617,
      "Ġanimal": 7618,
      "ĠMohammed": 7619,
      "ĠBanglades": 7620,
      "elligence": 7621,
      "ĠStock": 7622,
      "gian": 7623,
      "Ġbra": 7624,
      "illed": 7625,
      "Ġuniverse": 7626,
      "ĠSant": 7627,
      "ilt": 7628,
      "ká»įá»į": 7629,
      "Ġrepe": 7630,
      "ateau": 7631,
      "Ġoccurs": 7632,
      "ĠMedical": 7633,
      "Ġá»¥má»¥nwaanyá»ĭ": 7634,
      "Ġbapt": 7635,
      "ĠRet": 7636,
      "ĠEnweghá»ĭ": 7637,
      "Ġarch": 7638,
      "Ã¼r": 7639,
      "Ġmyth": 7640,
      "fety": 7641,
      "arma": 7642,
      "Ġban": 7643,
      "Ġben": 7644,
      "Ġhun": 7645,
      "uration": 7646,
      "Ġcontribut": 7647,
      "aá»ĭlá»¥": 7648,
      "ĠUkraine": 7649,
      "ĠDomin": 7650,
      "rene": 7651,
      "ĠMcC": 7652,
      "gers": 7653,
      "ĠAar": 7654,
      "Ġspeech": 7655,
      "disambiguation": 7656,
      "enes": 7657,
      "isha": 7658,
      "Ġetc": 7659,
      "Ġmagazine": 7660,
      "Ġmarked": 7661,
      "Ġconflict": 7662,
      "Ġallows": 7663,
      "Ġalcohol": 7664,
      "mod": 7665,
      "Ð°": 7666,
      "ĠNY": 7667,
      "amuru": 7668,
      "Ġ1914": 7669,
      "Ġ1933": 7670,
      "Ġexpressed": 7671,
      "ĠWilson": 7672,
      "Ġawarded": 7673,
      "Ġbrief": 7674,
      "ax": 7675,
      "cription": 7676,
      "Ġtur": 7677,
      "inger": 7678,
      "ief": 7679,
      "Ġká»įn": 7680,
      "Ġ1936": 7681,
      "ĠMaria": 7682,
      "iko": 7683,
      "ĠBelarus": 7684,
      "ĠMoz": 7685,
      "Ġarchitecture": 7686,
      "Ġtexts": 7687,
      "Ġnotable": 7688,
      "Ġlawyer": 7689,
      "ĠGirls": 7690,
      "Arabic": 7691,
      "76": 7692,
      "Ä±": 7693,
      "ĠRon": 7694,
      "Ġreign": 7695,
      "ĠWind": 7696,
      "agu": 7697,
      "rics": 7698,
      "Ġexplor": 7699,
      "Ġtrack": 7700,
      "Ġequival": 7701,
      "á»ĭná»ĭ": 7702,
      "Ġoldest": 7703,
      "Ġdiplom": 7704,
      "Ġsites": 7705,
      "Ġstories": 7706,
      "ĠArm": 7707,
      "Ġsimply": 7708,
      "ego": 7709,
      "Ġface": 7710,
      "Ġmaxim": 7711,
      "Ġgachara": 7712,
      "Ġplays": 7713,
      "jamin": 7714,
      "Ġlunar": 7715,
      "ĠGard": 7716,
      "Ġclosed": 7717,
      "Ġrefers": 7718,
      "ĠTerrit": 7719,
      "ĠProtest": 7720,
      "ĠJerusalem": 7721,
      "gie": 7722,
      "ĠSeveral": 7723,
      "ĠAbubakar": 7724,
      "Ġahu": 7725,
      "ĠCab": 7726,
      "Ġ1918": 7727,
      "ĠGord": 7728,
      "ianya": 7729,
      "minal": 7730,
      "Ġexistence": 7731,
      "Ġengineering": 7732,
      "inus": 7733,
      "ĠBlo": 7734,
      "Ġconstitution": 7735,
      "ĠÃī": 7736,
      "Ġdozie": 7737,
      "Ġnine": 7738,
      "Ġá»įgaranya": 7739,
      "Ġwoman": 7740,
      "ĠWars": 7741,
      "Ġnkume": 7742,
      "ĠAbia": 7743,
      "Ġleaders": 7744,
      "ĠBuff": 7745,
      "Ġprominent": 7746,
      "arily": 7747,
      "ĠFord": 7748,
      "Ġevolution": 7749,
      "Ġquality": 7750,
      "Ġprovin": 7751,
      "ishá»įna": 7752,
      "Ġlabor": 7753,
      "Ġbip": 7754,
      "ĠNel": 7755,
      "ĠNkwado": 7756,
      "mel": 7757,
      "Ġ(),": 7758,
      "amber": 7759,
      "dachi": 7760,
      "Ġokpukpu": 7761,
      "96": 7762,
      "Ġdark": 7763,
      "Ġpowers": 7764,
      "ulate": 7765,
      "Ġvote": 7766,
      "Ġcomes": 7767,
      "anner": 7768,
      "Ġngwaá»įrá»¥": 7769,
      "Ġequipment": 7770,
      "ima": 7771,
      "such": 7772,
      "Ġfer": 7773,
      "rogen": 7774,
      "ĠEziná»¥lá»į": 7775,
      "Ġleaving": 7776,
      "Ġefforts": 7777,
      "Ġflow": 7778,
      "Ġkingdom": 7779,
      "ĠDenmark": 7780,
      "Ġapplications": 7781,
      "300": 7782,
      "iya": 7783,
      "Ġexchange": 7784,
      "ĠChildren": 7785,
      "lation": 7786,
      "cting": 7787,
      "Ġlic": 7788,
      "issance": 7789,
      "Ġchap": 7790,
      "bere": 7791,
      "net": 7792,
      "Ġseri": 7793,
      "ĠCultural": 7794,
      "ĠTs": 7795,
      "Ġfamilies": 7796,
      "ĠRand": 7797,
      "2021": 7798,
      "ropolitan": 7799,
      "Ġopposed": 7800,
      "ĠJoe": 7801,
      "Ġcourse": 7802,
      "tes": 7803,
      "ĠNgwa": 7804,
      "ĠBrig": 7805,
      "bey": 7806,
      "ĠSecurity": 7807,
      "gro": 7808,
      "ĠAja": 7809,
      "road": 7810,
      "ĠCel": 7811,
      "ĠDor": 7812,
      "ĠField": 7813,
      "enda": 7814,
      "Ġodo": 7815,
      "Ġfollows": 7816,
      "ĠNnam": 7817,
      "ĠFranklin": 7818,
      "ĠOmume": 7819,
      "Ab": 7820,
      "jan": 7821,
      "kwÃ¡": 7822,
      "Ġfolk": 7823,
      "Ġnegative": 7824,
      "mba": 7825,
      "rÃŃ": 7826,
      "ĠHy": 7827,
      "ĠAntar": 7828,
      "Ġhockey": 7829,
      "Ġwepá»¥ta": 7830,
      "Ġversions": 7831,
      "OM": 7832,
      "inn": 7833,
      "Ġways": 7834,
      "othes": 7835,
      "Ġá»¤bá»įchá»ĭ": 7836,
      "Ġimmig": 7837,
      "Ġvirtu": 7838,
      "Ġmentioned": 7839,
      "Ġgiving": 7840,
      "ifically": 7841,
      "rants": 7842,
      "Ġ300": 7843,
      "1998": 7844,
      "Ġpurpose": 7845,
      "ĠLeban": 7846,
      "Ġgives": 7847,
      "ĠDanish": 7848,
      "ĠAdrian": 7849,
      "Ġfinally": 7850,
      "ĠAnglo": 7851,
      "Ġ1927": 7852,
      "Ġ1928": 7853,
      "rump": 7854,
      "Ġakpá»¥kpá»į": 7855,
      "onto": 7856,
      "ening": 7857,
      "ĠCP": 7858,
      "Ġá»¥ma": 7859,
      "ĠHead": 7860,
      "Ġdecades": 7861,
      "Ġsecurity": 7862,
      "ĠAngola": 7863,
      "ĠPhilippines": 7864,
      "á»Ĭ": 7865,
      "Ġbus": 7866,
      "Ġatoms": 7867,
      "Ġunion": 7868,
      "Ġzigara": 7869,
      "Ġagreed": 7870,
      "ĠClinton": 7871,
      "Ġsecondary": 7872,
      "ĠPersian": 7873,
      "Ġmurder": 7874,
      "Ġ*": 7875,
      "Ġnob": 7876,
      "Ġreach": 7877,
      "ĠPhot": 7878,
      "agbata": 7879,
      "ĠBrussels": 7880,
      "Ġgreen": 7881,
      "ĠOme": 7882,
      "Ġdá»ĭkará»ĭa": 7883,
      "Ġchallen": 7884,
      "ĠThree": 7885,
      "ĠZambia": 7886,
      "ĠIsa": 7887,
      "Ġqual": 7888,
      "Ġmi": 7889,
      "Ġalá»¥mdi": 7890,
      "ĠHollywood": 7891,
      "ĠMalays": 7892,
      "Ġterritories": 7893,
      "ĠColl": 7894,
      "Ġlearn": 7895,
      "ologists": 7896,
      "ĠSanta": 7897,
      "Ġspa": 7898,
      "rees": 7899,
      "ĠEzi": 7900,
      "ĠFem": 7901,
      "Ġakpá»į": 7902,
      "ĠNatural": 7903,
      "Ġbirds": 7904,
      "Ġdro": 7905,
      "Ġprep": 7906,
      "Ġacts": 7907,
      "lovak": 7908,
      "tim": 7909,
      "Ġnro": 7910,
      "ĠWall": 7911,
      "opes": 7912,
      "antry": 7913,
      "ĠDavis": 7914,
      "Ġcritical": 7915,
      "ĠSecondary": 7916,
      "Ġá»Įmá»¥má»¥": 7917,
      "ĠAlaska": 7918,
      "organ": 7919,
      "ĠEk": 7920,
      "illery": 7921,
      "Ġsignificantly": 7922,
      "Ġá»ĭchá»įta": 7923,
      "ĠIndonesia": 7924,
      "Ġmountain": 7925,
      "Ġbranch": 7926,
      "ĠDer": 7927,
      "Ġcontent": 7928,
      "uthors": 7929,
      "rapy": 7930,
      "Ġmwepá»¥": 7931,
      "ĠKat": 7932,
      "Ġimepá»¥ta": 7933,
      "Ġactually": 7934,
      "Ġcoronavirus": 7935,
      "Eng": 7936,
      "Ġchá»¥pá»¥rá»¥": 7937,
      "77": 7938,
      "Ġcov": 7939,
      "ĠTar": 7940,
      "ĠLuc": 7941,
      "ĠAustrian": 7942,
      "ĠManchester": 7943,
      "Ġrunning": 7944,
      "Ġgovernor": 7945,
      "ĠWeek": 7946,
      "ĠArsenal": 7947,
      "»¿": 7948,
      "ĠØ": 7949,
      "Ġpac": 7950,
      "Ġtold": 7951,
      "Ġformat": 7952,
      "Ġnnabata": 7953,
      "ĠForces": 7954,
      "Ġ1934": 7955,
      "Ġparticles": 7956,
      "Ġregarded": 7957,
      "Ã£o": 7958,
      "ï»¿": 7959,
      "indu": 7960,
      "utation": 7961,
      "Ġofficially": 7962,
      "Ġdomestic": 7963,
      "Na": 7964,
      "nest": 7965,
      "Ġft": 7966,
      "ĠMeth": 7967,
      "Ġá»Įgwá»¥": 7968,
      "á»ĭaká»įta": 7969,
      "ĠIV": 7970,
      "ĠKong": 7971,
      "kwaga": 7972,
      "outheast": 7973,
      "Ġ1935": 7974,
      "hin": 7975,
      "ĠAka": 7976,
      "Ġcr": 7977,
      "ĠMun": 7978,
      "ĠCrit": 7979,
      "Ġgá»įá»įmenti": 7980,
      "Ġá»¥tá»¥": 7981,
      "ĠAmong": 7982,
      "Ã³kÃ¨": 7983,
      "ĠAmazon": 7984,
      "Ã¢": 7985,
      "Ġly": 7986,
      "Ġexact": 7987,
      "Ġund": 7988,
      "ĠEbenside": 7989,
      "ĠNorway": 7990,
      "ĠMemorial": 7991,
      "ĠCyprus": 7992,
      "dg": 7993,
      "Ġtal": 7994,
      "ĠDak": 7995,
      "stein": 7996,
      "gacy": 7997,
      "Ġnnwale": 7998,
      "ĠBarcel": 7999,
      "ĠChel": 8000,
      "ecutive": 8001,
      "Ġfocus": 8002,
      "83": 8003,
      "ĠCub": 8004,
      "Ġ1910": 8005,
      "Ġthings": 8006,
      "stan": 8007,
      "Ġfaith": 8008,
      "PS": 8009,
      "Ġbass": 8010,
      "ĠCA": 8011,
      "ĠPot": 8012,
      "ĠOla": 8013,
      "Ġ1900": 8014,
      "Ġ1917": 8015,
      "ĠLanguage": 8016,
      "ĠJuu": 8017,
      "down": 8018,
      "ibe": 8019,
      "ĠJan": 8020,
      "ĠBoys": 8021,
      "ranean": 8022,
      "Ġserve": 8023,
      "rep": 8024,
      "ziwanye": 8025,
      "Ġinstance": 8026,
      "Ġfriends": 8027,
      "iboibo": 8028,
      "Ġtoro": 8029,
      "Ġ1919": 8030,
      "Ġule": 8031,
      "ĠWhit": 8032,
      "Ġnormal": 8033,
      "kina": 8034,
      "aran": 8035,
      "Ġbinary": 8036,
      "ĠDun": 8037,
      "Ġadvert": 8038,
      "Ġrough": 8039,
      "Ġ1925": 8040,
      "Ġá»Ĭgá»¥": 8041,
      "cles": 8042,
      "Ġegosi": 8043,
      "ĠEli": 8044,
      "ĠNaijirá»ĭa": 8045,
      "Ġpositions": 8046,
      "Ġremoved": 8047,
      "Ġntu": 8048,
      "Ġsolution": 8049,
      "iokwu": 8050,
      "sá»¥ghará»ĭ": 8051,
      "Ġimmediately": 8052,
      "ĠAuthority": 8053,
      "New": 8054,
      "ws": 8055,
      "Ġdrin": 8056,
      "Ġgrew": 8057,
      "ĠTrad": 8058,
      "amasá»ĭ": 8059,
      "Ġá»Ĭtali": 8060,
      "Ġcommunication": 8061,
      "ĠQueens": 8062,
      "tinent": 8063,
      "Ġaká»įwa": 8064,
      "iner": 8065,
      "Ġsche": 8066,
      "elle": 8067,
      "ĠHell": 8068,
      "ĠJersey": 8069,
      "Ġ65": 8070,
      "Ġinterview": 8071,
      "Ġ1926": 8072,
      "Ġdebere": 8073,
      "Ġrecognized": 8074,
      "Ġfleet": 8075,
      "ĠFri": 8076,
      "Ġnotes": 8077,
      "Ġibelata": 8078,
      "ĠConservation": 8079,
      "OL": 8080,
      "rod": 8081,
      "ports": 8082,
      "Ġá»Įnwá»¥": 8083,
      "Ġencour": 8084,
      "bl": 8085,
      "sÃ¬": 8086,
      "ĠFM": 8087,
      "iant": 8088,
      "Ġtranslation": 8089,
      "Ġopposition": 8090,
      "ĠDoug": 8091,
      "79": 8092,
      "89": 8093,
      "kwunye": 8094,
      "ĠNas": 8095,
      "hio": 8096,
      "Ġará»¥kwa": 8097,
      "Ġimportance": 8098,
      "Ġcomputers": 8099,
      "Ġshowed": 8100,
      "Ad": 8101,
      "¸ı": 8102,
      "ĠEchiche": 8103,
      "Ġconvers": 8104,
      "kwupá»¥ta": 8105,
      "zá»¥ga": 8106,
      "Ġpreserv": 8107,
      "Ġprogramming": 8108,
      "Ġiwepá»¥": 8109,
      "Ġmixed": 8110,
      "66": 8111,
      "ekwe": 8112,
      "Ġther": 8113,
      "ĠKal": 8114,
      "Ġminister": 8115,
      "ĠBarb": 8116,
      "ĠBenjamin": 8117,
      "ĠPoly": 8118,
      "US": 8119,
      "âĪĴ": 8120,
      "ĠOp": 8121,
      "eman": 8122,
      "Ġenter": 8123,
      "Ġgrowing": 8124,
      "á»¥ghá»į": 8125,
      "ĠForum": 8126,
      "á»ĭntanetá»ĭ": 8127,
      "Ġplastik": 8128,
      "Ġwakp": 8129,
      "olas": 8130,
      "iland": 8131,
      "ĠHo": 8132,
      "Ġbelieve": 8133,
      "Ġará»ĭrá»ĭá»į": 8134,
      "rent": 8135,
      "Äĩ": 8136,
      "Ġdedic": 8137,
      "ĠNative": 8138,
      "ĠFun": 8139,
      "ĠFreedom": 8140,
      "Ġplanned": 8141,
      "Ġ1922": 8142,
      "ĠEss": 8143,
      "Ġtrees": 8144,
      "ĠNASA": 8145,
      "Sc": 8146,
      "ĠNg": 8147,
      "ĠMp": 8148,
      "ĠMaur": 8149,
      "Ġreserv": 8150,
      "ĠDisc": 8151,
      "Ġradiation": 8152,
      "ĠSupreme": 8153,
      "ishes": 8154,
      "ĠCir": 8155,
      "ĠHungary": 8156,
      "gwuru": 8157,
      "Ġbear": 8158,
      "Ġbeyond": 8159,
      "ĠCooper": 8160,
      "Ġwinter": 8161,
      "Ġdevices": 8162,
      "Ġsubsequently": 8163,
      "ĠSayensá»ĭ": 8164,
      "fi": 8165,
      "Ġfixed": 8166,
      "ĠIfe": 8167,
      "ĠEach": 8168,
      "Ġuhie": 8169,
      "Ġadj": 8170,
      "Ġsaá»ĭtá»ĭ": 8171,
      "Ġprime": 8172,
      "1997": 8173,
      "Ġdevice": 8174,
      "ĠEngineering": 8175,
      "Ġwdg": 8176,
      "ĠNle": 8177,
      "enty": 8178,
      "Ġasked": 8179,
      "Ġcommission": 8180,
      "akwalite": 8181,
      "ĠFellows": 8182,
      "ĠFamily": 8183,
      "lle": 8184,
      "town": 8185,
      "Ġá»Įka": 8186,
      "haps": 8187,
      "apore": 8188,
      "tability": 8189,
      "akpá»įkwa": 8190,
      "Ġinside": 8191,
      "ĠBangladesh": 8192,
      "Ġfast": 8193,
      "ĠGame": 8194,
      "ĠChukwu": 8195,
      "ĠnkÃ©": 8196,
      "Ġarts": 8197,
      "Ġemebi": 8198,
      "ĠDev": 8199,
      "Ġbuild": 8200,
      "ĠHaw": 8201,
      "Ġ1924": 8202,
      "Ġcombination": 8203,
      "ifying": 8204,
      "Ġrugby": 8205,
      "Otu": 8206,
      "Ġwild": 8207,
      "ĠMkp": 8208,
      "ĠBack": 8209,
      "ulo": 8210,
      "istant": 8211,
      "ĠInformation": 8212,
      "ift": 8213,
      "Ġkind": 8214,
      "Ġarticles": 8215,
      "Ġkpam": 8216,
      "Ġsochiri": 8217,
      "Ġminutes": 8218,
      "ographical": 8219,
      "ĠSimon": 8220,
      "ĠMuhammadu": 8221,
      "Ġcompletely": 8222,
      "ï¸ı": 8223,
      "arning": 8224,
      "asy": 8225,
      "Ġhip": 8226,
      "ulpt": 8227,
      "ĠKel": 8228,
      "ará»ĭrá»ĭ": 8229,
      "udio": 8230,
      "ĠAnthony": 8231,
      "writer": 8232,
      "phy": 8233,
      "Ġ33": 8234,
      "Ġwezá»¥ga": 8235,
      "Ġnná»įch": 8236,
      "Ġmotion": 8237,
      "Ġinstruments": 8238,
      "acc": 8239,
      "Ġá»įkpá»į": 8240,
      "ĠBand": 8241,
      "ĠKatá»į": 8242,
      "Ġká»įmp": 8243,
      "instein": 8244,
      "ynam": 8245,
      "gov": 8246,
      "ĠCam": 8247,
      "Ġsevere": 8248,
      "ologies": 8249,
      "Ġformula": 8250,
      "Ġ1932": 8251,
      "Ġextensive": 8252,
      "Ġparliament": 8253,
      "ĠAgriculture": 8254,
      "IDS": 8255,
      "Ġhelped": 8256,
      "á»įdá»ĭnihu": 8257,
      "Ġlove": 8258,
      "Ġrecently": 8259,
      "ĠNchá»ĭkwa": 8260,
      "Ġprinciple": 8261,
      "Ġmachibidoro": 8262,
      "Ma": 8263,
      "Ġcart": 8264,
      "ĠNkweká»įrá»ĭta": 8265,
      "ĠBache": 8266,
      "Ġones": 8267,
      "ĠHan": 8268,
      "ĠChristians": 8269,
      "Ġfighting": 8270,
      "Ġcaptured": 8271,
      "Ġmpá»¥ta": 8272,
      "Ġsav": 8273,
      "cho": 8274,
      "Ġdivers": 8275,
      "ĠFried": 8276,
      "ĠHIV": 8277,
      "Ġgreatest": 8278,
      "Ġnguz": 8279,
      "Ġá»ĭhazi": 8280,
      "Ġseem": 8281,
      "kpebi": 8282,
      "Ġsport": 8283,
      "Ġ160": 8284,
      "Ġreflect": 8285,
      "Ġahá»įpá»¥tara": 8286,
      "Ġfactors": 8287,
      "Ġprotection": 8288,
      "phe": 8289,
      "uan": 8290,
      "rog": 8291,
      "illy": 8292,
      "ĠAnti": 8293,
      "Ġgained": 8294,
      "Ġweeks": 8295,
      "inated": 8296,
      "enger": 8297,
      "ĠAra": 8298,
      "ĠIko": 8299,
      "Ġstaff": 8300,
      "ĠHouston": 8301,
      "ĠHop": 8302,
      "Ġphase": 8303,
      "ĠRussell": 8304,
      "Ġidentity": 8305,
      "ĠMiller": 8306,
      "rÃł": 8307,
      "ĠInst": 8308,
      "ĠBruce": 8309,
      "Ġaghá»¥ghá»į": 8310,
      "ĠHebrew": 8311,
      "esh": 8312,
      "ĠTy": 8313,
      "ĠBow": 8314,
      "ĠHal": 8315,
      "Ġrecomm": 8316,
      "ĠAfrikaans": 8317,
      "ĠKansá»¥l": 8318,
      "Ġepisode": 8319,
      "MS": 8320,
      "gger": 8321,
      "Ġigosi": 8322,
      "keley": 8323,
      "Ġdisorder": 8324,
      "Ġprec": 8325,
      "Ġemperor": 8326,
      "Ġvolume": 8327,
      "Ġá»įká»įchá»ĭ": 8328,
      "Ġmeghere": 8329,
      "ient": 8330,
      "ĠÄ": 8331,
      "ĠPier": 8332,
      "64": 8333,
      "Be": 8334,
      "bre": 8335,
      "ĠABC": 8336,
      "Ġmeant": 8337,
      "Ġwinning": 8338,
      "Ġwebatara": 8339,
      "Ġmeeting": 8340,
      "87": 8341,
      "infor": 8342,
      "ĠNsá»į": 8343,
      "ĠMr": 8344,
      "ĠJane": 8345,
      "Ġdescribe": 8346,
      "including": 8347,
      "93": 8348,
      "aghá»į": 8349,
      "já»ĭ": 8350,
      "ofe": 8351,
      "Ġakwu": 8352,
      "cht": 8353,
      "Ġanarch": 8354,
      "Ġada": 8355,
      "Ġcapacity": 8356,
      "Ġconnected": 8357,
      "Ġclosely": 8358,
      "ĠAbraham": 8359,
      "uris": 8360,
      "ĠGi": 8361,
      "ĠLov": 8362,
      "ĠChannel": 8363,
      "cyclop": 8364,
      "Ebe": 8365,
      "ota": 8366,
      "Ġgwa": 8367,
      "ĠExecutive": 8368,
      "ĠReport": 8369,
      "Ġsubsequent": 8370,
      "ĠTreaty": 8371,
      "lla": 8372,
      "inema": 8373,
      "agan": 8374,
      "Ġ1931": 8375,
      "Ġsupply": 8376,
      "ĠIndependent": 8377,
      "LC": 8378,
      "Ġmil": 8379,
      "Ġikp": 8380,
      "Ġsulf": 8381,
      "ĠEric": 8382,
      "ĠMax": 8383,
      "Ġamuru": 8384,
      "ĠForm": 8385,
      "ĠWarri": 8386,
      "ragon": 8387,
      "ĠSingapore": 8388,
      "ĠBaptist": 8389,
      "Ġinhabit": 8390,
      "cia": 8391,
      "iny": 8392,
      "emen": 8393,
      "ĠFame": 8394,
      "ĠCommon": 8395,
      "oids": 8396,
      "á»įba": 8397,
      "Ġlingu": 8398,
      "Ġchiri": 8399,
      "Ġphon": 8400,
      "Ġattention": 8401,
      "ĠAllen": 8402,
      "Ġabsor": 8403,
      "Ġissued": 8404,
      "ĠToday": 8405,
      "ĠKatá»įlik": 8406,
      "alus": 8407,
      "chÃ¨": 8408,
      "Ġpowerful": 8409,
      "Ġmotor": 8410,
      "Ġarrived": 8411,
      "97": 8412,
      "Ġogbu": 8413,
      "atab": 8414,
      "Ġflo": 8415,
      "Ġnkezi": 8416,
      "Ġ34": 8417,
      "ĠTeam": 8418,
      "Ġntá»¥ziaka": 8419,
      "inois": 8420,
      "Ġdetermined": 8421,
      "kwun": 8422,
      "osen": 8423,
      "idio": 8424,
      "otics": 8425,
      "pá»¥isi": 8426,
      "Ġproced": 8427,
      "eep": 8428,
      "deen": 8429,
      "Ġ37": 8430,
      "ĠBefore": 8431,
      "Ġnkwanye": 8432,
      "Ġstable": 8433,
      "Ġopening": 8434,
      "ĠFreder": 8435,
      "ĠGovernor": 8436,
      "Ġká»įmputa": 8437,
      "Ã¸": 8438,
      "ĠTam": 8439,
      "Ġomimi": 8440,
      "Ġngosipá»¥ta": 8441,
      "Ġraised": 8442,
      "FR": 8443,
      "gue": 8444,
      "Ġanaly": 8445,
      "Ġwrite": 8446,
      "ĠFront": 8447,
      "insula": 8448,
      "Ġbá»įá»įdá»¥": 8449,
      "1995": 8450,
      "ĠMediterranean": 8451,
      "Ġará»¥kwaghá»ĭm": 8452,
      "Ê¼": 8453,
      "Ġbott": 8454,
      "ĠGulf": 8455,
      "andon": 8456,
      "bá»įm": 8457,
      "Ġ1921": 8458,
      "Ġfields": 8459,
      "ĠBarcelona": 8460,
      "92": 8461,
      "aro": 8462,
      "Ġbrand": 8463,
      "ĠPas": 8464,
      "chichi": 8465,
      "ounded": 8466,
      "active": 8467,
      "Ġscale": 8468,
      "Ġstudied": 8469,
      "ĠHonor": 8470,
      "EM": 8471,
      "Ġá»ĭká»įwa": 8472,
      "ĠLeone": 8473,
      "Ġoverall": 8474,
      "Ġdifference": 8475,
      "Ġdiscip": 8476,
      "Ġjiká»įrá»į": 8477,
      "Ġcas": 8478,
      "ĠEll": 8479,
      "ĠAna": 8480,
      "ĠAlpha": 8481,
      "Ġabuo": 8482,
      "Ġchebe": 8483,
      "Ġshell": 8484,
      "kesa": 8485,
      "Ġnwataká»ĭrá»ĭ": 8486,
      "ĠProfess": 8487,
      "Ġbattles": 8488,
      "ĠWoman": 8489,
      "Ġunique": 8490,
      "ighter": 8491,
      "Ġexpanded": 8492,
      "gwá»įta": 8493,
      "Ġsurrounding": 8494,
      "SP": 8495,
      "then": 8496,
      "uis": 8497,
      "enyo": 8498,
      "rome": 8499,
      "Ġthin": 8500,
      "Ġá»Įrá»ĭa": 8501,
      "Ġarchae": 8502,
      "Ġstudent": 8503,
      "mony": 8504,
      "ĠNkw": 8505,
      "Ġisot": 8506,
      "Ġstations": 8507,
      "ĠStory": 8508,
      "Ġunknown": 8509,
      "Ġpolice": 8510,
      "Ġemb": 8511,
      "ĠFinland": 8512,
      "Ġozo": 8513,
      "ĠRun": 8514,
      "ĠHarcourt": 8515,
      "Ġattempted": 8516,
      "greg": 8517,
      "ns": 8518,
      "Ġser": 8519,
      "Ġfran": 8520,
      "ĠJama": 8521,
      "Ġnná»¥ná»¥": 8522,
      "ughere": 8523,
      "ĠPoet": 8524,
      "?\"": 8525,
      "bas": 8526,
      "Ġtheories": 8527,
      "Ġbishop": 8528,
      "ĠPass": 8529,
      "ĠRw": 8530,
      "Ġrare": 8531,
      "Ġnotably": 8532,
      "Ġapart": 8533,
      "Ġempire": 8534,
      "Ġprocesses": 8535,
      "ekiri": 8536,
      "Ġwanted": 8537,
      "ehi": 8538,
      "set": 8539,
      "áº": 8540,
      "ĠEven": 8541,
      "ĠRain": 8542,
      "Ġ55": 8543,
      "akpá»¥": 8544,
      "tainable": 8545,
      "agbaso": 8546,
      "ĠMmeká»įrá»ĭta": 8547,
      "Ġgeomet": 8548,
      "Ġbodies": 8549,
      "ĠDNA": 8550,
      "Ġchá»įtara": 8551,
      "ugara": 8552,
      "ĠCollection": 8553,
      "ĠSteve": 8554,
      "ESCO": 8555,
      "ĠNelson": 8556,
      "ON": 8557,
      "ĠMis": 8558,
      "ĠMbá»¥": 8559,
      "ĠTony": 8560,
      "Ġachieved": 8561,
      "Ġvehicles": 8562,
      "ĠAzá»¥ma": 8563,
      "Ġdra": 8564,
      "ĠMit": 8565,
      "ĠIP": 8566,
      "ĠPC": 8567,
      "oca": 8568,
      "Ġrelative": 8569,
      "1990": 8570,
      "Ġparalle": 8571,
      "Ġorganizations": 8572,
      "ĠLiberal": 8573,
      "Ġcopy": 8574,
      "ĠWorks": 8575,
      "Ġká»įwaa": 8576,
      "kun": 8577,
      "Ġindu": 8578,
      "Ġtoward": 8579,
      "ĠPap": 8580,
      "ĠPret": 8581,
      "Ġabol": 8582,
      "Ġshared": 8583,
      "Ġworldwide": 8584,
      "ĠBerkeley": 8585,
      "Ġtranslated": 8586,
      "Ġstarting": 8587,
      "Ġzá»¥litere": 8588,
      "Ġwave": 8589,
      "furu": 8590,
      "ĠMount": 8591,
      "ĠIm": 8592,
      "Ġsettlement": 8593,
      "Ġcolonies": 8594,
      "ĠMohamed": 8595,
      "ĠNnamdi": 8596,
      "ĠSyd": 8597,
      "otion": 8598,
      "Ġbeaut": 8599,
      "acher": 8600,
      "Ġdedicated": 8601,
      "ahapá»¥": 8602,
      "non": 8603,
      "pool": 8604,
      "Ġnyo": 8605,
      "Ġsoci": 8606,
      "char": 8607,
      "ĠFra": 8608,
      "ĠLie": 8609,
      "ffic": 8610,
      "Ġagá»¥á»¥": 8611,
      "Ġmedicine": 8612,
      "Ġcircum": 8613,
      "ĠChelsea": 8614,
      "].": 8615,
      "Ġsought": 8616,
      "ĠHong": 8617,
      "Ġsaying": 8618,
      "cules": 8619,
      "Ġdefeat": 8620,
      "ĠSomalia": 8621,
      "Ġsequence": 8622,
      "Ġsituation": 8623,
      "Ġstorage": 8624,
      "],": 8625,
      "Ġigbochi": 8626,
      "Ġefe": 8627,
      "urt": 8628,
      "ĠKim": 8629,
      "pread": 8630,
      "Ġachá»įrá»į": 8631,
      "inka": 8632,
      "oster": 8633,
      "Ġjoint": 8634,
      "udo": 8635,
      "Ġahá»ĭrá»ĭ": 8636,
      "amental": 8637,
      "Ġreduce": 8638,
      "ĠCroatian": 8639,
      "Ġdestroyed": 8640,
      "Ġtank": 8641,
      "ĠNkÃł": 8642,
      "omial": 8643,
      "Ġoru": 8644,
      "OC": 8645,
      "WF": 8646,
      "cta": 8647,
      "lers": 8648,
      "mgbe": 8649,
      "Ġactions": 8650,
      "ilarly": 8651,
      "Ġkwere": 8652,
      "ĠMovie": 8653,
      "ĠBronx": 8654,
      "ĠTaylor": 8655,
      "Ġwor": 8656,
      "Ġpit": 8657,
      "bage": 8658,
      "Ġconvent": 8659,
      "ictions": 8660,
      "ĠMedal": 8661,
      "span": 8662,
      "ĠKnight": 8663,
      "Ġexecutive": 8664,
      "ĠIllinois": 8665,
      "ĠByzantine": 8666,
      "LU": 8667,
      "Ġcateg": 8668,
      "Ġá»ĭkwado": 8669,
      "eller": 8670,
      "Ġincome": 8671,
      "Ġ1923": 8672,
      "Ġ1901": 8673,
      "Ġoxid": 8674,
      "ĠStaff": 8675,
      "Ġmasta": 8676,
      "Ġstrength": 8677,
      "Ġá»įtá»į": 8678,
      "asia": 8679,
      "oly": 8680,
      "ĠLat": 8681,
      "Ġhere": 8682,
      "Ġperman": 8683,
      "Ġrefused": 8684,
      "á»ĭnya": 8685,
      "ĠBernard": 8686,
      "Ġcoup": 8687,
      "á»įhá»ĭa": 8688,
      "á»ĭgb": 8689,
      "Ġsays": 8690,
      "ĠAPC": 8691,
      "iced": 8692,
      "ĠSi": 8693,
      "ĠMir": 8694,
      "Ġproved": 8695,
      "Ġproport": 8696,
      "oodu": 8697,
      "hyth": 8698,
      "ejide": 8699,
      "app": 8700,
      "Ġmut": 8701,
      "ĠBam": 8702,
      "ĠOhio": 8703,
      "zighará»ĭ": 8704,
      "phone": 8705,
      "Ġkept": 8706,
      "ĠAmb": 8707,
      "ĠArtists": 8708,
      "ĠEthiopia": 8709,
      "vation": 8710,
      "||": 8711,
      "itness": 8712,
      "ĠOw": 8713,
      "agles": 8714,
      "ounder": 8715,
      "Ġgoal": 8716,
      "ĠHoward": 8717,
      "point": 8718,
      "yom": 8719,
      "á»įcha": 8720,
      "ĠBridge": 8721,
      "eler": 8722,
      "Ġvillage": 8723,
      "ishing": 8724,
      "esear": 8725,
      "Ġwhereas": 8726,
      "Ġpossibly": 8727,
      "ĠAnyá»ĭ": 8728,
      "Ġquantum": 8729,
      "ĠComputer": 8730,
      "%),": 8731,
      "gae": 8732,
      "ĠReal": 8733,
      "Ġmoving": 8734,
      "ĠÃ¡kwÃł": 8735,
      "ĠBienn": 8736,
      "ĠHungarian": 8737,
      "Ġshift": 8738,
      "Ġ1913": 8739,
      "Ġmgbere": 8740,
      "Ġchrom": 8741,
      "ipher": 8742,
      "Ġchoice": 8743,
      "hou": 8744,
      "ude": 8745,
      "ĠIA": 8746,
      "ĠIgwe": 8747,
      "beere": 8748,
      "Ġalumin": 8749,
      "Ġsubstant": 8750,
      "ÃŃa": 8751,
      "ĠWalter": 8752,
      "Ġprotein": 8753,
      "Ġá»ĭmalite": 8754,
      "\";": 8755,
      "rix": 8756,
      "ĠRica": 8757,
      "Ġrates": 8758,
      "aging": 8759,
      "Ġworkers": 8760,
      "elsh": 8761,
      "idespread": 8762,
      "ĠRepublican": 8763,
      "Ġlanding": 8764,
      "Ġopportun": 8765,
      "Ġviews": 8766,
      "Ġikom": 8767,
      "Ġcustom": 8768,
      "Ġbond": 8769,
      "urance": 8770,
      "Ġlie": 8771,
      "Ġliqu": 8772,
      "hedral": 8773,
      "Ġleadership": 8774,
      "atá»¥le": 8775,
      "ĠBurkina": 8776,
      "Ġeasily": 8777,
      "irmed": 8778,
      "Ġdochie": 8779,
      "nyá»ĭnya": 8780,
      "Ġagbata": 8781,
      "mmet": 8782,
      "ĠAkin": 8783,
      "ĠMkpá»¥rá»¥": 8784,
      "iab": 8785,
      "Ġarbit": 8786,
      "ĠBeach": 8787,
      "Ġcauses": 8788,
      "gests": 8789,
      "Ġpopularity": 8790,
      "Ġlimit": 8791,
      "Ġinspired": 8792,
      "Ġslightly": 8793,
      "ĠMethod": 8794,
      "ĠØ§ÙĦ": 8795,
      "esiri": 8796,
      "ĠPra": 8797,
      "osph": 8798,
      "ĠRem": 8799,
      "bec": 8800,
      "Ġá»ĭlá»¥": 8801,
      "Ġcontext": 8802,
      "Ġnkwará»¥": 8803,
      "Ġdifferences": 8804,
      "ĠAugustine": 8805,
      "Ġexperien": 8806,
      "kt": 8807,
      "sal": 8808,
      "Ġcovered": 8809,
      "ĠIk": 8810,
      "Ġenyo": 8811,
      "ĠBaseball": 8812,
      "Ġheavily": 8813,
      "bin": 8814,
      "Ġfuel": 8815,
      "ĠSok": 8816,
      "ĠFaso": 8817,
      "imedia": 8818,
      "ĠThrough": 8819,
      "ĠMargar": 8820,
      "aná»įchi": 8821,
      "Ġdabeere": 8822,
      "Ġhands": 8823,
      "Ġphysics": 8824,
      "ĠOgige": 8825,
      "Ġsuggests": 8826,
      "EN": 8827,
      "Ġbit": 8828,
      "Ġdeliv": 8829,
      "ĠNich": 8830,
      "uti": 8831,
      "ĠLyn": 8832,
      "ĠArchitect": 8833,
      "Ġdip": 8834,
      "Ġplat": 8835,
      "Ġsignal": 8836,
      "ĠPalace": 8837,
      "zard": 8838,
      "Ġny": 8839,
      "kwere": 8840,
      "ĠMiche": 8841,
      "ĠDur": 8842,
      "ĠGene": 8843,
      "ĠChristopher": 8844,
      "1996": 8845,
      "Ġreceive": 8846,
      "Ġattempts": 8847,
      "ĠGrace": 8848,
      "ĠAristot": 8849,
      "TC": 8850,
      "uge": 8851,
      "Ġforest": 8852,
      "Ġ38": 8853,
      "aval": 8854,
      "Ġincreasingly": 8855,
      "Ġbacteria": 8856,
      "mpt": 8857,
      "Ġpra": 8858,
      "ĠCD": 8859,
      "ĠBÃ©": 8860,
      "amed": 8861,
      "Ġisol": 8862,
      "Ġatmosp": 8863,
      "Ġyoun": 8864,
      "Ġtowns": 8865,
      "Ã²tÃ¹": 8866,
      "Ġcontact": 8867,
      "ĠRoger": 8868,
      "nie": 8869,
      "ued": 8870,
      "wick": 8871,
      "anabata": 8872,
      "ĠLight": 8873,
      "quarters": 8874,
      "Ġabandon": 8875,
      "dings": 8876,
      "Ġconson": 8877,
      "Ġaccur": 8878,
      "ĠBulgarian": 8879,
      "ĠPolitical": 8880,
      "Ġsun": 8881,
      "illes": 8882,
      "Ġkatá»įrá»į": 8883,
      "Ġ1912": 8884,
      "hab": 8885,
      "ĠConstitution": 8886,
      "ĠPolicy": 8887,
      "Ġapplication": 8888,
      "Ġatomic": 8889,
      "Ġphenomen": 8890,
      "Man": 8891,
      "à¤": 8892,
      "ellect": 8893,
      "utt": 8894,
      "Ġheat": 8895,
      "Ġacids": 8896,
      "istered": 8897,
      "Ġexperiment": 8898,
      "Ġkilling": 8899,
      "ĠPalestine": 8900,
      "54": 8901,
      "ĠSl": 8902,
      "ĠMP": 8903,
      "ĠDeb": 8904,
      "ĠHur": 8905,
      "Ġhero": 8906,
      "Ġsomething": 8907,
      "ĠStudio": 8908,
      "ĠOrigin": 8909,
      "Ġweghaara": 8910,
      "ĠAlberta": 8911,
      "Ġnyochara": 8912,
      "34": 8913,
      "kers": 8914,
      "western": 8915,
      "Ġaer": 8916,
      "Ġnari": 8917,
      "ĠBlu": 8918,
      "idel": 8919,
      "ubata": 8920,
      "ĠLeon": 8921,
      "Ġbackground": 8922,
      "ĠSquare": 8923,
      "enhagen": 8924,
      "ĠBachelor": 8925,
      "die": 8926,
      "Ġgram": 8927,
      "ambi": 8928,
      "ĠRena": 8929,
      "ĠBeat": 8930,
      "Ġghá»įá»į": 8931,
      "Ġzá»¥lite": 8932,
      "Ġnkwá»¥sá»ĭ": 8933,
      "leep": 8934,
      "Ġalt": 8935,
      "izon": 8936,
      "Ġscene": 8937,
      "Ġpolitics": 8938,
      "ĠBuilding": 8939,
      "Ġdescribes": 8940,
      "Ġsolid": 8941,
      "rugg": 8942,
      "Se": 8943,
      "worth": 8944,
      "erc": 8945,
      "Ġsem": 8946,
      "ĠANC": 8947,
      "ĠSah": 8948,
      "ĠGrant": 8949,
      "ĠRab": 8950,
      "Ġcancer": 8951,
      "Ġplans": 8952,
      "ropri": 8953,
      "cert": 8954,
      "Ġstrateg": 8955,
      "Ġstandards": 8956,
      "Ġconducted": 8957,
      "Ġrailway": 8958,
      "ĠBuffalo": 8959,
      "Ġbad": 8960,
      "Ġbib": 8961,
      "Ġá»įdachi": 8962,
      "ĠAnat": 8963,
      "Ġsculpt": 8964,
      "Ġmkpoká»įta": 8965,
      "ĠServices": 8966,
      "ĠMalaysia": 8967,
      "94": 8968,
      "Re": 8969,
      "also": 8970,
      "ĠTot": 8971,
      "ĠKan": 8972,
      "Ġfeed": 8973,
      "Ġequivalent": 8974,
      "ped": 8975,
      "orter": 8976,
      "Ġwidespread": 8977,
      "Ġpeoples": 8978,
      "ĠMA": 8979,
      "olt": 8980,
      "ĠKer": 8981,
      "Ġmmadu": 8982,
      "Ġnkesa": 8983,
      "ĠMaced": 8984,
      "ipedia": 8985,
      "Ġcombat": 8986,
      "Ġcollege": 8987,
      "Ġmagnitude": 8988,
      "ï¿¼ï¿¼": 8989,
      "tha": 8990,
      "abanye": 8991,
      "Ġseat": 8992,
      "Ġjá»¥": 8993,
      "Ġnwayá»įá»į": 8994,
      "miss": 8995,
      "ĠMission": 8996,
      "ĠPy": 8997,
      "Ġroll": 8998,
      "ĠBengal": 8999,
      "Ġejije": 9000,
      "ĠStadium": 9001,
      "Ġfailure": 9002,
      "ĠDefence": 9003,
      "Ġpainter": 9004,
      "ĠNjem": 9005,
      "inity": 9006,
      "Ġdensity": 9007,
      "mepá»¥ta": 9008,
      "Ġgall": 9009,
      "hua": 9010,
      "lium": 9011,
      "Ġeffort": 9012,
      "ĠOsisi": 9013,
      "Ġintroduction": 9014,
      "Ġhonor": 9015,
      "etary": 9016,
      "ĠGran": 9017,
      "ĠFace": 9018,
      "rance": 9019,
      "Ġememe": 9020,
      "Ġoutput": 9021,
      "ĠPatri": 9022,
      "Ġruled": 9023,
      "Ġcourts": 9024,
      "Ġunderstanding": 9025,
      "ĠBA": 9026,
      "ĠLuther": 9027,
      "Ġconv": 9028,
      "Ġenyere": 9029,
      "sogbu": 9030,
      "Ġexpl": 9031,
      "Ġdetect": 9032,
      "Ġpeak": 9033,
      "Ġshape": 9034,
      "inction": 9035,
      "ĠAqu": 9036,
      "ĠMult": 9037,
      "ĠOyo": 9038,
      "ĠDiam": 9039,
      "soft": 9040,
      "Ġarmed": 9041,
      "ĠToronto": 9042,
      "Ġnnupá»¥isi": 9043,
      "ĠSecretary": 9044,
      "Ġauthors": 9045,
      "eturu": 9046,
      "ĠPit": 9047,
      "Ġalone": 9048,
      "Ġwealth": 9049,
      "Ġtried": 9050,
      "real": 9051,
      "ĠNkwupá»¥ta": 9052,
      "ĠBM": 9053,
      "ĠGil": 9054,
      "ĠFle": 9055,
      "ĠRh": 9056,
      "ĠWelsh": 9057,
      "ĠÃģ": 9058,
      "ĠMarket": 9059,
      "Ġspecifically": 9060,
      "ĠHeritage": 9061,
      "Ġsettled": 9062,
      "ewepá»¥ta": 9063,
      "ois": 9064,
      "ĠTok": 9065,
      "olute": 9066,
      "ĠLan": 9067,
      "ĠRhod": 9068,
      "ulty": 9069,
      "ĠAdvan": 9070,
      "Ġhttps": 9071,
      "August": 9072,
      "Ġbatter": 9073,
      "ĠIl": 9074,
      "ango": 9075,
      "aven": 9076,
      "licit": 9077,
      "agbachitere": 9078,
      "Ġuseful": 9079,
      "Ġattra": 9080,
      "ĠSupp": 9081,
      "Ġtemperatures": 9082,
      "Ġcreating": 9083,
      "Ġvehicle": 9084,
      "Ġdamage": 9085,
      "Ġcomponents": 9086,
      "Ġá»¥tá»¥tá»¥": 9087,
      "Ġmetals": 9088,
      "Ġinfluential": 9089,
      "62": 9090,
      "zona": 9091,
      "ĠAges": 9092,
      "Ġdance": 9093,
      "dá»ĭka": 9094,
      "Ġmap": 9095,
      "Ġ1916": 9096,
      "ĠHad": 9097,
      "Ġkere": 9098,
      "Ġcausing": 9099,
      "ĠChristmas": 9100,
      "1994": 9101,
      "Ġopera": 9102,
      "Ġvoice": 9103,
      "ĠBetween": 9104,
      "72": 9105,
      "pan": 9106,
      "via": 9107,
      "Ð¾": 9108,
      "Ġbish": 9109,
      "Ġobtained": 9110,
      "ĠRober": 9111,
      "Ġcarry": 9112,
      "class": 9113,
      "ĠMaryland": 9114,
      "Ġspeakers": 9115,
      "EF": 9116,
      "bul": 9117,
      "dess": 9118,
      "Å¡": 9119,
      "á»¥kwá»¥": 9120,
      "ĠRen": 9121,
      "state": 9122,
      "ĠInvest": 9123,
      "Ġmechiri": 9124,
      "Ġagriculture": 9125,
      "ĠAssy": 9126,
      "1992": 9127,
      "Ġoppon": 9128,
      "ĠColumbus": 9129,
      "Ġewepá»¥tara": 9130,
      "writ": 9131,
      "Ġidu": 9132,
      "ĠSound": 9133,
      "ĠMam": 9134,
      "Ġring": 9135,
      "Ġorders": 9136,
      "Ġenweta": 9137,
      "ellite": 9138,
      "techn": 9139,
      "ĠConne": 9140,
      "Ġsplit": 9141,
      "ĠPlan": 9142,
      "Ġpractices": 9143,
      "Ġadvanced": 9144,
      "ĠSin": 9145,
      "wegian": 9146,
      "ĠIniti": 9147,
      "ĠCommand": 9148,
      "Ġdeveloping": 9149,
      "enness": 9150,
      "Ġliterary": 9151,
      "Ġdigital": 9152,
      "Ġspiritual": 9153,
      "kwunyere": 9154,
      "ĠLiver": 9155,
      "emekará»ĭ": 9156,
      "ĠConfu": 9157,
      "Ġtransfer": 9158,
      "rastructure": 9159,
      "Ġur": 9160,
      "Ġcensus": 9161,
      "ĠBrian": 9162,
      "weet": 9163,
      "Ġarrest": 9164,
      "Ġreports": 9165,
      "Ġsales": 9166,
      "abawanye": 9167,
      "Ġsteel": 9168,
      "Ġneighbor": 9169,
      "Ġframe": 9170,
      "asanjo": 9171,
      "ds": 9172,
      "rator": 9173,
      "Ġmic": 9174,
      "edition": 9175,
      "robi": 9176,
      "Ġgw": 9177,
      "ĠIkike": 9178,
      "Ġmmefu": 9179,
      "huga": 9180,
      "ejikwa": 9181,
      "ĠMmepe": 9182,
      "Ġtemple": 9183,
      "Ġadvantage": 9184,
      "Ġmanufactur": 9185,
      "Ġacquired": 9186,
      "ĠDigital": 9187,
      "ĠProtestant": 9188,
      "58": 9189,
      "WA": 9190,
      "ĠScient": 9191,
      "lag": 9192,
      "Ġagricultural": 9193,
      "Ġminim": 9194,
      "Ġtempor": 9195,
      "Ġprojects": 9196,
      "ĠMargaret": 9197,
      "HO": 9198,
      "Ã´": 9199,
      "ÙĪ": 9200,
      "rea": 9201,
      "Ġfiction": 9202,
      "ĠBav": 9203,
      "ĠIM": 9204,
      "ulite": 9205,
      "itionally": 9206,
      "Ġproviding": 9207,
      "ĠUNESCO": 9208,
      "ĠCopenhagen": 9209,
      "Ġenvironmental": 9210,
      "Ġcontrolled": 9211,
      "Ġadministrative": 9212,
      "Ġserious": 9213,
      "ĠHans": 9214,
      "meri": 9215,
      "ansas": 9216,
      "Ġedeturu": 9217,
      "rayer": 9218,
      "ĠLiterature": 9219,
      "tical": 9220,
      "law": 9221,
      "umu": 9222,
      "imately": 9223,
      "ĠUz": 9224,
      "Ġoccasion": 9225,
      "Ġweapons": 9226,
      "ĠSydney": 9227,
      "cian": 9228,
      "Ġcool": 9229,
      "ĠKos": 9230,
      "Ġnations": 9231,
      "ĠðŁį": 9232,
      "ĠEshia": 9233,
      "ĠBrazilian": 9234,
      "Ġgranted": 9235,
      "April": 9236,
      "68": 9237,
      "hard": 9238,
      "Ã«": 9239,
      "Ġigwu": 9240,
      "eling": 9241,
      "Ġdeká»įrá»į": 9242,
      "Ġresidents": 9243,
      "ĠRegional": 9244,
      "Ġengineer": 9245,
      "Ġscientists": 9246,
      "Ġinstrument": 9247,
      "Ġzá»į": 9248,
      "onom": 9249,
      "Ġpure": 9250,
      "ĠKo": 9251,
      "Ġorganic": 9252,
      "shire": 9253,
      "yles": 9254,
      "Å«": 9255,
      "Ġion": 9256,
      "ĠAG": 9257,
      "ÃłmÃł": 9258,
      "ĠObasanjo": 9259,
      "Ġnrá»¥rá»¥": 9260,
      "Ġlisted": 9261,
      "ĠNchebe": 9262,
      "Ġemployed": 9263,
      "wall": 9264,
      "Ġmind": 9265,
      "Ġsides": 9266,
      "Ġfrag": 9267,
      "ĠBush": 9268,
      "ĠEPA": 9269,
      "oputa": 9270,
      "aste": 9271,
      "okike": 9272,
      "ĠOrchestra": 9273,
      "ĠDaily": 9274,
      "Ġglass": 9275,
      "ĠLiberia": 9276,
      "Ġachá»ĭcha": 9277,
      "ĠGordon": 9278,
      "SI": 9279,
      "cor": 9280,
      "fall": 9281,
      "iwa": 9282,
      "vig": 9283,
      "Ġinher": 9284,
      "ĠFlight": 9285,
      "Ġleave": 9286,
      "Ġstay": 9287,
      "ĠUrban": 9288,
      "OR": 9289,
      "ĠRoll": 9290,
      "Ġdepending": 9291,
      "Ġvisited": 9292,
      "63": 9293,
      "awa": 9294,
      "eweta": 9295,
      "from": 9296,
      "goro": 9297,
      "isf": 9298,
      "icks": 9299,
      "ĠRose": 9300,
      "rons": 9301,
      "Ġpolic": 9302,
      "Ġrival": 9303,
      "ĠPlateau": 9304,
      ";\"": 9305,
      "iser": 9306,
      "ĠLine": 9307,
      "occer": 9308,
      "Ġentirely": 9309,
      "}.": 9310,
      "ĠLate": 9311,
      "ensis": 9312,
      "á»įá»įsá»¥": 9313,
      "Ġpossess": 9314,
      "Ġexisting": 9315,
      "ĠBelgian": 9316,
      "ĠAmerika": 9317,
      "ĠRelig": 9318,
      "graph": 9319,
      "Ġsemi": 9320,
      "ĠTrin": 9321,
      "rav": 9322,
      "ĠAlan": 9323,
      "bian": 9324,
      "Ġreasons": 9325,
      "Ġá»ĭhapá»¥": 9326,
      "Ġstop": 9327,
      "Ġinvasion": 9328,
      "ĠClar": 9329,
      "ĠNnukwu": 9330,
      "ufo": 9331,
      "Ġfactor": 9332,
      "ĠImperial": 9333,
      "Ġmunicipal": 9334,
[...]
