{
  "version": "1.0",
  "truncation": null,
  "padding": null,
  "added_tokens": [
    {
      "id": 0,
      "content": "[PAD]",
      "single_word": false,
      "lstrip": false,
      "rstrip": false,
      "normalized": false,
      "special": true
    },
    {
      "id": 1,
      "content": "[CLS]",
      "single_word": false,
      "lstrip": false,
      "rstrip": false,
      "normalized": false,
      "special": true
    },
    {
      "id": 2,
      "content": "[SEP]",
      "single_word": false,
      "lstrip": false,
      "rstrip": false,
      "normalized": false,
      "special": true
    },
    {
      "id": 3,
      "content": "[MASK]",
      "single_word": false,
      "lstrip": false,
      "rstrip": false,
      "normalized": false,
      "special": true
    }
  ],
  "normalizer": {
    "type": "NFC"
  },
  "pre_tokenizer": {
    "type": "ByteLevel",
    "add_prefix_space": false,
    "trim_offsets": true,
    "use_regex": true
  },
  "post_processor": null,
  "decoder": {
    "type": "ByteLevel",
    "add_prefix_space": true,
    "trim_offsets": true,
    "use_regex": true
  },
  "model": {
    "type": "BPE",
    "dropout": null,
    "unk_token": null,
    "continuing_subword_prefix": null,
    "end_of_word_suffix": null,
    "fuse_unk": false,
    "byte_fallback": false,
    "ignore_merges": false,
    "vocab": {
      "[PAD]": 0,
      "[CLS]": 1,
      "[SEP]": 2,
      "[MASK]": 3,
      "!": 4,
      "\"": 5,
      "#": 6,
      "$": 7,
      "%": 8,
      "&": 9,
      "'": 10,
      "(": 11,
      ")": 12,
      "*": 13,
      "+": 14,
      ",": 15,
      "-": 16,
      ".": 17,
      "/": 18,
      "0": 19,
      "1": 20,
      "2": 21,
      "3": 22,
      "4": 23,
      "5": 24,
      "6": 25,
      "7": 26,
      "8": 27,
      "9": 28,
      ":": 29,
      ";": 30,
      "<": 31,
      "=": 32,
      ">": 33,
      "?": 34,
      "@": 35,
      "A": 36,
      "B": 37,
      "C": 38,
      "D": 39,
      "E": 40,
      "F": 41,
      "G": 42,
      "H": 43,
      "I": 44,
      "J": 45,
      "K": 46,
      "L": 47,
      "M": 48,
      "N": 49,
      "O": 50,
      "P": 51,
      "Q": 52,
      "R": 53,
      "S": 54,
      "T": 55,
      "U": 56,
      "V": 57,
      "W": 58,
      "X": 59,
      "Y": 60,
      "Z": 61,
      "[": 62,
      "\\": 63,
      "]": 64,
      "^": 65,
      "_": 66,
      "`": 67,
      "a": 68,
      "b": 69,
      "c": 70,
      "d": 71,
      "e": 72,
      "f": 73,
      "g": 74,
      "h": 75,
      "i": 76,
      "j": 77,
      "k": 78,
      "l": 79,
      "m": 80,
      "n": 81,
      "o": 82,
      "p": 83,
      "q": 84,
      "r": 85,
      "s": 86,
      "t": 87,
      "u": 88,
      "v": 89,
      "w": 90,
      "x": 91,
      "y": 92,
      "z": 93,
      "{": 94,
      "|": 95,
      "}": 96,
      "~": 97,
      "¡": 98,
      "¢": 99,
      "£": 100,
      "¤": 101,
      "¥": 102,
      "¦": 103,
      "§": 104,
      "¨": 105,
      "©": 106,
      "ª": 107,
      "«": 108,
      "¬": 109,
      "®": 110,
      "¯": 111,
      "°": 112,
      "±": 113,
      "²": 114,
      "³": 115,
      "´": 116,
      "µ": 117,
      "¶": 118,
      "·": 119,
      "¸": 120,
      "¹": 121,
      "º": 122,
      "»": 123,
      "¼": 124,
      "½": 125,
      "¾": 126,
      "¿": 127,
      "Â": 128,
      "Ã": 129,
      "Ä": 130,
      "Å": 131,
      "Æ": 132,
      "Ç": 133,
      "È": 134,
      "É": 135,
      "Ê": 136,
      "Ë": 137,
      "Ì": 138,
      "Í": 139,
      "Î": 140,
      "Ï": 141,
      "Ð": 142,
      "Ñ": 143,
      "Ò": 144,
      "Ó": 145,
      "Ô": 146,
      "Õ": 147,
      "Ö": 148,
      "×": 149,
      "Ø": 150,
      "Ù": 151,
      "Ú": 152,
      "Û": 153,
      "Ü": 154,
      "Ý": 155,
      "ß": 156,
      "à": 157,
      "á": 158,
      "â": 159,
      "ã": 160,
      "ä": 161,
      "å": 162,
      "æ": 163,
      "ç": 164,
      "è": 165,
      "é": 166,
      "ê": 167,
      "ë": 168,
      "ì": 169,
      "í": 170,
      "ï": 171,
      "ð": 172,
      "Ċ": 173,
      "Ġ": 174,
      "Ģ": 175,
      "ģ": 176,
      "Ĥ": 177,
      "ĥ": 178,
      "Ħ": 179,
      "ħ": 180,
      "Ĩ": 181,
      "ĩ": 182,
      "Ī": 183,
      "ī": 184,
      "Ĭ": 185,
      "ĭ": 186,
      "Į": 187,
      "į": 188,
      "İ": 189,
      "ı": 190,
      "Ĳ": 191,
      "ĳ": 192,
      "Ĵ": 193,
      "ĵ": 194,
      "Ķ": 195,
      "ķ": 196,
      "ĸ": 197,
      "Ĺ": 198,
      "ĺ": 199,
      "Ļ": 200,
      "ļ": 201,
      "Ľ": 202,
      "ľ": 203,
      "Ŀ": 204,
      "ŀ": 205,
      "Ł": 206,
      "ł": 207,
      "Ń": 208,
      "Ġt": 209,
      "Ġa": 210,
      "he": 211,
      "in": 212,
      "er": 213,
      "on": 214,
      "Ġthe": 215,
      "re": 216,
      "Ġo": 217,
      "an": 218,
      "at": 219,
      "Ġs": 220,
      "en": 221,
      "or": 222,
      "is": 223,
      "ed": 224,
      "Ġw": 225,
      "es": 226,
      "Ġc": 227,
      "al": 228,
      "it": 229,
      "Ġof": 230,
      "Ġan": 231,
      "ar": 232,
      "Ġf": 233,
      "Ġb": 234,
      "Ġp": 235,
      "Ġin": 236,
      "ic": 237,
      "Ġd": 238,
      "Ġand": 239,
      "ion": 240,
      "ing": 241,
      "as": 242,
      "ro": 243,
      "Ġm": 244,
      "ĠA": 245,
      "Ġto": 246,
      "le": 247,
      "ou": 248,
      "Ġh": 249,
      "ent": 250,
      "ĠT": 251,
      "om": 252,
      "ĠS": 253,
      "st": 254,
      "ĠC": 255,
      "il": 256,
      "Ġre": 257,
      "Ġe": 258,
      "ĠB": 259,
      "ct": 260,
      "Ġn": 261,
      "el": 262,
      "Ġ1": 263,
      "ol": 264,
      "Ġl": 265,
      "Ġth": 266,
      "am": 267,
      "us": 268,
      "et": 269,
      "Ġfor": 270,
      "im": 271,
      "Ġ(": 272,
      "ur": 273,
      "id": 274,
      "ad": 275,
      "ation": 276,
      "ĠI": 277,
      "ch": 278,
      "Ġg": 279,
      "ly": 280,
      "ĠM": 281,
      "iv": 282,
      "un": 283,
      "ce": 284,
      "ig": 285,
      "ut": 286,
      "ĠThe": 287,
      "ot": 288,
      "Ġbe": 289,
      "Ġas": 290,
      "Ġis": 291,
      "ĠP": 292,
      "Ġde": 293,
      "ir": 294,
      "Ġon": 295,
      "ay": 296,
      "ers": 297,
      "ul": 298,
      "ist": 299,
      "ow": 300,
      "ra": 301,
      "Ġst": 302,
      "ith": 303,
      "ĠH": 304,
      "ĠE": 305,
      "em": 306,
      "ĠD": 307,
      "Ġwas": 308,
      "her": 309,
      "Ġ19": 310,
      "ter": 311,
      "Ġ2": 312,
      "os": 313,
      "ĠR": 314,
      "ĠF": 315,
      "Ġal": 316,
      "th": 317,
      "Ġcon": 318,
      "Ġwith": 319,
      "ver": 320,
      "ĠN": 321,
      "ĠG": 322,
      "ĠL": 323,
      "um": 324,
      "Ġby": 325,
      "and": 326,
      "Ġdi": 327,
      "od": 328,
      "op": 329,
      "ri": 330,
      "Ġwh": 331,
      "Ġthat": 332,
      "ĠW": 333,
      "ag": 334,
      "rom": 335,
      "est": 336,
      "Ġcom": 337,
      "av": 338,
      "'s": 339,
      "âĢ": 340,
      "Ġpro": 341,
      "ĠIn": 342,
      "ian": 343,
      "ac": 344,
      "Ġv": 345,
      "Ġ\"": 346,
      "Ġor": 347,
      "res": 348,
      "ab": 349,
      "Ġ20": 350,
      "ain": 351,
      "ĠO": 352,
      "ate": 353,
      "ity": 354,
      "Ġfrom": 355,
      "ies": 356,
      "Ġat": 357,
      "ĠJ": 358,
      "Ġsu": 359,
      "Ġit": 360,
      "oun": 361,
      "Ġare": 362,
      "pe": 363,
      "âĢĵ": 364,
      "ia": 365,
      "if": 366,
      "Ġex": 367,
      "ud": 368,
      "Ġse": 369,
      "oc": 370,
      "ort": 371,
      "Ġr": 372,
      "qu": 373,
      "Ġhe": 374,
      "art": 375,
      "ant": 376,
      "all": 377,
      "ess": 378,
      "ore": 379,
      "ld": 380,
      "ich": 381,
      "ill": 382,
      "ak": 383,
      "ive": 384,
      "ment": 385,
      "se": 386,
      "ĠU": 387,
      "ip": 388,
      "ical": 389,
      "ap": 390,
      "igh": 391,
      "ial": 392,
      "ard": 393,
      "ish": 394,
      "ber": 395,
      "ew": 396,
      "Ġk": 397,
      "Ġun": 398,
      "og": 399,
      "ĠK": 400,
      "ated": 401,
      "Ġpl": 402,
      "Ġhis": 403,
      "Ġch": 404,
      "ey": 405,
      "ction": 406,
      "ost": 407,
      "Ġus": 408,
      "end": 409,
      "ff": 410,
      "ge": 411,
      "ure": 412,
      "gh": 413,
      "ere": 414,
      "up": 415,
      "ary": 416,
      "mer": 417,
      "ther": 418,
      "00": 419,
      "ine": 420,
      "ov": 421,
      "Ġwhich": 422,
      "ast": 423,
      "ell": 424,
      "our": 425,
      "ĠâĢĵ": 426,
      "ĠCh": 427,
      "ong": 428,
      "pp": 429,
      "Ġle": 430,
      "Ġwere": 431,
      "cl": 432,
      "ust": 433,
      "so": 434,
      "rit": 435,
      "pt": 436,
      "ave": 437,
      "ear": 438,
      "ĠSt": 439,
      "Ġcomp": 440,
      "Ġsh": 441,
      "ran": 442,
      "ub": 443,
      "ord": 444,
      "Ġnot": 445,
      "ous": 446,
      "ight": 447,
      "ame": 448,
      "cc": 449,
      "Ġim": 450,
      "Ġar": 451,
      "),": 452,
      "ry": 453,
      "ome": 454,
      "per": 455,
      "Ġy": 456,
      "ect": 457,
      "ition": 458,
      "du": 459,
      "iz": 460,
      "ide": 461,
      "Ġgo": 462,
      "Ġalso": 463,
      "ult": 464,
      "ĠAn": 465,
      "red": 466,
      "ican": 467,
      "Ġcont": 468,
      "ations": 469,
      "ĠAl": 470,
      "ass": 471,
      "ign": 472,
      "ue": 473,
      "ib": 474,
      "Ġhave": 475,
      "der": 476,
      "ok": 477,
      "Ġint": 478,
      "ack": 479,
      "ence": 480,
      "ĠV": 481,
      "Ġad": 482,
      "Ġdey": 483,
      "age": 484,
      "Ġab": 485,
      "ie": 486,
      "pl": 487,
      "Ġ201": 488,
      "Ġone": 489,
      "Ġhas": 490,
      "ik": 491,
      "ren": 492,
      "ĠUn": 493,
      "Ġdis": 494,
      "Ġbut": 495,
      "ory": 496,
      "Ġcl": 497,
      "tern": 498,
      "Ġhad": 499,
      "Ġpart": 500,
      "ount": 501,
      "ph": 502,
      "irst": 503,
      "man": 504,
      "ally": 505,
      "Ġits": 506,
      "Ġres": 507,
      "Ġwor": 508,
      "ang": 509,
      "hen": 510,
      "ree": 511,
      "ater": 512,
      "ĠTh": 513,
      "Ġall": 514,
      "Ġtheir": 515,
      "act": 516,
      "ates": 517,
      "con": 518,
      "Ġother": 519,
      "ces": 520,
      ").": 521,
      "out": 522,
      "ĠAmer": 523,
      "ime": 524,
      "port": 525,
      "ru": 526,
      "clud": 527,
      "Ġman": 528,
      "Ġ18": 529,
      "Ġfirst": 530,
      "wo": 531,
      "Ġwey": 532,
      "ions": 533,
      "Ġen": 534,
      "ach": 535,
      "Ġte": 536,
      "Ġam": 537,
      "ould": 538,
      "und": 539,
      "Ġper": 540,
      "ely": 541,
      "ĠAr": 542,
      "ric": 543,
      "ress": 544,
      "oll": 545,
      "own": 546,
      "ace": 547,
      "Ġ200": 548,
      "ile": 549,
      "ep": 550,
      "Ġthis": 551,
      "land": 552,
      "Ġbec": 553,
      "ens": 554,
      "Ġcan": 555,
      "ice": 556,
      "erv": 557,
      "ational": 558,
      "Ġinclud": 559,
      "ts": 560,
      "Ġbeen": 561,
      "ound": 562,
      "fter": 563,
      "able": 564,
      "Ġj": 565,
      "ks": 566,
      "Ġro": 567,
      "te": 568,
      "hed": 569,
      "Ġag": 570,
      "Ġyear": 571,
      "Ġcomm": 572,
      "we": 573,
      "19": 574,
      "ugh": 575,
      "ĠAmerican": 576,
      "ase": 577,
      "vel": 578,
      "Ġne": 579,
      "ced": 580,
      "ors": 581,
      "ĠEn": 582,
      "orm": 583,
      "ron": 584,
      "Ġwho": 585,
      "ited": 586,
      "les": 587,
      "Ġme": 588,
      "ose": 589,
      "Ġ3": 590,
      "Ġdem": 591,
      "Ġsc": 592,
      "ĠIt": 593,
      "olog": 594,
      "ents": 595,
      "Ġtwo": 596,
      "Ġev": 597,
      "uring": 598,
      "aw": 599,
      "Ġplay": 600,
      "Ġdes": 601,
      "Ġsp": 602,
      "fer": 603,
      "ĠHe": 604,
      "ubl": 605,
      "ough": 606,
      "ft": 607,
      "Ġsy": 608,
      "ĠSe": 609,
      "Ġsuch": 610,
      "Ġform": 611,
      "ism": 612,
      "Ġcent": 613,
      "ite": 614,
      "ade": 615,
      "Ġno": 616,
      "ire": 617,
      "ath": 618,
      "Ġmore": 619,
      "Ġspe": 620,
      "Ġele": 621,
      "Ġrec": 622,
      "ance": 623,
      "amp": 624,
      "Ġused": 625,
      "Ġcons": 626,
      "Ġ199": 627,
      "Ġmost": 628,
      "ĠAs": 629,
      "ake": 630,
      "ĠRe": 631,
      "old": 632,
      "are": 633,
      "oin": 634,
      "ans": 635,
      "ular": 636,
      "ĠY": 637,
      "Ġinto": 638,
      "ob": 639,
      "ics": 640,
      "aus": 641,
      "Ġpre": 642,
      "Ġgro": 643,
      "Ġrel": 644,
      "Ġbet": 645,
      "Ġind": 646,
      "als": 647,
      "Ġthey": 648,
      "Ġover": 649,
      "reat": 650,
      "Ġout": 651,
      "ury": 652,
      "rib": 653,
      "ari": 654,
      "Ġprodu": 655,
      "iss": 656,
      "wn": 657,
      "ark": 658,
      "Ġact": 659,
      "Ġpr": 660,
      "Ġreg": 661,
      "Ġpol": 662,
      "Ġsome": 663,
      "oy": 664,
      "Ġthan": 665,
      "ict": 666,
      "rans": 667,
      "ener": 668,
      "ivers": 669,
      "Ġatt": 670,
      "ings": 671,
      "Ġafter": 672,
      "Ġtime": 673,
      "Ġup": 674,
      "Ġkn": 675,
      "ons": 676,
      "orn": 677,
      "Ġsay": 678,
      "rough": 679,
      "ind": 680,
      "Ġnum": 681,
      "Ġwe": 682,
      "ased": 683,
      "Ġac": 684,
      "ail": 685,
      "ook": 686,
      "here": 687,
      "ral": 688,
      "ween": 689,
      "oth": 690,
      "ĠOn": 691,
      "ĠCom": 692,
      "gl": 693,
      "Ġso": 694,
      "Ġacc": 695,
      "Ġapp": 696,
      "Ġra": 697,
      "ug": 698,
      "ah": 699,
      "Ġ4": 700,
      "Ġnew": 701,
      "vern": 702,
      "Ġpe": 703,
      "Ġna": 704,
      "one": 705,
      "ied": 706,
      "ident": 707,
      "Ġsub": 708,
      "Ġonly": 709,
      "gan": 710,
      "ted": 711,
      "Ġ198": 712,
      "ond": 713,
      "20": 714,
      "arg": 715,
      "Ġco": 716,
      "Ġph": 717,
      "Ġunder": 718,
      "ĠThis": 719,
      "ars": 720,
      "ific": 721,
      "erm": 722,
      "ative": 723,
      "Ġbetween": 724,
      "urn": 725,
      "ram": 726,
      "Ġinf": 727,
      "ild": 728,
      "Ġher": 729,
      "ual": 730,
      "ĠDe": 731,
      "Ġear": 732,
      "ins": 733,
      "ince": 734,
      "ern": 735,
      "Ġoff": 736,
      "cre": 737,
      "Ġpop": 738,
      "ten": 739,
      "stem": 740,
      "ities": 741,
      "ward": 742,
      "Ġmod": 743,
      "Ġcount": 744,
      "\".": 745,
      "Ġtr": 746,
      "Ġwould": 747,
      "Ġinter": 748,
      "ood": 749,
      "uc": 750,
      "Ġdo": 751,
      "Ġcol": 752,
      "Ġpres": 753,
      "oh": 754,
      "ists": 755,
      "ium": 756,
      "Ġwhen": 757,
      "Ġqu": 758,
      "ople": 759,
      "Ġ5": 760,
      "hes": 761,
      "Ġ197": 762,
      "ĠLe": 763,
      "ĠAt": 764,
      "att": 765,
      "ĠFor": 766,
      "very": 767,
      "ike": 768,
      "Ġdef": 769,
      "Ġyears": 770,
      "cial": 771,
      "Ġtrans": 772,
      "Ġass": 773,
      "Ġfl": 774,
      "uro": 775,
      "Ġmany": 776,
      "Ġabout": 777,
      "ution": 778,
      "outh": 779,
      "Ġbl": 780,
      "aj": 781,
      "Ġmay": 782,
      "Ġthere": 783,
      "ix": 784,
      "ilm": 785,
      "ines": 786,
      "Ġuse": 787,
      "ĠAf": 788,
      "Ġhim": 789,
      "hip": 790,
      "ĠBrit": 791,
      "velop": 792,
      "ollow": 793,
      "Ġwork": 794,
      "Ġduring": 795,
      "Ġcall": 796,
      "Ġdiff": 797,
      "Ġthem": 798,
      "ject": 799,
      "ower": 800,
      "ife": 801,
      "arch": 802,
      "ays": 803,
      "ished": 804,
      "Ġsupp": 805,
      "Ġpubl": 806,
      "Ġpos": 807,
      "ever": 808,
      "Ġrem": 809,
      "Ġsystem": 810,
      "ĠCon": 811,
      "Ġthrough": 812,
      "io": 813,
      "ys": 814,
      "Ġmon": 815,
      "ĠUnited": 816,
      "Ġ196": 817,
      "\",": 818,
      "fore": 819,
      "ock": 820,
      "ĠNew": 821,
      "ating": 822,
      "ember": 823,
      "Ġinv": 824,
      "ĠAd": 825,
      "ton": 826,
      "Ġwhere": 827,
      "Ġem": 828,
      "ve": 829,
      "ai": 830,
      "ious": 831,
      "ise": 832,
      "Ġagain": 833,
      "tain": 834,
      "Ġmet": 835,
      "ause": 836,
      "Ġset": 837,
      "Ġfound": 838,
      "Ġtra": 839,
      "ier": 840,
      "inal": 841,
      "ily": 842,
      "Ġdon": 843,
      "ures": 844,
      "Ġgovern": 845,
      "Ġknown": 846,
      "erman": 847,
      "000": 848,
      ".\"": 849,
      "ient": 850,
      "angu": 851,
      "cond": 852,
      "Ġprov": 853,
      "Ġgener": 854,
      "ick": 855,
      "Ġob": 856,
      "glish": 857,
      "Ġwell": 858,
      "Ġinst": 859,
      "ered": 860,
      "Ġdevelop": 861,
      "Ġent": 862,
      "Ġ6": 863,
      "Ġest": 864,
      "hem": 865,
      "Ġfollow": 866,
      "emb": 867,
      "ement": 868,
      "ĠAm": 869,
      "Ġserv": 870,
      "ĠIs": 871,
      "cent": 872,
      "round": 873,
      "ll": 874,
      "iel": 875,
      "Ġwrit": 876,
      "Ġbu": 877,
      "cept": 878,
      "Ġ17": 879,
      "Ġadd": 880,
      "Ġap": 881,
      "Ġfilm": 882,
      "cted": 883,
      "owever": 884,
      "cy": 885,
      "oci": 886,
      "cess": 887,
      "ĠSp": 888,
      "orth": 889,
      "ctions": 890,
      "ians": 891,
      "ments": 892,
      "Ġaut": 893,
      "rist": 894,
      "Ġhist": 895,
      "Ġexp": 896,
      "Ġpeople": 897,
      "ĠPro": 898,
      "Ġnumber": 899,
      "ĠInd": 900,
      "ĠEnglish": 901,
      "eg": 902,
      "ĠEuro": 903,
      "ames": 904,
      "Ġend": 905,
      "ized": 906,
      "Ġthree": 907,
      "ural": 908,
      "Ġdist": 909,
      "ale": 910,
      "ball": 911,
      "lex": 912,
      "ĠAb": 913,
      "ually": 914,
      "ology": 915,
      "Ġcar": 916,
      "ool": 917,
      "ature": 918,
      "Ġfe": 919,
      "ically": 920,
      "Ġ7": 921,
      "ck": 922,
      "Ġshe": 923,
      "Ġloc": 924,
      "Ġsign": 925,
      "Ġthese": 926,
      "Ġcentury": 927,
      "uss": 928,
      "Ġsur": 929,
      "yp": 930,
      "uch": 931,
      "Ġany": 932,
      "oot": 933,
      "Ġcap": 934,
      "ĠBl": 935,
      "Ġlater": 936,
      "ible": 937,
      "ĠSh": 938,
      "Ġrep": 939,
      "its": 940,
      "az": 941,
      "Ġincluding": 942,
      "Ġsm": 943,
      "Ġart": 944,
      "Ġstud": 945,
      "ĠWor": 946,
      "Ġstate": 947,
      "ĠAust": 948,
      "ex": 949,
      "any": 950,
      "ann": 951,
      "Ġmain": 952,
      "Ġwhile": 953,
      "ĠGerman": 954,
      "ros": 955,
      "Ġgroup": 956,
      "ision": 957,
      "Ġpolit": 958,
      "ĠAp": 959,
      "Ġmus": 960,
      "form": 961,
      "ĠZ": 962,
      "Ġsing": 963,
      "Ã©": 964,
      "Ġeff": 965,
      "inist": 966,
      "ax": 967,
      "Ġbeing": 968,
      "Ġ194": 969,
      "raph": 970,
      "Ġext": 971,
      "Ġdiffer": 972,
      "Ġmade": 973,
      "ank": 974,
      "ĠEurope": 975,
      "Ġworld": 976,
      "ues": 977,
      "imes": 978,
      "Ġ.": 979,
      "ences": 980,
      "Ġboth": 981,
      "Ġins": 982,
      "Ġmov": 983,
      "Ġimp": 984,
      "Ġchar": 985,
      "air": 986,
      "oman": 987,
      "ĠSc": 988,
      "ĠWar": 989,
      "Ġthen": 990,
      "ĠBritish": 991,
      "Ġhigh": 992,
      "ash": 993,
      "iversity": 994,
      "ather": 995,
      "Ġvari": 996,
      "Ġlangu": 997,
      "Ġdec": 998,
      "Ġlead": 999,
      "ina": 1000,
      "ages": 1001,
      "Ġdire": 1002,
      "the": 1003,
      "ility": 1004,
      "Ġcalled": 1005,
      "illion": 1006,
      "Ġcity": 1007,
      "elf": 1008,
      "ty": 1009,
      "other": 1010,
      "Ġspec": 1011,
      "ajor": 1012,
      "Ġconst": 1013,
      "Ġbecame": 1014,
      "ĠCol": 1015,
      "inn": 1016,
      "Ġcre": 1017,
      "Ġbi": 1018,
      "els": 1019,
      "Ġterm": 1020,
      "ĠFran": 1021,
      "Ġ195": 1022,
      "ants": 1023,
      "erson": 1024,
      "ĠJoh": 1025,
      "Ġdep": 1026,
      "ulation": 1027,
      "ved": 1028,
      "Ġmed": 1029,
      "Ġed": 1030,
      "Ġbel": 1031,
      "ork": 1032,
      "Ġsecond": 1033,
      "Ġearly": 1034,
      "Ġ16": 1035,
      "ract": 1036,
      "ĠStates": 1037,
      "co": 1038,
      "ived": 1039,
      "Ġmat": 1040,
      "ĠChrist": 1041,
      "Ġsim": 1042,
      "Ġair": 1043,
      "ox": 1044,
      "Ġ15": 1045,
      "Ġget": 1046,
      "Ġcontin": 1047,
      "ĠEx": 1048,
      "ful": 1049,
      "Ġresult": 1050,
      "ange": 1051,
      "Ġ8": 1052,
      "ĠDi": 1053,
      "ital": 1054,
      "ke": 1055,
      "iew": 1056,
      "Ġfam": 1057,
      "Ġbefore": 1058,
      "ĠWorld": 1059,
      "Ġret": 1060,
      "rop": 1061,
      "ield": 1062,
      "ĠCl": 1063,
      "ðŁ": 1064,
      "iver": 1065,
      "abl": 1066,
      "ording": 1067,
      "ne": 1068,
      "ĠBe": 1069,
      "Ġorig": 1070,
      "Ġlong": 1071,
      "Ġpartic": 1072,
      "ĠCan": 1073,
      "Ġagainst": 1074,
      "ason": 1075,
      "Ġlike": 1076,
      "ives": 1077,
      "rench": 1078,
      "Ġsever": 1079,
      "Ġshow": 1080,
      "ute": 1081,
      "ĠðŁ": 1082,
      "til": 1083,
      "Ġown": 1084,
      "Ġant": 1085,
      "Ġser": 1086,
      "ouse": 1087,
      "ĠJohn": 1088,
      "Ġ,": 1089,
      "chool": 1090,
      "vent": 1091,
      "ble": 1092,
      "Ġfour": 1093,
      "ting": 1094,
      "ĠPh": 1095,
      "Ġappe": 1096,
      "Ġgovernment": 1097,
      "Ġoper": 1098,
      "gy": 1099,
      "Ġlaw": 1100,
      "iger": 1101,
      "Ġlarg": 1102,
      "ley": 1103,
      "Ġsame": 1104,
      "conom": 1105,
      "Ġsupport": 1106,
      "Ġif": 1107,
      "atic": 1108,
      "ene": 1109,
      "Ġoften": 1110,
      "18": 1111,
      "Ġ10": 1112,
      "ĠComm": 1113,
      "Ġsince": 1114,
      "ĠFrench": 1115,
      "to": 1116,
      "hor": 1117,
      "arm": 1118,
      "Ġdesc": 1119,
      "Ġsmall": 1120,
      "Ġcommon": 1121,
      "Ġ202": 1122,
      "ae": 1123,
      "my": 1124,
      "ional": 1125,
      "Ġmajor": 1126,
      "urch": 1127,
      "ined": 1128,
      "ris": 1129,
      "ilit": 1130,
      "Ġmake": 1131,
      "omet": 1132,
      "way": 1133,
      "ĠOr": 1134,
      "eng": 1135,
      "aid": 1136,
      "enn": 1137,
      "though": 1138,
      "Ġbro": 1139,
      "oint": 1140,
      "iod": 1141,
      "Ġconsid": 1142,
      "Ġocc": 1143,
      "ctor": 1144,
      "Ġcountry": 1145,
      "ample": 1146,
      "arge": 1147,
      "Ġincre": 1148,
      "ety": 1149,
      "Ġsl": 1150,
      "Ġpip": 1151,
      "osed": 1152,
      "Ġbecause": 1153,
      "ccess": 1154,
      "ared": 1155,
      "pen": 1156,
      "Ġ9": 1157,
      "ograph": 1158,
      "ica": 1159,
      "Ġname": 1160,
      "ven": 1161,
      "Ġdesign": 1162,
      "ird": 1163,
      "ĠUniversity": 1164,
      "Ġlife": 1165,
      "ternational": 1166,
      "lu": 1167,
      "yn": 1168,
      "son": 1169,
      "chn": 1170,
      "âĢĶ": 1171,
      "Ġprog": 1172,
      "arl": 1173,
      "ze": 1174,
      "Ġ193": 1175,
      "ring": 1176,
      "Ġcould": 1177,
      "ĠII": 1178,
      "led": 1179,
      "Ġstat": 1180,
      "Ġland": 1181,
      "Ġeach": 1182,
      "Ġremain": 1183,
      "Ġcharact": 1184,
      "Ġback": 1185,
      "Ġ-": 1186,
      "Ġdifferent": 1187,
      "rid": 1188,
      "aking": 1189,
      "Ġ'": 1190,
      "ries": 1191,
      "rent": 1192,
      "ĠWh": 1193,
      "ĠNiger": 1194,
      "Ġmin": 1195,
      "Ġpublic": 1196,
      "iam": 1197,
      "Ġseveral": 1198,
      "Ġinclude": 1199,
      "Ġwill": 1200,
      "Ġtrad": 1201,
      "ĠEm": 1202,
      "ices": 1203,
      "ively": 1204,
      "Ġhum": 1205,
      "ĠPr": 1206,
      "Ġwar": 1207,
      "ĠHowever": 1208,
      "day": 1209,
      "Ġcontro": 1210,
      "Ġuntil": 1211,
      "ides": 1212,
      "Ġpo": 1213,
      "Ġexample": 1214,
      "ission": 1215,
      "ĠAnd": 1216,
      "Ġrecord": 1217,
      "Ġcor": 1218,
      "ober": 1219,
      "Ġimport": 1220,
      "ross": 1221,
      "Ġteam": 1222,
      "Ġfin": 1223,
      "ĠMus": 1224,
      "ruct": 1225,
      "rad": 1226,
      "Ġdeath": 1227,
      "ĠMar": 1228,
      "Ġcult": 1229,
      "ases": 1230,
      "ĠAustral": 1231,
      "Ġlarge": 1232,
      "Ġpass": 1233,
      "ĠThere": 1234,
      "Ġeffect": 1235,
      "lect": 1236,
      "com": 1237,
      "ull": 1238,
      "ius": 1239,
      "ired": 1240,
      "Ġref": 1241,
      "Ġcommun": 1242,
      "Ġequ": 1243,
      "ience": 1244,
      "que": 1245,
      "ĠSouth": 1246,
      "ets": 1247,
      "ove": 1248,
      "Ġleg": 1249,
      "itions": 1250,
      "Ġann": 1251,
      "Ġpower": 1252,
      "Ġorgan": 1253,
      "Ġeven": 1254,
      "yl": 1255,
      "ĠQ": 1256,
      "let": 1257,
      "aim": 1258,
      "Ġperiod": 1259,
      "Ġmusic": 1260,
      "ided": 1261,
      "Ġestabl": 1262,
      "xt": 1263,
      "ised": 1264,
      "ont": 1265,
      "Ġsuccess": 1266,
      "Ġbook": 1267,
      "ĠNational": 1268,
      "for": 1269,
      "ued": 1270,
      "pect": 1271,
      "Ġaround": 1272,
      "ration": 1273,
      "ator": 1274,
      "resent": 1275,
      "cer": 1276,
      "ified": 1277,
      "Ġcur": 1278,
      "Ġright": 1279,
      "Ġfun": 1280,
      "Ġdet": 1281,
      "por": 1282,
      "med": 1283,
      "Ġrele": 1284,
      "ĠKing": 1285,
      "eb": 1286,
      "Ġeconom": 1287,
      "icial": 1288,
      "Ġ|": 1289,
      "oph": 1290,
      "attle": 1291,
      "vers": 1292,
      "Ġval": 1293,
      "Ġstr": 1294,
      "omin": 1295,
      "Ġallow": 1296,
      "Ġconf": 1297,
      "ody": 1298,
      "ĠAg": 1299,
      "Ġbin": 1300,
      "ane": 1301,
      "ĠGree": 1302,
      "ĠPl": 1303,
      "Ġmillion": 1304,
      "ged": 1305,
      "ony": 1306,
      "Ġrefer": 1307,
      "Ġstart": 1308,
      "au": 1309,
      "Ġnear": 1310,
      "ec": 1311,
      "inc": 1312,
      "Ġ12": 1313,
      "Ġperson": 1314,
      "ĠBar": 1315,
      "amb": 1316,
      "ague": 1317,
      "ana": 1318,
      "Ġrequ": 1319,
      "Ġarea": 1320,
      "Ġthough": 1321,
      "raft": 1322,
      "ization": 1323,
      "ink": 1324,
      "Ġpopulation": 1325,
      "omen": 1326,
      "rodu": 1327,
      "Ġelect": 1328,
      "ĠCent": 1329,
      "ek": 1330,
      "Ġstill": 1331,
      "Ġclass": 1332,
      "Ġauthor": 1333,
      "ript": 1334,
      "Ġrun": 1335,
      "ĠAlex": 1336,
      "Ġ192": 1337,
      "Ġamong": 1338,
      "ize": 1339,
      "Ã¡": 1340,
      "af": 1341,
      "Ġmar": 1342,
      "Ġnow": 1343,
      "iving": 1344,
      "tle": 1345,
      "ilitary": 1346,
      "Ġprogram": 1347,
      "Ġgu": 1348,
      "une": 1349,
      "Ġbased": 1350,
      "Ġplayer": 1351,
      "Ġposs": 1352,
      "ĠUS": 1353,
      "Ġthose": 1354,
      "Ġprocess": 1355,
      "ootball": 1356,
      "ole": 1357,
      "ĠAfter": 1358,
      "lands": 1359,
      "alth": 1360,
      "ĠCanad": 1361,
      "ĠAll": 1362,
      "ele": 1363,
      "ival": 1364,
      "Ġorder": 1365,
      "ster": 1366,
      "Ġlast": 1367,
      "par": 1368,
      "Ġmark": 1369,
      "Ġlanguage": 1370,
      "embers": 1371,
      "Ġ14": 1372,
      "The": 1373,
      "Ġdid": 1374,
      "Ġappro": 1375,
      "ourt": 1376,
      "ĠHist": 1377,
      "Ġseries": 1378,
      "ugust": 1379,
      "Ġdiv": 1380,
      "Ġexpl": 1381,
      "ness": 1382,
      "oss": 1383,
      "Ġwin": 1384,
      "ended": 1385,
      "Ġlit": 1386,
      "row": 1387,
      "aij": 1388,
      "ĠGe": 1389,
      "Ġdescrib": 1390,
      "iven": 1391,
      "ently": 1392,
      "amed": 1393,
      "ately": 1394,
      "ilar": 1395,
      "ode": 1396,
      "dom": 1397,
      "Ġpopular": 1398,
      "ocial": 1399,
      "ĠBC": 1400,
      "Ġnon": 1401,
      "Ġsk": 1402,
      "ĠThey": 1403,
      "epend": 1404,
      "read": 1405,
      "Ġwater": 1406,
      "ĠRuss": 1407,
      "Ġmodern": 1408,
      "Ġeng": 1409,
      "Ġopp": 1410,
      "ĠAugust": 1411,
      "rand": 1412,
      "Ġmuch": 1413,
      "Ġstand": 1414,
      "200": 1415,
      "ĠAir": 1416,
      "ĠRoman": 1417,
      "rab": 1418,
      "ĠPol": 1419,
      "olution": 1420,
      "ried": 1421,
      "yd": 1422,
      "ĠNorth": 1423,
      "ner": 1424,
      "arian": 1425,
      "ger": 1426,
      "che": 1427,
      "Ġgame": 1428,
      "ternal": 1429,
      "ĠBy": 1430,
      "estern": 1431,
      "ĠCar": 1432,
      "Ġinflu": 1433,
      "urther": 1434,
      "ĠAcc": 1435,
      "Ġreport": 1436,
      "aving": 1437,
      "Ġprom": 1438,
      "gg": 1439,
      "Ġbas": 1440,
      "by": 1441,
      "ĠMay": 1442,
      "Ġbegan": 1443,
      "aced": 1444,
      "ple": 1445,
      "ata": 1446,
      "Ġwit": 1447,
      "Ġexper": 1448,
      "Ġvery": 1449,
      "Ġword": 1450,
      "Ġwithin": 1451,
      "Ġbus": 1452,
      "Ġold": 1453,
      "Ġ11": 1454,
      "ves": 1455,
      "Ġhand": 1456,
      "idd": 1457,
      "Ġbelie": 1458,
      "Ġhistor": 1459,
      "ander": 1460,
      "Ġrest": 1461,
      "Ġprop": 1462,
      "Ġadv": 1463,
      "Ġcharacter": 1464,
      "ĠThese": 1465,
      "ĠEng": 1466,
      "eder": 1467,
      "Ġhead": 1468,
      "Ġ13": 1469,
      "ĠAss": 1470,
      "Ġdue": 1471,
      "Ġtechn": 1472,
      "Ġtem": 1473,
      "Ġfollowing": 1474,
      "ological": 1475,
      "Ġnational": 1476,
      "ior": 1477,
      "ĠEd": 1478,
      "Ġrece": 1479,
      "Ġopen": 1480,
      "ĠDem": 1481,
      "Ġav": 1482,
      "Ġter": 1483,
      "ards": 1484,
      "Ġvers": 1485,
      "Ġschool": 1486,
      "gen": 1487,
      "ality": 1488,
      "Ġla": 1489,
      "Ġdr": 1490,
      "ĠSome": 1491,
      "rew": 1492,
      "ĠMan": 1493,
      "Ġusing": 1494,
      "wards": 1495,
      "ott": 1496,
      "Ġtake": 1497,
      "Ġreturn": 1498,
      "iness": 1499,
      "Ġhistory": 1500,
      "Ġplace": 1501,
      "rem": 1502,
      "Ġrad": 1503,
      "Ġresp": 1504,
      "..": 1505,
      "ales": 1506,
      "ories": 1507,
      "itional": 1508,
      "Ġes": 1509,
      "Ġtyp": 1510,
      "Ġmembers": 1511,
      "Ġformer": 1512,
      "iet": 1513,
      "ĠRep": 1514,
      "Ġcomput": 1515,
      "ential": 1516,
      "omb": 1517,
      "Ġread": 1518,
      "Ġ191": 1519,
      "Ġtok": 1520,
      "Ġbuild": 1521,
      "Ġpar": 1522,
      "Ġalong": 1523,
      "tic": 1524,
      "Ġbeg": 1525,
      "ats": 1526,
      "line": 1527,
      "Ġpresent": 1528,
      "oon": 1529,
      "ym": 1530,
      "stit": 1531,
      "ches": 1532,
      "Ġrev": 1533,
      "rican": 1534,
      "Ġevery": 1535,
      "ĠWill": 1536,
      "Ġled": 1537,
      "Ġfact": 1538,
      "Ġdia": 1539,
      "ung": 1540,
      "ublic": 1541,
      "Ġgeneral": 1542,
      "ids": 1543,
      "ains": 1544,
      "Ġhel": 1545,
      "Ġbecome": 1546,
      "Ġhig": 1547,
      "Ġchild": 1548,
      "ms": 1549,
      "Ġjust": 1550,
      "eter": 1551,
      "ense": 1552,
      "app": 1553,
      "Ġrepresent": 1554,
      "Ġpat": 1555,
      "Ġfamily": 1556,
      "Ġsong": 1557,
      "urs": 1558,
      "ĠJan": 1559,
      "Ġimportant": 1560,
      "Ġfootball": 1561,
      "craft": 1562,
      "Ġfore": 1563,
      "Ġhome": 1564,
      "cing": 1565,
      "Ġvis": 1566,
      "de": 1567,
      "alf": 1568,
      "Ġcomb": 1569,
      "ril": 1570,
      "Ġline": 1571,
      "Ġconsidered": 1572,
      "Ġday": 1573,
      "Ġattack": 1574,
      "rian": 1575,
      "Ġhuman": 1576,
      "aut": 1577,
      "ĠNov": 1578,
      "Ġcrit": 1579,
      "Ġaff": 1580,
      "Ġmen": 1581,
      "ĠBro": 1582,
      "ham": 1583,
      "ĠJu": 1584,
      "ĠCal": 1585,
      "Ġsimilar": 1586,
      "Ġinc": 1587,
      "ĠPres": 1588,
      "ĠComp": 1589,
      "Ġmilitary": 1590,
      "Ġdown": 1591,
      "Ġarch": 1592,
      "ta": 1593,
      "Ġparticular": 1594,
      "lear": 1595,
      "ivil": 1596,
      "Ġpolitical": 1597,
      "Ġless": 1598,
      "uary": 1599,
      "ĠEuropean": 1600,
      "rica": 1601,
      "ĠNigeria": 1602,
      "adem": 1603,
      "alk": 1604,
      "ĠYork": 1605,
      "Ġfre": 1606,
      "Ġgreat": 1607,
      "Ġshort": 1608,
      "Ġcome": 1609,
      "ĠItal": 1610,
      "Ġneed": 1611,
      "Ġfit": 1612,
      "iber": 1613,
      "empt": 1614,
      "Ġprot": 1615,
      "Ġtop": 1616,
      "ĠEar": 1617,
      "Ġcer": 1618,
      "ĠBer": 1619,
      "ĠDav": 1620,
      "ĠHis": 1621,
      "Ġway": 1622,
      "ese": 1623,
      "aster": 1624,
      "apt": 1625,
      "Ġlocal": 1626,
      "ĠWest": 1627,
      "Ġclaim": 1628,
      "ĠGo": 1629,
      "ĠAccording": 1630,
      "Ġofficial": 1631,
      "ument": 1632,
      "ule": 1633,
      "ots": 1634,
      "lin": 1635,
      "Ġdirect": 1636,
      "ĠGu": 1637,
      "ean": 1638,
      "ĠShe": 1639,
      "astern": 1640,
      "Ġcolle": 1641,
      "oard": 1642,
      "Ġvarious": 1643,
      "Ġseason": 1644,
      "lic": 1645,
      "tal": 1646,
      "ination": 1647,
      "ĠOther": 1648,
      "Ġleft": 1649,
      "ĠChristian": 1650,
      "ĠState": 1651,
      "ĠOne": 1652,
      "ban": 1653,
      "ilt": 1654,
      "Ġgl": 1655,
      "Ġ$": 1656,
      "Ġ190": 1657,
      "Ġsol": 1658,
      "Ġmy": 1659,
      "Ġadm": 1660,
      "Ġhow": 1661,
      "Ġindust": 1662,
      "ĠAfrican": 1663,
      "ilos": 1664,
      "ĠOct": 1665,
      "ama": 1666,
      "pire": 1667,
      "Ġident": 1668,
      "Ġcountries": 1669,
      "ĠGreek": 1670,
      "hod": 1671,
      "Ġsomet": 1672,
      "Ġrul": 1673,
      "ourn": 1674,
      "Ġanother": 1675,
      "uted": 1676,
      "Ġdevelopment": 1677,
      "Ġkill": 1678,
      "Ġprim": 1679,
      "Ġpract": 1680,
      "tt": 1681,
      "Ġspecies": 1682,
      "side": 1683,
      "Ġprof": 1684,
      "ĠBr": 1685,
      "Ġrepl": 1686,
      "ician": 1687,
      "Ġwhat": 1688,
      "Ġlate": 1689,
      "ald": 1690,
      "Ġtele": 1691,
      "Ġsaid": 1692,
      "li": 1693,
      "Ġiss": 1694,
      "pecial": 1695,
      "Ġdisc": 1696,
      "ites": 1697,
      "ĠBra": 1698,
      "Ġphys": 1699,
      "Ġbre": 1700,
      "Ġlargest": 1701,
      "ether": 1702,
      "Ġcond": 1703,
      "ĠDuring": 1704,
      "Ġlevel": 1705,
      "ka": 1706,
      "apan": 1707,
      "Ġmean": 1708,
      "reen": 1709,
      "Ġcamp": 1710,
      "cil": 1711,
      "ote": 1712,
      "ĠSept": 1713,
      "ĠAfrica": 1714,
      "bon": 1715,
      "Ġsingle": 1716,
      "Ġregion": 1717,
      "ably": 1718,
      "ĠSw": 1719,
      "Ġpoint": 1720,
      "Ġalb": 1721,
      "Ġproper": 1722,
      "Ġsocial": 1723,
      "Ġfive": 1724,
      "Ġstates": 1725,
      "Ġsour": 1726,
      "10": 1727,
      "sc": 1728,
      "Ġport": 1729,
      "ĠChurch": 1730,
      "sh": 1731,
      "Ġfew": 1732,
      "ither": 1733,
      "ĠHer": 1734,
      "istic": 1735,
      "Ġwithout": 1736,
      "Ġorigin": 1737,
      "Ġfield": 1738,
      "Ġtimes": 1739,
      "ĠBel": 1740,
      "akes": 1741,
      "Ġcr": 1742,
      "Ġstruct": 1743,
      "17": 1744,
      "Ġcontrol": 1745,
      "urg": 1746,
      "Ġpost": 1747,
      "ĠPart": 1748,
      "hern": 1749,
      ".,": 1750,
      "ĠEngland": 1751,
      "ferences": 1752,
      "most": 1753,
      "mber": 1754,
      "ĠSch": 1755,
      "Ġevent": 1756,
      "ured": 1757,
      "ĠPe": 1758,
      "olic": 1759,
      "ĠIm": 1760,
      "ths": 1761,
      "Ġdeveloped": 1762,
      "Ġanal": 1763,
      "Ġpublished": 1764,
      "iron": 1765,
      "Ġlim": 1766,
      "Ġgiven": 1767,
      "Ġlow": 1768,
      "Ġanim": 1769,
      "Ġide": 1770,
      "less": 1771,
      "zer": 1772,
      "Ġbase": 1773,
      "ogn": 1774,
      "Ġintrodu": 1775,
      "ploy": 1776,
      "Ġactiv": 1777,
      "ĠMed": 1778,
      "ĠGod": 1779,
      "ĠCity": 1780,
      "Ġinvol": 1781,
      "50": 1782,
      "Ġdecl": 1783,
      "ificant": 1784,
      "agn": 1785,
      "Ġgrow": 1786,
      "Ġbeh": 1787,
      "Ġmult": 1788,
      "ĠJapan": 1789,
      "ĠArab": 1790,
      "Ġbody": 1791,
      "ĠJanuary": 1792,
      "ery": 1793,
      "ography": 1794,
      "orthern": 1795,
      "yle": 1796,
      "rote": 1797,
      "ones": 1798,
      "Ġrelig": 1799,
      "Ġview": 1800,
      "ead": 1801,
      "Ġsix": 1802,
      "ĠNaij": 1803,
      "ency": 1804,
      "ĠSeptember": 1805,
      "ĠWhen": 1806,
      "Ġtook": 1807,
      "Ġestablished": 1808,
      "199": 1809,
      "Ġ&": 1810,
      "ĠApril": 1811,
      "ops": 1812,
      "Ġtest": 1813,
      "Ġsym": 1814,
      "Ġindepend": 1815,
      "ental": 1816,
      "ruction": 1817,
      "rain": 1818,
      "cember": 1819,
      "aul": 1820,
      "Ġarg": 1821,
      "ĠInternational": 1822,
      "Ġyou": 1823,
      "atter": 1824,
      "serv": 1825,
      "ĠOctober": 1826,
      "Ġusually": 1827,
      "Ġpresident": 1828,
      "Ġredu": 1829,
      "Ġassoci": 1830,
      "Ġtit": 1831,
      "osp": 1832,
      "umb": 1833,
      "Ġgames": 1834,
      "ĠMarch": 1835,
      "ĠJune": 1836,
      "Ġproduct": 1837,
      "ention": 1838,
      "ways": 1839,
      "Ġexist": 1840,
      "Ġcase": 1841,
      "Ġsignificant": 1842,
      "vision": 1843,
      "ollo": 1844,
      "Ġincluded": 1845,
      "Ġtreat": 1846,
      "ison": 1847,
      "lor": 1848,
      "anish": 1849,
      "ĠJuly": 1850,
      "Ġhowever": 1851,
      "inks": 1852,
      "Ġgen": 1853,
      "atural": 1854,
      "Ġheld": 1855,
      "cient": 1856,
      "ivid": 1857,
      "itive": 1858,
      "Ġnorth": 1859,
      "ondon": 1860,
      "Ġchang": 1861,
      "Ġjoin": 1862,
      "ĠChar": 1863,
      "irc": 1864,
      "Ġcaus": 1865,
      "Ġking": 1866,
      "ĠAc": 1867,
      "ĠUnion": 1868,
      "Ġproble": 1869,
      "ille": 1870,
      "Ġareas": 1871,
      "ĠGeor": 1872,
      "idence": 1873,
      "ored": 1874,
      "Ġer": 1875,
      "ĠWilliam": 1876,
      "Ġinit": 1877,
      "ĠBlack": 1878,
      "Ġeduc": 1879,
      "ĠDecember": 1880,
      "Ġtotal": 1881,
      "ering": 1882,
      "rict": 1883,
      "ĠX": 1884,
      "ability": 1885,
      "ope": 1886,
      "Ġturn": 1887,
      "Ġprev": 1888,
      "Ġreal": 1889,
      "bit": 1890,
      "thern": 1891,
      "Ġhelp": 1892,
      "Ġband": 1893,
      "Ġstrong": 1894,
      "ĠPresident": 1895,
      "BC": 1896,
      "Ġalthough": 1897,
      "iction": 1898,
      "ware": 1899,
      "Ġcomple": 1900,
      "acy": 1901,
      "Ġattempt": 1902,
      "Ġmater": 1903,
      "Ġmanag": 1904,
      "ĠCo": 1905,
      "Ġproduction": 1906,
      "Ġsold": 1907,
      "ĠAmerica": 1908,
      "ape": 1909,
      "Ġ0": 1910,
      "Ġnamed": 1911,
      "udd": 1912,
      "ĠDavid": 1913,
      "Ġthird": 1914,
      "Ġfunction": 1915,
      "ĠPar": 1916,
      "Ġsee": 1917,
      "ĠCro": 1918,
      "inning": 1919,
      "ĠNovember": 1920,
      "outhern": 1921,
      "ĠSer": 1922,
      "ĠPort": 1923,
      "ouncil": 1924,
      "of": 1925,
      "Ġcare": 1926,
      "ĠJew": 1927,
      "Ġsepar": 1928,
      "Ġdev": 1929,
      "ĠHar": 1930,
      "ĠReferences": 1931,
      "sequ": 1932,
      "Ġrelations": 1933,
      "16": 1934,
      "Ġwrote": 1935,
      "ances": 1936,
      "ĠLondon": 1937,
      "ola": 1938,
      "augh": 1939,
      "Ġmass": 1940,
      "ends": 1941,
      "eth": 1942,
      "Ġdel": 1943,
      "ĠFrance": 1944,
      "ĠHistory": 1945,
      "Ġgroups": 1946,
      "Ġcompany": 1947,
      "arn": 1948,
      "rag": 1949,
      "Ġlanguages": 1950,
      "Ġsouth": 1951,
      "aries": 1952,
      "Ġpain": 1953,
      "Ġcal": 1954,
      "Ġvol": 1955,
      "int": 1956,
      "Ġhouse": 1957,
      "ggest": 1958,
      "Ġsuggest": 1959,
      "Ġbusiness": 1960,
      "Ġappear": 1961,
      "Ġpipo": 1962,
      "atin": 1963,
      "Ġproduced": 1964,
      "rated": 1965,
      "ĠNa": 1966,
      "ĠLeague": 1967,
      "Ġalbum": 1968,
      "ports": 1969,
      "Ġrole": 1970,
      "Ġtheory": 1971,
      "century": 1972,
      "Ġlight": 1973,
      "Ġwomen": 1974,
      "ara": 1975,
      "abor": 1976,
      "Ġblack": 1977,
      "men": 1978,
      "eum": 1979,
      "oung": 1980,
      "inister": 1981,
      "aces": 1982,
      "ype": 1983,
      "oms": 1984,
      "Ġoriginal": 1985,
      "Ġstudy": 1986,
      "Ġhalf": 1987,
      "ĠAng": 1988,
      "ps": 1989,
      "Ġinform": 1990,
      "Ġhaving": 1991,
      "ained": 1992,
      "ÃŃ": 1993,
      "uel": 1994,
      "Ġson": 1995,
      "Ġside": 1996,
      "ĠAct": 1997,
      "lim": 1998,
      "Ġ2020": 1999,
      "writ": 2000,
      "aken": 2001,
      "Ġmaterial": 2002,
      "Ġâ": 2003,
      "Ġ189": 2004,
      "Ġsystems": 2005,
      "Ġwritten": 2006,
      "ergy": 2007,
      "ĠDis": 2008,
      "Ġworks": 2009,
      "eh": 2010,
      "Ġindivid": 2011,
      "ĠEl": 2012,
      "Ġrese": 2013,
      "Ġlinks": 2014,
      "wh": 2015,
      "Ġparty": 2016,
      "ief": 2017,
      "15": 2018,
      "ched": 2019,
      "ours": 2020,
      "Ġsw": 2021,
      "etic": 2022,
      "imate": 2023,
      "Ġspace": 2024,
      "ude": 2025,
      "12": 2026,
      "ret": 2027,
      "ĠSee": 2028,
      "fta": 2029,
      "ify": 2030,
      "Ġship": 2031,
      "Ġservice": 2032,
      "Ġep": 2033,
      "ria": 2034,
      "eneral": 2035,
      "iqu": 2036,
      "ĠEast": 2037,
      "Ġtown": 2038,
      "vered": 2039,
      "ociety": 2040,
      "atures": 2041,
      "rap": 2042,
      "iddle": 2043,
      "Ġshould": 2044,
      "Ġdoes": 2045,
      "ĠAustralian": 2046,
      "utes": 2047,
      "ĠArt": 2048,
      "nd": 2049,
      "Ġterrit": 2050,
      "aur": 2051,
      "avy": 2052,
      "Ġcompet": 2053,
      "ha": 2054,
      "Ġmethod": 2055,
      "Ġage": 2056,
      "Ġsent": 2057,
      "Ġobject": 2058,
      "pecially": 2059,
      "Ġfinal": 2060,
      "Ġwon": 2061,
      "Ġperform": 2062,
      "hers": 2063,
      "Ġpred": 2064,
      "ino": 2065,
      "Ġmust": 2066,
      "Ġtri": 2067,
      "uf": 2068,
      "Ġothers": 2069,
      "Ġbuilt": 2070,
      "urk": 2071,
      "ĠBen": 2072,
      "ĠWith": 2073,
      "ridge": 2074,
      "Ġconstit": 2075,
      "Ġcapital": 2076,
      "bers": 2077,
      "uk": 2078,
      "Ġspecial": 2079,
      "ining": 2080,
      "ification": 2081,
      "Ġannoun": 2082,
      "ĠCount": 2083,
      "Ġposition": 2084,
      "Ġinternational": 2085,
      "Ġden": 2086,
      "Ġobserv": 2087,
      "ert": 2088,
      "Ġgood": 2089,
      "Ġ30": 2090,
      "Ġcurrent": 2091,
      "Ġkom": 2092,
      "ĠApp": 2093,
      "Ġinside": 2094,
      "Ġelection": 2095,
      "Ġcell": 2096,
      "Ġhold": 2097,
      "ĠCor": 2098,
      "born": 2099,
      "iation": 2100,
      "work": 2101,
      "Ġfurther": 2102,
      "Ġforces": 2103,
      "Ġcame": 2104,
      "Ġder": 2105,
      "ected": 2106,
      "raw": 2107,
      "sp": 2108,
      "Ġmot": 2109,
      "cul": 2110,
      "ĠNe": 2111,
      "Ġ[": 2112,
      "Ġsum": 2113,
      "be": 2114,
      "Ġreleased": 2115,
      "Ġeither": 2116,
      "Ġphilos": 2117,
      "ĠSup": 2118,
      "Ġlist": 2119,
      "ĠAlthough": 2120,
      "lam": 2121,
      "ĠEmpire": 2122,
      "bs": 2123,
      "utions": 2124,
      "ĠBo": 2125,
      "Ġdescribed": 2126,
      "Ġengine": 2127,
      "self": 2128,
      "Ġaccount": 2129,
      "reg": 2130,
      "Ġdest": 2131,
      "Ġplayed": 2132,
      "Ġsurv": 2133,
      "ĠApollo": 2134,
      "ling": 2135,
      "Ġfree": 2136,
      "Ġ2014": 2137,
      "Ġchem": 2138,
      "Ġpri": 2139,
      "Ġdays": 2140,
      "Ġpolitician": 2141,
      "oyal": 2142,
      "incip": 2143,
      "Ġ2010": 2144,
      "ending": 2145,
      "off": 2146,
      "Ġ2013": 2147,
      "ray": 2148,
      "ideo": 2149,
      "ef": 2150,
      "ori": 2151,
      "Ġgive": 2152,
      "ĠAnt": 2153,
      "Ġ2019": 2154,
      "ler": 2155,
      "ront": 2156,
      "Ġ2021": 2157,
      "Ġ2007": 2158,
      "ĠDes": 2159,
      "Ġleast": 2160,
      "Ġast": 2161,
      "Ġrange": 2162,
      "face": 2163,
      "ebru": 2164,
      "val": 2165,
      "ĠTe": 2166,
      "Ġclub": 2167,
      "ĠExternal": 2168,
      "otes": 2169,
      "ebruary": 2170,
      "Ġknow": 2171,
      "Ġinterest": 2172,
      "Ġwid": 2173,
      "osition": 2174,
      "ĠKingdom": 2175,
      "Ġhost": 2176,
      "verage": 2177,
      "Ġmeas": 2178,
      "Ġsometimes": 2179,
      "asing": 2180,
      "Ġnext": 2181,
      "da": 2182,
      "ĠCanada": 2183,
      "Ġbest": 2184,
      "Ġoccur": 2185,
      "mon": 2186,
      "Ġcirc": 2187,
      "Ġ2015": 2188,
      "ĠTr": 2189,
      "bert": 2190,
      "Ġplayers": 2191,
      "Ġpossible": 2192,
      "ĠBook": 2193,
      "ĠWhile": 2194,
      "ĠAlexander": 2195,
      "mit": 2196,
      "Ġ2011": 2197,
      "Ġdisco": 2198,
      "ula": 2199,
      "ĠÃ": 2200,
      "Ġball": 2201,
      "ĠGovern": 2202,
      "ĠBas": 2203,
      "Ġ21": 2204,
      "Ġ25": 2205,
      "Ġpriv": 2206,
      "Ġtw": 2207,
      "ĠChina": 2208,
      "enced": 2209,
      "Ġcreated": 2210,
      "Ġespecially": 2211,
      "used": 2212,
      "ators": 2213,
      "ights": 2214,
      "Ġ186": 2215,
      "ades": 2216,
      "ĠAustralia": 2217,
      "ges": 2218,
      "Ġgenerally": 2219,
      "rest": 2220,
      "ĠFebruary": 2221,
      "order": 2222,
      "Ġchildren": 2223,
      "Ġnumbers": 2224,
      "ĠPer": 2225,
      "Ġbattle": 2226,
      "Ġexpress": 2227,
      "ĠWestern": 2228,
      "ĠHouse": 2229,
      "ĠRes": 2230,
      "Ġ188": 2231,
      "Ġsuff": 2232,
      "ĠArmy": 2233,
      "Ġkey": 2234,
      "Ġaddition": 2235,
      "Ġ2012": 2236,
      "ĠRepublic": 2237,
      "Ġenc": 2238,
      "Ġ1990": 2239,
      "ising": 2240,
      "ĠPhil": 2241,
      "Ġfood": 2242,
      "Ġnet": 2243,
      "Ġchange": 2244,
      "Äģ": 2245,
      "Ġinvest": 2246,
      "Ġversion": 2247,
      "Ġnever": 2248,
      "inese": 2249,
      "ydro": 2250,
      "ma": 2251,
      "Ġfail": 2252,
      "ateg": 2253,
      "ĠGermany": 2254,
      "Ġgr": 2255,
      "ĠMor": 2256,
      "ples": 2257,
      "Ġaircraft": 2258,
      "Ġpot": 2259,
      "Ġdeb": 2260,
      "alt": 2261,
      "ĠDay": 2262,
      "Ġmer": 2263,
      "ĠCath": 2264,
      "Ġ2006": 2265,
      "ensive": 2266,
      "ĠAtl": 2267,
      "14": 2268,
      "ĠWe": 2269,
      "Ġparts": 2270,
      "ĠBudd": 2271,
      "ĠIf": 2272,
      "ĠMon": 2273,
      "Ġliter": 2274,
      "ĠMany": 2275,
      "cur": 2276,
      "Ġtransl": 2277,
      "ĠBut": 2278,
      "uz": 2279,
      "Ġ2018": 2280,
      "Ġeconomic": 2281,
      "Ġbir": 2282,
      "Ġnatural": 2283,
      "ements": 2284,
      "Ġtro": 2285,
      "Ġpress": 2286,
      "Ġge": 2287,
      "Ġpap": 2288,
      "Ġcontinued": 2289,
      "Ã¼": 2290,
      "Ġproject": 2291,
      "istan": 2292,
      "ĠHol": 2293,
      "30": 2294,
      "Ġbroad": 2295,
      "Ġprevious": 2296,
      "Ġ24": 2297,
      "Ġrecogn": 2298,
      "hest": 2299,
      "ush": 2300,
      "iol": 2301,
      "Ġcivil": 2302,
      "ĠMost": 2303,
      "Ġsch": 2304,
      "Ġcomplex": 2305,
      "Ġstyle": 2306,
      "Ġput": 2307,
      "Ġlaun": 2308,
      "sy": 2309,
      "ĠLatin": 2310,
      "Ġren": 2311,
      "Ġ(\"": 2312,
      "Ġ2000": 2313,
      "Ġtemper": 2314,
      "ĠSov": 2315,
      "ached": 2316,
      "Ġmarket": 2317,
      "Ġ2017": 2318,
      "ĠPal": 2319,
      "Ġreceived": 2320,
      "Ġfight": 2321,
      "Ġdata": 2322,
      "Ġrather": 2323,
      "Ġaccording": 2324,
      "ĠIndian": 2325,
      "Ġfind": 2326,
      "Ġplan": 2327,
      "hel": 2328,
      "Ġnov": 2329,
      "Ġdefe": 2330,
      "Ġ2016": 2331,
      "gypt": 2332,
      "ocr": 2333,
      "Ġ2008": 2334,
      "ford": 2335,
      "ĠNaija": 2336,
      "Ġsinger": 2337,
      "Ġcourt": 2338,
      "Ġmodel": 2339,
      "kn": 2340,
      "198": 2341,
      "ĠSpanish": 2342,
      "viron": 2343,
      "Ġavail": 2344,
      "Ġmid": 2345,
      "ming": 2346,
      "amer": 2347,
      "ows": 2348,
      "ĠGeneral": 2349,
      "ky": 2350,
      "Ġ1980": 2351,
      "Ġ2009": 2352,
      "Ġterms": 2353,
      "Ġ187": 2354,
      "aves": 2355,
      "ĠParty": 2356,
      "Ġelements": 2357,
      "Ġforms": 2358,
      "Ġabs": 2359,
      "Ġformed": 2360,
      "aff": 2361,
      "right": 2362,
      "ique": 2363,
      "Ġaccept": 2364,
      "ĠCentral": 2365,
      "Ġmember": 2366,
      "unic": 2367,
      "ĠSchool": 2368,
      "Ġcop": 2369,
      "Ġfilms": 2370,
      "hib": 2371,
      "Ġlik": 2372,
      "imately": 2373,
      "Ġpipul": 2374,
      "icy": 2375,
      "Ġculture": 2376,
      "ĠGreat": 2377,
      "cript": 2378,
      "ĠRiver": 2379,
      "Ġdied": 2380,
      "Ġafta": 2381,
      "Ġadminist": 2382,
      "Ġtype": 2383,
      "Ġfull": 2384,
      "Ġeth": 2385,
      "ĠEgypt": 2386,
      "ibr": 2387,
      "Ġox": 2388,
      "aign": 2389,
      "Ġver": 2390,
      "II": 2391,
      "ĠArch": 2392,
      "Ġprofess": 2393,
      ".)": 2394,
      "ee": 2395,
      "Ġmaking": 2396,
      "iers": 2397,
      "Ġcy": 2398,
      "ĠChinese": 2399,
      "chan": 2400,
      "Ġcomputer": 2401,
      "Ġacross": 2402,
      "Ġstar": 2403,
      "Ġexec": 2404,
      "Ġarmy": 2405,
      "ĠReg": 2406,
      "itect": 2407,
      "Ġimpro": 2408,
      "Ġcertain": 2409,
      "ĠSince": 2410,
      "Ġcentral": 2411,
      "ournal": 2412,
      "Ġbo": 2413,
      "Ġlower": 2414,
      "ĠColle": 2415,
      "bra": 2416,
      "Ġactor": 2417,
      "rael": 2418,
      "Ġground": 2419,
      "atal": 2420,
      "cret": 2421,
      "Ġpur": 2422,
      "Ġprincip": 2423,
      "ĠRussian": 2424,
      "oid": 2425,
      "Ġtelevision": 2426,
      "Ġinitial": 2427,
      "Ġ100": 2428,
      "ĠMc": 2429,
      "pite": 2430,
      "Ġmeet": 2431,
      "Ġenergy": 2432,
      "iles": 2433,
      "chie": 2434,
      "Ġresearch": 2435,
      "Ġforce": 2436,
      "ĠGh": 2437,
      "Ġhard": 2438,
      "Ġoffer": 2439,
      "ĠPaul": 2440,
      "arily": 2441,
      "ĠCong": 2442,
      "Ġstri": 2443,
      "rick": 2444,
      "Ġz": 2445,
      "uth": 2446,
      "Ġhigher": 2447,
      "ĠSan": 2448,
      "Ġel": 2449,
      "ĠIndia": 2450,
      "ĠSm": 2451,
      "Ġmem": 2452,
      "Ġke": 2453,
      "ĠSy": 2454,
      "ĠFl": 2455,
      "ning": 2456,
      "year": 2457,
      "wood": 2458,
      "Ġfar": 2459,
      "Ġagre": 2460,
      "Ġsit": 2461,
      "Ġalmost": 2462,
      "ĠSoviet": 2463,
      "Ġisland": 2464,
      "ĠKh": 2465,
      "ĠAk": 2466,
      "Ġwhe": 2467,
      "Ġ2005": 2468,
      "Ġscient": 2469,
      "ampions": 2470,
      "Ġthroughout": 2471,
      "Ġabove": 2472,
      "Ġunivers": 2473,
      "Ġdu": 2474,
      "go": 2475,
      "11": 2476,
      "ume": 2477,
      "iforn": 2478,
      "AS": 2479,
      "Ġsubject": 2480,
      "Ġmiss": 2481,
      "ipp": 2482,
      "Ġfeature": 2483,
      "Ġelectron": 2484,
      "Ġborn": 2485,
      "Ġcoast": 2486,
      "Ġtoo": 2487,
      "Ġfig": 2488,
      "action": 2489,
      "stand": 2490,
      "aria": 2491,
      "Ġcolon": 2492,
      "Ġfollowed": 2493,
      "Ġlo": 2494,
      "Ġvict": 2495,
      "Ġsuper": 2496,
      "Ġancient": 2497,
      "Ġtrade": 2498,
      "ederal": 2499,
      "ĠTo": 2500,
      "play": 2501,
      "Ġemploy": 2502,
      "pir": 2503,
      "ĠCroat": 2504,
      "cle": 2505,
      "ingu": 2506,
      "ceed": 2507,
      "Ġ1970": 2508,
      "Ġstandard": 2509,
      "Ġcases": 2510,
      "Ġfall": 2511,
      "Ġfrequ": 2512,
      "Ġseen": 2513,
      "Ġcompan": 2514,
      "uation": 2515,
      "Ã¶": 2516,
      "Ġfri": 2517,
      "Ġpoin": 2518,
      "ishing": 2519,
      "Ġconsist": 2520,
      "zil": 2521,
      "ĠRober": 2522,
      "ĠPark": 2523,
      "Ġmedia": 2524,
      "Ġfather": 2525,
      "ĠList": 2526,
      "Ġhimself": 2527,
      "Ġ2022": 2528,
      "Ġevidence": 2529,
      "Ġreported": 2530,
      "Ã³": 2531,
      "197": 2532,
      "Ġsuccessful": 2533,
      "Ġregard": 2534,
      "Ġconc": 2535,
      "Ġfac": 2536,
      "Ġrate": 2537,
      ",\"": 2538,
      "Ġred": 2539,
      "Ġsyn": 2540,
      "ĠCharles": 2541,
      "Ġindic": 2542,
      "Ġarm": 2543,
      "va": 2544,
      "ĠBay": 2545,
      "ties": 2546,
      "Ġlocated": 2547,
      "Ġavailable": 2548,
      "Ġbar": 2549,
      "Ġvideo": 2550,
      "ĠCanadian": 2551,
      "ĠNo": 2552,
      "Ġschol": 2553,
      "Ġfire": 2554,
      "Ġrespect": 2555,
      "Ġtog": 2556,
      "ĠFrom": 2557,
      "ĠPress": 2558,
      "Ġhealth": 2559,
      "ĠLa": 2560,
      "Ġcontain": 2561,
      "eleb": 2562,
      "ĠEarth": 2563,
      "like": 2564,
      "ĠTrans": 2565,
      "Ġtogether": 2566,
      "erous": 2567,
      "Ġfem": 2568,
      "na": 2569,
      "Ġstory": 2570,
      "Ġmeans": 2571,
      "25": 2572,
      "Ġindustry": 2573,
      "Ġthus": 2574,
      "Ġimm": 2575,
      "ĠGeorge": 2576,
      "ĠJames": 2577,
      "atch": 2578,
      "ĠCouncil": 2579,
      "atory": 2580,
      "ads": 2581,
      "Ġdeg": 2582,
      "bor": 2583,
      "Ġtext": 2584,
      "vironment": 2585,
      "ream": 2586,
      "lement": 2587,
      "Ġcommand": 2588,
      "DP": 2589,
      "Ġcost": 2590,
      "rug": 2591,
      "cast": 2592,
      "ĠBab": 2593,
      "Ġdisp": 2594,
      "ington": 2595,
      "ĠBat": 2596,
      "uments": 2597,
      "Ġcontrib": 2598,
      "Ġmultip": 2599,
      "Ġcross": 2600,
      "Ġfund": 2601,
      "ysis": 2602,
      "ĠCont": 2603,
      "Ġinformation": 2604,
      "Ġinteg": 2605,
      "ĠCatholic": 2606,
      "icle": 2607,
      "Ġconn": 2608,
      "Ġ1960": 2609,
      "Ġhydro": 2610,
      "Ġprote": 2611,
      "ĠGl": 2612,
      "Ġneg": 2613,
      ");": 2614,
      "Ġtaken": 2615,
      "ĠBu": 2616,
      "Ġcommunity": 2617,
      "ĠCaliforn": 2618,
      "bol": 2619,
      "Ġaverage": 2620,
      "Ġbecom": 2621,
      "ulf": 2622,
      "ael": 2623,
      "Ġfav": 2624,
      "Ġmount": 2625,
      "ĠMich": 2626,
      "Ġrights": 2627,
      "Ġcampaign": 2628,
      "ĠAtlant": 2629,
      "arliam": 2630,
      "rup": 2631,
      "ali": 2632,
      "ĠTurk": 2633,
      "berg": 2634,
      "forman": 2635,
      "Ġconcept": 2636,
      "icro": 2637,
      "ĠItalian": 2638,
      "Ġtrib": 2639,
      "utch": 2640,
      "put": 2641,
      "ĠBrazil": 2642,
      "atively": 2643,
      "writer": 2644,
      "13": 2645,
      "Ġsoft": 2646,
      "rast": 2647,
      "ulg": 2648,
      "mercial": 2649,
      "Ġinstead": 2650,
      "Ġdeterm": 2651,
      "ĠBattle": 2652,
      "Ġintroduced": 2653,
      "ĠThom": 2654,
      "ĠHigh": 2655,
      "oment": 2656,
      "ĠOb": 2657,
      "ili": 2658,
      "Ġreach": 2659,
      "sel": 2660,
      "Ġtour": 2661,
      "Ġupon": 2662,
      "Ġlive": 2663,
      "icult": 2664,
      "Ġentire": 2665,
      "Ġadop": 2666,
      "Ġbig": 2667,
      "ĠUK": 2668,
      "Ġaccess": 2669,
      "ett": 2670,
      "ĠRev": 2671,
      "ini": 2672,
      "Ġservices": 2673,
      "Ġill": 2674,
      "ounds": 2675,
      "Ġclose": 2676,
      "Ġbuilding": 2677,
      "rel": 2678,
      "Ġhous": 2679,
      "Ġsex": 2680,
      "Ġyoung": 2681,
      "Ġarr": 2682,
      "Ġdou": 2683,
      "isc": 2684,
      "Ġwen": 2685,
      "Ġkont": 2686,
      "Ġfoc": 2687,
      "ĠCamb": 2688,
      "ĠConf": 2689,
      "Ġmeaning": 2690,
      "arliament": 2691,
      "ĠMod": 2692,
      "Ġtraditional": 2693,
      "Ġrule": 2694,
      "ĠCalifornia": 2695,
      "atives": 2696,
      "Ġestim": 2697,
      "Ġacid": 2698,
      "Ġstructure": 2699,
      "ving": 2700,
      "ĠHen": 2701,
      "ems": 2702,
      "Ġmathem": 2703,
      "ĠBritain": 2704,
      "Ġvalue": 2705,
      "Ġpers": 2706,
      "Ġpast": 2707,
      "rial": 2708,
      "Ġcapt": 2709,
      "Ġeducation": 2710,
      "Ġclos": 2711,
      "Ġdoc": 2712,
      "ĠSl": 2713,
      "medi": 2714,
      "Ġincludes": 2715,
      "Ġitself": 2716,
      "Ġinfluence": 2717,
      "ĠGro": 2718,
      "Ġ2001": 2719,
      "sen": 2720,
      "Ġnorm": 2721,
      "ĠSen": 2722,
      "ought": 2723,
      "Ġbillion": 2724,
      "Ġlost": 2725,
      "Ġpen": 2726,
      "Ġinstit": 2727,
      "Ġassociated": 2728,
      "Ġhon": 2729,
      "amples": 2730,
      "Ġrelated": 2731,
      "ĠScott": 2732,
      "Ġdomin": 2733,
      "Ġtre": 2734,
      "ĠRich": 2735,
      "Ġprob": 2736,
      "Ġpercent": 2737,
      "Ġ2004": 2738,
      "Ġacadem": 2739,
      "ump": 2740,
      "Ġevents": 2741,
      "Ġthought": 2742,
      "Ġclear": 2743,
      "ament": 2744,
      "Ġincreased": 2745,
      "\")": 2746,
      "inct": 2747,
      "Ġmovement": 2748,
      "Ġet": 2749,
      "Ġexcept": 2750,
      "ĠSea": 2751,
      "itch": 2752,
      "Ġfounded": 2753,
      "Ġconcern": 2754,
      "Ġtransport": 2755,
      "ixed": 2756,
      "Ġtitle": 2757,
      "ĠMart": 2758,
      "Ġwords": 2759,
      "ani": 2760,
      "Ġcities": 2761,
      "Ġincrease": 2762,
      "ĠQu": 2763,
      "Ġcoll": 2764,
      "ulture": 2765,
      "Ġachie": 2766,
      "iter": 2767,
      "Ġdat": 2768,
      "Ġtradition": 2769,
      "oice": 2770,
      "uries": 2771,
      "aint": 2772,
      "roy": 2773,
      "oted": 2774,
      "ĠSte": 2775,
      "ounter": 2776,
      "Ġsize": 2777,
      "Ġarchitect": 2778,
      "mar": 2779,
      "Ġreligious": 2780,
      "ĠRoyal": 2781,
      "tained": 2782,
      "Ġten": 2783,
      "ĠSim": 2784,
      "anted": 2785,
      "ĠSpe": 2786,
      "oul": 2787,
      "Ġapprox": 2788,
      "Ġris": 2789,
      "ĠCourt": 2790,
      "Ġnuc": 2791,
      "Ġwhose": 2792,
      "Ġceleb": 2793,
      "ĠLeg": 2794,
      "Ġmonths": 2795,
      "ĠSam": 2796,
      "reet": 2797,
      "Ġrock": 2798,
      "Ġleaders": 2799,
      "Ġparticularly": 2800,
      "Ġonce": 2801,
      "Ġconsider": 2802,
      "Ġ1999": 2803,
      "ĠFirst": 2804,
      "ophy": 2805,
      "ĠAngl": 2806,
      "Ġang": 2807,
      "Ġste": 2808,
      "ĠJapanese": 2809,
      "stant": 2810,
      "ago": 2811,
      "isl": 2812,
      "ste": 2813,
      "oses": 2814,
      "ufact": 2815,
      "Ġuses": 2816,
      "itude": 2817,
      "Ġtoday": 2818,
      "Ġjud": 2819,
      "artment": 2820,
      "Ġlet": 2821,
      "Ġdifficult": 2822,
      "Ġforeign": 2823,
      "Ġsqu": 2824,
      "ico": 2825,
      "Ġcause": 2826,
      "Ġcompanies": 2827,
      "ibility": 2828,
      "Ġcritic": 2829,
      "sych": 2830,
      "ĠMy": 2831,
      "elling": 2832,
      "ĠNor": 2833,
      "Ġ26": 2834,
      "Ġprovide": 2835,
      "Ġwet": 2836,
      "Ġreferred": 2837,
      "Ġvir": 2838,
      "Ġviol": 2839,
      "Ġ50": 2840,
      "Ġfest": 2841,
      "Ġnorthern": 2842,
      "Ġ23": 2843,
      "Ġrail": 2844,
      "ĠMuseum": 2845,
      "aps": 2846,
      "Ġcondu": 2847,
      "rought": 2848,
      "ona": 2849,
      "ij": 2850,
      "Ġ=": 2851,
      "Ġamount": 2852,
      "Ġrelationship": 2853,
      "Ġreb": 2854,
      "ĠInstit": 2855,
      "ĠAsia": 2856,
      "Ġsite": 2857,
      "Ġtax": 2858,
      "Ġable": 2859,
      "istics": 2860,
      "Ġaltern": 2861,
      "ffic": 2862,
      "nel": 2863,
      "Ġscience": 2864,
      "Ġallowed": 2865,
      "Ġcompos": 2866,
      "Ġeconomy": 2867,
      "Ġcann": 2868,
      "Ġkilled": 2869,
      "het": 2870,
      "iting": 2871,
      "och": 2872,
      "Ġweek": 2873,
      "Ġoutside": 2874,
      "Ġbooks": 2875,
      "Ġannounced": 2876,
      "over": 2877,
      "Ġur": 2878,
      "obal": 2879,
      "ĠÂ": 2880,
      "Ġlack": 2881,
      "rate": 2882,
      "ĠDep": 2883,
      "ĠPat": 2884,
      "Ġremained": 2885,
      "reme": 2886,
      "Ġ2003": 2887,
      "Ġmatch": 2888,
      "ĠBig": 2889,
      "ĠDutch": 2890,
      "clus": 2891,
      "Ġdesigned": 2892,
      "ĠMal": 2893,
      "ĠMinister": 2894,
      "Ġdistrib": 2895,
      "Ġaward": 2896,
      "Ġ22": 2897,
      "Ġemer": 2898,
      "Ġapplic": 2899,
      "ĠAthen": 2900,
      "Ġfeatures": 2901,
      "Ġeight": 2902,
      "ĠPri": 2903,
      "Ġcarbon": 2904,
      "Ġopt": 2905,
      "Ġmother": 2906,
      "Ġcommercial": 2907,
      "Ġdirector": 2908,
      "ĠFrank": 2909,
      "Ġrespons": 2910,
      "Ġinstr": 2911,
      "ya": 2912,
      "Ġwhite": 2913,
      "Ġquest": 2914,
      "Ġoil": 2915,
      "Ġfootballer": 2916,
      "anc": 2917,
      "Ġaway": 2918,
      "Ġhighest": 2919,
      "Ġsource": 2920,
      "ĠCap": 2921,
      "Ġfut": 2922,
      "ston": 2923,
      "Ġbrother": 2924,
      "Ġ()": 2925,
      "Ġcour": 2926,
      "ala": 2927,
      "ĠBBC": 2928,
      "Ġresults": 2929,
      "ĠFurther": 2930,
      "oe": 2931,
      "curity": 2932,
      "itor": 2933,
      "ulated": 2934,
      "ĠLou": 2935,
      "lier": 2936,
      "Ġrelease": 2937,
      "iff": 2938,
      "Ġmach": 2939,
      "ĠMe": 2940,
      "Ġsouthern": 2941,
      "Ġleading": 2942,
      "rus": 2943,
      "Ġgave": 2944,
      "Ġperforman": 2945,
      "Ġradio": 2946,
      "ores": 2947,
      "Ġwest": 2948,
      "Ġgrowth": 2949,
      "ishop": 2950,
      "Ġhit": 2951,
      "Ġask": 2952,
      "Ġsurface": 2953,
      "Ġmoved": 2954,
      "Ġprivate": 2955,
      "ĠDan": 2956,
      "esin": 2957,
      "based": 2958,
      "iment": 2959,
      "ĠRed": 2960,
      "Ġgre": 2961,
      "Ġnovel": 2962,
      "Ġbon": 2963,
      "ĠMet": 2964,
      "Ġnames": 2965,
      "peror": 2966,
      "Ġincreasing": 2967,
      "vert": 2968,
      "ĠâĢ": 2969,
      "istance": 2970,
      "Ġchurch": 2971,
      "utive": 2972,
      "Ġlarger": 2973,
      "olk": 2974,
      "Ġalways": 2975,
      "Amer": 2976,
      "Ġenter": 2977,
      "ĠRobert": 2978,
      "Ġsat": 2979,
      "Ġpay": 2980,
      "ĠGold": 2981,
      "Ġactress": 2982,
      "Ġprimary": 2983,
      "Ġgrad": 2984,
      "ĠPortug": 2985,
      "burg": 2986,
      "Ġcareer": 2987,
      "ĠCollege": 2988,
      "Ġgod": 2989,
      "ĠPers": 2990,
      "Ġmanufact": 2991,
      "Ġproduce": 2992,
      "ĠAcadem": 2993,
      "icles": 2994,
      "ĠAD": 2995,
      "ills": 2996,
      "ĠAssoci": 2997,
      "ĠPeople": 2998,
      "Ġastron": 2999,
      "ires": 3000,
      "Ġwent": 3001,
      "Ġdise": 3002,
      "Ġrequired": 3003,
      "asc": 3004,
      "40": 3005,
      "Ġindividual": 3006,
      "ilities": 3007,
      "Ġtravel": 3008,
      "Ġeffects": 3009,
      "Ġstarted": 3010,
      "ror": 3011,
      "omm": 3012,
      "leg": 3013,
      "Ġprovided": 3014,
      "Ġanti": 3015,
      "anks": 3016,
      "Ġsey": 3017,
      "ĠLaw": 3018,
      "Ġelement": 3019,
      "Ġserved": 3020,
      "Ġpoints": 3021,
      "Ġoffice": 3022,
      "Ġeventually": 3023,
      "Ġinterp": 3024,
      "Ġi": 3025,
      "Ġspecific": 3026,
      "Ġdig": 3027,
      "Ġmor": 3028,
      "Ġeast": 3029,
      "Ġmagn": 3030,
      "196": 3031,
      "ĠIsrael": 3032,
      "Ġmale": 3033,
      "ĠVal": 3034,
      "Ġdefin": 3035,
      "Ġmajority": 3036,
      "Ġord": 3037,
      "ength": 3038,
      "Ġtypically": 3039,
      "Ġbank": 3040,
      "ĠHow": 3041,
      "cel": 3042,
      "ĠCons": 3043,
      "ands": 3044,
      "ĠBell": 3045,
      "Ġgold": 3046,
      "ference": 3047,
      "ancial": 3048,
      "Ġmechan": 3049,
      "itiz": 3050,
      "Ġ40": 3051,
      "Ġparticip": 3052,
      "ister": 3053,
      "vention": 3054,
      "Ġproblem": 3055,
      "Ġche": 3056,
      "ĠQue": 3057,
      "Ġbelieved": 3058,
      "Ġaud": 3059,
      "Ġself": 3060,
      "Ġlook": 3061,
      "Ġmight": 3062,
      "Ġcommonly": 3063,
      "Ġrecorded": 3064,
      "ĠCongress": 3065,
      "ranch": 3066,
      "Ġquant": 3067,
      "Ġblood": 3068,
      "mp": 3069,
      "oz": 3070,
      "ĠColumb": 3071,
      "Ġestablish": 3072,
      "Ġcontinu": 3073,
      "Ġsources": 3074,
      "Ġbirth": 3075,
      "Ġlikely": 3076,
      "uals": 3077,
      "itar": 3078,
      "Ġeffort": 3079,
      "iti": 3080,
      "iding": 3081,
      "ĠIr": 3082,
      "Ġmetal": 3083,
      "Ġreason": 3084,
      "Ġnature": 3085,
      "ada": 3086,
      "ĠIslam": 3087,
      "Ġtypes": 3088,
      "Ġpesin": 3089,
      "ĠBulg": 3090,
      "Ġmoney": 3091,
      "ĠCup": 3092,
      "Ġproducer": 3093,
      "ĠAward": 3094,
      "andid": 3095,
      "ready": 3096,
      "min": 3097,
      "hing": 3098,
      "Ġwidely": 3099,
      "Ġgas": 3100,
      "Ġcarry": 3101,
      "Ġcrew": 3102,
      "Ġterritory": 3103,
      "anced": 3104,
      "ĠPeter": 3105,
      "Ġcharacters": 3106,
      "Ġconditions": 3107,
      "Ġtell": 3108,
      "Ġsaw": 3109,
      "aval": 3110,
      "Ġcommit": 3111,
      "Ġcaused": 3112,
      "Ġ27": 3113,
      "Ġseven": 3114,
      "Ġearlier": 3115,
      "ection": 3116,
      "igned": 3117,
      "hab": 3118,
      "Ġbrought": 3119,
      "American": 3120,
      "Ġtarg": 3121,
      "Ġmag": 3122,
      "ios": 3123,
      "Ġpoet": 3124,
      "arent": 3125,
      "cies": 3126,
      "ĠJack": 3127,
      "gin": 3128,
      "Ġaction": 3129,
      "Ġ2002": 3130,
      "ĠGhana": 3131,
      "Ġmission": 3132,
      "Ġspeak": 3133,
      "field": 3134,
      "Ġmostly": 3135,
      "resp": 3136,
      "Ġtek": 3137,
      "selves": 3138,
      "ux": 3139,
      "Ġjournal": 3140,
      "Ġfa": 3141,
      "Ġlog": 3142,
      "Ġgra": 3143,
      "ras": 3144,
      "irit": 3145,
      "Ġwhether": 3146,
      "ords": 3147,
      "Ġremains": 3148,
      "rol": 3149,
      "Ġess": 3150,
      "Ġbehav": 3151,
      "Ġacademic": 3152,
      "acter": 3153,
      "ibrary": 3154,
      "Ġcreat": 3155,
      "Ġscreen": 3156,
      "Ġchanges": 3157,
      "ĠApple": 3158,
      "ghan": 3159,
      "Ġregions": 3160,
      "Ġwife": 3161,
      "ĠMac": 3162,
      "airs": 3163,
      "ĠIII": 3164,
      "bo": 3165,
      "Ġdom": 3166,
      "ĠRad": 3167,
      "Ġsea": 3168,
      "Ġsubsequ": 3169,
      "Ġproducts": 3170,
      "aren": 3171,
      "Ġbod": 3172,
      "Ġlonger": 3173,
      "ocratic": 3174,
      "ayer": 3175,
      "Ġreturned": 3176,
      "Ġsal": 3177,
      "Ġbreak": 3178,
      "Ġhom": 3179,
      "Ġlittle": 3180,
      "me": 3181,
      "Ġliving": 3182,
      "Ġ28": 3183,
      "Ġindependent": 3184,
      "ĠJewish": 3185,
      "view": 3186,
      "Ġsound": 3187,
      "now": 3188,
      "isation": 3189,
      "ĠMex": 3190,
      "Ġregular": 3191,
      "Ġconcent": 3192,
      "Ġthemselves": 3193,
      "ĠZe": 3194,
      "Ġschools": 3195,
      "ĠOl": 3196,
      "uba": 3197,
      "ney": 3198,
      "Ġoccup": 3199,
      "ĠIts": 3200,
      "Ġstation": 3201,
      "Ġpotential": 3202,
      "Ġdyn": 3203,
      "ĠSal": 3204,
      "ĠOly": 3205,
      "Ġadded": 3206,
      "ĠEarly": 3207,
      "ĠBest": 3208,
      "Ġ1998": 3209,
      "uck": 3210,
      "Ġconstruction": 3211,
      "ĠAC": 3212,
      "Ġtowards": 3213,
      "umn": 3214,
      "ground": 3215,
      "west": 3216,
      "isions": 3217,
      "otic": 3218,
      "Ġsem": 3219,
      "ĠOld": 3220,
      "pected": 3221,
      "Ġlegal": 3222,
      "ĠBur": 3223,
      "Ġnecess": 3224,
      "ĠIsland": 3225,
      "asion": 3226,
      "Ġpersonal": 3227,
      "Ġfront": 3228,
      "Ġstop": 3229,
      "Ġenvironment": 3230,
      "Ġsoftware": 3231,
      "time": 3232,
      "ression": 3233,
      "Ġwriting": 3234,
      "Ġappeared": 3235,
      "Ġcommunic": 3236,
      "ests": 3237,
      "ĠInter": 3238,
      "Ġpractice": 3239,
      "ĠHenry": 3240,
      "odes": 3241,
      "Ġmek": 3242,
      "Ġphot": 3243,
      "known": 3244,
      "iences": 3245,
      "ki": 3246,
      "Ġcard": 3247,
      "ĠOlymp": 3248,
      "Ġloss": 3249,
      "Ġalready": 3250,
      "throp": 3251,
      "embly": 3252,
      "Ġreplaced": 3253,
      "47": 3254,
      "Ġbetter": 3255,
      "ĠItaly": 3256,
      "alled": 3257,
      "Ġlines": 3258,
      "ĠMount": 3259,
      "kt": 3260,
      "ĠHistor": 3261,
      "Ġ+": 3262,
      "Ġhapp": 3263,
      "ĠÎ": 3264,
      "onse": 3265,
      "Ġrecent": 3266,
      "ĠMichael": 3267,
      "Ġsil": 3268,
      "ĠSociety": 3269,
      "ĠEastern": 3270,
      "Ġalc": 3271,
      "Ġeas": 3272,
      "Ġpurp": 3273,
      "Ġcode": 3274,
      "Ġlearn": 3275,
      "ĠIslands": 3276,
      "aughter": 3277,
      "ĠBal": 3278,
      "ĠMiddle": 3279,
      "ga": 3280,
      "ĠRo": 3281,
      "Ġgun": 3282,
      "rim": 3283,
      "omy": 3284,
      "Ġleader": 3285,
      "ĠRussia": 3286,
      "Ġbeginning": 3287,
      "ĠSpain": 3288,
      "ivity": 3289,
      "Ġvill": 3290,
      "Ġfle": 3291,
      "Ġbelow": 3292,
      "ĠOff": 3293,
      "elled": 3294,
      "Ġdam": 3295,
      "22": 3296,
      "ĠRichard": 3297,
      "ĠHall": 3298,
      "Ġ1997": 3299,
      "porary": 3300,
      "ĠAlexand": 3301,
      "Ġproblems": 3302,
      "uman": 3303,
      "Ġdial": 3304,
      "Ġconstitution": 3305,
      "ĠOs": 3306,
      "ĠAlf": 3307,
      "met": 3308,
      "Ġever": 3309,
      "use": 3310,
      "respond": 3311,
      "Ġhistorical": 3312,
      "ĠThomas": 3313,
      "rative": 3314,
      "Ġdraw": 3315,
      "ĠPre": 3316,
      "ĠDel": 3317,
      "ĠStud": 3318,
      "lying": 3319,
      "Ġveh": 3320,
      "Ġlimited": 3321,
      "ĠParis": 3322,
      "ĠBank": 3323,
      "Ġ1996": 3324,
      "Ġcultural": 3325,
      "ĠBatman": 3326,
      "):": 3327,
      "Ġstage": 3328,
      "ects": 3329,
      "Ġdeal": 3330,
      "Ġmove": 3331,
      "owers": 3332,
      "Ġreading": 3333,
      "'t": 3334,
      "ĠMad": 3335,
      "Ġriver": 3336,
      "pro": 3337,
      "Ġwel": 3338,
      "ĠFilm": 3339,
      "ously": 3340,
      "Ġchemical": 3341,
      "spe": 3342,
      "Ġsequ": 3343,
      "lied": 3344,
      "ĠBi": 3345,
      "ĠFore": 3346,
      "Ġrequire": 3347,
      "ources": 3348,
      "Ġ1950": 3349,
      "Ġwok": 3350,
      "aged": 3351,
      "omer": 3352,
      "ĠAnother": 3353,
      "ift": 3354,
      "ĠAfghan": 3355,
      "ients": 3356,
      "ension": 3357,
      "Ġacqu": 3358,
      "axim": 3359,
      "Ġstated": 3360,
      "Ġcomplete": 3361,
      "bre": 3362,
      "Ġdefined": 3363,
      "Ġspok": 3364,
      "Ġfuture": 3365,
      "Ġphysical": 3366,
      "ĠTer": 3367,
      "Ġcenturies": 3368,
      "Ġnetwork": 3369,
      "Ġax": 3370,
      "back": 3371,
      "ĠSwed": 3372,
      "Ġtreatment": 3373,
      "Ġanimals": 3374,
      "ĠInstitute": 3375,
      "Ġgoal": 3376,
      "Ġcoach": 3377,
      "Ġtemperature": 3378,
      "Ġbur": 3379,
      "unity": 3380,
      "Ġ1992": 3381,
      "ĠSecond": 3382,
      "Ġoffic": 3383,
      "Ġvariety": 3384,
      "Ġlab": 3385,
      "ĠVict": 3386,
      "Ġ1991": 3387,
      "ellow": 3388,
      "head": 3389,
      "Ġdirectly": 3390,
      "Ġsus": 3391,
      "onic": 3392,
      "cis": 3393,
      "Ġcandid": 3394,
      "ĠVol": 3395,
      "zech": 3396,
      "Ġseparate": 3397,
      "21": 3398,
      "Ġstudies": 3399,
      "Ġworking": 3400,
      "Ġsett": 3401,
      "ĠAut": 3402,
      "Ġestimated": 3403,
      "Ġislands": 3404,
      "Ġpolicy": 3405,
      "Ġsmaller": 3406,
      "Ġbaseball": 3407,
      "Ġinj": 3408,
      "Ġ185": 3409,
      "Ġtroops": 3410,
      "idents": 3411,
      "ĠNorthern": 3412,
      "Ġunits": 3413,
      "23": 3414,
      "abi": 3415,
      "ĠLiber": 3416,
      "Ġdiscovered": 3417,
      "ĠLouis": 3418,
      "Ġstudents": 3419,
      "mad": 3420,
      "change": 3421,
      "ye": 3422,
      "Ġcou": 3423,
      "ĠJer": 3424,
      "ĠArmen": 3425,
      "Ġprevent": 3426,
      "Ġremov": 3427,
      "Ġcut": 3428,
      "unt": 3429,
      "Ġsymbol": 3430,
      "Ġvia": 3431,
      "cher": 3432,
      "eds": 3433,
      "anded": 3434,
      "Ġlaws": 3435,
      "ita": 3436,
      "ols": 3437,
      "nic": 3438,
      "Ġproperties": 3439,
      "Ġour": 3440,
      "Ġatom": 3441,
      "Ġbene": 3442,
      "ĠGrand": 3443,
      "Ġbr": 3444,
      "Ġanalysis": 3445,
      "fl": 3446,
      "ania": 3447,
      "isms": 3448,
      "Ġinvolved": 3449,
      "rupt": 3450,
      "oys": 3451,
      "Ġ2023": 3452,
      "Ġwetin": 3453,
      "ĠAssociation": 3454,
      "Ġalg": 3455,
      "Ġ1994": 3456,
      "ĠMass": 3457,
      "Ġdiscuss": 3458,
      "Ġhol": 3459,
      "Ġelected": 3460,
      "ampionship": 3461,
      "ĠAcademy": 3462,
      "Ġface": 3463,
      "Ġguitar": 3464,
      "Ġsaf": 3465,
      "Ġnar": 3466,
      "Ġoperations": 3467,
      "Ġdestroy": 3468,
      "Ġboard": 3469,
      "ĠTex": 3470,
      "ultural": 3471,
      "Ġminor": 3472,
      "Ġ29": 3473,
      "ledge": 3474,
      "Ġproposed": 3475,
      "Ġreached": 3476,
      "Ġfinancial": 3477,
      "ĠVir": 3478,
      "anned": 3479,
      "Ġtry": 3480,
      "itz": 3481,
      "ĠJose": 3482,
      "Ġpric": 3483,
      "Ġfarm": 3484,
      "ĠCzech": 3485,
      "Ġcreate": 3486,
      "orial": 3487,
      "Ġheav": 3488,
      "Ġbox": 3489,
      "asons": 3490,
      "ĠMore": 3491,
      "Ġrap": 3492,
      "Ġcorrespond": 3493,
      "24": 3494,
      "Ġcateg": 3495,
      "Ġplant": 3496,
      "Ġens": 3497,
      "ĠMuslim": 3498,
      "ask": 3499,
      "ables": 3500,
      "Ġagric": 3501,
      "ĠMusic": 3502,
      "ĠGovernment": 3503,
      "aring": 3504,
      "ocal": 3505,
      "enes": 3506,
      "ĠOtt": 3507,
      "Ġmention": 3508,
      "ela": 3509,
      "ĠScot": 3510,
      "ĠBelg": 3511,
      "ĠGroup": 3512,
      "Ġgreater": 3513,
      "Ġlength": 3514,
      "Ġthous": 3515,
      "Ġrank": 3516,
      "Ġshi": 3517,
      "ĠCroatia": 3518,
      "izing": 3519,
      "ĠAnn": 3520,
      "Ġtechnology": 3521,
      "ĠArabic": 3522,
      "ĠDef": 3523,
      "Ġdistinct": 3524,
      "oper": 3525,
      "Ġ1995": 3526,
      "Ġera": 3527,
      "Ġwan": 3528,
      "Ġround": 3529,
      "Ġ1993": 3530,
      "Ġrules": 3531,
      "Ġdocument": 3532,
      "aches": 3533,
      "Ġspread": 3534,
      "Ġmatter": 3535,
      "ĠðŁİ": 3536,
      "irds": 3537,
      "omp": 3538,
      "Ġnight": 3539,
      "Ġthreat": 3540,
      "phas": 3541,
      "Ġunit": 3542,
      "Ġcentre": 3543,
      "80": 3544,
      "ĠHung": 3545,
      "Ġkind": 3546,
      "ector": 3547,
      "ĠRec": 3548,
      "Ġflight": 3549,
      "ĠCa": 3550,
      "Ġshare": 3551,
      "Ġissue": 3552,
      "ja": 3553,
      "ĠSmith": 3554,
      "ĠMer": 3555,
      "Ġlargely": 3556,
      "Ġscholars": 3557,
      "ĠForce": 3558,
      "Ġreview": 3559,
      "Ġbound": 3560,
      "Ġnearly": 3561,
      "ees": 3562,
      "ech": 3563,
      "Ġresponse": 3564,
      "ĠYear": 3565,
      "ev": 3566,
      "war": 3567,
      "Ġbring": 3568,
      "Ġwhom": 3569,
      "Ġbatt": 3570,
      "Ġmultiple": 3571,
      "rd": 3572,
      "tee": 3573,
      "anda": 3574,
      "reland": 3575,
      "ĠBill": 3576,
      "Ġsettle": 3577,
      "Ġapproximately": 3578,
      "Ġplaced": 3579,
      "cont": 3580,
      "acc": 3581,
      "Ġlatter": 3582,
      "Ġcollect": 3583,
      "ressed": 3584,
      "Ġsurround": 3585,
      "Ġperformance": 3586,
      "Ġoriginally": 3587,
      "Ġconv": 3588,
      "ption": 3589,
      "Ġtransfer": 3590,
      "Ġsupported": 3591,
      "ĠBos": 3592,
      "Ġnumerous": 3593,
      "Ġperformed": 3594,
      "ĠCamer": 3595,
      "riage": 3596,
      "ĠBerlin": 3597,
      "Ġidea": 3598,
      "ĠTV": 3599,
      "Ġrelatively": 3600,
      "Ġneigh": 3601,
      "NA": 3602,
      "ĠCyp": 3603,
      "Ġcover": 3604,
      "ender": 3605,
      "uit": 3606,
      "Ġcust": 3607,
      "ĠSat": 3608,
      "igen": 3609,
      "ĠDu": 3610,
      "aker": 3611,
      "ien": 3612,
      "onn": 3613,
      "ĠWash": 3614,
      "Ġ||": 3615,
      "Ġindependence": 3616,
      "ano": 3617,
      "ĠTwo": 3618,
      "ĠFin": 3619,
      "Ġstatus": 3620,
      "Ġcollection": 3621,
      "Ġletter": 3622,
      "Ġdiss": 3623,
      "ĠClass": 3624,
      "inent": 3625,
      "ĠIreland": 3626,
      "ĠRel": 3627,
      "ĠJust": 3628,
      "Ġadopted": 3629,
      "hood": 3630,
      "oor": 3631,
      "inary": 3632,
      "Ġwestern": 3633,
      "Ġbomb": 3634,
      "Ġdrug": 3635,
      "inner": 3636,
      "Ġmarried": 3637,
      "yer": 3638,
      "Ġcenter": 3639,
      "ĠNigerian": 3640,
      "Ġdivided": 3641,
      "Ġcred": 3642,
      "Ġbor": 3643,
      "ĠBron": 3644,
      "icted": 3645,
      "Ġhighly": 3646,
      "ville": 3647,
      "Ġprin": 3648,
      "SC": 3649,
      "Ġcolor": 3650,
      "Ġteams": 3651,
      "standing": 3652,
      "Ġcitiz": 3653,
      "ĠCivil": 3654,
      "Ġimmedi": 3655,
      "Ġkeep": 3656,
      "bed": 3657,
      "Ġ/": 3658,
      "za": 3659,
      "edy": 3660,
      "Ġwind": 3661,
      "Ġscript": 3662,
      "Ġnation": 3663,
      "aka": 3664,
      "stitution": 3665,
      "ĠBuddh": 3666,
      "onia": 3667,
      "Ġhor": 3668,
      "Ġissues": 3669,
      "Ġwriters": 3670,
      "Ġadditional": 3671,
      "Ġfunctions": 3672,
      "Ġcast": 3673,
      "ĠJews": 3674,
      "Ġwide": 3675,
      "cean": 3676,
      "Ġsociety": 3677,
      "Ġquick": 3678,
      "stein": 3679,
      "Ġfocus": 3680,
      "Ġdate": 3681,
      "ket": 3682,
      "itors": 3683,
      "Ġpun": 3684,
      "ĠLife": 3685,
      "reng": 3686,
      "Ġtarget": 3687,
      "ĠAmericans": 3688,
      "Ġwhole": 3689,
      "Ġbegin": 3690,
      "den": 3691,
      "rich": 3692,
      "Ġplent": 3693,
      "imal": 3694,
      "ĠWil": 3695,
      "part": 3696,
      "itation": 3697,
      "Ch": 3698,
      "Ġdram": 3699,
      "ithm": 3700,
      "wide": 3701,
      "aught": 3702,
      "SA": 3703,
      "aud": 3704,
      "Ġleague": 3705,
      "ĠWashington": 3706,
      "ship": 3707,
      "ĠSol": 3708,
      "Ġmainly": 3709,
      "Ġimplement": 3710,
      "Ġbehind": 3711,
      "win": 3712,
      "Ġactive": 3713,
      "60": 3714,
      "raction": 3715,
      "Ġcontract": 3716,
      "Ġprec": 3717,
      "cks": 3718,
      "Ġtable": 3719,
      "igr": 3720,
      "Ġmaintain": 3721,
      "Ġmole": 3722,
      "PC": 3723,
      "band": 3724,
      "ĠAlban": 3725,
      "olved": 3726,
      "Ġenough": 3727,
      "Ġmanager": 3728,
      "ua": 3729,
      "Ġhours": 3730,
      "ĠServ": 3731,
      "Ġpoor": 3732,
      "ĠIrish": 3733,
      "iance": 3734,
      "Ġsoon": 3735,
      "Ġcontinue": 3736,
      "Ġspect": 3737,
      "Ġpressure": 3738,
      "onst": 3739,
      "ĠPet": 3740,
      "ĠAngel": 3741,
      "ĠKn": 3742,
      "Ġconsum": 3743,
      "Ġshows": 3744,
      "Ġships": 3745,
      "heast": 3746,
      "enh": 3747,
      "Ġcry": 3748,
      "Ġpsych": 3749,
      "ĠMu": 3750,
      "Ġ1989": 3751,
      "unicip": 3752,
      "Ġ183": 3753,
      "Ġfemale": 3754,
      "ĠBre": 3755,
      "ĠMil": 3756,
      "osing": 3757,
      "gebra": 3758,
      "Ġtraining": 3759,
      "Ġdetail": 3760,
      "ĠNations": 3761,
      "ĠCompany": 3762,
      "Ġlevels": 3763,
      "Ġepis": 3764,
      "Ġmathemat": 3765,
      "Ġplants": 3766,
      "onds": 3767,
      "Ġtherefore": 3768,
      "Ġvictory": 3769,
      "Ġdecision": 3770,
      "ĠSouthern": 3771,
      "ĠInt": 3772,
      "ensus": 3773,
      "ĠAj": 3774,
      "ĠEv": 3775,
      "OS": 3776,
      "Ġforest": 3777,
      "board": 3778,
      "onents": 3779,
      "ena": 3780,
      "...": 3781,
      "Ġfim": 3782,
      "ĠCast": 3783,
      "Ġheavy": 3784,
      "Ġborder": 3785,
      "ĠSun": 3786,
      "ĠDon": 3787,
      "ĠJud": 3788,
      "arter": 3789,
      "Ġcontains": 3790,
      "Ġcounter": 3791,
      "ĠMary": 3792,
      "Ġstep": 3793,
      "ĠLag": 3794,
      "undred": 3795,
      "ĠCommon": 3796,
      "umin": 3797,
      "ointed": 3798,
      "Ġpeace": 3799,
      "Ġbenef": 3800,
      "Ġconqu": 3801,
      "Ġrare": 3802,
      "Ġblock": 3803,
      "ĠWhite": 3804,
      "pped": 3805,
      "Ġtrue": 3806,
      "Ġmedic": 3807,
      "ba": 3808,
      "Ġheart": 3809,
      "mark": 3810,
      "irm": 3811,
      "ulations": 3812,
      "Ġmeasure": 3813,
      "Ġteach": 3814,
      "ĠOrgan": 3815,
      "Ġdegree": 3816,
      "Ġquestion": 3817,
      "arc": 3818,
      "lected": 3819,
      "ĠCur": 3820,
      "olf": 3821,
      "Ġprofessional": 3822,
      "ĠTra": 3823,
      "ĠTele": 3824,
      "ĠScottish": 3825,
      "ĠVictor": 3826,
      "lines": 3827,
      "ĠRom": 3828,
      "rif": 3829,
      "Ġvote": 3830,
      "ologist": 3831,
      "Ġoda": 3832,
      "Ġrise": 3833,
      "Ġchall": 3834,
      "Ġcompared": 3835,
      "Ġ1986": 3836,
      "ĪĴ": 3837,
      "Ġpie": 3838,
      "Ġopened": 3839,
      "bour": 3840,
      "ĠAh": 3841,
      "oud": 3842,
      "ĠMark": 3843,
      "Ġshot": 3844,
      "ened": 3845,
      "Ġwood": 3846,
      "Ġexperience": 3847,
      "Ġdaughter": 3848,
      "Ġroad": 3849,
      "Ġproperty": 3850,
      "Ġprior": 3851,
      "Ġdie": 3852,
      "Ġdisplay": 3853,
      "Ġscore": 3854,
      "Ġmethods": 3855,
      "ĠCounty": 3856,
      "Ġwall": 3857,
      "Ġpath": 3858,
      "rown": 3859,
      "Ġesc": 3860,
      "lywood": 3861,
      "ĠSystem": 3862,
      "Ġdivision": 3863,
      "ners": 3864,
      "ĠFollow": 3865,
      "Ġfederal": 3866,
      "ĠAv": 3867,
      "ĠSo": 3868,
      "ĠSub": 3869,
      "Ġop": 3870,
      "Ġartists": 3871,
      "Ġfamous": 3872,
      "Ġsongs": 3873,
      "liest": 3874,
      "Ġrisk": 3875,
      "ĠDiv": 3876,
      "Ġplaces": 3877,
      "Ġcompar": 3878,
      "ĠAlbert": 3879,
      "Ġclimate": 3880,
      "verse": 3881,
      "izations": 3882,
      "ĠPrince": 3883,
      "unar": 3884,
      "ovn": 3885,
      "Ġexpans": 3886,
      "IC": 3887,
      "ider": 3888,
      "ĠWall": 3889,
      "Ġkontri": 3890,
      "ĠJoseph": 3891,
      "Ġprimarily": 3892,
      "27": 3893,
      "Ġbasis": 3894,
      "Ġactivity": 3895,
      "onent": 3896,
      "ĠCard": 3897,
      "irl": 3898,
      "estic": 3899,
      "cles": 3900,
      "istry": 3901,
      "Ġappears": 3902,
      "hold": 3903,
      "Ġreve": 3904,
      "Ġstreng": 3905,
      "ĠEle": 3906,
      "osis": 3907,
      "Ġrace": 3908,
      "Ġincor": 3909,
      "Ġeastern": 3910,
      "Ġclaimed": 3911,
      "Ġglobal": 3912,
      "Ġmonth": 3913,
      "Ġdisease": 3914,
      "ado": 3915,
      "Ġalph": 3916,
      "Ġ1988": 3917,
      "Ġinfluenced": 3918,
      "Ġcells": 3919,
      "In": 3920,
      "Ġhyp": 3921,
      "astic": 3922,
      "Ġcontem": 3923,
      "Ġinvestig": 3924,
      "aled": 3925,
      "Ġsens": 3926,
      "Ġmakes": 3927,
      "ĠSaint": 3928,
      "ially": 3929,
      "Ġshown": 3930,
      "ĠSk": 3931,
      "Ġlink": 3932,
      "ĠModern": 3933,
      "ĠMartin": 3934,
      "Ġnoted": 3935,
      "ĠProt": 3936,
      "asty": 3937,
      "Ġimpact": 3938,
      "ĠBrown": 3939,
      "Ġprobably": 3940,
      "ias": 3941,
      "Ġfans": 3942,
      "Ġreform": 3943,
      "ĠGr": 3944,
      "hesis": 3945,
      "Ġcoin": 3946,
      "ĠBern": 3947,
      "ĠMag": 3948,
      "Ġrat": 3949,
      "Ġlegisl": 3950,
      "well": 3951,
      "Ġnomin": 3952,
      "ĠMont": 3953,
      "ĠUnder": 3954,
      "Ġlocation": 3955,
      "ext": 3956,
      "Ġcompleted": 3957,
      "Ġmemory": 3958,
      "ĠEs": 3959,
      "Ġcontroll": 3960,
      "Ġchanged": 3961,
      "Ġbik": 3962,
      "Ġdone": 3963,
      "Ġsuggested": 3964,
      "Ġcannot": 3965,
      "ares": 3966,
      "oo": 3967,
      "hol": 3968,
      "Ġstars": 3969,
      "Ġblue": 3970,
      "ĠBor": 3971,
      "uter": 3972,
      "ĠDen": 3973,
      "comp": 3974,
      "Ġfif": 3975,
      "Ġsecurity": 3976,
      "ĠProg": 3977,
      "Ġbelief": 3978,
      "Ġamb": 3979,
      "ĠDespite": 3980,
      "Ġ184": 3981,
      "Ġ60": 3982,
      "ĠFollowing": 3983,
      "edic": 3984,
      "Ġforced": 3985,
      "Ġcarried": 3986,
      "Ġliber": 3987,
      "earch": 3988,
      "Ġelections": 3989,
      "Ġbuildings": 3990,
      "Ġrepresented": 3991,
      "Ġjoined": 3992,
      "ĠChile": 3993,
      "azine": 3994,
      "Ġ1930": 3995,
      "ĠScience": 3996,
      "Ġliterature": 3997,
      "ĠNot": 3998,
      "Ġ1920": 3999,
      "Ġalk": 4000,
      "ĠNavy": 4001,
      "Ġcontrast": 4002,
      "ped": 4003,
      "osh": 4004,
      "Ġresulting": 4005,
      "Ġweap": 4006,
      "Ġpresence": 4007,
      "ault": 4008,
      "ises": 4009,
      "Ġalcoh": 4010,
      "yr": 4011,
      "urches": 4012,
      "bl": 4013,
      "Ġearliest": 4014,
      "Ġbroadcast": 4015,
      "actions": 4016,
      "ply": 4017,
      "ida": 4018,
      "Ġflu": 4019,
      "Ġregional": 4020,
      "adium": 4021,
      "ĠDr": 4022,
      "ĠArg": 4023,
      "Ġtheore": 4024,
      "amin": 4025,
      "Ġconver": 4026,
      "Ġmedical": 4027,
      "Ġsense": 4028,
      "Ġcomplet": 4029,
      "Ġyet": 4030,
      "ging": 4031,
      "Ġsec": 4032,
      "Ġparties": 4033,
      "Ġ1985": 4034,
      "Ġ:": 4035,
      "orph": 4036,
      "ĠBah": 4037,
      "ested": 4038,
      "ospital": 4039,
      "ĠRevolution": 4040,
      "enth": 4041,
      "Ġcreation": 4042,
      "Ġsac": 4043,
      "Ġartist": 4044,
      "An": 4045,
      "Ġhap": 4046,
      "perial": 4047,
      "Ġsoldiers": 4048,
      "Ġmaterials": 4049,
      "Ġult": 4050,
      "Ġwriter": 4051,
      "ĠAsh": 4052,
      "Ġworked": 4053,
      "ĠAzer": 4054,
      "ellig": 4055,
      "Ġderived": 4056,
      "Ġpaper": 4057,
      "ato": 4058,
      "ĠEconom": 4059,
      "Ġscientific": 4060,
      "ĠMiss": 4061,
      "Ġvarian": 4062,
      "ĠCommission": 4063,
      "onal": 4064,
      "ĠRob": 4065,
      "Ġequal": 4066,
      "ĠParliament": 4067,
      "Ġ31": 4068,
      "Ġsports": 4069,
      "alle": 4070,
      "ĠBet": 4071,
      "ibly": 4072,
      "ned": 4073,
      "Ġdeep": 4074,
      "Ġqual": 4075,
      "Ġannual": 4076,
      "baij": 4077,
      "iro": 4078,
      "ĠRail": 4079,
      "Ġchief": 4080,
      "Ġrapid": 4081,
      "Ġwoman": 4082,
      "ĠCop": 4083,
      "Ġsecret": 4084,
      "ĠBoth": 4085,
      "iform": 4086,
      "ĠDist": 4087,
      "ĠRome": 4088,
      "ĠAnton": 4089,
      "Ġdemonst": 4090,
      "Ġalternative": 4091,
      "aters": 4092,
      "Ġfo": 4093,
      "iques": 4094,
      "Ġsummer": 4095,
      "pr": 4096,
      "ĠSant": 4097,
      "ube": 4098,
      "Ġ...": 4099,
      "wa": 4100,
      "Ġtaking": 4101,
      "ĠOk": 4102,
      "Ġspirit": 4103,
      "tters": 4104,
      "Ġalgor": 4105,
      "ygen": 4106,
      "icient": 4107,
      "ĠSund": 4108,
      "Ġsport": 4109,
      "opher": 4110,
      "ĠColomb": 4111,
      "ĠJohnson": 4112,
      "Ġinn": 4113,
      "ĠPublic": 4114,
      "Ġreserv": 4115,
      "Ġserve": 4116,
      "Ġbecoming": 4117,
      "stra": 4118,
      "awa": 4119,
      "ĠCenter": 4120,
      "Ġobjects": 4121,
      "ĠCarl": 4122,
      "Ġapproach": 4123,
      "set": 4124,
      "Ġmiddle": 4125,
      "Ġonline": 4126,
      "Ġ1969": 4127,
      "Ġantib": 4128,
      "cest": 4129,
      "âĢĻ": 4130,
      "Ġ1984": 4131,
      "Ġfourth": 4132,
      "Ġdecre": 4133,
      "ĠJes": 4134,
      "Ġsigned": 4135,
      "ĠDepartment": 4136,
      "Ġsom": 4137,
      "ĠOx": 4138,
      "aper": 4139,
      "Ġfriend": 4140,
      "AC": 4141,
      "ĠCambridge": 4142,
      "Ġarran": 4143,
      "Ġprovides": 4144,
      "Ġurban": 4145,
      "ĠAzerbaij": 4146,
      "ĠStreet": 4147,
      "Ġir": 4148,
      "Ġlaunch": 4149,
      "Ġtree": 4150,
      "ĠEdu": 4151,
      "ĠTechn": 4152,
      "thing": 4153,
      "ĠAbu": 4154,
      "Ġindividuals": 4155,
      "water": 4156,
      "Ġakt": 4157,
      "Ġreaction": 4158,
      "annel": 4159,
      "ĠFrancis": 4160,
      "ĠBase": 4161,
      "Ġattrib": 4162,
      "ĠBec": 4163,
      "wer": 4164,
      "ying": 4165,
      "Ġmur": 4166,
      "rief": 4167,
      "alo": 4168,
      "ented": 4169,
      "ĠLab": 4170,
      "ĠKore": 4171,
      "Ġletters": 4172,
      "cluding": 4173,
      "with": 4174,
      "Ġinhab": 4175,
      "Ġreact": 4176,
      "ĠGra": 4177,
      "Ġremaining": 4178,
      "Ġmess": 4179,
      "ĠAM": 4180,
      "Ġlove": 4181,
      "Ġthink": 4182,
      "ĠMah": 4183,
      "Ġreligion": 4184,
      "Ġmix": 4185,
      "ĠAber": 4186,
      "odox": 4187,
      "Ġuniversity": 4188,
      "Ġneeded": 4189,
      "Ġphilosophy": 4190,
      "ĠRadio": 4191,
      "ĠSu": 4192,
      "Ġcontrovers": 4193,
      "bro": 4194,
      "Ġrain": 4195,
      "Ġ1987": 4196,
      "ih": 4197,
      "edom": 4198,
      "roll": 4199,
      "ulpt": 4200,
      "Ġintended": 4201,
      "Ġ1972": 4202,
      "Ġpositive": 4203,
      "Ġ1940": 4204,
      "ĠLater": 4205,
      "Ġcomposed": 4206,
      "Ġdouble": 4207,
      "ĠHam": 4208,
      "Ġidentified": 4209,
      "ĠAwards": 4210,
      "ĠDou": 4211,
      "ĠNotes": 4212,
      "Ġaddress": 4213,
      "Ġ1981": 4214,
      "ĠAdd": 4215,
      "Ġexpansion": 4216,
      "ĠChe": 4217,
      "ĠCorn": 4218,
      "ĠPop": 4219,
      "Ġstra": 4220,
      "ikin": 4221,
      "Ġ1983": 4222,
      "nia": 4223,
      "tical": 4224,
      "inet": 4225,
      "rier": 4226,
      "Ġconstant": 4227,
      "AT": 4228,
      "uge": 4229,
      "Ġalgebra": 4230,
      "Ġability": 4231,
      "Ġreduced": 4232,
      "70": 4233,
      "get": 4234,
      "ĠIb": 4235,
      "ĠFre": 4236,
      "Ġinterview": 4237,
      "Ġcombined": 4238,
      "Ġcalcul": 4239,
      "Ġlay": 4240,
      "obile": 4241,
      "Ġdecided": 4242,
      "Ġedition": 4243,
      "Ġvalues": 4244,
      "Ġmachine": 4245,
      "eks": 4246,
      "lict": 4247,
      "Ġ1982": 4248,
      "Ġ1945": 4249,
      "Ġindustrial": 4250,
      "Ġcitizens": 4251,
      "Ġgraph": 4252,
      "ressive": 4253,
      "Ġpolice": 4254,
      "Ġbasic": 4255,
      "Ġbehavior": 4256,
      "ĠCameroon": 4257,
      "song": 4258,
      "ĠMa": 4259,
      "rison": 4260,
      "Ġpassed": 4261,
      "90": 4262,
      "ĠBol": 4263,
      "ĠRock": 4264,
      "Ġdeaths": 4265,
      "ĠGreece": 4266,
      "Ġrespectively": 4267,
      "iated": 4268,
      "Ġhot": 4269,
      "ĠTreat": 4270,
      "ĠOper": 4271,
      "Ġ1976": 4272,
      "Ġassum": 4273,
      "atre": 4274,
      "Ġcomposer": 4275,
      "ĠOttoman": 4276,
      "ĠMur": 4277,
      "Ġspeed": 4278,
      "Ġmarriage": 4279,
      "light": 4280,
      "Ġhundred": 4281,
      "Ġ1979": 4282,
      "formation": 4283,
      "ĠAtlantic": 4284,
      "rm": 4285,
      "ilies": 4286,
      "ĠWales": 4287,
      "Ġexc": 4288,
      "Ġreplace": 4289,
      "ĠLibrary": 4290,
      "ĠAdm": 4291,
      "Ġfeel": 4292,
      "ĠPrime": 4293,
      "Ġprison": 4294,
      "Ġslow": 4295,
      "ĠSuper": 4296,
      "ĠSing": 4297,
      "ils": 4298,
      "Ġkm": 4299,
      "ensity": 4300,
      "Ġ1975": 4301,
      "Ġaccepted": 4302,
      "Ġpreserv": 4303,
      "Ġauthority": 4304,
      "Ġpattern": 4305,
      "EC": 4306,
      "Ġburn": 4307,
      "Ġserious": 4308,
      "AM": 4309,
      "Al": 4310,
      "lem": 4311,
      "Ġcompounds": 4312,
      "dem": 4313,
      "Ġprograms": 4314,
      "Ġattacks": 4315,
      "which": 4316,
      "Ġpreviously": 4317,
      "Ġreject": 4318,
      "Ġnative": 4319,
      "unk": 4320,
      "ĠThat": 4321,
      "Ġthings": 4322,
      "Ġcorre": 4323,
      "Ġsexual": 4324,
      "ĠScotland": 4325,
      "ully": 4326,
      "ĠLord": 4327,
      "Ġfailed": 4328,
      "Ġweight": 4329,
      "ĠBecause": 4330,
      "book": 4331,
      "wor": 4332,
      "Ġlaunched": 4333,
      "Ã¨": 4334,
      "ĠInst": 4335,
      "Ġ1974": 4336,
      "ĠDemocratic": 4337,
      "Ġactivities": 4338,
      "ĠColumbia": 4339,
      "Ġmoment": 4340,
      "ĠBall": 4341,
      "sec": 4342,
      "ultan": 4343,
      "Ġolder": 4344,
      "ĠPac": 4345,
      "Ġargued": 4346,
      "illa": 4347,
      "Ġspl": 4348,
      "orders": 4349,
      "Ġ180": 4350,
      "Ġcharge": 4351,
      "\"),": 4352,
      "acity": 4353,
      "ĠUN": 4354,
      "Ġ1971": 4355,
      "FL": 4356,
      "Ġfish": 4357,
      "thodox": 4358,
      "Ġcomment": 4359,
      "ĠJul": 4360,
      "195": 4361,
      "ĠHealth": 4362,
      "Ġended": 4363,
      "Ġclassical": 4364,
      "ĠPolit": 4365,
      "aling": 4366,
      "Ġpil": 4367,
      "ĠTim": 4368,
      "Ġconsists": 4369,
      "Ġeffective": 4370,
      "Ġrecords": 4371,
      "Ġethnic": 4372,
      "bu": 4373,
      "aland": 4374,
      "ĠEr": 4375,
      "ograp": 4376,
      "ĠCost": 4377,
      "ogen": 4378,
      "ĠMoon": 4379,
      "Ġhumans": 4380,
      "Ġbelieve": 4381,
      "Ġjournalist": 4382,
      "Ġdespite": 4383,
      "ĠðŁĴ": 4384,
      "ographic": 4385,
      "nam": 4386,
      "Ġban": 4387,
      "Ġdead": 4388,
      "rone": 4389,
      "Ġplaying": 4390,
      "Ġappointed": 4391,
      "jo": 4392,
      "Ġice": 4393,
      "ĠSum": 4394,
      "ĠHill": 4395,
      "ĠOver": 4396,
      "Ġ80": 4397,
      "Ġhistorian": 4398,
      "Ġtex": 4399,
      "Ġdefeated": 4400,
      "Ġsabi": 4401,
      "Ġwrite": 4402,
      "Ġinitially": 4403,
      "inter": 4404,
      "Ġpal": 4405,
      "rog": 4406,
      "ĠMinist": 4407,
      "ĠMajor": 4408,
      "ĠElect": 4409,
      "Ġsen": 4410,
      "crete": 4411,
      "ĠAbd": 4412,
      "AR": 4413,
      "rical": 4414,
      "itt": 4415,
      "Ġexhib": 4416,
      "Ġsection": 4417,
      "ĠLagos": 4418,
      "28": 4419,
      "ĠAge": 4420,
      "elt": 4421,
      "Ġlived": 4422,
      "Ġsector": 4423,
      "Ġassist": 4424,
      "Ġmonarch": 4425,
      "Ġdistrict": 4426,
      "Ġappearance": 4427,
      "oration": 4428,
      "uls": 4429,
      "Ġformal": 4430,
      "Ġconserv": 4431,
      "Ġstatement": 4432,
      "Ġminutes": 4433,
      "Ġinterpret": 4434,
      "ĠEp": 4435,
      "Ġconne": 4436,
      "Ġcommunities": 4437,
      "Ġbal": 4438,
      "Ġminister": 4439,
      "ĠUs": 4440,
      "ĠBuddha": 4441,
      "Ġx": 4442,
      "Ġrecon": 4443,
      "ĠBak": 4444,
      "ĠMin": 4445,
      "ĠPo": 4446,
      "ips": 4447,
      "fect": 4448,
      "ĠBang": 4449,
      "Ġformation": 4450,
      "Ġpoll": 4451,
      "ieval": 4452,
      "Ġweeks": 4453,
      "Ġavoid": 4454,
      "Ġgrand": 4455,
      "Ġaspect": 4456,
      "ĠLu": 4457,
      "Ġbit": 4458,
      "oura": 4459,
      "Ġprotect": 4460,
      "Ġnine": 4461,
      "Ġvary": 4462,
      "Ġleave": 4463,
      "Ġsubst": 4464,
      "Ġdistance": 4465,
      "Ġopposition": 4466,
      "Ġincorpor": 4467,
      "itan": 4468,
      "Ġalle": 4469,
      "uese": 4470,
      "ternet": 4471,
      "ĠDevelop": 4472,
      "ID": 4473,
      "ĠSever": 4474,
      "ockey": 4475,
      "Ġadministration": 4476,
      "eff": 4477,
      "ĠCamp": 4478,
      "ams": 4479,
      "ĠAlso": 4480,
      "ĠThus": 4481,
      "zant": 4482,
      "Ġprem": 4483,
      "Ġmodels": 4484,
      "Ġfrequently": 4485,
      "ĠTexas": 4486,
      "ella": 4487,
      "Ġcurrently": 4488,
      "ĠAri": 4489,
      "uty": 4490,
      "ĠTheir": 4491,
      "Ġnews": 4492,
      "Ġquickly": 4493,
      "Ġaim": 4494,
      "ĠVer": 4495,
      "Ġ1973": 4496,
      "Ġpossess": 4497,
      "hy": 4498,
      "Ġmis": 4499,
      "Ġharm": 4500,
      "ipment": 4501,
      "bi": 4502,
      "rine": 4503,
      "ĠLove": 4504,
      "ĠOf": 4505,
      "iah": 4506,
      "ĠChap": 4507,
      "ĠStet": 4508,
      "Ġcondition": 4509,
      "ĠLand": 4510,
      "Ġsculpt": 4511,
      "yal": 4512,
      "enz": 4513,
      "iled": 4514,
      "ĠBost": 4515,
      "illed": 4516,
      "ĠNob": 4517,
      "Ġsimple": 4518,
      "Ġobserved": 4519,
      "mitted": 4520,
      "mission": 4521,
      "ĠBarb": 4522,
      "Ġvot": 4523,
      "Ġfeatured": 4524,
      "ĠQueen": 4525,
      "Ġtakes": 4526,
      "ĠSur": 4527,
      "force": 4528,
      "ĠSeries": 4529,
      "Ġfriends": 4530,
      "Ġtend": 4531,
      "Ġmind": 4532,
      "osa": 4533,
      "ederation": 4534,
      "Ġfigures": 4535,
      "Ġdistribution": 4536,
      "ĠAst": 4537,
      "Ġsuc": 4538,
      "Ġenem": 4539,
      "Ġemphas": 4540,
      "hat": 4541,
      "Ġinternal": 4542,
      "ublican": 4543,
      "Ġ)": 4544,
      "Ġmicro": 4545,
      "Ġexamples": 4546,
      "Ġ1968": 4547,
      "ennis": 4548,
      "Ġfigure": 4549,
      "Ġbacter": 4550,
      "Ġstay": 4551,
      "opes": 4552,
      "Ġapplied": 4553,
      "Ġupper": 4554,
      "Ġ1978": 4555,
      "chester": 4556,
      "eties": 4557,
      "Ġideas": 4558,
      "ĠResearch": 4559,
      "ĠVirgin": 4560,
      "ĠBob": 4561,
      "Ġdirected": 4562,
      "Ġknowledge": 4563,
      "rations": 4564,
      "add": 4565,
      "Ġcharg": 4566,
      "Ġdepend": 4567,
      "Ġelectric": 4568,
      "hi": 4569,
      "lav": 4570,
      "Ġresulted": 4571,
      "ĠMat": 4572,
      "ĠDire": 4573,
      "iller": 4574,
      "Ġmusical": 4575,
      "Ġpurch": 4576,
      "ĠNap": 4577,
      "Ġoperation": 4578,
      "Ġinstitutions": 4579,
      "ĠMel": 4580,
      "Ġbrain": 4581,
      "Ġorbit": 4582,
      "see": 4583,
      "Ġgovernor": 4584,
      "Ġlawyer": 4585,
      "Ġinstrument": 4586,
      "Ġcouncil": 4587,
      "Ġlif": 4588,
      "Ġdipl": 4589,
      "odia": 4590,
      "Ġ1977": 4591,
      "anguage": 4592,
      "ĠAssembly": 4593,
      "Ġresponsible": 4594,
      "ĠAfghanistan": 4595,
      "Ġancest": 4596,
      "Ġmunicip": 4597,
      "ĠPan": 4598,
      "Ġarrest": 4599,
      "Ġneut": 4600,
      "Ġnecessary": 4601,
      "Ġfast": 4602,
      "Ġentered": 4603,
      "Ġoperating": 4604,
      "where": 4605,
      "ĠTem": 4606,
      "Ġexpected": 4607,
      "Ġautom": 4608,
      "Ã¡n": 4609,
      "ĠNic": 4610,
      "oples": 4611,
      "Ġphen": 4612,
      "Ġsynt": 4613,
      "Ġnuclear": 4614,
      "rey": 4615,
      "Ġwear": 4616,
      "Ġnem": 4617,
      "ĠIran": 4618,
      "ĠFred": 4619,
      "Ġprovince": 4620,
      "ĠByzant": 4621,
      "Ġfavor": 4622,
      "ĠPortuguese": 4623,
      "mas": 4624,
      "Ġple": 4625,
      "ĠSir": 4626,
      "Ġenta": 4627,
      "Ġconflict": 4628,
      "Ġdefeat": 4629,
      "ĠEdward": 4630,
      "Ġoccurred": 4631,
      "Ġoxygen": 4632,
      "Ġmountain": 4633,
      "Ġwithd": 4634,
      "ĠTw": 4635,
      "ructed": 4636,
      "Ġprep": 4637,
      "Ġ177": 4638,
      "Ġagreement": 4639,
      "ĠÂ£": 4640,
      "Ġfully": 4641,
      "Ġsearch": 4642,
      "Ġspeech": 4643,
      "Ġextended": 4644,
      "Ġpasseng": 4645,
      "Ġcompetition": 4646,
      "Ġdefinition": 4647,
      "26": 4648,
      "ĠSocial": 4649,
      "oda": 4650,
      "aging": 4651,
      "Ġearth": 4652,
      "Ġreceive": 4653,
      "Ġdeclared": 4654,
      "Ġoffered": 4655,
      "Ġsucceed": 4656,
      "Ġdescribe": 4657,
      "ĠPrize": 4658,
      "Ġfort": 4659,
      "Ġconsequ": 4660,
      "Ġcontact": 4661,
      "29": 4662,
      "izes": 4663,
      "ĠOut": 4664,
      "Ġmeeting": 4665,
      "35": 4666,
      "vement": 4667,
      "Ġfolk": 4668,
      "Ġnewsp": 4669,
      "arsh": 4670,
      "Ġclaims": 4671,
      "ĠSunday": 4672,
      "ĠBoston": 4673,
      "ĠAch": 4674,
      "Ã¤": 4675,
      "Ġbelong": 4676,
      "ĠGeorg": 4677,
      "Ġessential": 4678,
      "inem": 4679,
      "ĠEth": 4680,
      "Ġ1967": 4681,
      "tra": 4682,
      "imb": 4683,
      "ĠAmaz": 4684,
      "Ġspoken": 4685,
      "nes": 4686,
      "imens": 4687,
      "ĠDo": 4688,
      "Ġsets": 4689,
      "Ġtechniques": 4690,
      "ĠAnglican": 4691,
      "Ġbrief": 4692,
      "Ġpp": 4693,
      "ĠBible": 4694,
      "emic": 4695,
      "Ġrot": 4696,
      "Ġdirection": 4697,
      "Ġorganization": 4698,
      "Ã§": 4699,
      "Ġtori": 4700,
      "Ġbra": 4701,
      "aded": 4702,
      "aya": 4703,
      "arters": 4704,
      "Ġresistance": 4705,
      "Ġextra": 4706,
      "wise": 4707,
      "zz": 4708,
      "Ġordered": 4709,
      "Ġskul": 4710,
      "Ġanimal": 4711,
      "Ġhydrogen": 4712,
      "igenous": 4713,
      "45": 4714,
      "press": 4715,
      "alism": 4716,
      "ĠTor": 4717,
      "ĠTest": 4718,
      "ĠJo": 4719,
      "Ġkingdom": 4720,
      "Ġfinally": 4721,
      "col": 4722,
      "Ġpikin": 4723,
      "acing": 4724,
      "Ġturned": 4725,
      "',": 4726,
      "Ġhar": 4727,
      "Ġrepe": 4728,
      "ĠFederal": 4729,
      "ception": 4730,
      "Ġbecomes": 4731,
      "FA": 4732,
      "Ġreign": 4733,
      "Ġmanagement": 4734,
      "down": 4735,
      "oles": 4736,
      "Ġallowing": 4737,
      "Ġanthrop": 4738,
      "Ġchurches": 4739,
      "Ġdistingu": 4740,
      "ĠPacific": 4741,
      "Ġut": 4742,
      "ĠBan": 4743,
      "anning": 4744,
      "Ġruns": 4745,
      "ĠBCE": 4746,
      "Ġexperim": 4747,
      "dis": 4748,
      "rong": 4749,
      "Ġways": 4750,
      "icit": 4751,
      "ĠIv": 4752,
      "songwriter": 4753,
      "la": 4754,
      "Ġadj": 4755,
      "ĠArist": 4756,
      "Ġtalk": 4757,
      "onso": 4758,
      "Ġrang": 4759,
      "ketball": 4760,
      "Ġalcohol": 4761,
      "Ġcru": 4762,
      "Ġ35": 4763,
      "itable": 4764,
      "Ġdedic": 4765,
      "Ġhy": 4766,
      "Ġec": 4767,
      "Ġspent": 4768,
      "Ġreference": 4769,
      "can": 4770,
      "iring": 4771,
      "Ġadult": 4772,
      "ulate": 4773,
      "ĠArk": 4774,
      "ĠProf": 4775,
      "Ġpresented": 4776,
      "Ġcontaining": 4777,
      "ĠEduc": 4778,
      "Ġfamilies": 4779,
      "Ġnucle": 4780,
      "usal": 4781,
      "Ġslight": 4782,
      "ĠAlfred": 4783,
      "ĠJesus": 4784,
      "ny": 4785,
      "akh": 4786,
      "ĠUr": 4787,
      "Ġdynasty": 4788,
      "Ġtun": 4789,
      "ructure": 4790,
      "ĠTori": 4791,
      "ĠFound": 4792,
      "Ġ1966": 4793,
      "ĠCoast": 4794,
      "ĠMilitary": 4795,
      "osm": 4796,
      "antage": 4797,
      "ordin": 4798,
      "Ġclosed": 4799,
      "Ġdiplom": 4800,
      "99": 4801,
      "Ġbad": 4802,
      "ĠOrthodox": 4803,
      "Ġstructures": 4804,
      "Ġnegative": 4805,
      "ĠAT": 4806,
      "Ġexchange": 4807,
      "Ġcat": 4808,
      "Ġmaxim": 4809,
      "ĠHuman": 4810,
      "aily": 4811,
      "Ġnormal": 4812,
      "Ġconclud": 4813,
      "ĠLake": 4814,
      "Ġrecently": 4815,
      "Ġreduce": 4816,
      "ĠCE": 4817,
      "ĠTurkish": 4818,
      "ĠAthens": 4819,
      "St": 4820,
      "yan": 4821,
      "ĠBeng": 4822,
      "Ġcourse": 4823,
      "Ġmill": 4824,
      "ĠJac": 4825,
      "ĠChampionship": 4826,
      "Ġmuseum": 4827,
      "ĠEmperor": 4828,
      "Ġoldest": 4829,
      "Ġmyth": 4830,
      "Ġpaint": 4831,
      "Ġuniverse": 4832,
      "uate": 4833,
      "Ġnit": 4834,
      "Ġleaving": 4835,
      "iverse": 4836,
      "Ġuns": 4837,
      "Ġillust": 4838,
      "Ġimpl": 4839,
      "ĠConstitution": 4840,
      "Ġequipment": 4841,
      "Ġofficially": 4842,
      "ĠYou": 4843,
      "Ġflow": 4844,
      "Ġemb": 4845,
      "Ġmarked": 4846,
      "Ġefforts": 4847,
      "ĠDevelopment": 4848,
      "67": 4849,
      "inu": 4850,
      "oured": 4851,
      "iga": 4852,
      "Ġcho": 4853,
      "Ġoccurs": 4854,
      "ĠMexico": 4855,
      "dam": 4856,
      "ĠTom": 4857,
      "ĠGreen": 4858,
      "Ġvow": 4859,
      "Ġquality": 4860,
      "ĠBir": 4861,
      "Ġstories": 4862,
      "ĠInf": 4863,
      "ĠAbb": 4864,
      "BS": 4865,
      "orage": 4866,
      "aph": 4867,
      "cons": 4868,
      "Ġallows": 4869,
      "Ġrunning": 4870,
      "Â°": 4871,
      "Ġsites": 4872,
      "Ġnotable": 4873,
      "Ġtrack": 4874,
      "uration": 4875,
      "oke": 4876,
      "Ġresources": 4877,
      "Ġcommission": 4878,
      "ĠAtari": 4879,
      "Ġexpressed": 4880,
      "Ġdark": 4881,
      "ĠFer": 4882,
      "ĠFest": 4883,
      "ĠLos": 4884,
      "Ġshoot": 4885,
      "Ġsecondary": 4886,
      "Ġsimply": 4887,
      "ivalent": 4888,
      "ĠSeveral": 4889,
      "encies": 4890,
      "ĠBib": 4891,
      "Ġprovin": 4892,
      "Ġdoub": 4893,
      "Ġlunar": 4894,
      "amm": 4895,
      "Ġfell": 4896,
      "Ġpowers": 4897,
      "igration": 4898,
      "ĠDip": 4899,
      "ĠUp": 4900,
      "ĠConstant": 4901,
      "Ġauth": 4902,
      "Ġfinish": 4903,
      "Ġexistence": 4904,
      "%,": 4905,
      "iary": 4906,
      "ĠPost": 4907,
      "Ġalt": 4908,
      "Ġawarded": 4909,
      "Ġdomestic": 4910,
      "ĠSil": 4911,
      "ĠBru": 4912,
      "Ġrefers": 4913,
      "ĠIslamic": 4914,
      "Ġimmediately": 4915,
      "rie": 4916,
      "Ġcomes": 4917,
      "Ġdoct": 4918,
      "hess": 4919,
      "Ġ70": 4920,
      "eral": 4921,
      "ĠAud": 4922,
      "ĠOd": 4923,
      "ĠSecret": 4924,
      "ĠYoung": 4925,
      "such": 4926,
      "Ġlabor": 4927,
      "ota": 4928,
      "Ġchlor": 4929,
      "Ġ178": 4930,
      "Ġcontemporary": 4931,
      "Ġgiving": 4932,
      "Ġgovn": 4933,
      "Ġroyal": 4934,
      "Ġevolution": 4935,
      "Ġtexts": 4936,
      "Ġwinning": 4937,
      "Ġstru": 4938,
      "Ġpron": 4939,
      "ĠPolish": 4940,
      "Ġprominent": 4941,
      "ĠChristianity": 4942,
      "Ġwhy": 4943,
      "ibb": 4944,
      "Ġdecades": 4945,
      "Ġvirt": 4946,
      "Ġarchitecture": 4947,
      "Ġpurpose": 4948,
      "Ġmurder": 4949,
      "more": 4950,
      "Ġbranch": 4951,
      "lection": 4952,
      "iral": 4953,
      "ĠNether": 4954,
      "Ġactually": 4955,
      "ĠAirport": 4956,
      "Ġones": 4957,
      "racy": 4958,
      "osen": 4959,
      "uda": 4960,
      "Ġnotes": 4961,
      "ĠBefore": 4962,
      "Ġopposed": 4963,
      "Ġiron": 4964,
      "Ġsituation": 4965,
      "Ġetc": 4966,
      "usion": 4967,
      "ĠRod": 4968,
      "Ġplays": 4969,
      "Ġagreed": 4970,
      "Ġapplications": 4971,
      "ĠSar": 4972,
      "oln": 4973,
      "owl": 4974,
      "Ġ1965": 4975,
      "Ġfollows": 4976,
      "ĠTod": 4977,
      "Ġstaff": 4978,
      "osaur": 4979,
      "Ġrough": 4980,
      "orship": 4981,
      "Ġcritical": 4982,
      "Ġmentioned": 4983,
      "48": 4984,
      "ca": 4985,
      "ĠâĢĶ": 4986,
      "Ġexact": 4987,
      "Ġapparent": 4988,
      "ĠSerb": 4989,
      "Ġengineering": 4990,
      "Ġvillage": 4991,
      "BA": 4992,
      "ero": 4993,
      "onian": 4994,
      "Ġhab": 4995,
      "ĠSupreme": 4996,
      "ancy": 4997,
      "ĠLew": 4998,
      "Ġhere": 4999,
      "Ġ1964": 5000,
      "ĠBulgaria": 5001,
      "ĠZealand": 5002,
      "ĠGDP": 5003,
      "ĠClub": 5004,
      "cription": 5005,
      "Ġatoms": 5006,
      "Ġprefer": 5007,
      "ĠOxford": 5008,
      "ĠEven": 5009,
      "Ġadapt": 5010,
      "Ġversions": 5011,
      "Ġterritories": 5012,
      "ĠService": 5013,
      "Ġsake": 5014,
      "Ġfoot": 5015,
      "Ġgives": 5016,
      "Ġvan": 5017,
      "ifically": 5018,
      "Ġprime": 5019,
      "ĠCarol": 5020,
      "Ġsomething": 5021,
      "Ġmotor": 5022,
      "gar": 5023,
      "ĠAth": 5024,
      "Ġpositions": 5025,
      "itzer": 5026,
      "Ġbirds": 5027,
      "stone": 5028,
      "Ġimage": 5029,
      "ĠNews": 5030,
      "ropol": 5031,
      "BM": 5032,
      "ĠTime": 5033,
      "ĠHeb": 5034,
      "ĠBlue": 5035,
      "Ġfaith": 5036,
      "%.": 5037,
      "SM": 5038,
      "Ġsolution": 5039,
      "itage": 5040,
      "Ġlic": 5041,
      "Ġ(),": 5042,
      "range": 5043,
      "zen": 5044,
      "inity": 5045,
      "ĠAncient": 5046,
      "Ġwebs": 5047,
      "ĠDuke": 5048,
      "ping": 5049,
      "Ġtins": 5050,
      "ĠMos": 5051,
      "resh": 5052,
      "rum": 5053,
      "ĠBus": 5054,
      "claim": 5055,
      "Ġcontent": 5056,
      "Ġadvert": 5057,
      "ĠProv": 5058,
      "Ġsignificantly": 5059,
      "arus": 5060,
      "ĠAre": 5061,
      "agh": 5062,
      "iling": 5063,
      "ĠStep": 5064,
      "ĠShah": 5065,
      "Ġopening": 5066,
      "Ġregarded": 5067,
      "Ġcandidate": 5068,
      "ache": 5069,
      "ĠStand": 5070,
      "ĠAlb": 5071,
      "incoln": 5072,
      "Ġsusp": 5073,
      "Ġbey": 5074,
      "ĠHaw": 5075,
      "ansas": 5076,
      "Ġdescript": 5077,
      "lo": 5078,
      "Ġtold": 5079,
      "ĠRuth": 5080,
      "Ġ1962": 5081,
      "Ġinstance": 5082,
      "Ġopport": 5083,
      "500": 5084,
      "amine": 5085,
      "ĠJon": 5086,
      "--": 5087,
      "pired": 5088,
      "ira": 5089,
      "ĠJean": 5090,
      "ighter": 5091,
      "\").": 5092,
      "ĠMr": 5093,
      "Ġworkers": 5094,
      "Ġ|-": 5095,
      "ĠNetherlands": 5096,
      "his": 5097,
      "¸ı": 5098,
      "Ġcapacity": 5099,
      "ĠOrder": 5100,
      "Ġbeyond": 5101,
      "esh": 5102,
      "ĠKe": 5103,
      "ĠViet": 5104,
      "rend": 5105,
      "Ġcerem": 5106,
      "atform": 5107,
      "Ġfom": 5108,
      "eda": 5109,
      "Ġconvers": 5110,
      "iant": 5111,
      "ĠGovernor": 5112,
      "Is": 5113,
      "ĠHel": 5114,
      "Ġ1944": 5115,
      "ĠBrother": 5116,
      "ii": 5117,
      "una": 5118,
      "ĠLincoln": 5119,
      "ĠChic": 5120,
      "Ġattend": 5121,
      "Ġmotion": 5122,
      "allel": 5123,
      "rat": 5124,
      "ette": 5125,
      "ĠFour": 5126,
      "ĠFootball": 5127,
      "oven": 5128,
      "Ġ1963": 5129,
      "Ġarticle": 5130,
      "Ġbinary": 5131,
      "isf": 5132,
      "omers": 5133,
      "ĠLabor": 5134,
      "193": 5135,
      "ĠSpace": 5136,
      "ittle": 5137,
      "Ġgreen": 5138,
      "akistan": 5139,
      "ĠAzerbaijan": 5140,
      "mosp": 5141,
      "rates": 5142,
      "Ġdro": 5143,
      "Ġplanned": 5144,
      "ĠArgent": 5145,
      "ĠEach": 5146,
      "Ġremoved": 5147,
      "Ġmut": 5148,
      "Ġhun": 5149,
      "Ġenj": 5150,
      "Ġattention": 5151,
      "Ġcoal": 5152,
      "Ġdifference": 5153,
      "venue": 5154,
      "FC": 5155,
      "ï¸ı": 5156,
      "ĠAlc": 5157,
      "Ġcomputers": 5158,
      "Ġrecognized": 5159,
      "ĠJackson": 5160,
      "Ġfleet": 5161,
      "Ġfer": 5162,
      "Ġparliament": 5163,
      "Ġparticles": 5164,
      "Ġpair": 5165,
      "road": 5166,
      "Ġmixed": 5167,
      "ĠAdrian": 5168,
      "Ġcommunication": 5169,
      "Ġhappun": 5170,
      "ĠDivision": 5171,
      "orter": 5172,
      "Ġforward": 5173,
      "urb": 5174,
      "agen": 5175,
      "risis": 5176,
      "ĠAndrew": 5177,
      "Ġimportance": 5178,
      "Ġgreatest": 5179,
      "Ġgrowing": 5180,
      "di": 5181,
      "Ġrein": 5182,
      "Ġgain": 5183,
      "Ġgrew": 5184,
      "Ġgoment": 5185,
      "uting": 5186,
      "Ġsupply": 5187,
      "ĠCommit": 5188,
      "Ġbrand": 5189,
      "Ġpet": 5190,
      "Ġbeat": 5191,
      "ĠWell": 5192,
      "Ġprogramming": 5193,
      "Ġdevices": 5194,
      "ĠDaniel": 5195,
      "etary": 5196,
      "Ġfighting": 5197,
      "Ġtrees": 5198,
      "ĠâĢľ": 5199,
      "Ġbapt": 5200,
      "ĠMo": 5201,
      "Ġphase": 5202,
      "bur": 5203,
      "ĠAI": 5204,
      "sea": 5205,
      "ĠAmong": 5206,
      "Ġpolitics": 5207,
      "Ġshowed": 5208,
      "Ġwinter": 5209,
      "ifying": 5210,
      "ĠCyprus": 5211,
      "Ar": 5212,
      "Ġwant": 5213,
      "itic": 5214,
      "agle": 5215,
      "Ġstudent": 5216,
      "Ġsquare": 5217,
      "life": 5218,
      "Ġplus": 5219,
      "ĠArsen": 5220,
      "teen": 5221,
      "Ġrecomm": 5222,
      "ĠManchester": 5223,
      "Ġfactors": 5224,
      "Ġcombination": 5225,
      "Ġprotection": 5226,
      "ĠAsian": 5227,
      "ĠLee": 5228,
      "vis": 5229,
      "ĠGames": 5230,
      "Ġdevice": 5231,
      "65": 5232,
      "Ġvon": 5233,
      "Ġjob": 5234,
      "ĠIndepend": 5235,
      "Ġextrem": 5236,
      "ĠPhilos": 5237,
      "ĠNaijÃ¡": 5238,
      "Ġexecutive": 5239,
      "Ġprinciple": 5240,
      "Ġcompletely": 5241,
      "yes": 5242,
      "rika": 5243,
      "ĠChad": 5244,
      "ĠDeath": 5245,
      "Ġ90": 5246,
      "Ġmagazine": 5247,
      "wana": 5248,
      "Ġfixed": 5249,
      "ĠBapt": 5250,
      "ĠForm": 5251,
      "ĠChristians": 5252,
      "ĠCountry": 5253,
      "een": 5254,
      "inus": 5255,
      "Ġpack": 5256,
      "Ġstil": 5257,
      "Ġ1948": 5258,
      "airman": 5259,
      "Ġhands": 5260,
      "Ġsubsequently": 5261,
      "lies": 5262,
      "Ġsun": 5263,
      "ĠHa": 5264,
      "ĠHon": 5265,
      "ashion": 5266,
      "Ġpowerful": 5267,
      "Ġpresidential": 5268,
      "Ġbear": 5269,
      "Ġstations": 5270,
      "ĠColor": 5271,
      "Ġasked": 5272,
      "inger": 5273,
      "Ġbeaut": 5274,
      "Ġreflect": 5275,
      "ĠAS": 5276,
      "Ġseem": 5277,
      "ĠArts": 5278,
      "Ġextensive": 5279,
      "Ġinstruments": 5280,
      "haps": 5281,
      "ss": 5282,
      "ĠAz": 5283,
      "âĢĿ": 5284,
      "ctoral": 5285,
      "Ġidentity": 5286,
      "Ġhelped": 5287,
      "Ġcaptured": 5288,
      "Ġleadership": 5289,
      "bal": 5290,
      "ken": 5291,
      "Ġstarting": 5292,
      "ĠHoly": 5293,
      "Ġplenti": 5294,
      "95": 5295,
      "uated": 5296,
      "oned": 5297,
      "anes": 5298,
      "ishes": 5299,
      "Ġpict": 5300,
      "Ġproced": 5301,
      "ĠAustrian": 5302,
      "Ġhappen": 5303,
      "AD": 5304,
      "Ġaw": 5305,
      "ĠCat": 5306,
      "ĠFort": 5307,
      "abet": 5308,
      "Ġseek": 5309,
      "antic": 5310,
      "Ġ1958": 5311,
      "Ġanaly": 5312,
      "Ġdetermined": 5313,
      "eding": 5314,
      "enty": 5315,
      "ĠUk": 5316,
      "mann": 5317,
      "Ġhypot": 5318,
      "eto": 5319,
      "Ġoverall": 5320,
      "ĠSenate": 5321,
      "Ġsplit": 5322,
      "Ġod": 5323,
      "ĠCatal": 5324,
      "Ġgained": 5325,
      "Ġpoly": 5326,
      "Ġsubs": 5327,
      "onym": 5328,
      "Ġ;": 5329,
      "isher": 5330,
      "ĠTri": 5331,
      "ĠSqu": 5332,
      "Ġvoice": 5333,
      "Ġmeant": 5334,
      "Ġ1947": 5335,
      "comm": 5336,
      "Ġfuel": 5337,
      "ĠEst": 5338,
      "Ġweak": 5339,
      "Ġclosely": 5340,
      "ĠEducation": 5341,
      "Ġbishop": 5342,
      "ĠTimes": 5343,
      "Ġchoice": 5344,
      "Ġconnected": 5345,
      "Ġpan": 5346,
      "Ġnor": 5347,
      "ĠStar": 5348,
      "ĠArm": 5349,
      "tainment": 5350,
      "ĠClin": 5351,
      "Ġcle": 5352,
      "ika": 5353,
      "outheast": 5354,
      "poration": 5355,
      "olar": 5356,
      "ĠJim": 5357,
      "pper": 5358,
      "ĠStat": 5359,
      "Ġowners": 5360,
      "Ġwild": 5361,
      "Ġpit": 5362,
      "Ġmel": 5363,
      "ĠPope": 5364,
      "Ġstable": 5365,
      "ĠInc": 5366,
      "aped": 5367,
      "Ġsubsequent": 5368,
      "ĠAngeles": 5369,
      "including": 5370,
      "ĠMem": 5371,
      "illery": 5372,
      "azz": 5373,
      "Ġexplain": 5374,
      "Ġtin": 5375,
      "Ġdisorder": 5376,
      "Ġjoint": 5377,
      "Ġago": 5378,
      "ĠOrig": 5379,
      "Ġunique": 5380,
      "ĠSultan": 5381,
      "Ġwealth": 5382,
      "ois": 5383,
      "ĠPakistan": 5384,
      "ĠWomen": 5385,
      "ĠTurkey": 5386,
      "ĠSwedish": 5387,
      "Ġcorn": 5388,
      "otion": 5389,
      "antry": 5390,
      "Ġemperor": 5391,
      "ĠAustria": 5392,
      "Ġarrived": 5393,
      "Ġmedicine": 5394,
      "Ġdance": 5395,
      "Ġplans": 5396,
      "Ġissued": 5397,
      "while": 5398,
      "Ġprice": 5399,
      "ĠMuham": 5400,
      "Ġepisode": 5401,
      "elligence": 5402,
      "ĠNobel": 5403,
      "king": 5404,
      "Ġmovie": 5405,
      "Ġdiscip": 5406,
      "Ġsurrounding": 5407,
      "level": 5408,
      "emis": 5409,
      "Ġworldwide": 5410,
      "Ġtranslation": 5411,
      "Ġvehicles": 5412,
      "ĠColombia": 5413,
      "ĠCommittee": 5414,
      "greg": 5415,
      "Ġactions": 5416,
      "Ġwanted": 5417,
      "aska": 5418,
      "Ġseat": 5419,
      "ĠBarcel": 5420,
      "Ġattempted": 5421,
      "Ã³n": 5422,
      "ĠChicago": 5423,
      "erc": 5424,
      "Ġhockey": 5425,
      "ĠPip": 5426,
      "ictions": 5427,
      "Ġraised": 5428,
      "ĠCommun": 5429,
      "Ġvisit": 5430,
      "ĠPersian": 5431,
      "gest": 5432,
      "Ġmouth": 5433,
      "ĠPen": 5434,
      "Ġperman": 5435,
      "ounded": 5436,
      "Ġjur": 5437,
      "Ġvolume": 5438,
      "Ġbattles": 5439,
      "Ġstrength": 5440,
      "rig": 5441,
      "ione": 5442,
      "ĠWay": 5443,
      "Ġempire": 5444,
      "Ġexpanded": 5445,
      "Ġconnect": 5446,
      "=\"": 5447,
      "Ġbif": 5448,
      "ĠCuba": 5449,
      "do": 5450,
      "ĠAar": 5451,
      "ĠMen": 5452,
      "Ġexclus": 5453,
      "ĠVen": 5454,
      "ĠEgyptian": 5455,
      "uscript": 5456,
      "ocracy": 5457,
      "Ġsaying": 5458,
      "Ġcatal": 5459,
      "iced": 5460,
      "Ġaband": 5461,
      "ologists": 5462,
      "Ġcorrect": 5463,
      "kins": 5464,
      "then": 5465,
      "Ġtheories": 5466,
      "ĠLong": 5467,
      "Ġdemand": 5468,
      "Ġreports": 5469,
      "Ġelse": 5470,
      "arents": 5471,
      "equ": 5472,
      "Ġ#": 5473,
      "Ġtoward": 5474,
      "ĠNet": 5475,
      "ocks": 5476,
      "Ġstudied": 5477,
      "Ġdepart": 5478,
      "Ġincome": 5479,
      "zero": 5480,
      "Ġcircum": 5481,
      "ĠHebrew": 5482,
      "bury": 5483,
      "car": 5484,
      "cular": 5485,
      "top": 5486,
      "Ġdrop": 5487,
      "Ġ150": 5488,
      "Ġpopularity": 5489,
      "Ġbodies": 5490,
      "ĠBosnia": 5491,
      "Ġcart": 5492,
      "Ġindu": 5493,
      "Ġrich": 5494,
      "Ġunknown": 5495,
      "ogy": 5496,
      "ĠChief": 5497,
      "Ġaccomp": 5498,
      "Ġprocesses": 5499,
      "ĠRepublican": 5500,
      "ĠConserv": 5501,
      "Ġsettlement": 5502,
      "Ġinhabit": 5503,
      "ĠLewis": 5504,
      "ĠWal": 5505,
      "Ġvacc": 5506,
      "Ġrates": 5507,
      "Ġyour": 5508,
      "Ġgoals": 5509,
      "Ġrelative": 5510,
      "Ġlands": 5511,
      "usalem": 5512,
      "iot": 5513,
      "ĠCross": 5514,
      "ĠLuc": 5515,
      "Ġnotably": 5516,
      "Ġviews": 5517,
      "Ġdedicated": 5518,
      "43": 5519,
      "cious": 5520,
      "ĠCO": 5521,
      "ĠPrem": 5522,
      "Ġalone": 5523,
      "iser": 5524,
      "Ġdra": 5525,
      "Ġarchae": 5526,
      "Ġabsor": 5527,
      "Ġsequence": 5528,
      "ĠProtest": 5529,
      "En": 5530,
      "body": 5531,
      "edia": 5532,
      "Ġbott": 5533,
      "Ġlat": 5534,
      "Ġisol": 5535,
      "Ġhonor": 5536,
      "ĠGre": 5537,
      "Ġunion": 5538,
      "Ġscale": 5539,
      "Ġtrain": 5540,
      "Ġcurren": 5541,
      "Ġannounce": 5542,
      "Ġcolonies": 5543,
      "Ġeasily": 5544,
      "hus": 5545,
      "Ġpurs": 5546,
      "rod": 5547,
      "ĠFree": 5548,
      "ĠOm": 5549,
      "Ġrival": 5550,
      "Ġheat": 5551,
      "Ġshared": 5552,
      "Ġorganizations": 5553,
      "Ġsought": 5554,
      "Ġwave": 5555,
      "ĠCre": 5556,
      "ĠOg": 5557,
      "overs": 5558,
      "Ġsignal": 5559,
      "chestra": 5560,
      "Ġdrink": 5561,
      "Ġlimit": 5562,
      "75": 5563,
      "PU": 5564,
      "abul": 5565,
      "ounder": 5566,
      "ĠAtt": 5567,
      "Ġmoving": 5568,
      "Ġfields": 5569,
      "Ġachieved": 5570,
      "ĠPortugal": 5571,
      "ĠRoad": 5572,
      "nce": 5573,
      "ĠTour": 5574,
      "ĠLad": 5575,
      "Ġpossibly": 5576,
      "Ġbasketball": 5577,
      "Ġdestroyed": 5578,
      "lation": 5579,
      "irmed": 5580,
      "64": 5581,
      "ko": 5582,
      "mat": 5583,
      "Ġwa": 5584,
      "Ġformula": 5585,
      "Ġ1961": 5586,
      "Ġaffect": 5587,
      "Ġattempts": 5588,
      "Ġlingu": 5589,
      "Ġstorage": 5590,
      "ĠDick": 5591,
      "Ġconvent": 5592,
      "Ġproport": 5593,
      "Ġplatform": 5594,
      "Ġcontext": 5595,
      "rence": 5596,
      "Ġproved": 5597,
      "ĠBroad": 5598,
      "Ġofficials": 5599,
      "Ġconduct": 5600,
      "ancing": 5601,
      "ĠAlaska": 5602,
      "ilding": 5603,
      "Ġrefused": 5604,
      "thur": 5605,
      "ĠUl": 5606,
      "ĠAlber": 5607,
      "Ġscene": 5608,
      "Ġapplication": 5609,
      "pread": 5610,
      "unction": 5611,
      "ĠGall": 5612,
      "Ġarbit": 5613,
      "Ġsays": 5614,
      "aeus": 5615,
      "Ġkilling": 5616,
      "TV": 5617,
      "ĠSym": 5618,
      "ĠMov": 5619,
      "oti": 5620,
      "ĠFlor": 5621,
      "ogue": 5622,
      "Ġkept": 5623,
      "ĠDistrict": 5624,
      "ji": 5625,
      "omial": 5626,
      "Ġcomot": 5627,
      "Ġ45": 5628,
      "Ġcopy": 5629,
      "Ġslightly": 5630,
      "Ġarmed": 5631,
      "ĠThree": 5632,
      "Ġprint": 5633,
      "idespread": 5634,
      "Ġcolonial": 5635,
      "ĠCroatian": 5636,
      "Ġheavily": 5637,
      "oir": 5638,
      "asiti": 5639,
      "Ġmins": 5640,
      "ĠOcean": 5641,
      "Ġ33": 5642,
      "obe": 5643,
      "Ġquarter": 5644,
      "Ġdifferences": 5645,
      "enna": 5646,
      "Ġlanding": 5647,
      "ĠAle": 5648,
      "Ġtourn": 5649,
      "ĠNAS": 5650,
      "Ġabaut": 5651,
      "Ġdefend": 5652,
      "Ġ1942": 5653,
      "enge": 5654,
      "Ġhus": 5655,
      "Ġliqu": 5656,
      "Ġund": 5657,
      "Ġinspired": 5658,
      "Ġrespond": 5659,
      "Ġenjoy": 5660,
      "ĠMicro": 5661,
      "ĠAlger": 5662,
      "Ġdrive": 5663,
      "ĠByzantine": 5664,
      "98": 5665,
      "Ġ32": 5666,
      "Ġaccur": 5667,
      "Ġauthorities": 5668,
      "ĠEngine": 5669,
      "Ġsuggests": 5670,
      "Ġtranslated": 5671,
      "100": 5672,
      "Ġtherap": 5673,
      "ĠTreaty": 5674,
      "ĠMuhammad": 5675,
      "Ġreco": 5676,
      "Ġregist": 5677,
      "Ġsubstant": 5678,
      "Ġshell": 5679,
      "Ġ1959": 5680,
      "Ġdry": 5681,
      "ĠCel": 5682,
      "ĠGen": 5683,
      "place": 5684,
      "Ġwhereas": 5685,
      "Ġ1943": 5686,
      "Ġadvantage": 5687,
      "Ġcauses": 5688,
      "Ġfailure": 5689,
      "Ġincreasingly": 5690,
      "Ġalleged": 5691,
      "inated": 5692,
      "arp": 5693,
      "Ġisot": 5694,
      "Ġatmosp": 5695,
      "Ġarts": 5696,
      "Ġcovered": 5697,
      "ĠAtlanta": 5698,
      "Ġsemi": 5699,
      "ĠAlexandria": 5700,
      "igrants": 5701,
      "roph": 5702,
      "Ġexpect": 5703,
      "Ġring": 5704,
      "Ġshape": 5705,
      "ĠTransport": 5706,
      "Ġfair": 5707,
      "Ġdog": 5708,
      "acher": 5709,
      "Ġabol": 5710,
      "Ġexperiment": 5711,
      "ĠTal": 5712,
      "ĠCub": 5713,
      "Ġpeak": 5714,
      "Ġminim": 5715,
      "Ġcourts": 5716,
      "ĠFestival": 5717,
      "Ġfear": 5718,
      "ĠTop": 5719,
      "Ġsurvey": 5720,
      "Ġatomic": 5721,
      "ibbean": 5722,
      "instein": 5723,
      "ati": 5724,
      "oring": 5725,
      "Ġcas": 5726,
      "ĠSong": 5727,
      "uther": 5728,
      "ĠKenn": 5729,
      "Ġparallel": 5730,
      "Ġbond": 5731,
      "ĠCy": 5732,
      "ĠBon": 5733,
      "ura": 5734,
      "ranean": 5735,
      "ĠForces": 5736,
      "uis": 5737,
      "agram": 5738,
      "ĠInternet": 5739,
      "Ġcrim": 5740,
      "gn": 5741,
      "Ġsister": 5742,
      "term": 5743,
      "Ġpolic": 5744,
      "ĠAustin": 5745,
      "ĠJerusalem": 5746,
      "hips": 5747,
      "Ġbackground": 5748,
      "Ġruled": 5749,
      "Ġsides": 5750,
      "Ġpra": 5751,
      "iana": 5752,
      "oxide": 5753,
      "Ġmagnitude": 5754,
      "ĠArmenia": 5755,
      "works": 5756,
      "mins": 5757,
      "Ġroom": 5758,
      "inners": 5759,
      "Ġintroduction": 5760,
      "Ġquantum": 5761,
      "gu": 5762,
      "Ġwidespread": 5763,
      "Ġbass": 5764,
      "Ġpure": 5765,
      "Ġnations": 5766,
      "ĠFam": 5767,
      "umber": 5768,
      "sterdam": 5769,
      "Ġdescribes": 5770,
      "Ġphenomen": 5771,
      "Ġwebsite": 5772,
      "OM": 5773,
      "Ġreasons": 5774,
      "emi": 5775,
      "eget": 5776,
      "Ġstrateg": 5777,
      "Ġstandards": 5778,
      "Ġweapons": 5779,
      "Ġsell": 5780,
      "Ġanarch": 5781,
      "struction": 5782,
      "isted": 5783,
      "Ġhero": 5784,
      "Ġresidents": 5785,
      "ĠBelarus": 5786,
      "ĠAnglo": 5787,
      "Ġdamage": 5788,
      "Ġofficers": 5789,
      "gal": 5790,
      "Ġdiam": 5791,
      "Ġuniform": 5792,
      "Ġroll": 5793,
      "ĠPlay": 5794,
      "Ġcombat": 5795,
      "cules": 5796,
      "Ġbirths": 5797,
      "ographer": 5798,
      "ĠBarcelona": 5799,
      "point": 5800,
      "rees": 5801,
      "Ġbul": 5802,
      "icians": 5803,
      "ĠPhilip": 5804,
      "Ġhousem": 5805,
      "Ġmathematic": 5806,
      "also": 5807,
      "ĠNaz": 5808,
      "Ġoutput": 5809,
      "Ġequivalent": 5810,
      "aux": 5811,
      "Ġadministrative": 5812,
      "vi": 5813,
      "ĠLim": 5814,
      "iano": 5815,
      "Ġuseful": 5816,
      "Ġclubs": 5817,
      "Ġconducted": 5818,
      "ĠArsenal": 5819,
      "crib": 5820,
      "ctic": 5821,
      "Ġvehicle": 5822,
      "ĠBaseball": 5823,
      "ture": 5824,
      "Ġbatter": 5825,
      "Ġacids": 5826,
      "Ġorders": 5827,
      "ĠHungarian": 5828,
      "fall": 5829,
      "iom": 5830,
      "wan": 5831,
      "active": 5832,
      "Ġunderstanding": 5833,
      "ĠBrazilian": 5834,
      "ĠForeign": 5835,
      "Ġalgorithm": 5836,
      "ĠColorado": 5837,
      "alus": 5838,
      "Ġhospital": 5839,
      "abeth": 5840,
      "Ġinfluential": 5841,
      "Ġspiritual": 5842,
      "Ġtried": 5843,
      "eta": 5844,
      "ĠPenn": 5845,
      "ĠRog": 5846,
      "Ġspecifically": 5847,
      "49": 5848,
      "âĪĴ": 5849,
      "ĠAy": 5850,
      "ĠBoard": 5851,
      "ĠWater": 5852,
      "Ġcomponents": 5853,
      "Ġpeoples": 5854,
      "Ġsympt": 5855,
      "Ġengineer": 5856,
      "Ġsettled": 5857,
      "Ġfifth": 5858,
      "Ġauthors": 5859,
      "85": 5860,
      "kh": 5861,
      "Ġsail": 5862,
      "Ġwinner": 5863,
      "ĠOpen": 5864,
      "Ġchart": 5865,
      "Ġcool": 5866,
      "Ġscholar": 5867,
      "ĠOffice": 5868,
      "Ġsales": 5869,
      "Ġcosm": 5870,
      "Ġparents": 5871,
      "amental": 5872,
      "Ġyouth": 5873,
      "Ġgoing": 5874,
      "Ġflag": 5875,
      "Ġstudio": 5876,
      "Ġthousand": 5877,
      "Ġchalleng": 5878,
      "We": 5879,
      "á¹": 5880,
      "Ġlose": 5881,
      "rics": 5882,
      "Ġ160": 5883,
      "Ġoccasion": 5884,
      "Ġprojects": 5885,
      "Ġmanufactur": 5886,
      "Ġbip": 5887,
      "Ġdensity": 5888,
      "stream": 5889,
      "odi": 5890,
      "Ġinvasion": 5891,
      "Ġdepending": 5892,
      "Ġadvanced": 5893,
      "Ġcollege": 5894,
      "Ġcausing": 5895,
      "iterranean": 5896,
      "ĠAfrika": 5897,
      "ĠValley": 5898,
      "Ġcreating": 5899,
      "ĠBelgium": 5900,
      "Ä±": 5901,
      "ading": 5902,
      "Ġmetals": 5903,
      "ĠAmsterdam": 5904,
      "ĠProdu": 5905,
      "ĠHarv": 5906,
      "Ġgeomet": 5907,
      "Ġdigital": 5908,
      "AF": 5909,
      "Ġtherm": 5910,
      "ĠFe": 5911,
      "Ġalleg": 5912,
      "itionally": 5913,
      "Ġ500": 5914,
      "Ġobtained": 5915,
      "Ġmatches": 5916,
      "Ġpainter": 5917,
      "Ġgranted": 5918,
      "Ġscientists": 5919,
      "Ġacquired": 5920,
      "Ġagriculture": 5921,
      "Ġneighbor": 5922,
      "ĠAristot": 5923,
      "ienced": 5924,
      "ora": 5925,
      "ĠWrit": 5926,
      "Ġrid": 5927,
      "Ġchrom": 5928,
      "ovak": 5929,
      "ropri": 5930,
      "Ġ1939": 5931,
      "Ġtemperatures": 5932,
      "Ġofficer": 5933,
      "Ġsan": 5934,
      "Ġsoci": 5935,
      "pha": 5936,
      "ugos": 5937,
      "Ġtransform": 5938,
      "Ġdeveloping": 5939,
      "ĠAssy": 5940,
      "Ġpractices": 5941,
      "ĠRam": 5942,
      "ĠCaribbean": 5943,
      "ĠWilliams": 5944,
      "Ġtowns": 5945,
      "ĠKhan": 5946,
      "'.": 5947,
      "33": 5948,
      "86": 5949,
      "As": 5950,
      "miss": 5951,
      "inals": 5952,
      "Ġwalk": 5953,
      "Ġdang": 5954,
      "cts": 5955,
      "Ġthousands": 5956,
      "Ġcontrolled": 5957,
      "ĠMinistry": 5958,
      "Ġswe": 5959,
      "Ġcensus": 5960,
      "Ġboy": 5961,
      "Ġgirl": 5962,
      "Ġvess": 5963,
      "athan": 5964,
      "Ġdefense": 5965,
      "ĠðŁį": 5966,
      "Ġpapa": 5967,
      "ĠStephen": 5968,
      "tes": 5969,
      "ĠCas": 5970,
      "raq": 5971,
      "quarters": 5972,
      "Ġproviding": 5973,
      "ĠEliz": 5974,
      "ĠRecords": 5975,
      "cell": 5976,
      "vation": 5977,
      "wing": 5978,
      "ening": 5979,
      "ĠSab": 5980,
      "utation": 5981,
      "ĠProject": 5982,
      "Ġ1955": 5983,
      "Ġtemple": 5984,
      "otswana": 5985,
      "Ġgoods": 5986,
      "Ġabsol": 5987,
      "ĠConfeder": 5988,
      "Ġrailway": 5989,
      "ĠOlympic": 5990,
      "Ġenemy": 5991,
      "rin": 5992,
      "ĠSel": 5993,
      "Ġ36": 5994,
      "ĠBuff": 5995,
      "OL": 5996,
      "ĠMir": 5997,
      "ragon": 5998,
      "Ġsteel": 5999,
      "Ġagricultural": 6000,
      "Åį": 6001,
      "ĠRet": 6002,
      "ĠGood": 6003,
      "Ġarc": 6004,
      "Ġassault": 6005,
      "Ġ1946": 6006,
      "Ġ1949": 6007,
      "Ġexisting": 6008,
      "ĠBulgarian": 6009,
      "Ġpage": 6010,
      "obi": 6011,
      "Ġrelation": 6012,
      "ugby": 6013,
      "ĠMediterranean": 6014,
      "Ġemployed": 6015,
      "ĠAberde": 6016,
      "Ġhusband": 6017,
      "present": 6018,
      "ĠCape": 6019,
      "Ġ1956": 6020,
      "Ġhouses": 6021,
      "bell": 6022,
      "ellect": 6023,
      "ĠWind": 6024,
      "Ġvotes": 6025,
      "Ġlisted": 6026,
      "adesh": 6027,
      "Ġliterary": 6028,
      "Ġcheck": 6029,
      "ĠProgram": 6030,
      "mond": 6031,
      "ĠGar": 6032,
      "ĠWood": 6033,
      "aved": 6034,
      "ĠCharl": 6035,
      "Ġsolid": 6036,
      "ĠBooks": 6037,
      "Ġcycl": 6038,
      "icon": 6039,
      "asi": 6040,
      "ĠBalk": 6041,
      "ovid": 6042,
      "Ġacts": 6043,
      "Ġvisited": 6044,
      "Ġrejected": 6045,
      "ador": 6046,
      "ĠIV": 6047,
      "andy": 6048,
      "ophers": 6049,
      "Ġkol": 6050,
      "Ġmata": 6051,
      "Ġadvoc": 6052,
      "Ġglass": 6053,
      "Ġaccounts": 6054,
      "Ġranked": 6055,
      "Ã±": 6056,
      "ivals": 6057,
      "ĠLittle": 6058,
      "Ġusers": 6059,
      "Ġ75": 6060,
      "Ġmedieval": 6061,
      "ographical": 6062,
      "iy": 6063,
      "Ġfrag": 6064,
      "Ġdeploy": 6065,
      "ĠDNA": 6066,
      "Ġ1941": 6067,
      "iety": 6068,
      "ques": 6069,
      "Ġnewly": 6070,
      "Ġfactor": 6071,
      "Ġion": 6072,
      "Ġaid": 6073,
      "aran": 6074,
      "Ġfiction": 6075,
      "igu": 6076,
      "Ġsup": 6077,
      "Ġowned": 6078,
      "Ġoperated": 6079,
      "Ġentirely": 6080,
      "ĠConfuc": 6081,
      "ĠJustice": 6082,
      "Un": 6083,
      "Ġcars": 6084,
      "ĠCommunity": 6085,
      "Ġinhabitants": 6086,
      "dess": 6087,
      "Ä«": 6088,
      "amic": 6089,
      "amber": 6090,
      "ĠMot": 6091,
      "Ġfreedom": 6092,
      "ĠFranklin": 6093,
      "ĠMexican": 6094,
      "Ġmunicipal": 6095,
      "Ġmaximum": 6096,
      "ĠClinton": 6097,
      "ĠBad": 6098,
      "Ġviolence": 6099,
      "ST": 6100,
      "no": 6101,
      "Ġcrick": 6102,
      "Ġly": 6103,
      "Ġ1957": 6104,
      "Ġzone": 6105,
      "IV": 6106,
      "Ġproceed": 6107,
      "udget": 6108,
      "Ġmanuscript": 6109,
      "Ġpoem": 6110,
      "Ġrequires": 6111,
      "rastructure": 6112,
      "related": 6113,
      "LU": 6114,
      "from": 6115,
      "Ġtim": 6116,
      "Ġsn": 6117,
      "Ġcards": 6118,
      "urt": 6119,
      "class": 6120,
      "phone": 6121,
      "190": 6122,
      "ĠAbra": 6123,
      "88": 6124,
      "Ġca": 6125,
      "Ġhop": 6126,
      "unct": 6127,
      "Ġ1918": 6128,
      "Ġcontest": 6129,
      "Ġcontained": 6130,
      "ĠAges": 6131,
      "Ġtheorem": 6132,
      "ĠProfess": 6133,
      "pool": 6134,
      "rator": 6135,
      "indu": 6136,
      "onom": 6137,
      "arat": 6138,
      "iri": 6139,
      "agan": 6140,
      "ounger": 6141,
      "Ġchosen": 6142,
      "ologies": 6143,
      "Ġexped": 6144,
      "Ġfeat": 6145,
      "Ġalongside": 6146,
      "Ġoxid": 6147,
      "cop": 6148,
      "ĠField": 6149,
      "akers": 6150,
      "ĠThrough": 6151,
      "ĠArthur": 6152,
      "Ġ1952": 6153,
      "Ġportion": 6154,
      "Ġaspects": 6155,
      "org": 6156,
      "ĠBotswana": 6157,
      "Ġstress": 6158,
      "ĠJos": 6159,
      "Ġroute": 6160,
      "Ġphr": 6161,
      "Ġconstructed": 6162,
      "Ġtypical": 6163,
      "Ġportray": 6164,
      "Ġastronaut": 6165,
      "97": 6166,
      "ker": 6167,
      "vant": 6168,
      "ima": 6169,
      "ĠMaced": 6170,
      "Ġsuffered": 6171,
      "Ġbot": 6172,
      "ĠBoy": 6173,
      "ceived": 6174,
      "ĠDue": 6175,
      "ĠNative": 6176,
      "Ġpartners": 6177,
      "Ġprogress": 6178,
      "Ġrevolution": 6179,
      "Ġlinear": 6180,
      "Ġprincipal": 6181,
      "Ġspeakers": 6182,
      "Ġaer": 6183,
      "ĠSports": 6184,
      "ĠPoland": 6185,
      "Ġtribes": 6186,
      "ĠToday": 6187,
      "IA": 6188,
      "uff": 6189,
      "Ġfine": 6190,
      "Ġmort": 6191,
      "ĠSpecial": 6192,
      "Ġconcer": 6193,
      "agement": 6194,
      "Ġgeneration": 6195,
      "Ġdecay": 6196,
      "Ġfinished": 6197,
      "Ġstraight": 6198,
      "300": 6199,
      "vin": 6200,
      "oma": 6201,
      "under": 6202,
      "ymn": 6203,
      "Ġexpression": 6204,
      "ĠSweden": 6205,
      "ĠNASA": 6206,
      "32": 6207,
      "bes": 6208,
      "uses": 6209,
      "Ġchain": 6210,
      "ĠReal": 6211,
      "ĠShi": 6212,
      "Ġminist": 6213,
      "ĠMean": 6214,
      "Ġstone": 6215,
      "Ġusage": 6216,
      "Ġcontinuous": 6217,
      "ĠBetween": 6218,
      "fort": 6219,
      "ĠMoh": 6220,
      "racted": 6221,
      "achus": 6222,
      "ĠEnd": 6223,
      "Ġsimpl": 6224,
      "ĠBuddhist": 6225,
      "ĠVictoria": 6226,
      "yst": 6227,
      "inction": 6228,
      "Ġlives": 6229,
      "ĠDig": 6230,
      "Ġvs": 6231,
      "ĠJones": 6232,
      "Ġseats": 6233,
      "ishment": 6234,
      "Ġyield": 6235,
      "isd": 6236,
      "Ġmilit": 6237,
      "ivasiti": 6238,
      "Ġemerged": 6239,
      "46": 6240,
      "lers": 6241,
      "Ġfelt": 6242,
      "Ġconcrete": 6243,
      "ĠWars": 6244,
      "ĠAlab": 6245,
      "Ġconscious": 6246,
      "issance": 6247,
      "Ġextreme": 6248,
      "Ġ1954": 6249,
      "Ġskin": 6250,
      "Ġdominant": 6251,
      "ĠTerrit": 6252,
      "Ġsomew": 6253,
      "ĠCosta": 6254,
      "Ġsle": 6255,
      "Ġwarm": 6256,
      "Ġreality": 6257,
      "Ġheight": 6258,
      "izz": 6259,
      "Ġ37": 6260,
      "Ġtraffic": 6261,
      "Ġadvance": 6262,
      "Ġsufficient": 6263,
      "Ġenvironmental": 6264,
      "Ġultimately": 6265,
      "Ġcrop": 6266,
      "Ġsty": 6267,
      "Ġbeta": 6268,
      "ario": 6269,
      "Ġcrime": 6270,
      "Ġpenal": 6271,
      "ĠSimilar": 6272,
      "kes": 6273,
      "ĠTheatre": 6274,
      "Ġrivers": 6275,
      "Ġplane": 6276,
      "ĠStan": 6277,
      "Ġworship": 6278,
      "Ġdescent": 6279,
      "ampion": 6280,
      "Ġpropos": 6281,
      "ĠComputer": 6282,
      "Ġimprove": 6283,
      "Ġcollabor": 6284,
      "Ġbikos": 6285,
      "ĠLike": 6286,
      "Ġacting": 6287,
      "Ġactual": 6288,
      "Ġbuy": 6289,
      "ĠBasque": 6290,
      "ishops": 6291,
      "Ġcalc": 6292,
      "Ġhardware": 6293,
      "ĠBruce": 6294,
      "heim": 6295,
      "Ġcab": 6296,
      "Ġcrisis": 6297,
      "Ġbiological": 6298,
      "ĠChristmas": 6299,
      "Ġvalid": 6300,
      "ĠOrganization": 6301,
      "ĠLabour": 6302,
      "ĠFoundation": 6303,
      "%)": 6304,
      "rÃ©": 6305,
      "ĠRon": 6306,
      "Ġconson": 6307,
      "ussels": 6308,
      "Ġnearby": 6309,
      "Ġaffected": 6310,
      "Ġtesting": 6311,
      "Ġconcluded": 6312,
      "ais": 6313,
      "atur": 6314,
      "ĠABC": 6315,
      "ĠFried": 6316,
      "ĠGer": 6317,
      "andom": 6318,
      "Ġseems": 6319,
      "Ġtraditions": 6320,
      "ylv": 6321,
      "Ġbusinessman": 6322,
      "Ġcategory": 6323,
      "ĠAdminist": 6324,
      "osaurus": 6325,
      "44": 6326,
      "eed": 6327,
      "kin": 6328,
      "rust": 6329,
      "organ": 6330,
      "Ġbridge": 6331,
      "Ġpark": 6332,
      "ĠIraq": 6333,
      "Ġcommander": 6334,
      "Ġpopulations": 6335,
      "Ġtransition": 6336,
      "Ġmedium": 6337,
      "harm": 6338,
      "Ġsend": 6339,
      "ĠBorn": 6340,
      "olo": 6341,
      "ĠJournal": 6342,
      "wealth": 6343,
      "Ġschem": 6344,
      "ĠHead": 6345,
      "Ġprepar": 6346,
      "inding": 6347,
      "ĠAdam": 6348,
      "Ġexperienced": 6349,
      "Ġsilver": 6350,
      "called": 6351,
      "inth": 6352,
      "Ġsons": 6353,
      "Ġbron": 6354,
      "eler": 6355,
      "Ġveget": 6356,
      "Ġsetting": 6357,
      "Ġphilosopher": 6358,
      "Ã¼r": 6359,
      "grad": 6360,
      "Ġzero": 6361,
      "ĠCay": 6362,
      "uns": 6363,
      "Ġplate": 6364,
      "Ġadap": 6365,
      "come": 6366,
      "ĠÄ": 6367,
      "Ġmaster": 6368,
      "uts": 6369,
      "ĠGal": 6370,
      "riot": 6371,
      "Ġexternal": 6372,
      "Ġarms": 6373,
      "Ġresemb": 6374,
      "Ġ65": 6375,
      "ĠPhys": 6376,
      "Ġholds": 6377,
      "Ġregarding": 6378,
      "ĠSamuel": 6379,
      "ĠPremier": 6380,
      "Ġtom": 6381,
      "Ġgram": 6382,
      "Ġproducing": 6383,
      "orning": 6384,
      "Ġcolumn": 6385,
      "ĠAbout": 6386,
      "Ġwalls": 6387,
      "ections": 6388,
      "Ġpaid": 6389,
      "etts": 6390,
      "irus": 6391,
      "ava": 6392,
      "Ġexists": 6393,
      "seud": 6394,
      "Ġrecording": 6395,
      "ĠMaria": 6396,
      "Ġattributed": 6397,
      "ĠCam": 6398,
      "ĠRay": 6399,
      "opol": 6400,
      "Ġquite": 6401,
      "Ġcapture": 6402,
      "Ġsafety": 6403,
      "Ġconnection": 6404,
      "Ġroughly": 6405,
      "Ġsymptoms": 6406,
      "Ġwaters": 6407,
      "ĠTro": 6408,
      "ĠIS": 6409,
      "ĠMatt": 6410,
      "osure": 6411,
      "Ġwritings": 6412,
      "Ġorganized": 6413,
      "ophical": 6414,
      "87": 6415,
      "Ġce": 6416,
      "Ġdim": 6417,
      "stood": 6418,
      "Ġcoming": 6419,
      "Ġvast": 6420,
      "ĠHell": 6421,
      "ova": 6422,
      "Ġcoron": 6423,
      "Ġdeliver": 6424,
      "Ġencoura": 6425,
      "ession": 6426,
      "Ġtechnique": 6427,
      "Ġgenetic": 6428,
      "ĠPhilipp": 6429,
      "ĠSa": 6430,
      "agon": 6431,
      "ĠKen": 6432,
      "Ġfamili": 6433,
      "ĠCentre": 6434,
      "Ġtitles": 6435,
      "Ġbifor": 6436,
      "ĠElizabeth": 6437,
      "Äĩ": 6438,
      "inations": 6439,
      "rec": 6440,
      "ĠDanish": 6441,
      "Ġwithdraw": 6442,
      "Ġsucceeded": 6443,
      "ĠBav": 6444,
      "elve": 6445,
      "Ġstock": 6446,
      "ĠJeff": 6447,
      "Ġindigenous": 6448,
      "Ġextent": 6449,
      "Ġconcentration": 6450,
      "Ġpurposes": 6451,
      "ĠArmenian": 6452,
      "Ġpieces": 6453,
      "gement": 6454,
      "Ġelim": 6455,
      "Ġonto": 6456,
      "ĠAugustine": 6457,
      "Ġoccupied": 6458,
      "Ġconverted": 6459,
      "hu": 6460,
      "pa": 6461,
      "Ġthrone": 6462,
      "Ġradiation": 6463,
      "neg": 6464,
      "Ġfly": 6465,
      "ĠNon": 6466,
      "ĠLy": 6467,
      "asts": 6468,
      "Ġcomposition": 6469,
      "ĠAnth": 6470,
      "ropical": 6471,
      "Ġtraditionally": 6472,
      "ĠFrancisco": 6473,
      "ĠVirginia": 6474,
      "pet": 6475,
      "Ġtaught": 6476,
      "ĠGram": 6477,
      "illing": 6478,
      "hemical": 6479,
      "rising": 6480,
      "ĠSecretary": 6481,
      "uing": 6482,
      "Ġstring": 6483,
      "Ġotherwise": 6484,
      "ĠIndust": 6485,
      "Ġdetermine": 6486,
      "Ġnewspaper": 6487,
      "96": 6488,
      "house": 6489,
      "western": 6490,
      "Ġwia": 6491,
      "Ġanx": 6492,
      "Ġfashion": 6493,
      "state": 6494,
      "ĠIll": 6495,
      "ĠLes": 6496,
      "rons": 6497,
      "Ġformat": 6498,
      "Ġrevol": 6499,
      "Ġinvestment": 6500,
      "ĠBabyl": 6501,
      "Ġgoddess": 6502,
      "Ġjurisd": 6503,
      "Ġign": 6504,
      "Ġmama": 6505,
      "ĠHal": 6506,
      "Ġran": 6507,
      "rane": 6508,
      "Ġjourn": 6509,
      "Ġpublication": 6510,
      "Ġimproved": 6511,
      "Ġelectrons": 6512,
      "Ġmoral": 6513,
      "Ġcomparison": 6514,
      "erals": 6515,
      "itter": 6516,
      "Ġans": 6517,
      "ĠAw": 6518,
      "ĠPubl": 6519,
      "aine": 6520,
      "ricts": 6521,
      "insula": 6522,
      "Ġrestrict": 6523,
      "Ġchemistry": 6524,
      "Ġexception": 6525,
      "Ġmist": 6526,
      "Ġbears": 6527,
      "ĠGame": 6528,
      "elsh": 6529,
      "Ġsevere": 6530,
      "Ġtrial": 6531,
      "Ġfestival": 6532,
      "Ġscreenwriter": 6533,
      "Ġnarrow": 6534,
      "Ġdaily": 6535,
      "ĠAP": 6536,
      "ila": 6537,
      "ilis": 6538,
      "Ġalumin": 6539,
      "ipher": 6540,
      "Ġpreced": 6541,
      "inson": 6542,
      "Ġconfirmed": 6543,
      "ĠRussell": 6544,
      "ĠStudies": 6545,
      "ĠAlberta": 6546,
      "36": 6547,
      "uer": 6548,
      "ĠAff": 6549,
      "entions": 6550,
      "eless": 6551,
      "rix": 6552,
      "udes": 6553,
      "Ġkings": 6554,
      "Ġliquid": 6555,
      "55": 6556,
      "ĠDam": 6557,
      "ĠFrid": 6558,
      "Ġchap": 6559,
      "ĠChild": 6560,
      "Ġartillery": 6561,
      "Ġsupporting": 6562,
      "unications": 6563,
      "Ġcoastal": 6564,
      "Ġconsisting": 6565,
      "Ġdialect": 6566,
      "Ġdialects": 6567,
      "Ġmathematical": 6568,
      "Ġpolicies": 6569,
      "ĠÅ": 6570,
      "Ġaspir": 6571,
      "ĠPC": 6572,
      "Ġpros": 6573,
      "Ġuniversities": 6574,
      "gment": 6575,
      "aints": 6576,
      "Ġsust": 6577,
      "arden": 6578,
      "Ġchron": 6579,
      "Ġfundamental": 6580,
      "42": 6581,
      "ĠColl": 6582,
      "Ġeye": 6583,
      "ĠHor": 6584,
      "ĠEc": 6585,
      "ager": 6586,
      "agles": 6587,
      "sey": 6588,
      "Ġattract": 6589,
      "Ġcolony": 6590,
      "theless": 6591,
      "Ġfavour": 6592,
      "ĠConstantin": 6593,
      "Ġextremely": 6594,
      "atically": 6595,
      "Ġpick": 6596,
      "ĠBod": 6597,
      "Ġuser": 6598,
      "ource": 6599,
      "ĠStadium": 6600,
      "Ġmodified": 6601,
      "Ġflat": 6602,
      "iverpool": 6603,
      "Ġhistorians": 6604,
      "ĠGolden": 6605,
      "Ġdrugs": 6606,
      "ĠAberdeen": 6607,
      "effic": 6608,
      "Ġtons": 6609,
      "itted": 6610,
      "ĠAN": 6611,
      "Ġperhaps": 6612,
      "Ġspring": 6613,
      "ĠAmb": 6614,
      "tym": 6615,
      "fully": 6616,
      "Ġ1914": 6617,
      "ĠArtemis": 6618,
      "ĠCorps": 6619,
      "Ġcycle": 6620,
      "Ġfrequency": 6621,
      "ĠCommonwealth": 6622,
      "ĠNapole": 6623,
      "Ġmemb": 6624,
      "ĠBrand": 6625,
      "Ġlie": 6626,
      "ims": 6627,
      "tery": 6628,
      "vere": 6629,
      "Ġvoc": 6630,
      "apse": 6631,
      "Ġcancer": 6632,
      "Ġincreases": 6633,
      "Ġ1927": 6634,
      "Ġlowest": 6635,
      "Ġnormally": 6636,
      "Ġpronoun": 6637,
      "Ġbran": 6638,
      "Ġinput": 6639,
      "ĠCrit": 6640,
      "aming": 6641,
      "Ġweather": 6642,
      "Ġpersonnel": 6643,
      "Ġtechnical": 6644,
      "Ġdecline": 6645,
      "Ġaudience": 6646,
      "ĠAristotle": 6647,
      "Ġcore": 6648,
      "eline": 6649,
      "Ġprinciples": 6650,
      "Ġfacilities": 6651,
      "ĠACLU": 6652,
      "ĠVietnam": 6653,
      "92": 6654,
      "93": 6655,
      "pan": 6656,
      "ede": 6657,
      "Ġcogn": 6658,
      "ĠSem": 6659,
      "Ġnom": 6660,
      "resents": 6661,
      "Ġmaintained": 6662,
      "Ġdescend": 6663,
      "Ġclassified": 6664,
      "Ġ1901": 6665,
      "ĠHungary": 6666,
      "Ġdates": 6667,
      "ĠJr": 6668,
      "illes": 6669,
      "Ġslaves": 6670,
      "Ġassociation": 6671,
      "ĠCorporation": 6672,
      "Ġguitarist": 6673,
      "Ġpilot": 6674,
      "ĠAlabama": 6675,
      "%),": 6676,
      "Ġcod": 6677,
      "Ġimperial": 6678,
      "ĠDev": 6679,
      "Ġdesigns": 6680,
      "Ġtwice": 6681,
      "III": 6682,
      "Ġsatisf": 6683,
      "Ġteaching": 6684,
      "Ġcrown": 6685,
      "ĠRh": 6686,
      "Ġalter": 6687,
      "Ġcalls": 6688,
      "Ġclasses": 6689,
      "Ġcritics": 6690,
      "ĠBrussels": 6691,
      "Ġstrongly": 6692,
      "Ġconcerns": 6693,
      "Ġguns": 6694,
      "zeg": 6695,
      "Ġstream": 6696,
      "Ġ1900": 6697,
      "Ġrit": 6698,
      "ĠEnter": 6699,
      "Ġ1938": 6700,
      "Ġgreatly": 6701,
      "Ġprotein": 6702,
      "ĠOlympics": 6703,
      "Ġratio": 6704,
      "ĠTechnology": 6705,
      "Ġsnow": 6706,
      "ĠVari": 6707,
      "hedral": 6708,
      "Ġtrav": 6709,
      "Ġdepos": 6710,
      "Ġmathematics": 6711,
      "ĠBengal": 6712,
      "ER": 6713,
      "avery": 6714,
      "uan": 6715,
      "iph": 6716,
      "Ġcontinues": 6717,
      "Ġmanaged": 6718,
      "Ġprovinces": 6719,
      "ez": 6720,
      "ĠAnal": 6721,
      "Ġ38": 6722,
      "Ġruling": 6723,
      "Ġinnov": 6724,
      "ĠBangl": 6725,
      "cus": 6726,
      "iner": 6727,
      "rav": 6728,
      "Ġselected": 6729,
      "Ġunp": 6730,
      "oka": 6731,
      "Ġdebt": 6732,
      "Ġdebate": 6733,
      "Ġgovnor": 6734,
      "Ġabsolute": 6735,
      "iable": 6736,
      "ters": 6737,
      "Ġille": 6738,
      "ĠFar": 6739,
      "ĠThough": 6740,
      "ructions": 6741,
      "Ġassass": 6742,
      "Ġrepresents": 6743,
      "Ġ1953": 6744,
      "liography": 6745,
      "Ġindicate": 6746,
      "Ad": 6747,
      "Ġfresh": 6748,
      "ĠTown": 6749,
      "ĠMess": 6750,
      "Ġinterpre": 6751,
      "Ġlearning": 6752,
      "achusetts": 6753,
      "larg": 6754,
      "Ġfirm": 6755,
      "ĠCovid": 6756,
      "Ġstre": 6757,
      "avig": 6758,
      "Ġbegins": 6759,
      "Ġvisual": 6760,
      "Ġinterpretation": 6761,
      "AN": 6762,
      "gr": 6763,
      "||": 6764,
      "Ġsulf": 6765,
      "aso": 6766,
      "venth": 6767,
      "gency": 6768,
      "ĠFlight": 6769,
      "Man": 6770,
      "mod": 6771,
      "Ġtact": 6772,
      "Ġcook": 6773,
      "umes": 6774,
      "rance": 6775,
      "Ġhistoric": 6776,
      "ĠSatur": 6777,
      "ĠEconomic": 6778,
      "ĠProtestant": 6779,
      "37": 6780,
      "PS": 6781,
      "Ġpitch": 6782,
      "ersey": 6783,
      "ĠGreg": 6784,
      "Ġexport": 6785,
      "Ġunable": 6786,
      "Ġcompil": 6787,
      "Ġobtain": 6788,
      "Ġmusician": 6789,
      "Ġmusicians": 6790,
      "Ġattacked": 6791,
      "Ġphysics": 6792,
      "Ġdiscovery": 6793,
      "Ġstrike": 6794,
      "Ġburied": 6795,
      "ĠLiberal": 6796,
      "Ġdescription": 6797,
      "Ġtail": 6798,
      "iful": 6799,
      "Ġreprodu": 6800,
      "Ġlegend": 6801,
      "Ġapproved": 6802,
      "Ġinvolves": 6803,
      "Ġcontributed": 6804,
      "Ġtournament": 6805,
      "Ġbronze": 6806,
      "ĠLiverpool": 6807,
      "Ġappoint": 6808,
      "Ġunderstand": 6809,
      "ĠðŁĺ": 6810,
      "Ġdriver": 6811,
      "Ġinstitution": 6812,
      "Ġlabel": 6813,
      "Ġrevealed": 6814,
      "uisine": 6815,
      "cers": 6816,
      "Ġtiss": 6817,
      "ĠRights": 6818,
      "ĠPolice": 6819,
      "Ġcharacteristics": 6820,
      "Ġpatients": 6821,
      "ĠSwiss": 6822,
      "Ġbottom": 6823,
      "aration": 6824,
      "Ġbanks": 6825,
      "Ġdoll": 6826,
      "Ġimages": 6827,
      "Ġabort": 6828,
      "keley": 6829,
      "Ġpipu": 6830,
      "Ġ1937": 6831,
      "Ġcorpor": 6832,
      "Ġsuccessfully": 6833,
      "Ġrepeated": 6834,
      "BT": 6835,
      "era": 6836,
      "Ġfought": 6837,
      "ĠTre": 6838,
      "ĠBM": 6839,
      "Ġcomedy": 6840,
      "Ġintellect": 6841,
      "Ġagree": 6842,
      "Ġevolved": 6843,
      "Ġmulti": 6844,
      "Ġconsiderable": 6845,
      "Ġangle": 6846,
      "ĠMassachusetts": 6847,
      "ĠConstantinople": 6848,
      "94": 6849,
      "ĠBack": 6850,
      "ĠDey": 6851,
      "aret": 6852,
      "Ġactors": 6853,
      "ifications": 6854,
      "Ġvariable": 6855,
      "Ġ1929": 6856,
      "Ġseparated": 6857,
      "Ġopin": 6858,
      "Ġalphabet": 6859,
      "ĠBusiness": 6860,
      "unc": 6861,
      "uten": 6862,
      "Ġkil": 6863,
      "Ġabst": 6864,
      "cycl": 6865,
      "Ġ1928": 6866,
      "def": 6867,
      "Ġmeasures": 6868,
      "know": 6869,
      "Ġbiggest": 6870,
      "Ġrapidly": 6871,
      "ĠGeorgia": 6872,
      "ao": 6873,
      "Ġeld": 6874,
      "Ġnick": 6875,
      "ĠVis": 6876,
      "ĠUnivers": 6877,
      "Ġneeds": 6878,
      "Ġholding": 6879,
      "Ab": 6880,
      "ser": 6881,
      "Ġtru": 6882,
      "Ġtennis": 6883,
      "ĠEarl": 6884,
      "Ġ1919": 6885,
      "ĠWelsh": 6886,
      "abil": 6887,
      "Ġselect": 6888,
      "ĠAnat": 6889,
      "ĠAlexandra": 6890,
      "ĠRem": 6891,
      "ĠWen": 6892,
      "avirus": 6893,
      "Ġchannel": 6894,
      "ovina": 6895,
      "Ġunderstood": 6896,
      "Ġcapable": 6897,
      "Ġparticle": 6898,
      "ĠPrim": 6899,
      "ĠGuard": 6900,
      "Ġidentify": 6901,
      "Ġfocused": 6902,
      "ruption": 6903,
      "Ġpermanent": 6904,
      "oque": 6905,
      "Ġtal": 6906,
      "Ġha": 6907,
      "Ġhal": 6908,
      "ctors": 6909,
      "ĠMes": 6910,
      "amaic": 6911,
      "Ġpenalty": 6912,
      "Ġseasons": 6913,
      "ĠAli": 6914,
      "Ġbroke": 6915,
      "Ġsuccessor": 6916,
      "Ġderiv": 6917,
      "going": 6918,
      "ĠAjax": 6919,
      "38": 6920,
      "IT": 6921,
      "law": 6922,
      "produ": 6923,
      "vest": 6924,
      "Ġtrend": 6925,
      "Ġbeer": 6926,
      "ĠOri": 6927,
      "Ġapart": 6928,
      "itzerland": 6929,
      "31": 6930,
      "Ġanoda": 6931,
      "Ġcomic": 6932,
      "Ġnothing": 6933,
      "ĠAramaic": 6934,
      "Ġforming": 6935,
      "Ġblues": 6936,
      "Ġsoldier": 6937,
      "41": 6938,
      "iac": 6939,
      "ĠEinstein": 6940,
      "ĠKy": 6941,
      "Ġending": 6942,
      "Ġappeal": 6943,
      "Ġ1917": 6944,
      "ĠGlobal": 6945,
      "Ġbalance": 6946,
      "Ġhabit": 6947,
      "Am": 6948,
      "Ġfile": 6949,
      "etime": 6950,
      "ĠPower": 6951,
      "ĠPDP": 6952,
      "Ġaccord": 6953,
      "Ġanalog": 6954,
      "ĠSpears": 6955,
      "Ġvariant": 6956,
      "hetic": 6957,
      "Ġbudget": 6958,
      "Ġtox": 6959,
      "adel": 6960,
      "appe": 6961,
      "Ġtreated": 6962,
      "Ġestablishment": 6963,
      "Ġstyles": 6964,
      "Ġtank": 6965,
      "isers": 6966,
      "asy": 6967,
      "Ġreactions": 6968,
      "Ġcompl": 6969,
      "Ġformally": 6970,
      "ĠPalace": 6971,
      "ĠRelig": 6972,
      "ĠBuffalo": 6973,
      "BN": 6974,
      "Ġath": 6975,
      "ĠAph": 6976,
      "ĠChel": 6977,
      "Ġ300": 6978,
      "Ġslave": 6979,
      "Ġtwenty": 6980,
      "Ġcorresponding": 6981,
      "CA": 6982,
      "town": 6983,
      "yo": 6984,
      "Ġsort": 6985,
      "Ġmand": 6986,
      "umen": 6987,
      "Ġroles": 6988,
      "Ġoperate": 6989,
      "Ġ1933": 6990,
      "ĠBerkeley": 6991,
      "Ġinvolving": 6992,
      "Ġcryst": 6993,
      "hew": 6994,
      "Ġcinem": 6995,
      "icks": 6996,
      "omorph": 6997,
      "Ġnaval": 6998,
      "ĠWeb": 6999,
      "Ġvel": 7000,
      "hens": 7001,
      "Ġpresid": 7002,
      "rises": 7003,
      "Ġpiece": 7004,
      "ĠFreder": 7005,
      "ĠSaturday": 7006,
      "ĠBa": 7007,
      "Ġnort": 7008,
      "Ġthrow": 7009,
      "raine": 7010,
      "Ġmovements": 7011,
      "Ġeffectively": 7012,
      "Ġ1922": 7013,
      "ĠTrade": 7014,
      "Ġdegrees": 7015,
      "Ġgradually": 7016,
      "operation": 7017,
      "66": 7018,
      "Di": 7019,
      "sal": 7020,
      "ĠIBM": 7021,
      "Ġexam": 7022,
      "Ġyounger": 7023,
      "ĠOrchestra": 7024,
      "Ġsquad": 7025,
      "ĠForest": 7026,
      "ĠStandard": 7027,
      "ĠAbraham": 7028,
      "ĠMeanwhile": 7029,
      "fare": 7030,
      "jamin": 7031,
      "lan": 7032,
      "ĠTrad": 7033,
      "ĠMid": 7034,
      "ĠEll": 7035,
      "Ġcomponent": 7036,
      "erve": 7037,
      "Ġassembly": 7038,
      "inian": 7039,
      "Ġbone": 7040,
      "Ġmic": 7041,
      "ĠCr": 7042,
      "Ġimag": 7043,
      "ĠIsa": 7044,
      "Ġ1926": 7045,
      "ĠSwitzerland": 7046,
      "ĠAmazon": 7047,
      "bar": 7048,
      "uv": 7049,
      "erg": 7050,
      "oral": 7051,
      "rogen": 7052,
      "Ġlies": 7053,
      "ĠDet": 7054,
      "ĠArtic": 7055,
      "Ġagent": 7056,
      "Ġ1951": 7057,
      "Ġincident": 7058,
      "Ġphysic": 7059,
      "Ġachieve": 7060,
      "ĠMountains": 7061,
      "ti": 7062,
      "Ġwinners": 7063,
      "Ġcold": 7064,
      "Ġdiverse": 7065,
      "ruit": 7066,
      "Ġrob": 7067,
      "ĠBronx": 7068,
      "ĠDenmark": 7069,
      "Ġfram": 7070,
      "ĠHot": 7071,
      "Ġphon": 7072,
      "ĠProp": 7073,
      "Ġcultures": 7074,
      "Ġexplan": 7075,
      "ĠClassical": 7076,
      "78": 7077,
      "eing": 7078,
      "ader": 7079,
      "ĠMembers": 7080,
      "Ġexerc": 7081,
      "text": 7082,
      "Ġassemb": 7083,
      "Ġcopper": 7084,
      "ĠColumbus": 7085,
      "Ġaccompan": 7086,
      "Ġcriminal": 7087,
      "iat": 7088,
      "power": 7089,
      "ĠCPU": 7090,
      "ĠDar": 7091,
      "Ġconsec": 7092,
      "ĠConvention": 7093,
      "Ġ170": 7094,
      "Ġmarkets": 7095,
      "clusion": 7096,
      "Ġensure": 7097,
      "Ġmessage": 7098,
      "Ġorb": 7099,
      "apers": 7100,
      "Ġroot": 7101,
      "ificial": 7102,
      "ĠCommand": 7103,
      "Ġrepresentation": 7104,
      "Ġbranches": 7105,
      "39": 7106,
      "Ġcited": 7107,
      "ĠBurn": 7108,
      "ĠMP": 7109,
      "ules": 7110,
      "ĠGulf": 7111,
      "aga": 7112,
      "Ġrub": 7113,
      "Ġexpand": 7114,
      "Ġprocessing": 7115,
      "Ġheadquarters": 7116,
      "uzik": 7117,
      "gian": 7118,
      "non": 7119,
      "ici": 7120,
      "Ġretain": 7121,
      "ĠMic": 7122,
      "ĠFle": 7123,
      "ĠLyn": 7124,
      "ĠOnly": 7125,
      "Ġbrown": 7126,
      "ĠPlan": 7127,
      "Ġ1925": 7128,
      "Ġfeaturing": 7129,
      "zegovina": 7130,
      "Ġfounder": 7131,
      "ĠPass": 7132,
      "Ġstreet": 7133,
      "ategy": 7134,
      "ĠJoe": 7135,
      "soft": 7136,
      "Ġappropri": 7137,
      "Ġdesignated": 7138,
      "Ġstrategy": 7139,
      "Ġproteins": 7140,
      "ĠÂ°": 7141,
      "Ġhoriz": 7142,
      "enhagen": 7143,
      "Ġdetails": 7144,
      "iop": 7145,
      "Ġinhib": 7146,
      "ĠBoys": 7147,
      "ums": 7148,
      "ĠKent": 7149,
      "render": 7150,
      "Ġclin": 7151,
      "ĠAmiga": 7152,
      "Ġleads": 7153,
      "Ġexplo": 7154,
      "mers": 7155,
      "oni": 7156,
      "Ġcra": 7157,
      "Ġanch": 7158,
      "Ġinse": 7159,
      "ĠAqu": 7160,
      "stan": 7161,
      "ĠBerm": 7162,
      "istical": 7163,
      "ĠLiter": 7164,
      "Ġcolour": 7165,
      "ĠPeace": 7166,
      "Ġideal": 7167,
      "Ġargument": 7168,
      "avalry": 7169,
      "Ġmolecules": 7170,
      "ĠSuch": 7171,
      "ĠPier": 7172,
      "riers": 7173,
      "apes": 7174,
      "pping": 7175,
      "Ġinfantry": 7176,
      "Ġgovernments": 7177,
      "ĠSciences": 7178,
      "Ġdocuments": 7179,
      "elaide": 7180,
      "ĠWallace": 7181,
      "Ġtherapy": 7182,
      "CS": 7183,
      "lik": 7184,
      "Ġmissions": 7185,
      "Ġmomentum": 7186,
      "Ġsenior": 7187,
      "claimed": 7188,
      "ĠAld": 7189,
      "Ġvent": 7190,
      "ighth": 7191,
      "owned": 7192,
      "Ġneuro": 7193,
      "Ġinfrastructure": 7194,
      "Ġdecade": 7195,
      "Ġoppos": 7196,
      "Ġpromote": 7197,
      "ĠHistorical": 7198,
      "Ġcandidates": 7199,
      "ĠBelgian": 7200,
      "Ġabandoned": 7201,
      "Ġsomewhat": 7202,
      "ĠFriday": 7203,
      "ds": 7204,
      "Å¡": 7205,
      "Ġwars": 7206,
      "Ġbill": 7207,
      "Ġhope": 7208,
      "ĠBAS": 7209,
      "urance": 7210,
      "ĠEU": 7211,
      "ĠDer": 7212,
      "ĠDie": 7213,
      "ĠFederation": 7214,
      "ĠGoth": 7215,
      "agues": 7216,
      "antly": 7217,
      "ĠVi": 7218,
      "Ġcharacterized": 7219,
      "Ġhousehold": 7220,
      "ĠMcC": 7221,
      "Ġchallenge": 7222,
      "ĠPolitical": 7223,
      "ĠArkansas": 7224,
      "oids": 7225,
      "Ġchess": 7226,
      "ĠBatt": 7227,
      "ĠBeg": 7228,
      "ĠMiller": 7229,
      "Ġchance": 7230,
      "Ġ1921": 7231,
      "ĠKorea": 7232,
      "bishop": 7233,
      "Ãº": 7234,
      "Ġocean": 7235,
      "Ġreally": 7236,
      "Ġleaves": 7237,
      "Ġprey": 7238,
      "Ġnegoti": 7239,
      "Ġlinked": 7240,
      "Ġadapted": 7241,
      "wall": 7242,
      "Ġthir": 7243,
      "ĠFame": 7244,
      "angel": 7245,
      "Ġ1910": 7246,
      "ĠâĪĴ": 7247,
      "Ġmountains": 7248,
      "speaking": 7249,
      "Ġincorporated": 7250,
      "Ġopportunity": 7251,
      "gi": 7252,
      "»¿": 7253,
      "ï»¿": 7254,
      "Ġpione": 7255,
      "adan": 7256,
      "Ġ34": 7257,
      "Ġassigned": 7258,
      "ĠExamples": 7259,
      "Ġdirectors": 7260,
      "ĠMedia": 7261,
      "cribed": 7262,
      "Ġaster": 7263,
      "Ġcatch": 7264,
      "Ġpand": 7265,
      "icism": 7266,
      "Ġrugby": 7267,
      "ĠAlan": 7268,
      "Ġ1924": 7269,
      "Ġadopt": 7270,
      "Ġprepared": 7271,
      "ĠFlorida": 7272,
      "ylvania": 7273,
      "hari": 7274,
      "ĠBurg": 7275,
      "ĠHome": 7276,
      "ĠDor": 7277,
      "ĠLanguage": 7278,
      "endar": 7279,
      "Ġadding": 7280,
      "Ġequation": 7281,
      "Ġgrav": 7282,
      "ĠCaes": 7283,
      "Ġcrypt": 7284,
      "ĠAdditionally": 7285,
      "ropolitan": 7286,
      "olia": 7287,
      "ĠIg": 7288,
      "ĠMond": 7289,
      "Ġstrict": 7290,
      "ĠDomin": 7291,
      "ĠOt": 7292,
      "Ġrandom": 7293,
      "Ġpartner": 7294,
      "Ġeditor": 7295,
      "Ġ1931": 7296,
      "Ġ1936": 7297,
      "Ġbands": 7298,
      "ĠPalest": 7299,
      "Ġescape": 7300,
      "Ġbacteria": 7301,
      "ĠCayman": 7302,
      "aug": 7303,
      "not": 7304,
      "Ġ*": 7305,
      "ĠLM": 7306,
      "abilities": 7307,
      "Ġyellow": 7308,
      "Ġroads": 7309,
      "Ġperiods": 7310,
      "ambig": 7311,
      "Ġrequest": 7312,
      "ĠArchae": 7313,
      "Ġbaptism": 7314,
      "don": 7315,
      "Ġdraft": 7316,
      "ĠTur": 7317,
      "osph": 7318,
      "enses": 7319,
      "Ġpersons": 7320,
      "Ġbehavi": 7321,
      "ĠBaltic": 7322,
      "Ġconstitutional": 7323,
      "ĠBahÃ¡": 7324,
      "Ġawards": 7325,
      "Ġwing": 7326,
      "ĠSon": 7327,
      "Ġeyes": 7328,
      "ĠMand": 7329,
      "ĠLuther": 7330,
      "Ġdominated": 7331,
      "Ġestablishments": 7332,
      "ĠArea": 7333,
      "burgh": 7334,
      "die": 7335,
      "Ġfoss": 7336,
      "icas": 7337,
      "ĠHindu": 7338,
      "Ġ55": 7339,
      "Ġfeed": 7340,
      "Ġanything": 7341,
      "Ġantip": 7342,
      "Ġ1913": 7343,
      "ĠHerzegovina": 7344,
      "Ġhosted": 7345,
      "ozo": 7346,
      "Ġexperiments": 7347,
      "ĠAlgeria": 7348,
      "Ġmathematician": 7349,
      "inental": 7350,
      "Ġdating": 7351,
      "ĠAL": 7352,
      "Ġlibrary": 7353,
      "Ġgot": 7354,
      "ĠHay": 7355,
      "Ġvector": 7356,
      "Ġtheme": 7357,
      "ĠJohann": 7358,
      "Ġdivisions": 7359,
      "Ġformerly": 7360,
      "Ġiniti": 7361,
      "Ġconstitu": 7362,
      "Ġrebell": 7363,
      "Ġhousemates": 7364,
      "Bl": 7365,
      "NP": 7366,
      "Ġfranch": 7367,
      "oli": 7368,
      "Ġrural": 7369,
      "Ġsole": 7370,
      "Ġserving": 7371,
      "certain": 7372,
      "Ġmassive": 7373,
      "ĠBenjamin": 7374,
      "Ġtourism": 7375,
      "ĠKnight": 7376,
      "ĠKorean": 7377,
      "vereign": 7378,
      "ĠChelsea": 7379,
      "ambiguation": 7380,
      "asure": 7381,
      "Ġmobile": 7382,
      "ĠTot": 7383,
      "ĠHop": 7384,
      "Ġkp": 7385,
      "Ġinflation": 7386,
      "ĠAdelaide": 7387,
      "Ġdistricts": 7388,
      "raeli": 7389,
      "62": 7390,
      "RA": 7391,
      "sk": 7392,
      "zo": 7393,
      "arant": 7394,
      "asan": 7395,
      "Ġmil": 7396,
      "ĠMarg": 7397,
      "Ġdisk": 7398,
      "Ġshowing": 7399,
      "Ġstatistics": 7400,
      "Ġdetect": 7401,
      "Ġtitled": 7402,
      "ĠHollywood": 7403,
      "Ġrenamed": 7404,
      "Ġamounts": 7405,
      "py": 7406,
      "worth": 7407,
      "Ġsoul": 7408,
      "igan": 7409,
      "ĠPot": 7410,
      "Ġammon": 7411,
      "Ġmode": 7412,
      "Ġinsaid": 7413,
      "Ġmissile": 7414,
      "Ġelectronic": 7415,
      "ĠBernard": 7416,
      "\";": 7417,
      "Ġinner": 7418,
      "omical": 7419,
      "ĠCrow": 7420,
      "ĠHan": 7421,
      "ĠFa": 7422,
      "verty": 7423,
      "ĠChican": 7424,
      "Ġdiscover": 7425,
      "Ġrecognition": 7426,
      "cock": 7427,
      "Ġwatch": 7428,
      "Ġ().": 7429,
      "Ġvac": 7430,
      "ifies": 7431,
      "Ġattended": 7432,
      "Ġcoordin": 7433,
      "Ġcaptain": 7434,
      "Ġcommitted": 7435,
      "Ġsymbols": 7436,
      "Ġsacrif": 7437,
      "Ġstrugg": 7438,
      "ĠCeltic": 7439,
      "lical": 7440,
      "idel": 7441,
      "Ġsho": 7442,
      "Ġworth": 7443,
      "ĠAirlines": 7444,
      "Ġpredomin": 7445,
      "ĠMoroc": 7446,
      "Ġtransportation": 7447,
      "ĠMuslims": 7448,
      "Ġtransferred": 7449,
      "Ġdrama": 7450,
      "Ġsed": 7451,
      "ĠBrian": 7452,
      "unch": 7453,
      "ĠVan": 7454,
      "Ġspaces": 7455,
      "Ġarticles": 7456,
      "Ġconfig": 7457,
      "Ġexplained": 7458,
      "Ġhistorically": 7459,
      "Ġspacecraft": 7460,
      "Ġmeasured": 7461,
      "Ġmerch": 7462,
      "ĠCopenhagen": 7463,
      "Ġadvertising": 7464,
      "68": 7465,
      "but": 7466,
      "oen": 7467,
      "erted": 7468,
      "icide": 7469,
      "ushed": 7470,
      "uties": 7471,
      "Ġvocal": 7472,
      "ials": 7473,
      "Ġarsen": 7474,
      "Ġairport": 7475,
      "Ġorigins": 7476,
      "Ġpromoted": 7477,
      "olas": 7478,
      "agu": 7479,
      "Ġnote": 7480,
      "iege": 7481,
      "Ġpoverty": 7482,
      "Ġpriest": 7483,
      "Ġinjury": 7484,
      "ĠAlbania": 7485,
      "Ġforests": 7486,
      "Ġtask": 7487,
      "Ġintern": 7488,
      "Ġeagle": 7489,
      "aven": 7490,
      "Ġkid": 7491,
      "ĠBlu": 7492,
      "Ġrepresenting": 7493,
      "ĠMedal": 7494,
      "Ġprices": 7495,
      "54": 7496,
      "orus": 7497,
      "ĠAdv": 7498,
      "ĠColon": 7499,
      "bage": 7500,
      "ĠNatural": 7501,
      "Ġchairman": 7502,
      "ĠSecurity": 7503,
      "Ġacknow": 7504,
      "ĠWorks": 7505,
      "kee": 7506,
      "ĠBrook": 7507,
      "Ġanxiety": 7508,
      "rary": 7509,
      "ĠAe": 7510,
      "ĠMike": 7511,
      "establ": 7512,
      "Ġprohib": 7513,
      "ĠKarl": 7514,
      "Ġ1916": 7515,
      "Ġsubstance": 7516,
      "ĠBibliography": 7517,
      "Ġceremony": 7518,
      "Ġpandemic": 7519,
      "Ġborders": 7520,
      "ĠTun": 7521,
      "univasiti": 7522,
      "Ġasc": 7523,
      "Ġoverl": 7524,
      "Ġpolar": 7525,
      "2018": 7526,
      "Ġ1934": 7527,
      "ĠAndre": 7528,
      "Ġreferences": 7529,
      "iveness": 7530,
      "Ġprotest": 7531,
      "Ġarmies": 7532,
      "ĠDelta": 7533,
      "Ġholid": 7534,
      "fish": 7535,
      "kod": 7536,
      "key": 7537,
      "zym": 7538,
      "inite": 7539,
      "Ġorganic": 7540,
      "ĠImperial": 7541,
      "Ġcriticism": 7542,
      "disambiguation": 7543,
      "gers": 7544,
      "vious": 7545,
      "Ê¼": 7546,
      "ĠCab": 7547,
      "ĠGab": 7548,
      "ibn": 7549,
      "Ġsoil": 7550,
      "Ġsurrender": 7551,
      "Ġedge": 7552,
      "Ġcontinent": 7553,
      "Ġ1912": 7554,
      "Ġruler": 7555,
      "Ġcelebrated": 7556,
      "Ġgods": 7557,
      "vements": 7558,
      "Ġmap": 7559,
      "Ġstadium": 7560,
      "agre": 7561,
      "ĠAlg": 7562,
      "Ġaccused": 7563,
      "Ġ400": 7564,
      "Ġsmol": 7565,
      "ridges": 7566,
      "ĠBrig": 7567,
      "Ġtreaty": 7568,
      "Ġdiseases": 7569,
      "Ġcharged": 7570,
      "hist": 7571,
      "Ġ(,": 7572,
      "Ġroots": 7573,
      "ĠEnvironment": 7574,
      "ĠOnce": 7575,
      "Ġdoing": 7576,
      "Ġlocations": 7577,
      "Ġsuccession": 7578,
      "ĠAgric": 7579,
      "Ġprotected": 7580,
      "Ġdeclined": 7581,
      "Ġexisted": 7582,
      "Ġdelay": 7583,
      "Ġcategories": 7584,
      "Ġpreferred": 7585,
      "Ġdropped": 7586,
      "63": 7587,
      "Ã£": 7588,
      "Ġtor": 7589,
      "Ġfellow": 7590,
      "Ġgar": 7591,
      "rik": 7592,
      "rome": 7593,
      "Ġchampionship": 7594,
      "Ġresign": 7595,
      "Ġconspir": 7596,
      "ĠShort": 7597,
      "Ġdecor": 7598,
      "Ġcommittee": 7599,
      "ĠPenns": 7600,
      "ĠRoger": 7601,
      "ĠBangladesh": 7602,
      "91": 7603,
      "wick": 7604,
      "Ġbases": 7605,
      "Ġegg": 7606,
      "ĠMain": 7607,
      "Ġstret": 7608,
      "ĠStra": 7609,
      "Ġdispl": 7610,
      "ĠThird": 7611,
      "Ġsovereign": 7612,
      "Ġrait": 7613,
      "ĠScient": 7614,
      "abled": 7615,
      "ĠAlfonso": 7616,
      "Ġdoctrine": 7617,
      "ĠBaptist": 7618,
      "Ġdrawn": 7619,
      "rame": 7620,
      "Ġahead": 7621,
      "ĠBridge": 7622,
      "ĠLt": 7623,
      "Ġintelligence": 7624,
      "Ġcanon": 7625,
      "Ġagents": 7626,
      "Ġspons": 7627,
      "Ġelectrical": 7628,
      "Ġviewed": 7629,
      "ĠCambodia": 7630,
      "ĠCarolina": 7631,
      "77": 7632,
      "Cl": 7633,
      "after": 7634,
      "Ġcavalry": 7635,
      "ĠAster": 7636,
      "Ġhall": 7637,
      "ĠHun": 7638,
      "ĠLine": 7639,
      "Ġcomed": 7640,
      "Ġorganisms": 7641,
      "Ġ1923": 7642,
      "2005": 7643,
      "Ġreducing": 7644,
      "Ġsurviving": 7645,
      "Ġrenew": 7646,
      "Ġcurrency": 7647,
      "ĠHarvard": 7648,
      "Ġori": 7649,
      "Ġtools": 7650,
      "emen": 7651,
      "Ġunf": 7652,
      "Ġyuz": 7653,
      "Ġproduces": 7654,
      "Ġaccident": 7655,
      "Ġ64": 7656,
      "Ġ1932": 7657,
      "Ġpractical": 7658,
      "ĠAntar": 7659,
      "ĠChaplin": 7660,
      "Ġatmosphere": 7661,
      "Ġaluminium": 7662,
      "58": 7663,
      "IN": 7664,
      "ho": 7665,
      "istant": 7666,
      "ĠHab": 7667,
      "ĠNever": 7668,
      "Ġproof": 7669,
      "Ġchop": 7670,
      "Ġsupporters": 7671,
      "Ġslavery": 7672,
      "ÃŃa": 7673,
      "ĠCurrent": 7674,
      "ĠTelevision": 7675,
      "ĠCardiff": 7676,
      "roc": 7677,
      "Ġlosing": 7678,
      "oting": 7679,
      "ĠRoll": 7680,
      "uble": 7681,
      "ĠFormer": 7682,
      "Ġflood": 7683,
      "Ġcarrier": 7684,
      "Ġcustom": 7685,
      "ĠFamily": 7686,
      "61": 7687,
      "lon": 7688,
      "onomy": 7689,
      "Ġcuisine": 7690,
      "Ġmorning": 7691,
      "Ġexceed": 7692,
      "Ġmoder": 7693,
      "Ġfoundation": 7694,
      "Ġconstell": 7695,
      "Ġsolutions": 7696,
      "ĠWalter": 7697,
      "iny": 7698,
      "ĠAal": 7699,
      "ĠAPC": 7700,
      "lets": 7701,
      "ĠEvery": 7702,
      "odium": 7703,
      "Ġselection": 7704,
      "Ġunus": 7705,
      "iversary": 7706,
      "Ġdefence": 7707,
      "ĠShow": 7708,
      "ĠBened": 7709,
      "Ġdestruction": 7710,
      "Ġreaching": 7711,
      "Ġpercentage": 7712,
      "archers": 7713,
      "ĠTemple": 7714,
      "ĠAnthony": 7715,
      "hire": 7716,
      "ĠSyn": 7717,
      "ĠLate": 7718,
      "Ġperfect": 7719,
      "Ġowner": 7720,
      "Ġclassification": 7721,
      "Ġnovels": 7722,
      "Ġassumed": 7723,
      "Ġexpedition": 7724,
      "ĠEk": 7725,
      "ĠFront": 7726,
      "Ġvice": 7727,
      "Ġroutes": 7728,
      "Ġcounty": 7729,
      "Ġdepartment": 7730,
      "Ġretired": 7731,
      "ĠPruss": 7732,
      "Ġcontroversial": 7733,
      "Ġalgebraic": 7734,
      "ĠArgentina": 7735,
      "rodite": 7736,
      "AP": 7737,
      "pass": 7738,
      "itled": 7739,
      "Ġbright": 7740,
      "ĠFal": 7741,
      "ĠGran": 7742,
      "rium": 7743,
      "Ġsuit": 7744,
      "Ġexcess": 7745,
      "Ġplot": 7746,
      "Ġsigns": 7747,
      "Ġmedal": 7748,
      "2007": 7749,
      "apping": 7750,
      "ĠMadrid": 7751,
      "Ġbenefit": 7752,
      "Ġopposite": 7753,
      "ĠPennsylvania": 7754,
      "long": 7755,
      "xual": 7756,
      "ĠÐ": 7757,
      "itarian": 7758,
      "Ġparent": 7759,
      "Ġmamm": 7760,
      "ĠAfta": 7761,
      "ĠSources": 7762,
      "ĠBurk": 7763,
      "Ġthing": 7764,
      "chang": 7765,
      "ĠMit": 7766,
      "ĠThen": 7767,
      "ĠDur": 7768,
      "ĠRica": 7769,
      "avel": 7770,
      "Ġresearchers": 7771,
      "Ġphilosophers": 7772,
      "Ġquestions": 7773,
      "ĠWilson": 7774,
      "Ġrarely": 7775,
      "ĠSanta": 7776,
      "ĠSummer": 7777,
      "Ġpassengers": 7778,
      "imensional": 7779,
      "34": 7780,
      "ES": 7781,
      "gence": 7782,
      "ni": 7783,
      "Ġsave": 7784,
      "itudes": 7785,
      "Ġfil": 7786,
      "ĠFather": 7787,
      "ĠNep": 7788,
      "riff": 7789,
      "avian": 7790,
      "Ġchampion": 7791,
      "Ġenh": 7792,
      "lesh": 7793,
      "enness": 7794,
      "Ġshortly": 7795,
      "Ġdenomin": 7796,
      "Ġuniversal": 7797,
      "Ġcosts": 7798,
      "Ġmorph": 7799,
      "break": 7800,
      "cyclop": 7801,
      "IS": 7802,
      "Ġcave": 7803,
      "Ġcamer": 7804,
      "ĠHy": 7805,
      "Ġconvention": 7806,
      "Ġmanner": 7807,
      "Ġ48": 7808,
      "Ġcolors": 7809,
      "Ġentry": 7810,
      "Ġcert": 7811,
      "ipped": 7812,
      "Ġconquest": 7813,
      "ĠNapoleon": 7814,
      "anas": 7815,
      "Ġdan": 7816,
      "illy": 7817,
      "phony": 7818,
      "Ġplayw": 7819,
      "ictional": 7820,
      "Ġfled": 7821,
      "Ġvisible": 7822,
      "Ġtests": 7823,
      "Ġpassenger": 7824,
      "Å«": 7825,
      "ĠMach": 7826,
      "ĠUnlike": 7827,
      "Ġsubt": 7828,
      "Ġexpensive": 7829,
      "ĠIndones": 7830,
      "Ġreputation": 7831,
      "Ġdepicted": 7832,
      "Ġrefuge": 7833,
      "Ġreduction": 7834,
      "Ġexecuted": 7835,
      "Ġconsisted": 7836,
      "Ġmanufacturing": 7837,
      "ĠOfficial": 7838,
      "ĠErn": 7839,
      "Ġog": 7840,
      "Ġbishops": 7841,
      "ĠCulture": 7842,
      "ĠMarl": 7843,
      "ivered": 7844,
      "emale": 7845,
      "ĠLast": 7846,
      "Ġpref": 7847,
      "Ġfounding": 7848,
      "ossible": 7849,
      "ĠRepresent": 7850,
      "ĠBenin": 7851,
      "Ġvowel": 7852,
      "ĠMult": 7853,
      "opot": 7854,
      "ĠWed": 7855,
      "Ġitems": 7856,
      "Ġcompound": 7857,
      "Ġshut": 7858,
      "Ġshall": 7859,
      "ĠVill": 7860,
      "Ġpartly": 7861,
      "phal": 7862,
      "Ġjump": 7863,
      "Ġexplicit": 7864,
      "Ġrestaur": 7865,
      "Ġsolar": 7866,
      "Ġencounter": 7867,
      "Ġcopies": 7868,
      "Ġconsumption": 7869,
      "lig": 7870,
      "rehens": 7871,
      "ĠCry": 7872,
      "ithms": 7873,
      "ocol": 7874,
      "Ġ747": 7875,
      "Ġpossibility": 7876,
      "Ġconcepts": 7877,
      "ĠSteve": 7878,
      "Ġchoose": 7879,
      "Î±": 7880,
      "Ġoga": 7881,
      "ĠSand": 7882,
      "Ġeat": 7883,
      "Ġconj": 7884,
      "ateur": 7885,
      "ĠOnline": 7886,
      "Ã©e": 7887,
      "Ġ1935": 7888,
      "Ġaffairs": 7889,
      "ĠBrune": 7890,
      "ĠTestament": 7891,
      "Ġastronauts": 7892,
      "tymology": 7893,
      "fe": 7894,
      "ĠMun": 7895,
      "ourse": 7896,
      "ocked": 7897,
      "ĠNewton": 7898,
      "Ġalbums": 7899,
      "Ġsurvived": 7900,
      "Ġcredited": 7901,
      "cap": 7902,
      "ĠId": 7903,
      "oto": 7904,
      "Ġmodule": 7905,
      "ĠEdo": 7906,
      "Ġparam": 7907,
      "Ġerror": 7908,
      "gom": 7909,
      "heastern": 7910,
      "Ġstim": 7911,
      "ĠFull": 7912,
      "Ġdiagn": 7913,
      "ĠOh": 7914,
      "Ġsyll": 7915,
      "ĠPrin": 7916,
      "scale": 7917,
      "ĠFilms": 7918,
      "ĠAlbanian": 7919,
      "ĠAMD": 7920,
      "Ġconventional": 7921,
      "amics": 7922,
      "ĠNFL": 7923,
      "ripp": 7924,
      "ĠKong": 7925,
      "Ġshif": 7926,
      "Ġattached": 7927,
      "Ġremark": 7928,
      "Ġvarieties": 7929,
      "Ġrelationships": 7930,
      "ĠAuthor": 7931,
      "Ġsecure": 7932,
      "Ġphrase": 7933,
      "Ġtens": 7934,
      "Ġfal": 7935,
      "Ġvaries": 7936,
      "Ġinvented": 7937,
      "Ġbuzz": 7938,
      "Ġfeet": 7939,
      "Ġready": 7940,
      "Ġ1911": 7941,
      "Ġconcerned": 7942,
      "Ġhorse": 7943,
      "Ġpaintings": 7944,
      "Ġhunting": 7945,
      "52": 7946,
      "Ġaqu": 7947,
      "oric": 7948,
      "itations": 7949,
      "ĠST": 7950,
      "Ġnoun": 7951,
      "rage": 7952,
      "ĠChampions": 7953,
      "rene": 7954,
      "Ġcloth": 7955,
      "ĠYank": 7956,
      "Ġracing": 7957,
      "Ġantim": 7958,
      "ĠMarine": 7959,
      "bonge": 7960,
      "ĠSchwar": 7961,
      "Ġaccompanied": 7962,
      "ĠBermuda": 7963,
      "iÄĩ": 7964,
      "run": 7965,
      "sm": 7966,
      "Ġpig": 7967,
      "ĠMax": 7968,
      "Ġserves": 7969,
      "ĠBeach": 7970,
      "Ġexplos": 7971,
      "Ġcampus": 7972,
      "scape": 7973,
      "Ġargues": 7974,
      "Ġswitch": 7975,
      "Ġmixture": 7976,
      "hyth": 7977,
      "Ġsubstantial": 7978,
      "Ġsample": 7979,
      "Ġwrest": 7980,
      "stances": 7981,
      "ĠMarsh": 7982,
      "Ġvo": 7983,
      "Ġneither": 7984,
      "Ġtruth": 7985,
      "Ġsupposed": 7986,
      "ĠAugustus": 7987,
      "Ġmembership": 7988,
      "Ã¸": 7989,
      "Ġhair": 7990,
      "angle": 7991,
      "ĠTherefore": 7992,
      "ĠRegion": 7993,
      "ĠSlav": 7994,
      "prise": 7995,
      "Ġcontroversy": 7996,
      "ĠInstead": 7997,
      "ĠNetwork": 7998,
      "ĠAphrodite": 7999,
      "bec": 8000,
      "jection": 8001,
      "Ġmales": 8002,
      "Ġretained": 8003,
      "ulating": 8004,
      "ĠRena": 8005,
      "ĠKal": 8006,
      "eller": 8007,
      "ĠLeon": 8008,
      "ĠAthena": 8009,
      "Ġmachines": 8010,
      "Ġprinted": 8011,
      "Ġpatterns": 8012,
      "ĠDirector": 8013,
      "Ġfan": 8014,
      "Ġmir": 8015,
      "idal": 8016,
      "Ġuncertain": 8017,
      "Ġclim": 8018,
      "Ġoffers": 8019,
      "ĠGermans": 8020,
      "ĠðŁĵ": 8021,
      "Ġpoetry": 8022,
      "Ġconversion": 8023,
      "Ġminimum": 8024,
      "Ġoccasionally": 8025,
      "utenant": 8026,
      "bus": 8027,
      "ns": 8028,
      "Ġmental": 8029,
      "ĠSax": 8030,
      "adian": 8031,
      "ĠTheod": 8032,
      "Ġshift": 8033,
      "Ġabund": 8034,
      "Ġraise": 8035,
      "2015": 8036,
      "auer": 8037,
      "idden": 8038,
      "Ġinterests": 8039,
      "Ġsuperior": 8040,
      "Ġjourney": 8041,
      "Euro": 8042,
      "Ġtu": 8043,
      "inate": 8044,
      "Ġhuge": 8045,
      "ĠSav": 8046,
      "Ġthick": 8047,
      "Ġven": 8048,
      "Ġlect": 8049,
      "Ġmarry": 8050,
      "Ġsixth": 8051,
      "ĠMethod": 8052,
      "Ġhypothesis": 8053,
      "ĠBahÃ¡Ê¼": 8054,
      "53": 8055,
      "ET": 8056,
      "Ġsand": 8057,
      "ĠAinu": 8058,
      "Ġ120": 8059,
      "ĠEric": 8060,
      "ĠRun": 8061,
      "ante": 8062,
      "ĠYor": 8063,
      "ĠConference": 8064,
      "Ġdelivered": 8065,
      "Ġabsence": 8066,
      "ĠLegos": 8067,
      "Ġcouple": 8068,
      "ĠAudi": 8069,
      "ĠDigital": 8070,
      "Ġbird": 8071,
      "Ġnavig": 8072,
      "ĠNol": 8073,
      "ĠWarhol": 8074,
      "Ġguard": 8075,
      "Ġengaged": 8076,
      "Ġoriginated": 8077,
      "Ġprize": 8078,
      "Ġnetworks": 8079,
      "Ġprofessor": 8080,
      "ĠCapital": 8081,
      "Ġdocumentary": 8082,
      "ĠBronze": 8083,
      "Ġbeauty": 8084,
      "Ġpicture": 8085,
      "OR": 8086,
      "roup": 8087,
      "aman": 8088,
      "ĠRen": 8089,
      "ĠChannel": 8090,
      "phib": 8091,
      "aching": 8092,
      "eping": 8093,
      "Ġupd": 8094,
      "2006": 8095,
      "ĠCrown": 8096,
      "Ġencod": 8097,
      "Ġarrival": 8098,
      "Ġjudge": 8099,
      "Ġsafe": 8100,
      "ĠBuddhism": 8101,
      "sky": 8102,
      "Ã«": 8103,
      "icular": 8104,
      "ĠEqu": 8105,
      "ĠLocal": 8106,
      "Ġdioxide": 8107,
      "Ġkick": 8108,
      "ĠAnne": 8109,
      "Ġscenes": 8110,
      "Ġ44": 8111,
      "Ġgenre": 8112,
      "Ġregularly": 8113,
      "Ġconsciousness": 8114,
      "Ġveloc": 8115,
      "rating": 8116,
      "rep": 8117,
      "ĠFact": 8118,
      "ĠFire": 8119,
      "ĠFair": 8120,
      "ĠFox": 8121,
      "ailed": 8122,
      "Ġwrites": 8123,
      "Ġdistinction": 8124,
      "Ġopera": 8125,
      "pective": 8126,
      "ĠAshoka": 8127,
      "ĠAbuja": 8128,
      "ugoslav": 8129,
      "adelph": 8130,
      "asks": 8131,
      "Ġheard": 8132,
      "Ġacceler": 8133,
      "Ġapply": 8134,
      "Ġexposure": 8135,
      "Ġextension": 8136,
      "Ġstatue": 8137,
      "2008": 8138,
      "ĠDefence": 8139,
      "ĠDefense": 8140,
      "Ġbeliefs": 8141,
      "Ã£o": 8142,
      "2000": 8143,
      "ĠSix": 8144,
      "ĠCD": 8145,
      "elly": 8146,
      "Ġgal": 8147,
      "ĠGord": 8148,
      "Ġcorner": 8149,
      "iotics": 8150,
      "uin": 8151,
      "asm": 8152,
      "ĠAG": 8153,
      "ĠExt": 8154,
      "Ġ1915": 8155,
      "Ġvirus": 8156,
      "Ġbrothers": 8157,
      "Ġsatell": 8158,
      "Ġlegislation": 8159,
      "ĠJonathan": 8160,
      "Ġclean": 8161,
      "57": 8162,
      "rors": 8163,
      "real": 8164,
      "ito": 8165,
      "Ġinher": 8166,
      "ĠAB": 8167,
      "ĠTay": 8168,
      "Ġloyal": 8169,
      "Ġcomplic": 8170,
      "Ġpassing": 8171,
      "aneous": 8172,
      "Ġappearances": 8173,
      "ĠBuhari": 8174,
      "Ġangular": 8175,
      "Ġcriticized": 8176,
      "Ġplenty": 8177,
      "Ġweapon": 8178,
      "ĠOperation": 8179,
      "ĠMonday": 8180,
      "SR": 8181,
      "ĠBart": 8182,
      "ods": 8183,
      "acent": 8184,
      "asters": 8185,
      "Ġtrust": 8186,
      "Ġlongest": 8187,
      "Ġoccas": 8188,
      "Ġvisitors": 8189,
      "Ġaudio": 8190,
      "Ġepisodes": 8191,
      "ĠJacob": 8192,
      "iest": 8193,
      "uations": 8194,
      "zona": 8195,
      "inf": 8196,
      "Ġdual": 8197,
      "Ġmac": 8198,
      "Ġlaid": 8199,
      "aders": 8200,
      "ĠPerson": 8201,
      "ĠAda": 8202,
      "Ġinstruction": 8203,
      "Ġswim": 8204,
      "Ġcollapse": 8205,
      "Ġcarrying": 8206,
      "Ġsubsid": 8207,
      "gomery": 8208,
      "Ġnan": 8209,
      "Ġexports": 8210,
      "ĠChron": 8211,
      "Ġassistance": 8212,
      "ega": 8213,
      "ĠApost": 8214,
      "ĠGreeks": 8215,
      "Ġstanding": 8216,
      "Ġlimits": 8217,
      "Ġlearned": 8218,
      "ĠUkraine": 8219,
      "Ġbonds": 8220,
      "Ġsubstit": 8221,
      "Ġcoeffic": 8222,
      "Ġvalley": 8223,
      "2003": 8224,
      "Ġmeni": 8225,
      "Ġverb": 8226,
      "Ġnickn": 8227,
      "SI": 8228,
      "ding": 8229,
      "Ġovers": 8230,
      "esium": 8231,
      "Ġfaced": 8232,
      "oust": 8233,
      "ĠSoutheast": 8234,
      "Ġnut": 8235,
      "Ġstages": 8236,
      "ĠWat": 8237,
      "Ġadvent": 8238,
      "Ġ42": 8239,
      "Ġtransmission": 8240,
      "hemistry": 8241,
      "uchy": 8242,
      "Ġdecisions": 8243,
      "Ġterror": 8244,
      "Ġgenus": 8245,
      "ĠBasel": 8246,
      "Ġeasy": 8247,
      "Ġprisoners": 8248,
      "ĠElectron": 8249,
      "ĠMicrosoft": 8250,
      "ĠRonald": 8251,
      "Ġrom": 8252,
      "Ġpup": 8253,
      "Ġmart": 8254,
      "ĠSud": 8255,
      "Ġnode": 8256,
      "agne": 8257,
      "Ġsuppose": 8258,
      "Ġhousing": 8259,
      "Ġisolated": 8260,
      "ĠBenedict": 8261,
      "For": 8262,
      "lore": 8263,
      "Ġmal": 8264,
      "uled": 8265,
      "ĠNight": 8266,
      "assi": 8267,
      "Ġdisorders": 8268,
      "ricted": 8269,
      "uros": 8270,
      "Ġgenerated": 8271,
      "Ġestate": 8272,
      "Ġmarine": 8273,
      "Ġengines": 8274,
      "ictionary": 8275,
      "Ġcoup": 8276,
      "Ġhundreds": 8277,
      "cos": 8278,
      "ĠDC": 8279,
      "ĠYugoslav": 8280,
      "Ġgrown": 8281,
      "Ġblow": 8282,
      "Ġmonaster": 8283,
      "Ġdecide": 8284,
      "Ġargue": 8285,
      "Ġindicated": 8286,
      "Ġdomain": 8287,
      "Ġrequirements": 8288,
      "ĠDougl": 8289,
      "ĠSerbia": 8290,
      "ĠBrunei": 8291,
      "Ġpush": 8292,
      "ĠTuring": 8293,
      "Ġstorm": 8294,
      "ĠLov": 8295,
      "uma": 8296,
      "ĠKar": 8297,
      "Ġthemes": 8298,
      "Ġremove": 8299,
      "ypes": 8300,
      "Ġlaure": 8301,
      "Ġinvolve": 8302,
      "Ġfunding": 8303,
      "CC": 8304,
      "log": 8305,
      "arks": 8306,
      "Ġbes": 8307,
      "ĠTai": 8308,
      "Ġko": 8309,
      "Ġvariation": 8310,
      "Ġcollected": 8311,
      "ĠRailway": 8312,
      "ĠFrederick": 8313,
      "And": 8314,
      "Th": 8315,
      "anal": 8316,
      "Ġsalt": 8317,
      "Ġrish": 8318,
      "Ġinterior": 8319,
      "Ġends": 8320,
      "anna": 8321,
      "Ġpainting": 8322,
      "Ġdebut": 8323,
      "Ġcontributions": 8324,
      "Ġmechanical": 8325,
      "Ġneighbour": 8326,
      "etooth": 8327,
      "hered": 8328,
      "esc": 8329,
      "Ġcrow": 8330,
      "Ġcodes": 8331,
      "Ġgather": 8332,
      "that": 8333,
      "ĠKir": 8334,
      "ĠAmericas": 8335,
      "ensed": 8336,
      "Ġmining": 8337,
      "ĠHarry": 8338,
      "Ġstrip": 8339,
      "Ġimmigrants": 8340,
      "Ġcloser": 8341,
      "Ġdistributed": 8342,
      "ĠMontgomery": 8343,
      "ĠCornwall": 8344,
      "Ġbenz": 8345,
      "Ġstore": 8346,
      "ĠRivers": 8347,
      "aby": 8348,
      "ĠKad": 8349,
      "ĠWhit": 8350,
      "former": 8351,
      "2004": 8352,
      "ĠAngola": 8353,
      "ĠDisraeli": 8354,
      "Ġlabour": 8355,
      "Ġpurchased": 8356,
      "Ġexactly": 8357,
      "aturally": 8358,
      "ĠFriedrich": 8359,
      "ĠRenaissance": 8360,
      "Sh": 8361,
      "atics": 8362,
      "lete": 8363,
      "Ġnone": 8364,
      "Ġgene": 8365,
      "ĠOga": 8366,
      "ĠExp": 8367,
      "ĠWhat": 8368,
      "ĠDemocr": 8369,
      "Ġsurvive": 8370,
      "ĠTrump": 8371,
      "ĠSimon": 8372,
      "Ġresponsibility": 8373,
      "umni": 8374,
      "ĠIndependence": 8375,
      "Europe": 8376,
      "?\"": 8377,
      "sim": 8378,
      "ingly": 8379,
      "ompl": 8380,
      "ĠNow": 8381,
      "ĠLow": 8382,
      "reek": 8383,
      "Ġsurf": 8384,
      "ĠGermanic": 8385,
      "Ġopponent": 8386,
      "Ġcolleges": 8387,
      "Ġindustries": 8388,
      "Ġestimates": 8389,
      "ĠRomans": 8390,
      "English": 8391,
      "Ġcrops": 8392,
      "Ġtoxic": 8393,
      "adelphia": 8394,
      "Ġrear": 8395,
      "ifican": 8396,
      "uster": 8397,
      "Ġarray": 8398,
      "ikh": 8399,
      "ensis": 8400,
      "Ġrow": 8401,
      "Ġrecip": 8402,
      "Ġextens": 8403,
      "Ġ1908": 8404,
      "Ġactivist": 8405,
      "Ġinvestigation": 8406,
      "Ġgeometry": 8407,
      "ĠAssyrian": 8408,
      "ificance": 8409,
      "Af": 8410,
      "Ġhour": 8411,
      "eld": 8412,
      "ĠIl": 8413,
      "ĠNear": 8414,
      "ĠStation": 8415,
      "2016": 8416,
      "Ġinfluences": 8417,
      "Ġfunctional": 8418,
      "Ġsubjects": 8419,
      "Ġmolecular": 8420,
      "mes": 8421,
      "Ġske": 8422,
      "Ġcovers": 8423,
      "rose": 8424,
      "Ġmarg": 8425,
      "ĠTony": 8426,
      "ĠBT": 8427,
      "ĠFund": 8428,
      "ĠChris": 8429,
      "ĠVideo": 8430,
      "Ġenzym": 8431,
      "Ġmeat": 8432,
      "Ġassess": 8433,
      "ĠNigerians": 8434,
      "ĠBarn": 8435,
      "Ġeverything": 8436,
      "Ġmechanism": 8437,
      "Ġnarrative": 8438,
      "Ġtunnel": 8439,
      "ĠSquare": 8440,
      "Ġlyrics": 8441,
      "negie": 8442,
      "Ġopinion": 8443,
      "72": 8444,
      "eenth": 8445,
      "Ġwrong": 8446,
      "ista": 8447,
      "ĠLie": 8448,
      "ĠKane": 8449,
      "ulty": 8450,
      "Ġabb": 8451,
      "Ġresident": 8452,
      "Ġtwelve": 8453,
      "ĠYears": 8454,
      "Ġimmediate": 8455,
      "Ġimplemented": 8456,
      "Ġreforms": 8457,
      "ĠCatalan": 8458,
      "Ġconcert": 8459,
      "Ġkpai": 8460,
      "ĠCra": 8461,
      "ĠDom": 8462,
      "oster": 8463,
      "Ġelectoral": 8464,
      "Ġartificial": 8465,
      "roscop": 8466,
      "ashon": 8467,
      "Ġvariations": 8468,
      "type": 8469,
      "ĠCarnegie": 8470,
      "Ġcondem": 8471,
      "ĠFurthermore": 8472,
      "Ġtrying": 8473,
      "ĠProvince": 8474,
      "59": 8475,
      "Na": 8476,
      "rell": 8477,
      "ĠSet": 8478,
      "ido": 8479,
      "ĠMas": 8480,
      "ivated": 8481,
      "ĠHospital": 8482,
      "eman": 8483,
      "ĠLam": 8484,
      "odies": 8485,
      "Ġvision": 8486,
      "ĠJord": 8487,
      "Ġsure": 8488,
      "oren": 8489,
      "Ġchose": 8490,
      "ĠStock": 8491,
      "Ġagg": 8492,
      "weight": 8493,
      "Ġeval": 8494,
      "Ġpregn": 8495,
      "Ġcharacteristic": 8496,
      "ĠBoeing": 8497,
      "Ġpreserved": 8498,
      "ĠDouglas": 8499,
      "83": 8500,
      "aeda": 8501,
      "Ġpseud": 8502,
      "Ġdated": 8503,
      "cho": 8504,
      "Ġvoted": 8505,
      "Ġspot": 8506,
      "Ġindex": 8507,
      "Ġaccompl": 8508,
      "Ġundert": 8509,
      "Ġmainstream": 8510,
      "ometimes": 8511,
      "Ġtrading": 8512,
      "Ġwitness": 8513,
      "Ġeducational": 8514,
      "Ġobservations": 8515,
      "iscop": 8516,
      "Ġsynthesis": 8517,
      "box": 8518,
      "Ġri": 8519,
      "Ġpul": 8520,
      "icts": 8521,
      "ĠSign": 8522,
      "usa": 8523,
      "aked": 8524,
      "aste": 8525,
      "Ġcompat": 8526,
      "Ġshop": 8527,
      "ĠIndex": 8528,
      "Ġpassage": 8529,
      "Ġradical": 8530,
      "ĠKhmer": 8531,
      "Ġcharges": 8532,
      "Ġneutral": 8533,
      "Ġdiplomatic": 8534,
      "New": 8535,
      "father": 8536,
      "language": 8537,
      "Ġbib": 8538,
      "Ġhole": 8539,
      "Ġliv": 8540,
      "Ġstored": 8541,
      "ĠInformation": 8542,
      "Ġhear": 8543,
      "atters": 8544,
      "Ġcomputing": 8545,
      "Ġjustice": 8546,
      "ĠArizona": 8547,
      "Ġvoting": 8548,
      "Ġathlet": 8549,
      "ĠBluetooth": 8550,
      "400": 8551,
      "zep": 8552,
      "Ġtheor": 8553,
      "ĠCirc": 8554,
      "Ġlayer": 8555,
      "ĠMagn": 8556,
      "ĠHu": 8557,
      "Ġunc": 8558,
      "ĠKer": 8559,
      "ĠStaff": 8560,
      "Ġgoes": 8561,
      "Ġconstruct": 8562,
      "ĠExec": 8563,
      "ĠAhmad": 8564,
      "56": 8565,
      "Ġboot": 8566,
      "room": 8567,
      "ĠAround": 8568,
      "iffer": 8569,
      "Ġtrig": 8570,
      "Ġwarfare": 8571,
      "atorial": 8572,
      "Ġrepresentative": 8573,
      "who": 8574,
      "Ġphilosophical": 8575,
      "Ġconsistent": 8576,
      "ĠControl": 8577,
      "Ġconcentrated": 8578,
      "prof": 8579,
      "OC": 8580,
      "ipe": 8581,
      "Ġova": 8582,
      "ĠSaf": 8583,
      "ĠBI": 8584,
      "ĠDun": 8585,
      "Ġresolution": 8586,
      "ĠReport": 8587,
      "2020": 8588,
      "Ġsingles": 8589,
      "Ġinspir": 8590,
      "ĠChristopher": 8591,
      "ĠAllen": 8592,
      "Ġreturning": 8593,
      "Ġmissiles": 8594,
      "ĠPhilosophy": 8595,
      "ĠConfederate": 8596,
      "ĠNevertheless": 8597,
      "Ġions": 8598,
      "Ġcul": 8599,
      "ivation": 8600,
      "ĠLight": 8601,
      "ĠLind": 8602,
      "ĠJosh": 8603,
      "Ġsections": 8604,
      "Ġcommem": 8605,
      "Ġintermedi": 8606,
      "Ġfloor": 8607,
      "Ġpoison": 8608,
      "ĠAgency": 8609,
      "plete": 8610,
      "Ġphysician": 8611,
      "Ġminority": 8612,
      "Ġstrategic": 8613,
      "ĠNazi": 8614,
      "ĠTerritory": 8615,
      "ĠHans": 8616,
      "aceae": 8617,
      "ĠEncyclop": 8618,
      "Ġannually": 8619,
      "ĠPhiladelphia": 8620,
      "Ġverte": 8621,
      "ĠMorocco": 8622,
      "Ġacknowled": 8623,
      "trans": 8624,
      "ĠPash": 8625,
      "ĠHit": 8626,
      "ĠHind": 8627,
      "ĠDark": 8628,
      "Ġhence": 8629,
      "irect": 8630,
      "2017": 8631,
      "Ġheritage": 8632,
      "Ġdesigner": 8633,
      "Ġprogramme": 8634,
      "Ġprompt": 8635,
      "ĠHeritage": 8636,
      "Ġchanging": 8637,
      "Ġproportion": 8638,
      "ĠCuban": 8639,
      "jan": 8640,
      "orous": 8641,
      "arry": 8642,
      "Ġbow": 8643,
      "ĠBach": 8644,
      "Ġamino": 8645,
      "Ġrelief": 8646,
      "orney": 8647,
      "ĠConn": 8648,
      "Ġapost": 8649,
      "Ġsimult": 8650,
      "ĠBaroque": 8651,
      "ĠMedical": 8652,
      "Ġeducator": 8653,
      "Ġpunishment": 8654,
      "Ġexperimental": 8655,
      "ovakia": 8656,
      "izzard": 8657,
      "ĠSimilarly": 8658,
      "Ãł": 8659,
      "Ġtel": 8660,
      "onne": 8661,
      "Ġfaster": 8662,
      "ĠCer": 8663,
      "ĠCall": 8664,
      "Ġrecept": 8665,
      "ĠNich": 8666,
      "Ġintention": 8667,
      "Ġregime": 8668,
      "ĠAfro": 8669,
      "Ġmoni": 8670,
      "aired": 8671,
      "ĠSpirit": 8672,
      "Ġlasted": 8673,
      "Ġcomplexity": 8674,
      "ĠReview": 8675,
      "uccess": 8676,
      "Ĥ¬": 8677,
      "Ġsamples": 8678,
      "Ġrevers": 8679,
      "ĠHere": 8680,
      "ĠRab": 8681,
      "opt": 8682,
      "ĠWild": 8683,
      "Ġplanning": 8684,
      "Ġoffices": 8685,
      "ĠShar": 8686,
      "ĠWork": 8687,
      "Ġdepends": 8688,
      "Ġperforming": 8689,
      "Ġdispute": 8690,
      "ĠCaptain": 8691,
      "Ġlogic": 8692,
      "Ġalgorithms": 8693,
      "Ġgraphics": 8694,
      "ĠBoliv": 8695,
      "ĠEthiop": 8696,
      "51": 8697,
      "AL": 8698,
      "sis": 8699,
      "yah": 8700,
      "itism": 8701,
      "ethe": 8702,
      "adow": 8703,
      "Ġwaste": 8704,
      "Ġkon": 8705,
      "ears": 8706,
      "Ġnoble": 8707,
      "eneration": 8708,
      "2011": 8709,
      "Ġrunner": 8710,
      "Ġsymmet": 8711,
      "ĠRegional": 8712,
      "Ġprobability": 8713,
      "Ġperformances": 8714,
      "Ġphysicist": 8715,
      "din": 8716,
      "mi": 8717,
      "pson": 8718,
      "Ġcattle": 8719,
      "Ġstating": 8720,
      "ĠHard": 8721,
      "ĠFood": 8722,
      "ĠFaso": 8723,
      "ĠKey": 8724,
      "Ġ39": 8725,
      "ĠDec": 8726,
      "Ġentitled": 8727,
      "Ġapproval": 8728,
      "Ġemployees": 8729,
      "Ġadults": 8730,
      "Ġnucleus": 8731,
      "ĠOrigin": 8732,
      "bane": 8733,
      "path": 8734,
      "rity": 8735,
      "Ġibn": 8736,
      "Ġpairs": 8737,
      "ication": 8738,
      "ĠBry": 8739,
      "ĠBishop": 8740,
      "ĠFif": 8741,
      "ĠInn": 8742,
      "ipel": 8743,
      "Ġdismiss": 8744,
      "ĠAdvent": 8745,
      "Ġfollowers": 8746,
      "Ġretire": 8747,
      "ĠPhill": 8748,
      "Ġpublicly": 8749,
      "rows": 8750,
      "Ġreceiving": 8751,
      "Ġindicates": 8752,
      "Ġcredit": 8753,
      "Ġlatest": 8754,
      "Ġogbonge": 8755,
      "dimensional": 8756,
      "Ġid": 8757,
      "Ġtanks": 8758,
      "Ġinaug": 8759,
      "ĠBrad": 8760,
      "using": 8761,
      "ĠRos": 8762,
      "ĠRoy": 8763,
      "Ġrational": 8764,
      "Ġ47": 8765,
      "Ġinstructions": 8766,
      "Ġbegun": 8767,
      "Ġidentical": 8768,
      "Ġloan": 8769,
      "Ġvariants": 8770,
      "onomous": 8771,
      "TA": 8772,
      "foot": 8773,
      "hard": 8774,
      "Ġsel": 8775,
      "ĠASC": 8776,
      "ĠSyd": 8777,
      "ĠFI": 8778,
      "ogether": 8779,
      "ĠAltern": 8780,
      "Ġpartially": 8781,
      "Ġmineral": 8782,
      "ĠAndalus": 8783,
      "coming": 8784,
      "Ġcalendar": 8785,
      "ĠAhmed": 8786,
      "Ġsocieties": 8787,
      "Ġvessels": 8788,
      "pat": 8789,
      "Ġsin": 8790,
      "Ġfat": 8791,
      "Ġmit": 8792,
      "olve": 8793,
      "ĠLog": 8794,
      "ĠWolf": 8795,
      "Ġsupplies": 8796,
      "Ġinvent": 8797,
      "ospel": 8798,
      "ĠÎ²": 8799,
      "Ġprecip": 8800,
      "Ġalpha": 8801,
      "ĠMemorial": 8802,
      "Ġcircumstances": 8803,
      "ĠEngineering": 8804,
      "Ġvelocity": 8805,
      "div": 8806,
      "Ġ),": 8807,
      "ĠTenness": 8808,
      "Ġgender": 8809,
      "ĠLi": 8810,
      "Ġdefine": 8811,
      "Ġexposed": 8812,
      "Ġefficient": 8813,
      "Ġreferring": 8814,
      "ĠUSA": 8815,
      "2009": 8816,
      "Ġexecution": 8817,
      "Ġdetailed": 8818,
      "nesday": 8819,
      "ĠBavaria": 8820,
      "Ġchapter": 8821,
      "Ġdescendants": 8822,
      "Ġillegal": 8823,
      "ĠGordon": 8824,
      "brid": 8825,
      "itals": 8826,
      "Ġmm": 8827,
      "Ġmob": 8828,
      "ĠTen": 8829,
      "Ġ(;": 8830,
      "ĠPed": 8831,
      "ĠFern": 8832,
      "aneously": 8833,
      "Ġ1904": 8834,
      "1990": 8835,
      "Ġfinding": 8836,
      "Ġclearly": 8837,
      "ĠCastle": 8838,
      "Ġnitrogen": 8839,
      "ĠLady": 8840,
      "Ġstruggle": 8841,
      "ativity": 8842,
      "isem": 8843,
      "Ġwaka": 8844,
      "ĠMars": 8845,
      "ĠPy": 8846,
      "ersion": 8847,
      "avia": 8848,
      "Ġvul": 8849,
      "Ġearned": 8850,
      "Ġemot": 8851,
      "Ġcontinental": 8852,
      "Ġ1903": 8853,
      "Ġsolo": 8854,
      "Ġsentence": 8855,
      "Ġemphasis": 8856,
      "Ġadaptation": 8857,
      "ĠBurkina": 8858,
      "Ġbicy": 8859,
      "Ġmuzik": 8860,
      "ĠTy": 8861,
      "ĠSox": 8862,
      "ĠPra": 8863,
      "employ": 8864,
      "ĠGriff": 8865,
      "Ġabbre": 8866,
      "Ġsched": 8867,
      "Ġdesire": 8868,
      "Ġsynd": 8869,
      "Ġbusinesses": 8870,
      "Ġkomot": 8871,
      "Ġsteps": 8872,
      "Ġvoters": 8873,
      "hythm": 8874,
      "ĠCold": 8875,
      "otton": 8876,
      "rac": 8877,
      "ĠHo": 8878,
      "ĠDra": 8879,
      "ubu": 8880,
      "Ġconsult": 8881,
      "Ġshel": 8882,
      "Ġairline": 8883,
      "Ġoperates": 8884,
      "Ġtelephone": 8885,
      "shire": 8886,
      "Ġastrol": 8887,
      "Ġdemonstrated": 8888,
      "Ġabolished": 8889,
      "69": 8890,
      "bel": 8891,
      "Ġtall": 8892,
      "eric": 8893,
      "ĠTok": 8894,
      "ĠBalt": 8895,
      "idae": 8896,
      "ĠFres": 8897,
      "ĠFall": 8898,
      "ĠFolk": 8899,
      "ĠLib": 8900,
      "ework": 8901,
      "ĠAlpha": 8902,
      "anga": 8903,
      "Ġalliance": 8904,
      "ennium": 8905,
      "Ġbroken": 8906,
      "Ġanniversary": 8907,
      "Ġclassic": 8908,
      "Ġ1890": 8909,
      "ĠÃī": 8910,
      "ĠâĢ¢": 8911,
      "Ġimplementation": 8912,
      "ĠMilan": 8913,
      "Ġreplacement": 8914,
      "Ġhyper": 8915,
      "Ġcricketer": 8916,
      "ĠTennessee": 8917,
      "cow": 8918,
      "Ð°": 8919,
      "enburg": 8920,
      "Ġbones": 8921,
      "ĠAOL": 8922,
      "ĠSus": 8923,
      "Ġrect": 8924,
      "ĠRud": 8925,
      "acle": 8926,
      "ĠKabul": 8927,
      "Ġspeaking": 8928,
      "Ġweb": 8929,
      "Ġcalling": 8930,
      "Ġestablishing": 8931,
      "Ġcircuit": 8932,
      "Ġspectrum": 8933,
      "Ġliberal": 8934,
      "Ġconnections": 8935,
      "ĠMinor": 8936,
      "Ġranging": 8937,
      "ĠBroadway": 8938,
      "itis": 8939,
      "Ġbid": 8940,
      "ĠBand": 8941,
      "cht": 8942,
      "ayy": 8943,
      "ĠDyn": 8944,
      "ĠLo": 8945,
      "aki": 8946,
      "Ġunlike": 8947,
      "Ġpartial": 8948,
      "Ġaccum": 8949,
      "Ġsignificance": 8950,
      "ĠChristie": 8951,
      "ynomial": 8952,
      "ĠWeek": 8953,
      "Ġtourist": 8954,
      "Ġentertainment": 8955,
      "Ġspoke": 8956,
      "Ġarranged": 8957,
      "largest": 8958,
      "Se": 8959,
      "itime": 8960,
      "ĠSher": 8961,
      "Ġlot": 8962,
      "ados": 8963,
      "ĠPict": 8964,
      "ĠDal": 8965,
      "Ġcondom": 8966,
      "odyn": 8967,
      "ĠIns": 8968,
      "ĠStone": 8969,
      "Ġclimb": 8970,
      "ĠArc": 8971,
      "Ġ41": 8972,
      "Ġseconds": 8973,
      "1999": 8974,
      "Ġboundary": 8975,
      "ĠDonald": 8976,
      "Ġalkali": 8977,
      "ĠBallarat": 8978,
      "Ġbriefly": 8979,
      "ĠUpon": 8980,
      "Ġcoronavirus": 8981,
      "iciency": 8982,
      "NT": 8983,
      "alion": 8984,
      "Ġfired": 8985,
      "ĠSom": 8986,
      "ĠGib": 8987,
      "Ġresid": 8988,
      "ĠArn": 8989,
      "Ġneva": 8990,
      "2012": 8991,
      "Ġsignals": 8992,
      "Ġstructural": 8993,
      "inoza": 8994,
      "Ġparticipate": 8995,
      "ithmetic": 8996,
      "forcement": 8997,
      "Ġappropriate": 8998,
      "ĠBASIC": 8999,
      "inder": 9000,
      "Ġfix": 9001,
      "ĠAur": 9002,
      "Ġhorn": 9003,
      "ĠBac": 9004,
      "Ġnaturally": 9005,
      "ĠMuch": 9006,
      "Ġstability": 9007,
      "Ġmonitor": 9008,
      "ĠMathem": 9009,
      "ĠAchilles": 9010,
      "Ġrecommended": 9011,
      "Ġintellectual": 9012,
      "ĠAA": 9013,
      "ĠBris": 9014,
      "ami": 9015,
      "ĠMill": 9016,
      "ocated": 9017,
      "ĠKings": 9018,
      "Ġimpossible": 9019,
      "Ġoffering": 9020,
      "ĠNorman": 9021,
      "Ġmagnetic": 9022,
      "Ġcontinuing": 9023,
      "bourne": 9024,
      "Ġdistinguished": 9025,
      "Ġranges": 9026,
      "Ġprocedure": 9027,
      "Ġkolet": 9028,
      "Ġtet": 9029,
      "Ġbat": 9030,
      "Ġrevenue": 9031,
      "ĠLion": 9032,
      "Ġrising": 9033,
      "Ġteacher": 9034,
      "Ġdemocracy": 9035,
      "Ġelev": 9036,
      "Ġdefensive": 9037,
      "Ġimprison": 9038,
      "ĠWithin": 9039,
      "ĠÃĨ": 9040,
      "Ġ1880": 9041,
      "Ġintegrated": 9042,
      "Ġdifficulty": 9043,
      "aghd": 9044,
      "Ġownership": 9045,
      "Ġrecovery": 9046,
      "At": 9047,
      "VID": 9048,
      "sch": 9049,
      "Ġhits": 9050,
      "ĠBelf": 9051,
      "ĠMorm": 9052,
      "Ġconference": 9053,
      "ĠGates": 9054,
      "Ġprove": 9055,
      "ĠJersey": 9056,
      "ustion": 9057,
      "Ġspend": 9058,
      "ften": 9059,
      "Ġcurve": 9060,
      "Ġprofession": 9061,
      "Ġordinary": 9062,
      "hisatt": 9063,
      "onymous": 9064,
      "ĠWednesday": 9065,
      "It": 9066,
      "kond": 9067,
      "vas": 9068,
      "Ġsight": 9069,
      "ĠCapp": 9070,
      "ĠMaster": 9071,
      "Ġunless": 9072,
      "ĠArmed": 9073,
      "thetic": 9074,
      "ĠAgain": 9075,
      "Ġcompete": 9076,
      "ĠMichigan": 9077,
      "Ġboron": 9078,
      "Ġarrested": 9079,
      "DA": 9080,
      "east": 9081,
      "nal": 9082,
      "Ġgada": 9083,
      "ĠNaval": 9084,
      "Ġperceived": 9085,
      "Ġdesert": 9086,
      "Ġouter": 9087,
      "Ġinstalled": 9088,
      "Ġmainland": 9089,
      "Ġdepression": 9090,
      "Ġanthem": 9091,
      "ĠRomanian": 9092,
      "Ġfacilit": 9093,
      "Ġfunds": 9094,
      "Ġlosses": 9095,
      "ĠWayne": 9096,
      "ĠMovement": 9097,
      "Ġencouraged": 9098,
      "Ġstreets": 9099,
      "ĠNollywood": 9100,
      "Qaeda": 9101,
      "ecess": 9102,
      "pine": 9103,
      "ĠTin": 9104,
      "urd": 9105,
      "adi": 9106,
      "ĠUm": 9107,
      "Ġinterface": 9108,
      "ielder": 9109,
      "ĠBlues": 9110,
      "ĠPhoen": 9111,
      "Ġlegacy": 9112,
      "Ġapproaches": 9113,
      "Ġstands": 9114,
      "Ġrestricted": 9115,
      "Ġseparation": 9116,
      "Ġwider": 9117,
      "Ġcircle": 9118,
      "Ġfemales": 9119,
      "ĠAstron": 9120,
      "Ġrotation": 9121,
      "Ġtissue": 9122,
      "Ġrebellion": 9123,
      "Ġplaywright": 9124,
      "Ph": 9125,
      "cia": 9126,
      "wu": 9127,
      "anth": 9128,
      "Ġfilled": 9129,
      "Ġbits": 9130,
      "omic": 9131,
      "ĠBey": 9132,
      "osl": 9133,
      "ĠLinn": 9134,
      "apore": 9135,
      "ĠKl": 9136,
      "argo": 9137,
      "ĠAnderson": 9138,
      "forced": 9139,
      "Ġillness": 9140,
      "Ġtells": 9141,
      "Ġdiscussion": 9142,
      "compass": 9143,
      "Ġregistered": 9144,
      "Ġisotopes": 9145,
      "ĠWindows": 9146,
      "Ġmatters": 9147,
      "ĠCultural": 9148,
      "ĠBD": 9149,
      "Ġgall": 9150,
      "umed": 9151,
      "ĠClark": 9152,
      "Ġessay": 9153,
      "Ġsustain": 9154,
      "ĠPierre": 9155,
      "ĠASCII": 9156,
      "Ġbought": 9157,
      "Ġalign": 9158,
      "ĠLions": 9159,
      "wegian": 9160,
      "tenance": 9161,
      "Ġflo": 9162,
      "enny": 9163,
      "Ġ1905": 9164,
      "ĠÃĹ": 9165,
      "Ġdiscussed": 9166,
      "Ġbenefits": 9167,
      "Ġreveal": 9168,
      "ĠNotable": 9169,
      "odiazep": 9170,
      "ĠCOVID": 9171,
      "ĠSchwarzen": 9172,
      "uh": 9173,
      "Ġaest": 9174,
      "ĠTan": 9175,
      "ĠSound": 9176,
      "ĠCle": 9177,
      "ĠBud": 9178,
      "iments": 9179,
      "ĠMission": 9180,
      "ĠRand": 9181,
      "Ġconvert": 9182,
      "ĠGi": 9183,
      "ocene": 9184,
      "Ġplague": 9185,
      "Ġpolynomial": 9186,
      "ĠSpider": 9187,
      "ĠDiam": 9188,
      "ĠAllied": 9189,
      "2002": 9190,
      "Ġports": 9191,
      "ĠAtlas": 9192,
      "ĠBabbage": 9193,
      "Ġvillages": 9194,
      "Ġdrawing": 9195,
      "ĠAdmiral": 9196,
      "Ġelectricity": 9197,
      "ĠKennedy": 9198,
      "ĠEntertainment": 9199,
      "Ġunusual": 9200,
      "European": 9201,
      "!\"": 9202,
      "making": 9203,
      "Ġing": 9204,
      "iders": 9205,
      "ĠRaj": 9206,
      "ĠLet": 9207,
      "Ġdif": 9208,
      "ubes": 9209,
      "acts": 9210,
      "Ġflights": 9211,
      "Ġartistic": 9212,
      "elson": 9213,
      "Ġantiqu": 9214,
      "Ġoperational": 9215,
      "Ġstatements": 9216,
      "Ġexperiences": 9217,
      "ĠLaure": 9218,
      "Ġexclusively": 9219,
      "Ġinterpreted": 9220,
      "Hung": 9221,
      "him": 9222,
      "icate": 9223,
      "Ġdiver": 9224,
      "ĠSport": 9225,
      "ĠWalk": 9226,
      "2010": 9227,
      "Ġpharm": 9228,
      "Ġmoves": 9229,
      "Ġhappy": 9230,
      "Ġstrengthen": 9231,
      "ĠGrant": 9232,
      "Ġdependent": 9233,
      "Ġunsuccess": 9234,
      "ĠDickens": 9235,
      "Ġclinical": 9236,
      "eded": 9237,
      "Ġfishing": 9238,
      "Ġpages": 9239,
      "Ġtouch": 9240,
      "ĠCru": 9241,
      "olis": 9242,
      "olith": 9243,
      "ĠHitch": 9244,
      "ĠDJ": 9245,
      "ĠDa": 9246,
      "ĠLis": 9247,
      "ianism": 9248,
      "season": 9249,
      "Ġresc": 9250,
      "Ġrecre": 9251,
      "Ġoutbreak": 9252,
      "Ġbuff": 9253,
      "Ġlegit": 9254,
      "Ġsky": 9255,
      "chell": 9256,
      "Ġdriven": 9257,
      "Ġpredecess": 9258,
      "Ġgrounds": 9259,
      "Ġarmour": 9260,
      "Ġaxiom": 9261,
      "ĠFreedom": 9262,
      "Ġcoalition": 9263,
      "Ġammonia": 9264,
      "79": 9265,
      "89": 9266,
      "Ġdress": 9267,
      "oly": 9268,
      "ĠHong": 9269,
      "ogene": 9270,
[...]
