{
  "version": "1.0",
  "truncation": null,
  "padding": null,
  "added_tokens": [
    {
      "id": 0,
      "content": "[UNK]",
      "single_word": false,
      "lstrip": false,
      "rstrip": false,
      "normalized": false,
      "special": true
    },
    {
      "id": 1,
      "content": "[CLS]",
      "single_word": false,
      "lstrip": false,
      "rstrip": false,
      "normalized": false,
      "special": true
    },
    {
      "id": 2,
      "content": "[SEP]",
      "single_word": false,
      "lstrip": false,
      "rstrip": false,
      "normalized": false,
      "special": true
    },
    {
      "id": 3,
      "content": "[PAD]",
      "single_word": false,
      "lstrip": false,
      "rstrip": false,
      "normalized": false,
      "special": true
    },
    {
      "id": 4,
      "content": "[MASK]",
      "single_word": false,
      "lstrip": false,
      "rstrip": false,
      "normalized": false,
      "special": true
    }
  ],
  "normalizer": null,
  "pre_tokenizer": {
    "type": "Whitespace"
  },
  "post_processor": null,
  "decoder": null,
  "model": {
    "type": "BPE",
    "dropout": null,
    "unk_token": "[UNK]",
    "continuing_subword_prefix": null,
    "end_of_word_suffix": null,
    "fuse_unk": false,
    "byte_fallback": false,
    "ignore_merges": false,
    "vocab": {
      "[UNK]": 0,
      "[CLS]": 1,
      "[SEP]": 2,
      "[PAD]": 3,
      "[MASK]": 4,
      "'": 5,
      ",": 6,
      "-": 7,
      ".": 8,
      "?": 9,
      "A": 10,
      "B": 11,
      "C": 12,
      "D": 13,
      "E": 14,
      "G": 15,
      "H": 16,
      "I": 17,
      "K": 18,
      "L": 19,
      "M": 20,
      "N": 21,
      "O": 22,
      "R": 23,
      "S": 24,
      "T": 25,
      "W": 26,
      "Y": 27,
      "Z": 28,
      "a": 29,
      "b": 30,
      "c": 31,
      "d": 32,
      "e": 33,
      "f": 34,
      "g": 35,
      "h": 36,
      "i": 37,
      "j": 38,
      "k": 39,
      "l": 40,
      "m": 41,
      "n": 42,
      "o": 43,
      "p": 44,
      "r": 45,
      "s": 46,
      "t": 47,
      "u": 48,
      "w": 49,
      "y": 50,
      "z": 51,
      "À": 52,
      "à": 53,
      "á": 54,
      "è": 55,
      "é": 56,
      "ì": 57,
      "í": 58,
      "ò": 59,
      "ó": 60,
      "ù": 61,
      "ú": 62,
      "ń": 63,
      "̀": 64,
      "́": 65,
      "Ṣ": 66,
      "ṣ": 67,
      "Ẹ": 68,
      "ẹ": 69,
      "Ị": 70,
      "ị": 71,
      "Ọ": 72,
      "ọ": 73,
      "ụ": 74,
      "na": 75,
      "ka": 76,
      "in": 77,
      "wa": 78,
      "ya": 79,
      "da": 80,
      "ke": 81,
      "de": 82,
      "be": 83,
      "er": 84,
      "ọ́": 85,
      "an": 86,
      "ma": 87,
      "dey": 88,
      "Ina": 89,
      "al": 90,
      "et": 91,
      "go": 92,
      "or": 93,
      "ou": 94,
      "ọ̀": 95,
      "dị": 96,
      "jẹ": 97,
      "ni": 98,
      "on": 99,
      "you": 100,
      "ere": 101,
      "Ke": 102,
      "ab": 103,
      "ar": 104,
      "dụ": 105,
      "gị": 106,
      "ha": 107,
      "he": 108,
      "jọ́": 109,
      "kwa": 110,
      "lọ": 111,
      "mu": 112,
      "no": 113,
      "Kedụ": 114,
      "Ya": 115,
      "dá": 116,
      "fi": 117,
      "gi": 118,
      "je": 119,
      "ll": 120,
      "lá": 121,
      "mi": 122,
      "oo": 123,
      "pọ̀": 124,
      "sí": 125,
      "we": 126,
      "àn": 127,
      "ún": 128,
      "Ọjọ́": 129,
      "nan": 130,
      "etin": 131,
      "Yaya": 132,
      "San": 133,
      "ai": 134,
      "ake": 135,
      "bo": 136,
      "ez": 137,
      "for": 138,
      "ki": 139,
      "la": 140,
      "lé": 141,
      "mma": 142,
      "nu": 143,
      "ná": 144,
      "rẹ": 145,
      "son": 146,
      "ti": 147,
      "un": 148,
      "uwa": 149,
      "àb": 150,
      "kan": 151,
      "yana": 152,
      "beg": 153,
      "ala": 154,
      "jẹ́": 155,
      "gida": 156,
      "Sannu": 157,
      "Ch": 158,
      "Ego": 159,
      "Ho": 160,
      "Ije": 161,
      "Mo": 162,
      "Make": 163,
      "No": 164,
      "Wan": 165,
      "Wetin": 166,
      "am": 167,
      "as": 168,
      "abeg": 169,
      "ba": 170,
      "bụ": 171,
      "ch": 172,
      "co": 173,
      "do": 174,
      "don": 175,
      "ee": 176,
      "fí": 177,
      "fún": 178,
      "gb": 179,
      "ge": 180,
      "get": 181,
      "here": 182,
      "hala": 183,
      "iya": 184,
      "ike": 185,
      "ilé": 186,
      "ko": 187,
      "kú": 188,
      "kọ": 189,
      "kya": 190,
      "le": 191,
      "lọ́": 192,
      "me": 193,
      "mo": 194,
      "mere": 195,
      "ne": 196,
      "ní": 197,
      "nke": 198,
      "op": 199,
      "os": 200,
      "oún": 201,
      "oki": 202,
      "ole": 203,
      "pu": 204,
      "ra": 205,
      "re": 206,
      "rị": 207,
      "ràn": 208,
      "si": 209,
      "sị": 210,
      "sha": 211,
      "see": 212,
      "tal": 213,
      "too": 214,
      "wu": 215,
      "wà": 216,
      "wetin": 217,
      "ìí": 218,
      "ẹ́": 219,
      "ọma": 220,
      "ụlọ": 221,
      "kas": 222,
      "kake": 223,
      "inụlọ": 224,
      "wahala": 225,
      "bell": 226,
      "aboki": 227,
      "kwana": 228,
      "mumu": 229,
      "dáa": 230,
      "láfí": 231,
      "ezinụlọ": 232,
      "náà": 233,
      "How": 234,
      "chop": 235,
      "como": 236,
      "kyau": 237,
      "oúnjẹ": 238,
      "pupọ̀": 239,
      "sịrị": 240,
      "talk": 241,
      "belly": 242,
      "láfíà": 243,
      "comot": 244,
      "Ah": 245,
      "Aha": 246,
      "Abeg": 247,
      "Awu": 248,
      "Ba": 249,
      "Bị": 250,
      "Bar": 251,
      "Bàb": 252,
      "Car": 253,
      "De": 254,
      "Ebe": 255,
      "Gi": 256,
      "Ha": 257,
      "Iy": 258,
      "Ihe": 259,
      "Ilé": 260,
      "Kí": 261,
      "La": 262,
      "Mu": 263,
      "Mun": 264,
      "Na": 265,
      "Ni": 266,
      "Nr": 267,
      "Ní": 268,
      "Ndị": 269,
      "Ruwa": 270,
      "She": 271,
      "Th": 272,
      "Yor": 273,
      "You": 274,
      "Zan": 275,
      "aa": 276,
      "ag": 277,
      "ap": 278,
      "at": 279,
      "ama": 280,
      "aha": 281,
      "bu": 282,
      "bá": 283,
      "bab": 284,
      "ct": 285,
      "cin": 286,
      "cer": 287,
      "cor": 288,
      "con": 289,
      "cap": 290,
      "di": 291,
      "du": 292,
      "dy": 293,
      "dè": 294,
      "dù": 295,
      "din": 296,
      "en": 297,
      "eke": 298,
      "ebe": 299,
      "ege": 300,
      "fu": 301,
      "fụ": 302,
      "far": 303,
      "fẹ́": 304,
      "gu": 305,
      "gọ": 306,
      "gbo": 307,
      "gas": 308,
      "hin": 309,
      "ie": 310,
      "ik": 311,
      "is": 312,
      "iṣ": 313,
      "ihe": 314,
      "igb": 315,
      "idi": 316,
      "igbo": 317,
      "jà": 318,
      "já": 319,
      "jin": 320,
      "jer": 321,
      "jike": 322,
      "kí": 323,
      "kò": 324,
      "kọ́": 325,
      "kọ̀": 326,
      "kwu": 327,
      "li": 328,
      "lm": 329,
      "lo": 330,
      "ló": 331,
      "làn": 332,
      "like": 333,
      "my": 334,
      "mọ": 335,
      "min": 336,
      "nw": 337,
      "nz": 338,
      "nọ": 339,
      "nna": 340,
      "nwa": 341,
      "nje": 342,
      "nnan": 343,
      "nla": 344,
      "nìí": 345,
      "njike": 346,
      "oma": 347,
      "oko": 348,
      "pp": 349,
      "pos": 350,
      "pik": 351,
      "ru": 352,
      "ry": 353,
      "rọ": 354,
      "rụ": 355,
      "rere": 356,
      "rai": 357,
      "run": 358,
      "ràb": 359,
      "sa": 360,
      "so": 361,
      "st": 362,
      "su": 363,
      "sin": 364,
      "sab": 365,
      "swe": 366,
      "sos": 367,
      "ter": 368,
      "take": 369,
      "taa": 370,
      "tege": 371,
      "thin": 372,
      "tru": 373,
      "ukwu": 374,
      "usa": 375,
      "wo": 376,
      "wọ́": 377,
      "wor": 378,
      "yi": 379,
      "yí": 380,
      "yị": 381,
      "yàn": 382,
      "yun": 383,
      "yìí": 384,
      "zuwa": 385,
      "zama": 386,
      "zie": 387,
      "Àláfíà": 388,
      "Àràb": 389,
      "àì": 390,
      "àti": 391,
      "àláfíà": 392,
      "ádù": 393,
      "èè": 394,
      "èdè": 395,
      "ìsí": 396,
      "ìràn": 397,
      "ìsin": 398,
      "ùbá": 399,
      "úkọ": 400,
      "Ṣé": 401,
      "ṣé": 402,
      "ṣẹ́": 403,
      "Ẹṣẹ́": 404,
      "ẹgu": 405,
      "Ọba": 406,
      "Ọmọ": 407,
      "ọjọ́": 408,
      "ọjà": 409,
      "ụrụ": 410,
      "kara": 411,
      "insi": 412,
      "incin": 413,
      "ineke": 414,
      "waka": 415,
      "wannan": 416,
      "yamma": 417,
      "yanz": 418,
      "anya": 419,
      "anyị": 420,
      "masịrị": 421,
      "all": 422,
      "aládù": 423,
      "gode": 424,
      "gobe": 425,
      "orúkọ": 426,
      "ọ̀kan": 427,
      "your": 428,
      "abincin": 429,
      "happ": 430,
      "hear": 431,
      "kwanan": 432,
      "kwarai": 433,
      "lọpọ̀": 434,
      "dáná": 435,
      "dára": 436,
      "fia": 437,
      "fim": 438,
      "fiya": 439,
      "film": 440,
      "gist": 441,
      "láti": 442,
      "láìsí": 443,
      "ooo": 444,
      "pọ̀lọpọ̀": 445,
      "well": 446,
      "nanka": 447,
      "aiki": 448,
      "body": 449,
      "ezigbo": 450,
      "lau": 451,
      "later": 452,
      "rẹ̀": 453,
      "rẹwà": 454,
      "tirẹ̀": 455,
      "àbọ̀": 456,
      "kankan": 457,
      "alafia": 458,
      "Chidi": 459,
      "Chineke": 460,
      "Ijeoma": 461,
      "Wane": 462,
      "Wannan": 463,
      "bad": 464,
      "gbé": 465,
      "iyali": 466,
      "koyi": 467,
      "kọjá": 468,
      "lọ́wọ́": 469,
      "lọ́pọ̀lọpọ̀": 470,
      "rect": 471,
      "shakara": 472,
      "kasar": 473,
      "kasuwa": 474,
      "abokina": 475,
      "dáadáa": 476,
      "Ahụrụ": 477,
      "Awuf": 478,
      "Bawo": 479,
      "Bịa": 480,
      "Barka": 481,
      "Bàbá": 482,
      "Carry": 483,
      "Ebee": 484,
      "Gida": 485,
      "Hausa": 486,
      "Iyá": 487,
      "Lafiya": 488,
      "Muna": 489,
      "Mungode": 490,
      "Nijer": 491,
      "Nri": 492,
      "Níbo": 493,
      "Shey": 494,
      "This": 495,
      "Yorùbá": 496,
      "aga": 497,
      "baba": 498,
      "cern": 499,
      "correct": 500,
      "concern": 501,
      "dumi": 502,
      "full": 503,
      "fụkwa": 504,
      "fẹ́ràn": 505,
      "gọzie": 506,
      "gaske": 507,
      "iṣu": 508,
      "igbó": 509,
      "kọ̀ọ̀kan": 510,
      "lónìí": 511,
      "lànà": 512,
      "mind": 513,
      "nwere": 514,
      "nọrọ": 515,
      "njem": 516,
      "njikere": 517,
      "post": 518,
      "pikin": 519,
      "sunanka": 520,
      "sabi": 521,
      "sweet": 522,
      "sosai": 523,
      "thing": 524,
      "true": 525,
      "ukwuu": 526,
      "work": 527,
      "yín": 528,
      "yunwa": 529,
      "Àràbà": 530,
      "àìkú": 531,
      "èèyàn": 532,
      "ìrànlọ́wọ́": 533,
      "ìsinmi": 534,
      "ẹgusi": 535,
      "Ọmọge": 536,
      "inside": 537,
      "yanzu": 538,
      "aládùn": 539,
      "happen": 540,
      "Nijeriya": 541
    },
    "merges": [
      [
        "n",
        "a"
      ],
      [
        "k",
        "a"
      ],
      [
        "i",
        "n"
      ],
      [
        "w",
        "a"
      ],
      [
        "y",
        "a"
      ],
      [
        "d",
        "a"
      ],
      [
        "k",
        "e"
      ],
      [
        "d",
        "e"
      ],
      [
        "b",
        "e"
      ],
      [
        "e",
        "r"
      ],
      [
        "ọ",
        "́"
      ],
      [
        "a",
        "n"
      ],
      [
        "m",
        "a"
      ],
      [
        "de",
        "y"
      ],
      [
        "I",
        "na"
      ],
      [
        "a",
        "l"
      ],
      [
        "e",
        "t"
      ],
      [
        "g",
        "o"
      ],
      [
        "o",
        "r"
      ],
      [
        "o",
        "u"
      ],
      [
        "ọ",
        "̀"
      ],
      [
        "d",
        "ị"
      ],
      [
        "j",
        "ẹ"
      ],
      [
        "n",
        "i"
      ],
      [
        "o",
        "n"
      ],
      [
        "y",
        "ou"
      ],
      [
        "er",
        "e"
      ],
      [
        "K",
        "e"
      ],
      [
        "a",
        "b"
      ],
      [
        "a",
        "r"
      ],
      [
        "d",
        "ụ"
      ],
      [
        "g",
        "ị"
      ],
      [
        "h",
        "a"
      ],
      [
        "h",
        "e"
      ],
      [
        "j",
        "ọ́"
      ],
      [
        "k",
        "wa"
      ],
      [
        "l",
        "ọ"
      ],
      [
        "m",
        "u"
      ],
      [
        "n",
        "o"
      ],
      [
        "Ke",
        "dụ"
      ],
      [
        "Y",
        "a"
      ],
      [
        "d",
        "á"
      ],
      [
        "f",
        "i"
      ],
      [
        "g",
        "i"
      ],
      [
        "j",
        "e"
      ],
      [
        "l",
        "l"
      ],
      [
        "l",
        "á"
      ],
      [
        "m",
        "i"
      ],
      [
        "o",
        "o"
      ],
      [
        "p",
        "ọ̀"
      ],
      [
        "s",
        "í"
      ],
      [
        "w",
        "e"
      ],
      [
        "à",
        "n"
      ],
      [
        "ú",
        "n"
      ],
      [
        "Ọ",
        "jọ́"
      ],
      [
        "na",
        "n"
      ],
      [
        "et",
        "in"
      ],
      [
        "Ya",
        "ya"
      ],
      [
        "S",
        "an"
      ],
      [
        "a",
        "i"
      ],
      [
        "a",
        "ke"
      ],
      [
        "b",
        "o"
      ],
      [
        "e",
        "z"
      ],
      [
        "f",
        "or"
      ],
      [
        "k",
        "i"
      ],
      [
        "l",
        "a"
      ],
      [
        "l",
        "é"
      ],
      [
        "m",
        "ma"
      ],
      [
        "n",
        "u"
      ],
      [
        "n",
        "á"
      ],
      [
        "r",
        "ẹ"
      ],
      [
        "s",
        "on"
      ],
      [
        "t",
        "i"
      ],
      [
        "u",
        "n"
      ],
      [
        "u",
        "wa"
      ],
      [
        "à",
        "b"
      ],
      [
        "ka",
        "n"
      ],
      [
        "ya",
        "na"
      ],
      [
        "be",
        "g"
      ],
      [
        "al",
        "a"
      ],
      [
        "jẹ",
        "́"
      ],
      [
        "gi",
        "da"
      ],
      [
        "San",
        "nu"
      ],
      [
        "C",
        "h"
      ],
      [
        "E",
        "go"
      ],
      [
        "H",
        "o"
      ],
      [
        "I",
        "je"
      ],
      [
        "M",
        "o"
      ],
      [
        "M",
        "ake"
      ],
      [
        "N",
        "o"
      ],
      [
        "W",
        "an"
      ],
      [
        "W",
        "etin"
      ],
      [
        "a",
        "m"
      ],
      [
        "a",
        "s"
      ],
      [
        "a",
        "beg"
      ],
      [
        "b",
        "a"
      ],
      [
        "b",
        "ụ"
      ],
      [
        "c",
        "h"
      ],
      [
        "c",
        "o"
      ],
      [
        "d",
        "o"
      ],
      [
        "d",
        "on"
      ],
      [
        "e",
        "e"
      ],
      [
        "f",
        "í"
      ],
      [
        "f",
        "ún"
      ],
      [
        "g",
        "b"
      ],
      [
        "g",
        "e"
      ],
      [
        "g",
        "et"
      ],
      [
        "h",
        "ere"
      ],
      [
        "h",
        "ala"
      ],
      [
        "i",
        "ya"
      ],
      [
        "i",
        "ke"
      ],
      [
        "i",
        "lé"
      ],
      [
        "k",
        "o"
      ],
      [
        "k",
        "ú"
      ],
      [
        "k",
        "ọ"
      ],
      [
        "k",
        "ya"
      ],
      [
        "l",
        "e"
      ],
      [
        "l",
        "ọ́"
      ],
      [
        "m",
        "e"
      ],
      [
        "m",
        "o"
      ],
      [
        "m",
        "ere"
      ],
      [
        "n",
        "e"
      ],
      [
        "n",
        "í"
      ],
      [
        "n",
        "ke"
      ],
      [
        "o",
        "p"
      ],
      [
        "o",
        "s"
      ],
      [
        "o",
        "ún"
      ],
      [
        "o",
        "ki"
      ],
      [
        "o",
        "le"
      ],
      [
        "p",
        "u"
      ],
      [
        "r",
        "a"
      ],
      [
        "r",
        "e"
      ],
      [
        "r",
        "ị"
      ],
      [
        "r",
        "àn"
      ],
      [
        "s",
        "i"
      ],
      [
        "s",
        "ị"
      ],
      [
        "s",
        "ha"
      ],
      [
        "s",
        "ee"
      ],
      [
        "t",
        "al"
      ],
      [
        "t",
        "oo"
      ],
      [
        "w",
        "u"
      ],
      [
        "w",
        "à"
      ],
      [
        "w",
        "etin"
      ],
      [
        "ì",
        "í"
      ],
      [
        "ẹ",
        "́"
      ],
      [
        "ọ",
        "ma"
      ],
      [
        "ụ",
        "lọ"
      ],
      [
        "ka",
        "s"
      ],
      [
        "ka",
        "ke"
      ],
      [
        "in",
        "ụlọ"
      ],
      [
        "wa",
        "hala"
      ],
      [
        "be",
        "ll"
      ],
      [
        "ab",
        "oki"
      ],
      [
        "kwa",
        "na"
      ],
      [
        "mu",
        "mu"
      ],
      [
        "dá",
        "a"
      ],
      [
        "lá",
        "fí"
      ],
      [
        "ez",
        "inụlọ"
      ],
      [
        "ná",
        "à"
      ],
      [
        "Ho",
        "w"
      ],
      [
        "ch",
        "op"
      ],
      [
        "co",
        "mo"
      ],
      [
        "kya",
        "u"
      ],
      [
        "oún",
        "jẹ"
      ],
      [
        "pu",
        "pọ̀"
      ],
      [
        "sị",
        "rị"
      ],
      [
        "tal",
        "k"
      ],
      [
        "bell",
        "y"
      ],
      [
        "láfí",
        "à"
      ],
      [
        "como",
        "t"
      ],
      [
        "A",
        "h"
      ],
      [
        "A",
        "ha"
      ],
      [
        "A",
        "beg"
      ],
      [
        "A",
        "wu"
      ],
      [
        "B",
        "a"
      ],
      [
        "B",
        "ị"
      ],
      [
        "B",
        "ar"
      ],
      [
        "B",
        "àb"
      ],
      [
        "C",
        "ar"
      ],
      [
        "D",
        "e"
      ],
      [
        "E",
        "be"
      ],
      [
        "G",
        "i"
      ],
      [
        "H",
        "a"
      ],
      [
        "I",
        "y"
      ],
      [
        "I",
        "he"
      ],
      [
        "I",
        "lé"
      ],
      [
        "K",
        "í"
      ],
      [
        "L",
        "a"
      ],
      [
        "M",
        "u"
      ],
      [
        "M",
        "un"
      ],
      [
        "N",
        "a"
      ],
      [
        "N",
        "i"
      ],
      [
        "N",
        "r"
      ],
      [
        "N",
        "í"
      ],
      [
        "N",
        "dị"
      ],
      [
        "R",
        "uwa"
      ],
      [
        "S",
        "he"
      ],
      [
        "T",
        "h"
      ],
      [
        "Y",
        "or"
      ],
      [
        "Y",
        "ou"
      ],
      [
        "Z",
        "an"
      ],
      [
        "a",
        "a"
      ],
      [
        "a",
        "g"
      ],
      [
        "a",
        "p"
      ],
      [
        "a",
        "t"
      ],
      [
        "a",
        "ma"
      ],
      [
        "a",
        "ha"
      ],
      [
        "b",
        "u"
      ],
      [
        "b",
        "á"
      ],
      [
        "b",
        "ab"
      ],
      [
        "c",
        "t"
      ],
      [
        "c",
        "in"
      ],
      [
        "c",
        "er"
      ],
      [
        "c",
        "or"
      ],
      [
        "c",
        "on"
      ],
      [
        "c",
        "ap"
      ],
      [
        "d",
        "i"
      ],
      [
        "d",
        "u"
      ],
      [
        "d",
        "y"
      ],
      [
        "d",
        "è"
      ],
      [
        "d",
        "ù"
      ],
      [
        "d",
        "in"
      ],
      [
        "e",
        "n"
      ],
      [
        "e",
        "ke"
      ],
      [
        "e",
        "be"
      ],
      [
        "e",
        "ge"
      ],
      [
        "f",
        "u"
      ],
      [
        "f",
        "ụ"
      ],
      [
        "f",
        "ar"
      ],
      [
        "f",
        "ẹ́"
      ],
      [
        "g",
        "u"
      ],
      [
        "g",
        "ọ"
      ],
      [
        "g",
        "bo"
      ],
      [
        "g",
        "as"
      ],
      [
        "h",
        "in"
      ],
      [
        "i",
        "e"
      ],
      [
        "i",
        "k"
      ],
      [
        "i",
        "s"
      ],
      [
        "i",
        "ṣ"
      ],
      [
        "i",
        "he"
      ],
      [
        "i",
        "gb"
      ],
      [
        "i",
        "di"
      ],
      [
        "i",
        "gbo"
      ],
      [
        "j",
        "à"
      ],
      [
        "j",
        "á"
      ],
      [
        "j",
        "in"
      ],
      [
        "j",
        "er"
      ],
      [
        "j",
        "ike"
      ],
      [
        "k",
        "í"
      ],
      [
        "k",
        "ò"
      ],
      [
        "k",
        "ọ́"
      ],
      [
        "k",
        "ọ̀"
      ],
      [
        "k",
        "wu"
      ],
      [
        "l",
        "i"
      ],
      [
        "l",
        "m"
      ],
      [
        "l",
        "o"
      ],
      [
        "l",
        "ó"
      ],
      [
        "l",
        "àn"
      ],
      [
        "l",
        "ike"
      ],
      [
        "m",
        "y"
      ],
      [
        "m",
        "ọ"
      ],
      [
        "m",
        "in"
      ],
      [
        "n",
        "w"
      ],
      [
        "n",
        "z"
      ],
      [
        "n",
        "ọ"
      ],
      [
        "n",
        "na"
      ],
      [
        "n",
        "wa"
      ],
      [
        "n",
        "je"
      ],
      [
        "n",
        "nan"
      ],
      [
        "n",
        "la"
      ],
      [
        "n",
        "ìí"
      ],
      [
        "n",
        "jike"
      ],
      [
        "o",
        "ma"
      ],
      [
        "o",
        "ko"
      ],
      [
        "p",
        "p"
      ],
      [
        "p",
        "os"
      ],
      [
        "p",
        "ik"
      ],
      [
        "r",
        "u"
      ],
      [
        "r",
        "y"
      ],
      [
        "r",
        "ọ"
      ],
      [
        "r",
        "ụ"
      ],
      [
        "r",
        "ere"
      ],
      [
        "r",
        "ai"
      ],
      [
        "r",
        "un"
      ],
      [
        "r",
        "àb"
      ],
      [
        "s",
        "a"
      ],
      [
        "s",
        "o"
      ],
      [
        "s",
        "t"
      ],
      [
        "s",
        "u"
      ],
      [
        "s",
        "in"
      ],
      [
        "s",
        "ab"
      ],
      [
        "s",
        "we"
      ],
      [
        "s",
        "os"
      ],
      [
        "t",
        "er"
      ],
      [
        "t",
        "ake"
      ],
      [
        "t",
        "aa"
      ],
      [
        "t",
        "ege"
      ],
      [
        "t",
        "hin"
      ],
      [
        "t",
        "ru"
      ],
      [
        "u",
        "kwu"
      ],
      [
        "u",
        "sa"
      ],
      [
        "w",
        "o"
      ],
      [
        "w",
        "ọ́"
      ],
      [
        "w",
        "or"
      ],
      [
        "y",
        "i"
      ],
      [
        "y",
        "í"
      ],
      [
        "y",
        "ị"
      ],
      [
        "y",
        "àn"
      ],
      [
        "y",
        "un"
      ],
      [
        "y",
        "ìí"
      ],
      [
        "z",
        "uwa"
      ],
      [
        "z",
        "ama"
      ],
      [
        "z",
        "ie"
      ],
      [
        "À",
        "láfíà"
      ],
      [
        "À",
        "ràb"
      ],
      [
        "à",
        "ì"
      ],
      [
        "à",
        "ti"
      ],
      [
        "à",
        "láfíà"
      ],
      [
        "á",
        "dù"
      ],
      [
        "è",
        "è"
      ],
      [
        "è",
        "dè"
      ],
      [
        "ì",
        "sí"
      ],
      [
        "ì",
        "ràn"
      ],
      [
        "ì",
        "sin"
      ],
      [
        "ù",
        "bá"
      ],
      [
        "ú",
        "kọ"
      ],
      [
        "Ṣ",
        "é"
      ],
      [
        "ṣ",
        "é"
      ],
      [
        "ṣ",
        "ẹ́"
      ],
      [
        "Ẹ",
        "ṣẹ́"
      ],
      [
        "ẹ",
        "gu"
      ],
      [
        "Ọ",
        "ba"
      ],
      [
        "Ọ",
        "mọ"
      ],
      [
        "ọ",
        "jọ́"
      ],
      [
        "ọ",
        "jà"
      ],
      [
        "ụ",
        "rụ"
      ],
      [
        "ka",
        "ra"
      ],
      [
        "in",
        "si"
      ],
      [
        "in",
        "cin"
      ],
      [
        "in",
        "eke"
      ],
      [
        "wa",
        "ka"
      ],
      [
        "wa",
        "nnan"
      ],
      [
        "ya",
        "mma"
      ],
      [
        "ya",
        "nz"
      ],
      [
        "an",
        "ya"
      ],
      [
        "an",
        "yị"
      ],
      [
        "ma",
        "sịrị"
      ],
      [
        "al",
        "l"
      ],
      [
        "al",
        "ádù"
      ],
      [
        "go",
        "de"
      ],
      [
        "go",
        "be"
      ],
      [
        "or",
        "úkọ"
      ],
      [
        "ọ̀",
        "kan"
      ],
      [
        "you",
        "r"
      ],
      [
        "ab",
        "incin"
      ],
      [
        "ha",
        "pp"
      ],
      [
        "he",
        "ar"
      ],
      [
        "kwa",
        "nan"
      ],
      [
        "kwa",
        "rai"
      ],
      [
        "lọ",
        "pọ̀"
      ],
      [
        "dá",
        "ná"
      ],
      [
        "dá",
        "ra"
      ],
      [
        "fi",
        "a"
      ],
      [
        "fi",
        "m"
      ],
      [
        "fi",
        "ya"
      ],
      [
        "fi",
        "lm"
      ],
      [
        "gi",
        "st"
      ],
      [
        "lá",
        "ti"
      ],
      [
        "lá",
        "ìsí"
      ],
      [
        "oo",
        "o"
      ],
      [
        "pọ̀",
        "lọpọ̀"
      ],
      [
        "we",
        "ll"
      ],
      [
        "nan",
        "ka"
      ],
      [
        "ai",
        "ki"
      ],
      [
        "bo",
        "dy"
      ],
      [
        "ez",
        "igbo"
      ],
      [
        "la",
        "u"
      ],
      [
        "la",
        "ter"
      ],
      [
        "rẹ",
        "̀"
      ],
      [
        "rẹ",
        "wà"
      ],
      [
        "ti",
        "rẹ̀"
      ],
      [
        "àb",
        "ọ̀"
      ],
      [
        "kan",
        "kan"
      ],
      [
        "ala",
        "fia"
      ],
      [
        "Ch",
        "idi"
      ],
      [
        "Ch",
        "ineke"
      ],
      [
        "Ije",
        "oma"
      ],
      [
        "Wan",
        "e"
      ],
      [
        "Wan",
        "nan"
      ],
      [
        "ba",
        "d"
      ],
      [
        "gb",
        "é"
      ],
      [
        "iya",
        "li"
      ],
      [
        "ko",
        "yi"
      ],
      [
        "kọ",
        "já"
      ],
      [
        "lọ́",
        "wọ́"
      ],
      [
        "lọ́",
        "pọ̀lọpọ̀"
      ],
      [
        "re",
        "ct"
      ],
      [
        "sha",
        "kara"
      ],
      [
        "kas",
        "ar"
      ],
      [
        "kas",
        "uwa"
      ],
      [
        "aboki",
        "na"
      ],
      [
        "dáa",
        "dáa"
      ],
      [
        "Ah",
        "ụrụ"
      ],
      [
        "Awu",
        "f"
      ],
      [
        "Ba",
        "wo"
      ],
      [
        "Bị",
        "a"
      ],
      [
        "Bar",
        "ka"
      ],
      [
        "Bàb",
        "á"
      ],
      [
        "Car",
        "ry"
      ],
      [
        "Ebe",
        "e"
      ],
      [
        "Gi",
        "da"
      ],
      [
        "Ha",
        "usa"
      ],
      [
        "Iy",
        "á"
      ],
      [
        "La",
        "fiya"
      ],
      [
        "Mu",
        "na"
      ],
      [
        "Mun",
        "gode"
      ],
      [
        "Ni",
        "jer"
      ],
      [
        "Nr",
        "i"
      ],
      [
        "Ní",
        "bo"
      ],
      [
        "She",
        "y"
      ],
      [
        "Th",
        "is"
      ],
      [
        "Yor",
        "ùbá"
      ],
      [
        "ag",
        "a"
      ],
      [
        "bab",
        "a"
      ],
      [
        "cer",
        "n"
      ],
      [
        "cor",
        "rect"
      ],
      [
        "con",
        "cern"
      ],
      [
        "du",
        "mi"
      ],
      [
        "fu",
        "ll"
      ],
      [
        "fụ",
        "kwa"
      ],
      [
        "fẹ́",
        "ràn"
      ],
      [
        "gọ",
        "zie"
      ],
      [
        "gas",
        "ke"
      ],
      [
        "iṣ",
        "u"
      ],
      [
        "igb",
        "ó"
      ],
      [
        "kọ̀",
        "ọ̀kan"
      ],
      [
        "ló",
        "nìí"
      ],
      [
        "làn",
        "à"
      ],
      [
        "min",
        "d"
      ],
      [
        "nw",
        "ere"
      ],
      [
        "nọ",
        "rọ"
      ],
      [
        "nje",
        "m"
      ],
      [
        "njike",
        "re"
      ],
      [
        "pos",
        "t"
      ],
      [
        "pik",
        "in"
      ],
      [
        "su",
        "nanka"
      ],
      [
        "sab",
        "i"
      ],
      [
        "swe",
        "et"
      ],
      [
        "sos",
        "ai"
      ],
      [
        "thin",
        "g"
      ],
      [
        "tru",
        "e"
      ],
      [
        "ukwu",
        "u"
      ],
      [
        "wor",
        "k"
      ],
      [
        "yí",
        "n"
      ],
      [
        "yun",
        "wa"
      ],
      [
        "Àràb",
        "à"
      ],
      [
        "àì",
        "kú"
      ],
      [
        "èè",
        "yàn"
      ],
      [
        "ìràn",
        "lọ́wọ́"
      ],
      [
        "ìsin",
        "mi"
      ],
      [
        "ẹgu",
        "si"
      ],
      [
        "Ọmọ",
        "ge"
      ],
      [
        "insi",
        "de"
      ],
      [
        "yanz",
        "u"
      ],
      [
        "aládù",
        "n"
      ],
      [
        "happ",
        "en"
      ],
      [
        "Nijer",
        "iya"
      ]
    ]
  }
}